[PAD]
[EOS]
[UNK]
[CLS]
[SEP]
[MASK]
der
und
die
in
von
den
des
im
mit
wurde
dem
er
ist
das
Die
##n
##s
als
zu
auf
ein
für
eine
sich
war
an
##en
##e
aus
auch
bis
nach
am
Der
bei
einer
zum
sie
##r
durch
werden
einem
sind
nicht
Im
Das
wird
es
In
zur
einen
über
oder
wurden
um
dass
##er
Er
unter
##t
Jahr
1
##a
wie
vor
vom
seiner
sowie
nur
Nach
noch
hatte
seine
Jahre
aber
zwei
Sie
hat
waren
2
eines
ab
zwischen
Jahren
sein
Am
dieser
Es
gegen
##es
##o
Zeit
jedoch
Stadt
seit
ersten
so
3
etwa
drei
##m
##y
wieder
de
5
##i
Als
of
seinem
mehr
seinen
man
kann
später
diese
Bei
liegt
4
Von
beim
##in
##l
ihre
Ende
##ung
Mit
konnte
ihm
erste
heute
wo
Gemeinde
kam
Mai
Teil
haben
bereits
dann
Januar
August
März
Oktober
ihrer
20
dort
##d
Ein
anderen
ihn
September
6
Juni
Diese
US
während
April
Juli
10
Universität
da
erhielt
können
Dezember
beiden
vier
15
Seit
Kirche
ihr
diesem
November
000
gab
B
Deutschland
dessen
gibt
Saison
##us
Eine
Jahrhundert
Berlin
8
Platz
7
18
Mitglied
alle
Auch
19
zurück
m
Februar
damit
Auf
sehr
16
##te
zusammen
Für
zunächst
##k
keine
deren
ihren
##on
befindet
12
Ort
Namen
weitere
allem
14
Film
begann
km
9
30
Sohn
worden
13
2010
##ten
bzw
17
bekannt
deutschen
steht
ebenfalls
Personen
2011
anderem
selbst
2008
Familie
nahm
2009
##g
St
spielte
was
dabei
hier
denen
0
statt
neuen
gewann
formula
##z
2007
ohne
2012
##den
a
Während
##u
2014
##ch
bezeichnet
##de
ins
neue
2015
gehörte
2006
11
Jahrhunderts
2013
25
I
Band
erstmals
New
immer
fünf
deutscher
schon
trat
ging
A
Seine
Titel
Ab
The
So
Meter
sondern
gehört
Zu
Art
erst
einige
Name
Deutschen
führte
##um
seines
sei
Menschen
2005
neben
Sein
Durch
II
zweiten
besteht
##h
rund
arbeitete
andere
wegen
hatten
2016
dieses
Da
Friedrich
großen
fand
z
studierte
mehrere
ihrem
Gruppe
genannt
##ing
wenn
2004
allerdings
s
sollte
diesen
2000
Geschichte
21
Tod
Anfang
24
große
soll
weiter
u
letzten
2017
Kilometer
erfolgte
1945
Gebiet
wobei
Unternehmen
the
gegründet
tätig
nun
Frau
Johann
22
C
viele
sechs
Nachdem
Karl
musste
Zweiten
Mitte
Einwohner
Liste
schließlich
USA
Form
100
blieb
Gebäude
##berg
deutsche
folgenden
Bis
wechselte
2003
Region
weiteren
Straße
erreichte
übernahm
Vater
An
jeweils
2001
neu
Land
23
welche
2002
Kinder
Prozent
Bau
Bereich
meist
Norden
##is
##an
verwendet
lang
erhalten
Dabei
führt
Mannschaft
Mal
Dies
König
Haus
Album
d
dazu
Leben
verschiedenen
Neben
gewählt
insgesamt
entstand
Dort
aufgrund
stand
28
Tochter
and
26
##el
Dorf
Wilhelm
Rahmen
2018
Wien
darauf
Amt
gilt
##le
folgender
Einsatz
teil
##chen
Dieser
erschien
München
27
S
Süden
Millionen
##ng
insbesondere
finden
Verein
Um
50
konnten
##A
U
Stand
Aus
1999
errichtet
Jahres
University
Rolle
ließ

John
Beispiel
Unter
erneut
Heinrich
davon
oft
Hans
also
eingesetzt
fast
Richtung
##ischen
Weltkrieg
Arbeit
Folge
Provinz
Partei
##S
Frankreich
innerhalb
Staaten
Osten
Welt
1990
Außerdem
eigenen
damals
Peter
York
stark
Beginn
Westen
Seite
starb
Gesellschaft
kommt
29
1998
V
##au
Paul
##mann
kurz
ca
##ne
dies
Frauen
heutigen
zog
Musik
Schule
Paris
Zur
ehemaligen
zweite
##os
muss
Werk
je
##ler
Entwicklung
31
##gen
Höhe
Landkreis
##ner
Regierung
FC
Spiel
Kreis
Insel
Bevölkerung
##sch
habe
zahlreiche
darunter
findet
gegenüber
Sitz
folgte
1994
##al
besonders
sowohl
allen
1996
verschiedene
Burg
1997
##C
##ia
1992
Zum
##2
##x
D
Bedeutung
Sommer
weil
beispielsweise
##3
Krieg
##dorf
Team
lange
Österreich
##schen
Serie
danach
##f
##ie
doch
##G
Mann
1995
bestand
1991
sieben
##isch
##ig
Mutter
veröffentlicht
Europa
40
französischen
##na
alten
meisten
Gemeinden
##bach
##1
teilweise
stellte
zudem
lag
Professor
hinaus
Spieler
acht
Armee
##se
lassen
1993
##4
##ge
Alter
besuchte
Schloss
##lich
setzte
gemeinsam
daher
##c
Karriere
zehn
zuvor
gehören
##ach
Maria
geht
gelang
Hamburg
##w
geboren
ihnen
##re
Zwischen
befinden
1989
machte
London
hin
zeigt
Strecke
schrieb
Hier
##or
##ck
häufig
Franz
kamen
möglich
Liga
Arten
eigene
##P
Ziel
Tag
##6
DDR
Mitglieder
amerikanischen
Danach
kleinen
einigen
Vertrag
Georg
etwas
aller
##B
gleichen
entstanden
Schweiz
Den
sehen
genutzt
Wasser
gründete
Reihe
kein
##ungen
Bruder
gut
Betrieb
Grund
vielen
handelt
##p
erreicht
Buch
Über
stehen
zwar
La
deutlich
nachdem
##ische
Vereinigten
Chr
Saint
somit
Ersten
County
v
Nähe
kleine
Truppen
beide
Bereits
##as
##5
aufgenommen
1933
veröffentlichte
1972
Politiker
Euro
Deutsche
Ludwig
Bahnhof
Stelle
Kaiser
##ka
##st
lässt
direkt
Studium
pro
Bezeichnung
außerdem
Kloster
1988
##7
folgende
##ra
##V
##sche
Michael
ursprünglich
Preis
hinter
Spielen
Berliner
##at
##sten
##9
letzte
Linie
mehreren
dafür
Weg
1987
San
1980
Thomas
1970
Erfolg
III
liegen
Werke
erwähnt
##sen
kommen
National
60
absolvierte
##8
weniger
schloss
West
Raum
gewesen
Besitz
entwickelte
stellt
Präsident
1974
Klasse
ernannt
##K
##M
1939
Museum
1986
1938
##ion
Robert
Nachfolger
e
südlich
##land
Teile
ganz
1984
1985
Köln
Ihre
##ter
System
E
M
1975
welches
##0
erster
selben
Schweizer
kehrte
Erst
stammt
Zudem
League
Familienname
Martin
Sprache
Einwohnern
anschließend
##D
Spiele
größten
Wahl
Bad
1944
umfasst
h
1968
dar
Landes
Verbindung
mm
Fall
##ar
##ce
##nd
Damit
dritten
##nen
##ke
Siehe
Olympischen
1978
ihres
1969
##haus
Dieses
nördlich
##ur
Meister
Begriff
##and
bildet
##é
1983
1971
Weitere
1973
verheiratet
Johannes
Ausbildung
gebaut
##R
Kunst
Bahn
diente
##zeit
1982
##F
Beim
##L
heiratete
Frankfurt
200
Gründung
Ortsteil
1979
amerikanischer
Theater
1976
hohen
befand
Sieg
sogar
Italien
500
1946
1960
##rt
Tage
ebenso
Zuge
Vor
nahe
ehemalige
damaligen
wenig
England
Regel
See
Joseph
einmal
Carl
Bischof
Länge
Ernst
spielt
##et
1950
1981
weit
City
Hälfte
Otto
größte
benannt
Hilfe
Ehe
AG
britischen
Wie
Sachsen
##ow
Park
la
##ta
einzige
##che
besitzt
Rang
Institut
Grenze
entwickelt
L
##burg
Schlacht
Gruppen
1967
##O
##ll
Leiter
1977
Arbeiten
##T
1964
Stil
General
##b
bevor
französische
fanden
Zahl
Ihr
T
Herrschaft
##ern
späteren
##straße
müssen
Firma
Leitung
##ei
politischen
Leipzig
bisher
Nr
Man
##keit
1965
Zentrum
Produktion
Anschließend
Aufgrund
weiterhin
R
Rennen
1966
ob
verbunden
1961
beträgt
entfernt
Republik
enthält
Wiener
##feld
GmbH
Finale
frühen
Abschluss
1963
heraus
Division
Später
Lage
J
cm
1956
1962
##heim
##rs
1952
##it
1940
##da
1949
lediglich
Männer
wohl
Christian
Kanton
1948
Rom
Fläche
viel
##man
Tour
##rn
##la
Literatur
80
brachte
Schüler
##tz
eher
Nord
machen
Fluss
internationalen
Version
Projekt
Künstler
Schiff
##ns
hohe
International
1941
erreichen
Basis
1958
ausgezeichnet
Akademie
neun
1943
1942
Heute
wollte
Bayern
##v
sollten
Polen
##der
verlor
deutsch
Vorsitzender
##igen
K
1959
führen
Dr
David
km²
##I
Gegensatz
Staffel
zahlreichen
Mitarbeiter
beteiligt
siehe
Gattung
östlich
Baden
1957
ersetzt
Funktion
Bild
##E
Soldaten
##ien
##ers
Stadtteil
Kultur
aktiv
William
Seiten
Zeitpunkt
Roman
Richard
hauptsächlich
du
1947
Berg
Weltmeisterschaft
westlich
1934
wenige
Vertreter
hielt
1953
gesamte
##ren
Verfügung
sollen
Runde
90
1955
1936
Max
Markt
F
erzielte
##iert
1954
belegte
G
früher
70
Alexander
Trainer
Hof
erfolgreich
Anschluss
Reich
einzelnen
keinen
nächsten
1920
bilden
1919
##tal
Metern
alte
Meisterschaft
Alle
Anzahl
1918
##ger
Hochschule
Eltern
H
Einfluss
Zwei
45
dadurch
stieg
Main
betrug
darüber
Dollar
Mark
College
Hermann
##ierung
Position
vermutlich
eröffnet
würde
Hauptstadt
folgten
besten
mussten
Jean
bald
Dienst
politische
knapp
Bürgermeister
gleichzeitig
35
leicht
O
Anlage
1937
1951
1935
Unterstützung
James
lebte
Fußball
##N
verläuft
n
daraufhin
Union
geführt
will
sogenannten
amerikanische
wiederum
nie
##hof
gestellt
1930
Schutz
denn
trägt
China
Papst
lebt
##ja
Dresden
indem
Cup
George
Spielzeit
gehörten
Le
fiel
Bundesliga
beendete
Turm
Kampf
zuletzt
P
Zusammenhang
überwiegend
##ton
River
gefunden
Lied
Jugend
Graf
übernommen
kaum
öffentlichen
##stein
erfolgt
Familien
ausschließlich
legte
bietet
vollständig
Dazu
ehemaliger
Uhr
jeder
for
Gymnasium
verließ
##bar
heißt
Verlag
##ieren
Lehrer
Programm
gesamten
Einige
bestehen
Schauspieler
zerstört
##ben
schwer
1914
Kopf
Japan
mindestens
##ert
##platz
heutige
1928
erwarb
Verwendung
Direktor
##tion
galt
Hannover
Minuten
Auftrag
Tätigkeit
Anna
wuchs
Club
##ige
langen
lebten
School
1929
zwölf
Boden
verloren
Tor
1932
##ca
Darüber
##itz
Herbst
##werk
1970er
großer
##ation
Zusammenarbeit
Ost
genommen
Zeitschrift
Recht
wirkte
nimmt
Hand
Stiftung
entlang
gemacht
leitete
American
hoch
Monate
##ts
Wochen
welcher
Ländern
Motor
deshalb
N
erbaut
1900
Daneben
Autor
Süd
Stück
durchgeführt
Wagen
300
Doch
Josef
Walter
Obwohl
##gruppe
##ingen
relativ
fest
Gelände
Orte
Russland
selten
di
Grafen
SPD
Zeitung
##em
World
Friedhof
Insgesamt
Verfahren
W
1980er
Stuttgart
Bank
leben
Mannschaften
Thema
regelmäßig
Politik
verkauft
Charles
Stunden
Umgebung
IV
folgt
Département
Organisation
seien
Juden
32
Modell
weiterer
al
Punkte
##son
zusätzlich
Artikel
Allerdings
1925
##ste
schnell
Jazz
1960er
Kind
katholischen
erstes
Städte
Brücke
##erg
südlichen
##hausen
##ier
X
Vom
Tal
bildete
weitgehend
zeigen
bekam
Wappen
Zürich
Laufe
##th
Halle
startete
1924
Kapelle
##no
Nationalmannschaft
Wert
1910
Herren
Bezirk
europäischen
##urg
dient
1990er
##ki
erschienen
##ich
Großen
1927
weltweit
##nt
spielen
##len
anderer
##ort
Möglichkeit
inzwischen
historischen
##ed
größere
Staat
Wort
Schriftsteller
Verwaltung
verliehen
Abteilung
oben
##ni
400
##U
Song
vertreten
Anteil
Philosophie
65
##W
Daten
groß
Single
größeren
entdeckt
##bahn
Beide
gleich
##ma
vorhanden
beginnt
sogenannte
Rock
Weise
gebracht
Führung
Wald
sodass
dritte
Nordosten
wahrscheinlich
Größe
Rhein
Polizei
Deutsch
verfügt
Open
Maler
Schon
hervor
Nur
1931
Siedlung
##j
1921
frei
Weltmeisterschaften
1923
Kurz
Gold
Schwester
dagegen
geprägt
##ken
Medien
Start
geworden
Regie
##lle
gerade
Grand
Opfer
Spanien
Weltkriegs
Typ
Co
Winter
1926
van
Kraft
wichtige
Albert
nördlichen
Dem
stammen
jeweiligen
her
nichts
Wolfgang
Angaben
1912
Frage
Darstellung
gehen
neuer
westlichen
per
Großbritannien
Nacht
ausgetragen
Rudolf
##hen
Heiligen
##cht
berufen
Krieges
italienischen
Südwesten
gingen
Stimmen
englischen
1922
##ut
Los
eingeführt
darin
jährlich
gegeben
betrieben
eingestellt
Geld
früheren
endete
russischen
SS
Des
##ngen
produziert
bedeutet
Württemberg
außerhalb
Sammlung
stellen
Viele
trotz
gebildet
führten
##ein
Chor
Hessen
Aufgaben
##ey
laut
Heimat
Herzog
Verlauf
Nordwesten
Ergebnis
75
Kategorie
Bewegung
setzt
Westfalen
Tiere
##ß
Abschnitt
Award
Themen
TV
Washington
Louis
geben
Punkt
arbeitet
Schweden
et
genannten
sah
##meister
österreichischen
Sinne
Königreich
Rat
macht
fort
##tt
Südosten
gewinnen
wäre
United
##ve
Turnier
mehrfach
enthalten
trug
Royal
##ry
Ortschaft
##que
höchsten
Tore
Quellen
##rat
##il
##lichen
##liche
##heit
hingegen
Adolf
Radio
Studien
Kirchen
Bremen
De
Air
könnte
##kirche
##ker
Festival
beschrieben
jungen
Inseln
l
1913
Wenn
Bildung
unterstützt
Straßen
sieht
##Z
ähnlich
Vaters
Bürger
##schaft
weist
Bundesstaat
##H
hätte
höchste
##li
Noch
entspricht
Grundlage
Fahrzeuge
Text
wenigen
##X
Kosten
aufgelöst
bekannten
Frank
zählt
##mus
solche
##bau
Frühjahr
Vereins
Vergleich
gleichnamigen
##ine
Musiker
##ang
Ungarn
zugleich
##io
##men
obwohl
Teilen
dahin
versuchte
##am
wichtigsten
1911
standen
Wegen
Laut
Person
Aufgabe
verlassen
halten
Schulen
##ri
Macht
##traße
1000
Präsidenten
Objekte
Bonn
Bahnstrecke
Punkten
Zentimeter
neues
##bereich
hergestellt
Architekten
Folgen
erweitert
Forschung
1950er
Gesetz
##los
Bach
lief
Mittel
versucht
Drei
Abitur
Gut
Fußballspieler
gegründeten
Druck
Ehefrau
Silber
1905
rechts
Körper
Weltkrieges
erhielten
Düsseldorf
Landwirtschaft
##me
umbenannt
Teilnehmer
1907
mittels
nahmen
Ebene
ich
internationale
Aufnahme
1917
Schiffe
offiziell
##ville
Kindern
britische
##tein
elf
Marine
Rand
Island
gelegenen
##á
Bücher
Sowjetunion
Fenster
1908
i
Münster
CDU
##ende
Gründen
weiteres
geschlossen
verbreitet
gespielt
erscheint
zeigte
weiß
Rückkehr
bestimmt
36
##nde
Orgel
Weiteren
außer
Einführung
Station
##he
Philipp
allein
##ik
Standort
37
bestritt
beschäftigt
##art
Andreas
Anton
33
katholische
eingerichtet
nehmen
Königs
Natur
55
Autoren
Nicht
Moskau
Leistung
##eim
Interesse
##ling
Top
Gott
Pflanzen
Söhne
##nden
##schule
breit
Kreuz
dargestellt
WM
bekannte
Fritz
to
SC
erklärt
Ortes
arbeiten
Sprachen
entsprechend
##ya
Erde
##recht
linken
verantwortlich
Aufbau
Technik
Kontakt
Villa
zuerst
##inger
Häuser
oberen
kg
Films
##wagen
##tor
Teams
64
Prozess
38
##ss
##weg
##ium
##ō
tragen
Werner
1906
Sänger
##ro
PS
##ls
besaß
34
Stein
römischen
44
##lt
Reise
kleiner
alt
angeboten
zählen
Preußen
EU
Flughafen
Marie
Gegen
##ee
Länder
vierten
Durchmesser
del
junge
älteste
wodurch
Hamburger
Veröffentlichung
Brandenburg
Niederlage
All
bestimmten
48
Records
unterschiedlichen
unmittelbar
blieben
Kritik
Hotel
Elisabeth
##be
Material
##ld
jüdischen
North
##form
1909
##to
Studenten
Trotz
##ko
Auswahl
ha
39
k
Mädchen
Richter
Holz
CD
Industrie
##sse
Ausgabe
##enden
##ster
bringen
Meer
1904
Müller
errichtete
übertragen
östlichen
Star
##see
Freund
t
Australien
Sport
kurze
zunehmend
Fuß
französischer
Kanada
150
Wirkung
South
##raum
verlegt
Erzbischof
Aufstieg
Hafen
Alfred
Debüt
ebenda
Energie
gezeigt
##innen
nominiert
Ferdinand
Lauf
Hektar
Regisseur
besitzen
jetzt
angelegt
1915
Z
Nürnberg
Auflösung
stets
ganze
Verband
Formen
tritt
Wettbewerb
Zug
Europäischen
Nummer
Spitze
Hockey
##rg
vertrat
belegt
Unternehmens
namens
Pfalz
##cher
##ismus
rechten
Lebens
Lager
verfasste
Bilder
geschaffen
##va
fließt
Zusammen
Architektur
Liebe
Ich
Einheit
Öffentlichkeit
Bauern
bezeichnete
Medizin
##ys
Bewohner
gelten
Filme
Brüder
##ze
genau
hält
Jan
jede
Brand
Deutschlands
Henry
Feld
##ski
Post
##ga
dienen
49
hinzu
en
Pfarrer
Parlament
Probleme
Dadurch
##system
bleibt
gehalten
Daniel
Licht
Internationalen
Nutzung
eigentlich
1903
zweimal
##ale
##orf
SV
Angeles
Super
bestimmte
Wirtschaft
Gustav
traf
##co
nahezu
Mittelalter
##ina
Lieder
beste
erstreckt
State
Schauspielerin
##wald
römisch
links
52
##za
Formel
42
##ann
zugeordnet
Informationen
Company
Freiburg
1916
werde
gewonnen
entweder
erklärte
Revolution
##ius
##aus
daran
Mio
##lin
##ley
2019
##ht
mittlerweile
Tradition
##ft
polnischen
geschrieben
Kongress
erkennen
nieder
Theologie
Parteien
modernen
Fernsehen
Prag
Hall
Figuren
##rd
Leistungen
preußischen
Plan
Rechte
Christoph
entschied
verkaufte
Sieger
mal
##arten
Ritter
1902
##technik
Fakultät
46
Situation
nationalen
begonnen
sur
##pe
Zeiten
Augen
Tode
Linien
historische
Waffen
Gebiete
Regiment
Ufer
##weise
Kalifornien
benutzt
Kommission
1848
1901
##agen
unterhalb
öffentliche
Bern
##wa
seitdem
baute
Hintergrund
##zen
bleiben
verstarb
House
wesentlich
Fahrzeug
##ons
Pfarrkirche
Theorie
würden
Schrift
Music
##id
Ausnahme
jedes
##anlage
recht
Rest
Chemie
vorwiegend
gegründete
spätere
völlig
43
spielten
##tte
##isten
Metal
Luft
600
Einheiten
Boot
kleinere
Aber
unteren
120
Große
##ot
1899
aufgestellt
Landtag
jedem
##ff
##ierte
##punkt
Laufbahn
Abs
Teilnahme
Neubau
Chicago
Städten
früh
Daher
ursprünglichen
umfasste
##ha
Schwerpunkt
Sicht
Millimeter
zuständig
Wahlkreis
besondere
Konzept
Mitgliedern
##ol
##fen
Qualifikation
Je
Donau
on
ausgestattet
ehe
begannen
unterschiedliche
Ergebnisse
Alten
promoviert
Herstellung
Zeichen
Küste
Struktur
Tagen
##mer
Wechsel
Internet
NS
Verhältnis
##age
Maschinen
Klaus
High
##ssen
Quelle
##zentrum
besser
##ag
starken
Beziehungen
Ausstellung
teils
japanischen
##sdorf
älteren
Grab
El
Züge
1898
gemeinsamen
Standard
##do
##ard
Gleichzeitig
Besuch
Black
Status
Stellung
Kurt
aufgeführt
##gebiet
schied
47
Zunächst
Lehre
Anwendung
gesehen
Stern
Dach
Grafschaft
##eren
Tonnen
wir
1890
Kiel
Heidelberg
Stadion
besetzt
spricht
eröffnete
Eisenbahn
Förderung
Arbeiter
##atz
abgeschlossen
verbrachte
gute
übrigen
##ens
zweiter
kurzen
Untersuchungen
Hersteller
Bernhard
erhoben
verschiedener
Society
Elemente
54
späten
Infanterie
Junioren
##und
erhält
Figur
mündet
Indien
Garten
##ell
Nordrhein
Minister
beziehungsweise
Klosters
dortigen
Chef
##llen
Angriff
Gegner
einzigen
##sa
alles
Basel
800
Auto
##í
Santa
Ausland
unterscheiden
Heinz
##gesellschaft
geplant
##les
Show
Bezug
Gericht
Werken
Erfolge
ungefähr
Pierre
vorher
##des
51
bislang
Mainz
spanischen
1896
griechischen
Szene
Software
1895
Entscheidung
fuhr
##ad
grenzt
Presse
Front
promovierte
##amt
gar
##ek
Satz
Ebenfalls
Aufnahmen
hätten
##hn
schuf
1870
##ent
##port
beschreibt
Handel
Mexiko
Fragen
Universitäten
urkundlich
Rheinland
Daraufhin
erinnert
Schleswig
53
Netz
angegeben
versehen
aufgebaut
Erste
Zustand
Besetzung
Essen
85
1897
Mehrheit
unten
##ba
Charts
Sankt
betrachtet
Amtszeit
südwestlich
Herkunft
Versuch
##ny
gelegene
Charakter
Theodor
Flucht
parallel
Einzel
kennen
Bronze
##nn
zählte
Bistum
1871
südöstlich
Vereinigung
Klub
Pro
Arrondissement
Großteil
wissenschaftlichen
Komponist
##nis
Live
Alben
Zeitraum
Lake
Verfassung
Roten
##ti
Feuer
Studio
österreichischer
Don
getrennt
verurteilt
hoher
ältesten
Jakob
Königin
schweren
Flügel
Fort
##ay
Kammer
Bundesrepublik
fällt
damalige
00
wissenschaftliche
##iger
Patienten
Güter
einzelne
Einrichtung
gesetzt
angesehen
derzeit
Songs
vorgesehen
250
Krankenhaus
le
Fällen
Video
Gottes
nannte
Breite
##verfahren
Sender
##eld
##dienst
56
Idee
##ly
95
Fahrer
##reich
Abgeordneter
nordwestlich
einfach
Rot
ganzen
geb
öffentlich
##ana
##ring
international
##go
41
Errichtung
Neuen
Gegend
##bel
entlassen
Groß
befördert
Praxis
Blüten
Besitzer
##lo
Vier
##uch
Beziehung
gelegentlich
##kreis
nordöstlich
##tag
##ist
wollen
##unternehmen
Strecken
Türkei
Red
Monaten
berichtet
58
Kanal
großes
Braunschweig
Gemeindegebiet
Halbfinale
##ystem
Wissenschaften
traten
entsteht
darf
Regionen
Oper
Institute
Arzt
Ruf
##ven
Transport
Schriften
Priester
miteinander
Weibchen
Zugang
eigenes
Weltcup
zeitweise
starke
Label
##ber
Arts
Bestandteil
lernte
##lage
Association
Flächen
##gt
angenommen
Alpen
1850
endgültig
ermöglicht
ernannte
1893
Zuschauer
nennt
Wahlen
könne
63
allgemein
Rollen
Halbinsel
Fischer
entstehen
Dänemark
erreichten
Salzburg
Nachfolge
##band
möglicherweise
Herz
57
##dt
1880
gemeinsame
##ug
Sendung
Landschaft
Vorbild
Ausbau
handelte
existiert
1930er
Dann
##J
Anlagen
Kunden
Ring
existieren
Paar
##tten
reicht
Gerhard
Filmen
##zug
Göttingen
Holstein
Wissenschaft
schwedischen
verpflichtet
anfangs
einschließlich
Oberliga
klassischen
Stellen
Bord
##un
Besonders
72
Kontrolle
71
Neue
geborene
Ordnung
leitet
Van
##end
Ulrich
Gouverneur
ergibt
Bayerischen
##di
Orden
engl
Verkehr
Bund
mittleren
##ant
1892
mehrerer
Simon
vergeben
verbindet
Gipfel
Vereine
verhindern
Bay
Auflage
Belgien
Academy
Vorgänger
Einwohnerzahl
##of
##gruppen
Weiß
erlangte
benachbarten
Bibliothek
Repräsentantenhaus
##wert
Kriegsende
66
Brief
Denkmal
##ham
errichten
British
##elle
fertiggestellt
löste
##ln
sofort
Europameisterschaft
1885
untergebracht
Texte
96
Ausdruck
inne
59
Kölner
Streit
hieß
1894
##witz
sprach
Altar
Maßnahmen
Weiterhin
kleineren
bestätigt
Konzert
bisherigen
Untersuchung
Gewalt
##smus
Mathematik
schlug
Variante
Mensch
Gebieten
Umwelt
weder
nationale
##her
Einen
62
Museums
guten
Konrad
geriet
englische
1888
Nachbargemeinden
manchmal
Frankfurter
Schließlich
Wolf
##ae
Funktionen
Hauses
##ica
Initiative
##ment
weisen
Julius
sowjetischen
##führer
1889
Ortschaften
##linie
##är
Al
befanden
##ir
scheiterte
Generation
61
##ser
68
Tom
NSDAP
italienische
Farben
stammte
##verein
Gefängnis
o
unabhängig
Zweck
##chule
benannte
##mt
gemäß
scheint
ursprüngliche
##scher
Gründer
Volkszählung
##hi
widmete
zumeist
Ehren
Woche
Original
produzierte
Partner
Joachim
VI
zumindest
Architekt
Rechts
Orten
Widerstand
Rio
Ursprünglich
Einrichtungen
Eduard
Besucher
dennoch
Problem
bestehenden
schwarz
komplett
jeden
genannte
politisch
Schmidt
Sicherheit
Kommando
verwendete
##ate
Football
1891
Phase
Schluss
##eit
russische
Kern
Center
Instituts
Wunsch
##lla
Männchen
schaffte
Brasilien
daraus
getötet
entsprechenden
gestaltet
bot
##adt
Best
sozialen
Publikum
Orchester
höheren
eng
Meisterschaften
freien
ausgeführt
Afrika
Zusätzlich
einst
1860
Les
klar
Adam
##betrieb
Dennoch
Tempel
Menge
Volk
Pokal
76
tatsächlich
##uer
##je
g
überhaupt
Rede
Veranstaltungen
##stadt
##all
gekommen
Historiker
##per
##ue
1874
außen
Israel
Farbe
oberhalb
Bundes
##ierten
99
Aktivitäten
britischer
Design
Eröffnung
Bedingungen
1866
stellvertretender
##uf
##pen
Zahlen
Wege
Gemälde
Vielzahl
Fürsten
versetzt
Physik
Mauer
notwendig
Party
Street
Und
Science
King
Online
dt
Angebot
##ji
Ebenso
nächste
##ou
jüdische
offiziellen
Arthur
Behörden
höher
Verbindungen
Gewinn
Frieden
##ty
Bereichen
zufolge
Karten
##ischer
Erich
##one
treten
ehemals
1875
##ic
##kt
umgebaut
Dorfes
##zer
Gemeinschaft
##leiter
##raße
Schwarz
##ule
offizielle
Behandlung
77
Produkte
österreichische
##ver
bildeten
##ies
fünften
Morgen
##eite
Modelle
umgeben
ausgebaut
Rathaus
gelangte
Grenzen
erscheinen
##ý
##verkehr
##preis
1867
1879
##mi
Master
Mühle
unterlag
Reste
1920er
88
erzählt
rot
Handlung
Y
Verhalten
desselben
Kino
Route
Entwurf
##tes
1887
weshalb
Abend
##halle
Herbert
unterscheidet
bestanden
Group
trifft
67
einiger
##hl
Dörfer
##wasser
Klavier
geweiht
unterstützte
Sinn
Klein
##aum
Einer
Vergangenheit
##geschichte
endet
1872
##ice
Play
Tunnel
Anerkennung
Reiches
Münchner
Hause
Künste
Deutscher
klein
1886
##thal
##ino
organisiert
##res
feierte
anders
##ai
Distrikt
Suche
##tischen
Etwa
Lösung
Operation
Lee
Naturschutzgebiet
Kader
Computer
##gs
Smith
1884
Eigenschaften
dürfen
Portugal
Mecklenburg
Namens
vorbei
##ks
nämlich
nutzen
Grad
verhaftet
Monat
heiligen
Dom
Altstadt
##piel
Vorstand
78
eingegliedert
Strom
98
Posten
entsprechende
Spielklasse
zentralen
82
Sturm
technischen
##ul
1868
Abstand
##cke
Tages
Nationalsozialismus
Firmen
Sir
Magdeburg
1873
zogen
1500
weißen
kaufte
Festung
basiert
chinesischen
beigesetzt
Ersatz
States
Dauer
schwere
##igkeit
Edward
bieten
Autobahn
92
##wesen
Würzburg
Diplom
Mary
##icht
##ßen
ließen
militärischen
Kassel
74
##arbeiten
##rk
##mittel
wichtigen
Pop
##rin
Neu
Senat
##cken
brach
Anhalt
81
1882
beschäftigte
Freien
East
##fe
nachgewiesen
1881
Viertel
Flugzeug
##fabrik
Bühne
Norwegen
privaten
Andere
Fach
##nitz
##ov
deutschsprachigen
solchen
Wein
My
Herausgeber
erhöht
wirtschaftlichen
Sängerin
Bildhauer
José
Gestaltung
##auer
niederländischen
Insbesondere
Militär
Pfarrei
Francisco
hierbei
do
Heer
Big
mittlere
Klassen
Hill
abgerissen
schreibt
##hr
lehrte
Staates
Methode
Jürgen
Reaktion
##brücke
Blick
Übernahme
##turm
beschlossen
behandelt
ermöglichen
liegenden
1878
##tät
Aachen
##án
Anhänger
##industrie
##ds
Verkauf
verfügte
Zukunft
Neustadt
lokalen
Service
##im
debütierte
Allgemeinen
Eis
Beispiele
Hitler
##pa
folgen
Niederlande
##erung
Dichter
Internationale
Stefan
SA
Träger
Jungen
verstärkt
Entfernung
##ität
erworben
möglichst
110
93
jener
##q
##ms
Wind
Management
anhand
##ordnung
beendet
Drittel
Alt
schließt
engagierte
ausgestrahlt
Erwähnung
Verbreitung
bestehende
Ordens
Rundfunk
1883
fungierte
bezieht
Beruf
Datum
lautet
Rücken
Gefahr
zentrale
Organisationen
700
höhere
Bands
bedeutende
Magazin
##stelle
wirtschaftliche
Wesentlichen
1815
eigener
Erfahrungen
Wehrmacht
Franzosen
aktiven
##lager
größer
1876
##rten
fortan
Major
Texas
offen
1861
Thüringen
Blut
Bass
04
Siegen
##nz
womit
Krone
73
05
Töchter
breiten
Kamera
moderne
##fer
Werte
Albrecht
Basketball
Marke
Unternehmer
84
Tübingen
lagen
Übersetzung
Oscar
Brücken
Baum
Niedersachsen
86
Stahl
anlässlich
White
##arbeit
Auszeichnung
Kombination
##buch
Serien
bekanntesten
Corps
Denkmalschutz
kW
sagte
##by
Pläne
fallen
Nationen
beschloss
holte
##verband
##eck
##gesetz
Stücke
1869
Prinz
üblich
Keller
Anspruch
Gemeinsam
Stamm
1864
definiert
69
Regionalliga
Bühnen
seither
Eisen
Gesang
1865
87
Jack
Hugo
##ide
Ball
Ferner
Herr
You
1862
Selbst
Reserve
Temperatur
##alen
Tat
infolge
Komponisten
08
Konflikt
Entstehung
Pflege
solcher
gelegt
Doppel
Journalist
Produkt
Register
##stand
Niederlanden
Klima
1849
Existenz
Boston
Interessen
Drehbuch
Bill
Abgeordneten
Methoden
Büro
sicher
Bronzemedaille
Ukraine
Studie
Offizier
##est
Engagement
durfte
ältere
Ben
soziale
Kantons
##ini
übernehmen
Medaille
angebracht
Plätze
##spiel
09
Prinzip
Kandidaten
Europas
##ere
Leopold
##mühle
stärker
gewannen
Stimme
83
France
##ky
offenen
Assistent
Führer
zusätzliche
Haut
Amsterdam
1877
verändert
Wohnung
begrenzt
Karlsruhe
forderte
Unabhängigkeit
Nachrichten
Augsburg
Graz
militärische
Jagd
zieht
eigenständige
Unterschied
Ruhestand
Abt
Ton
Konzerte
Hauptrolle
Oberfläche
##rand
Erweiterung
97
##tum
##ild
Weltmeister
Technischen
begleitet
Aussage
traditionellen
staatlichen
länger
benötigt
Ägypten
Höhen
erfolgten
##zeichen
erlaubt
Kabinett
Veränderungen
91
entgegen
schließen
hören
verboten
Griechenland
frühere
entwickeln
Sand
Sekunden
##ose
betreibt
Bericht
Objekt
##ón
##reis
betrieb
Darmstadt
##ahn
Franken
Herrscher
Milliarden
Meinung
##tische
Eingang
AS
zweier
##jahr
Englisch
Personal
Anne
Expedition
festgelegt
KZ
unterschieden
Funde
eingeweiht
uns
Fisch
Geschäftsführer
Love
errichteten
Systems
Amerika
beeinflusst
Jena
##tisch
erfolgreichen
Leichtathletik
Fest
Motoren
angeschlossen
Qualität
Test
Blatt
##ford
zugänglich
##höhe
##ian
Archiv
94
Inschrift
gleiche
y
evangelischen
besonderen
79
Waren
##liste
Gast
anerkannt
unterschiedlich
Europameisterschaften
89
Spiegel
mehrmals
sonst
Ziele
Mission
eins
Fraktion
Sebastian
Bob
##cal
Lübeck
##theorie
##ellen
##nder
Gebäudes
entwickelten
Bachelor
wichtiger
Tourismus
Freiheit
Mord
etc
bringt
1800
Mount
Exemplare
##ux
Athen
##gebäude
Auftritt
Umfang
Tanz
Beschreibung
Unterricht
Tier
stellten
speziell
Leo
##nger
##nte
##iden
Hierbei
Löwen
##anlagen
Baureihe
1863
veröffentlichten
##ps
Nationalsozialisten
reiste
##fläche
vorgestellt
##markt
Spieltag
##mar
Mündung
jährigen
Western
Feuerwehr
##ín
übersetzt
Beiträge
Oberst
Freunde
tief
beider
Nikolaus
Damen
##bild
allgemeinen
##irche
Premierminister
Möglichkeiten
##ak
vierte
c
##auf
##organisation
Pferde
Minute
b
##zahl
##ano
Malerei
Herzogtum
Dortmund
Somit
Verhandlungen
Kardinal
Botschafter
Mannheim
##ise
Antonio
Fernsehserie
Stadtgebiet
##field
Helmut
aktuellen
Südafrika
Fassung
##nk
Columbia
Toten
##bare
private
Fabrik
Umbau
Kreises
Rumänien
##ufen
Lizenz
Alte
Wissenschaftler
verlängert
Nun
übergeben
Lokomotiven
##ins
vertrieben
ausgebildet
Haft
Joe
freie
gelangen
Pariser
##sis
No
Was
Ruhr
bereit
Höhepunkt
Blues
Arnold
gedreht
Wende
führenden
langer
darstellt
Erhebung
Me
Geburt
Sprecher
christlichen
wiederholt
könnten
Brunnen
##rer
##berger
ziehen
schaffen
Kommandeur
Rostock
Solo
Ensemble
Straßenbahn
letztlich
eingemeindet
Innenstadt
##titel
ums
Konkurrenz
Schritt
italienischer
all
Dynastie
Krankheit
Sonne
erheblich
geringen
Dissertation
Wand
Venedig
Ansicht
07
Monte
Baron
Zoll
Öl
maximal
Rücktritt
Fahrt
Gang
Hügel
Übergang
Verlust
Bundesstraße
##gang
Real
##ogen
ergänzt
Ideen
gefangen
Säulen
Flug
treffen
Anders
##wand
erfolgen
Bestand
änderte
Zwar
evangelische
getragen
Madrid
##park
Seinen
Fehler
##netz
Gewicht
Flotte
Heimatstadt
Promotion
geblieben
##lichkeit
Irland
andererseits
sprechen
setzen
Ereignisse
UN
##bo
Projekte
unterstützen
Besatzung
dänischen
verteilt
technische
Verlängerung
##om
##isierung
diverse
1856
gelegen
##forschung
##han
beteiligte
Dieter
1840
machten
unterteilt
Virginia
überliefert
Planung
Kilometern
Kirchengemeinde
##yn
Breslau
gaben
einfachen
Horst
##tadt
01
reichen
Karls
Anwesen
Green
Artillerie
Kupfer
1806
bedeutendsten
Ingenieur
Eigentümer
Bucht
ähnliche
##holz
One
Mac
gezählt
EM
Jura
##chaft
Juan
Ortsteile
beschädigt
Rekord
Szenen
beobachtet
##gel
kanadischen
Bereiche
einerseits
Kauf
rein
Weißen
offenbar
NHL
Val
Jedoch
Maschine
unterstellt
Matthias
Central
bekommen
##ichen
1859
Weil
Kinos
Umsetzung
Woiwodschaft
Geist
##film
Prix
Tschechien
Code
##zone
Mittelpunkt
Wild
Koch
##werke
War
städtischen
stattdessen
türkischen
Panzer
EP
Fürst
##ans
Bundeswehr
Nationalpark
##baren
Williams
Reformation
umgewandelt
Zeitschriften
größtenteils
Witwe
unternahm
m²
Glas
Innerhalb
Deshalb
Schneider
##häuser
Rechtsanwalt
##ums
direkte
Partien
Blue
Mailand
IC
gezogen
##politik
Wohn
breite
Unfall
unterschrieb
wichtigste
abgelöst
Berge
Nordamerika
Lord
Ist
dreimal
##familie
##si
Florida
hundert
##lauf
##kopf
aufgegeben
Verteidigung
Barbara
eigentlichen
DM
##latz
schwarzen
Ob
Systeme
##ette
fielen
wandte
Renaissance
erlebte
DVD
nennen
Religion
Jahrzehnten
organisierte
Landgemeinde
siegte
Navy
Force
##plan
AC
geschlagen
Seitdem
at
##erte
##ac
Karte
Samen
Earl
##old
##fahrt
nutzte
möglichen
##programm
Gottfried
Kollegen
##rung
untersucht
##lehre
Beteiligung
Anti
##rte
##oren
Long
ergeben
Bergen
entschieden
Ursprung
erforderlich
Gebrauch
maßgeblich
Rose
Emil
täglich
jüngeren
Saisonende
aufgeteilt
Barcelona
##kraft
Trennung
Harry
diesmal
wissenschaftlicher
Heide
##teil
##ock
Typs
Viertelfinale
Regeln
Plänen
Gemeinderat
Bergbau
staatliche
Christen
##aten
Papier
gründeten
Runden
##ald
hinein
einfache
wirkt
gesprochen
Manager
Grünen
##ore
Berater
vorhandenen
Männern
Wissen
Korps
##hren
Hit
Albums
Ausstellungen
Christus
Lebensmittel
Gitarre
##ola
Ali
Seen
vermutet
Bauwerk
1803
beschrieb
##nie
Platten
tun
Geräte
Carolina
##lis
sorgte
Zimmer
Line
Instrument
Ford
Brown
verletzt
##nberg
integriert
##nes
Il
wollten
Blätter
##wechsel
##ua
Victoria
1830
Urkunde
1854
Bahnhofs
Landkreises
Forst
Verkehrs
Ausstattung
Wir
Erstmals
Blau
Geschwindigkeit
Bauten
##druck
##gasse
unterrichtete
Oblast
derselben
fahren
##fest
##logie
Schwierigkeiten
europäische
Kaisers
Analyse
unbekannt
Jones
##ea
Falle
ermittelt
##leitung
Heeres
polnische
1857
Veröffentlichungen
Gestalt
gefördert
ja
entspringt
voneinander
Weiler
Elbe
1852
1855
It
##mmer
06
aktive
kurzer
Reichs
Schauspiel
geleitet
Kapitän
Treffer
reduziert
Parallel
Aktion
Verdienste
##kammer
Jacob
hierfür
Spuren
Glocken
japanische
usw
Weiter
##sk
Q
##ara
Kap
Fünf
roten
Port
##od
Bibel
zusammengefasst
Tür
Inneren
##eln
direkten
Jurist
##ure
umfangreiche
##cker
Fassade
Stationen
geändert
näher
Meyer
##eg
1858
spezielle
Bekannt
bauen
Vize
Potsdam
Gemarkung
verwendeten
##onen
##träger
Felsen
Lehrstuhl
Winkel
Ex
Provinzen
meistens
Gas
Leipziger
dienten
Auftritte
ausgewiesen
Signal
##mo
Hinzu
Streitkräfte
bedient
Mond
Rechtswissenschaften
Zerstörung
Erster
Wagner
errang
Saale
##unden
Michel
Gletscher
Onkel
jährige
nochmals
Massachusetts
Messe
langsam
eigentliche
eingebaut
Vogel
Innsbruck
bayerischen
Silbermedaille
Opern
zugunsten
Kriegs
Road
Begriffsklärung
Gewerbe
englisch
Symbol
finanziellen
Haltung
##ble
Sandstein
Jäger
##horn
Scott
örtlichen
Ö
entdeckte
grundsätzlich
##ire
voll
Kräfte
verzeichnet
##uss
Charlotte
Anlass
Sekretär
nunmehr
sichtbar
gefertigt
Masse
wählte
sämtliche
Kritiker
Wiederaufbau
abhängig
engagiert
Ernennung
Regensburg
Samuel
Versionen
erzeugt
##zi
datiert
##bildung
Ehemann
Trier
Golf
Mehr
##eben
Fleisch
Tiefe
Ausbruch
besucht
äußeren
Schwestern
gezwungen
Luxemburg
Wärme
lehnte
Bus
verlief
Linz
##nischen
kleines
geringe
Wales
Königsberg
Gewässer
##leistung
Mengen
##produktion
##änge
3000
##yl
Synagoge
##ura
Wall
Young
1845
ermordet
##hin
durchsetzen
Schild
Fusion
Free
Parlaments
anschließenden
Castle
##formen
Marburg
Verbreitungsgebiet
Schottland
1813
Aufmerksamkeit
durchschnittliche
Ohio
sang
Exil
wies
1851
Reform
möchte
##off
Weber
Bruno
Österreichischen
wächst
Beitrag
kritisiert
##ula
positiv
Siedlungen
Flusses
##tin
Risiko
Erscheinung
mögliche
##haft
Zellen
##ron
menschlichen
##jo
Einstellung
##del
aktuelle
##ong
Schacht
persönlichen
USD
Konstruktion
Ausgaben
##daten
abgelehnt
Jacques
Änderungen
qualifizierte
Mike
##kel
Jung
Petersburg
Reihen
erbaute
sicherte
Glaubens
Hauptort
##gg
umgesetzt
Zuvor
stehenden
erhältlich
##rich
Wohnhaus
Französischen
##Y
##musik
zugelassen
1847
Rektor
Versorgung
Marx
##so
##aal
##orn
Argentinien
Umfeld
François
Funk
restlichen
Engel
Produzent
##museum
Erfurt
##abteilung
Toren
Treffen
##ó
Varianten
Premiere
Katharina
Aussagen
##ges
bedeutenden
##sel
##rad
##flächen
Infrastruktur
darstellen
FDP
Strukturen
1846
##verwaltung
ausgestellt
Henri
liegende
Studiums
##kommen
Tabelle
Dietrich
Galerie
Horn
##bewegung
verwenden
Goldmedaille
##ab
Felix
erstellt
sechsten
dürfte
Bogen
##führung
Lang
Abkürzung
Ray
##ye
geplante
##lli
Pass
##ions
inneren
##ci
gestorben
##ani
##sh
Vorsitzenden
Geschichten
kämpfte
Kaufmann
angeblich
Auseinandersetzungen
1816
##iel
Abtei
Budapest
vieler
Durchbruch
##els
australischen
Hagen
##sberg
Eishockey
##leben
gestaltete
läuft
Streifen
getroffen
Verleihung
üblichen
Komposition
Befehl
Abstieg
Moritz
Research
mittelalterlichen
eingetragen
Dur
##schutz
1853
Fertigstellung
1818
englischer
Veranstaltung
##kampf
keiner
Christi
##š
##lan
erfolgreiche
bekleidete
Takt
##ene
End
aufmerksam
Wer
Oder
herausgegeben
Doktor
p
römische
Rote
Schnitt
Dienste
weiße
##unde
Meistertitel
natürlichen
Österreichs
André
##ührung
Reisen
Highway
geplanten
##ī
Liter
European
besiedelt
präsentiert
Spitzen
03
Warschau
Effekt
Gerichts
Austausch
beschränkt
min
Iran
bezogen
beginnen
##tti
brachten
1814
Kathedrale
Maximilian
Betriebe
##bus
##tis
Spiels
Finnland
allgemeine
zweites
richtete
Lange
##nten
##fall
antiken
bestehend
Block
##direktor
ungarischen
##tta
durchaus
##are
westliche
##erie
Persönlichkeiten
angeordnet
Army
##yer
##rechte
Sound
geeignet
Neckar
##cha
Volksschule
Sprung
##chi
Stock
Inter
First
Bald
Auseinandersetzung
##up
Positionen
Hollywood
aufgehoben
##barkeit
umstritten
##chte
Brigade
##blatt
festgestellt
##ehen
längere
ermöglichte
elektrische
ausgeschlossen
Jahrzehnte
Kurs
Du
Evangelischen
lebenden
##bank
innen
##öl
welchem
Enkel
Council
Kommunikation
Anbau
Werft
##ionen
Metall
##dia
Marc
##nahme
verfolgt
berichtete
Pennsylvania
Abstammung
PC
Räume
Vorsitzende
Anforderungen
Spielfilm
Francis
Bruch
##sierung
##ho
leistete
ausgewählt
weibliche
Folgende
##ć
##pel
Schäden
Jerusalem
Davis
Rund
Gedichte
##ě
Zusammenschluss
Jesus
Haupt
Gedanken
Stockholm
äußerst
##lagen
manchen
##gut
##fa
##gi
Künstlern
##à
Urteil
ferner
südliche
Folgezeit
saß
Schwanz
Neuseeland
Todes
herum
Böhmen
##ringen
beauftragt
gekennzeichnet
Johnson
Sitze
Fund
##ite
##ria
Eberhard
##ät
##ud
##ane
##ata
Himmel
Loch
spanische
Stephan
Botschaft
##weiler
Darstellungen
Wetter
Victor
Kapitel
daneben
Istanbul
no
Jim
Amerikaner
gefärbt
Weimar
Kindheit
Glauben
Sun
Anfangs
Ausführung
nördliche
##möglichkeiten
begründete
Dresdner
Stellvertreter
Asien
Nachkommen
##ā
gelingt
Wiesen
##wirtschaft
erfährt
Jesu
Werkstatt
Definition
##ah
jap
Foto
Oxford
Inhaber
##aden
diversen
Giovanni
geringer
auftreten
schlossen
regionalen
Demokratischen
beinhaltet
Spielzeiten
##rf
02
Bezirks
ad
Abbau
##asse
Kooperation
Manfred
##vo
Professur
Briten
reichte
Studios
Belagerung
Parks
angesiedelt
Sprint
DB
Gesetzes
Konferenz
##vertrag
Haushalte
Tokio
Therapie
##assen
Regional
900
Dreißigjährigen
dauerte
##ührer
Justiz
setzten
Erklärung
Goethe
hinten
Brüssel
ergab
Ihm
Versuche
erhaltenen
sog
1843
Pseudonym
Rosen
##Q
##bt
erkennbar
Knochen
Gegenwart
entstandenen
Sieben
Geschlecht
##we
abgeleitet
sächsischen
Ämter
klassische
Rosa
Vorteil
1832
##züge
##nau
##ologie
Windows
hängt
Stunde
Küsten
##bert
natürliche
Auge
Einsätze
Schülern
Häusern
Gleis
Beamten
Luther
Schwarzen
1844
Bremer
Brauerei
Illinois
Episoden
trugen
Adler
Sowohl
Dafür
Old
1842
##rie
##funktion
Chris
##insel
##tel
Stadtrat
1835
trafen
Musical
vorgenommen
praktisch
entstandene
##ère
Boote
Busch
##ez
Leute
Dass
##ille
Roger
Verbesserung
ZDF
##llo
130
abschloss
Zweig
Ministerium
##elt
Awards
##spieler
##anstalt
Lehen
br
Kontakte
rasch
GT
##mannschaft
verstorbenen
erweiterte
##ätze
Schlüssel
180
Sees
Netzwerk
Steine
Europäische
dicht
finanzielle
##dy
Sam
religiösen
##iten
##äuser
Vorläufer
schwarze
gleicher
Box
entsprach
Tennis
Ansatz
oftmals
##material
Eva
Strand
Klinik
königlichen
Prinzessin
Einsätzen
Vorschlag
verstanden
##lingen
vgl
schreiben
abgebaut
freier
NGC
##aut
Buchstaben
Web
kurzzeitig
Ursache
starben
Verfolgung
Hang
Marken
Hammer
##garten
Becken
Publikationen
##viertel
Media
Act
On
verfügen
Handels
Markus
Tschechoslowakei
Verwaltungs
##lag
##wo
bezüglich
SK
##namen
1810
##gau
##tung
Schicht
Gen
Prüfung
geschützt
##eis
Handball
evangelisch
Eroberung
erhöhte
VII
entscheiden
Französisch
enthielt
Steve
Hütte
Erbe
übte
Jackson
1837
Bündnis
Interview
115
Institutionen
##ı
abgebrochen
Verordnung
gewisse
Stärke
Tournee
Beschluss
Committee
Schlosses
Flugzeuge
Spielern
##ec
Palast
Gebäuden
Stab
##don
Motiv
Junge
##sheim
Leser
Ski
Chile
gegliedert
zahlreicher
Maß
Hinweis
Speicher
##rum
bewusst
Zeitungen
1838
Ministerpräsident
Grundstück
Game
##kapelle
Verwaltungssitz
Wilhelms
Günther
Tieren
Römer
##linien
Inhalt
halb
##acht
Tirol
Freundschaft
##su
##mm
##ings
##baum
suchen
Preußischen
ständig
Toronto
Bier
##üge
Life
woraufhin
Preise
Kolonie
schützen
Distanz
geschickt
Dan
Technologie
##wood
Durchführung
##anz
versteht
Kopenhagen
Hals
Oldenburg
##wahl
genaue
zeichnete
Journalisten
Eigentum
Fans
Arena
Beck
Roth
Freiherr
Jugendliche
##iv
anti
##urs
besetzten
101
Express
##tus
São
##urm
gering
Regiments
erzielt
Muster
350
##eil
##usen
Produzenten
Grundschule
lokale
Insekten
##ück
Power
Genf
Auffassung
eindeutig
1841
##ast
##jan
bisherige
##nummer
Sektion
vielleicht
erschienenen
##gas
habilitierte
Fähigkeiten
Sydney
Flagge
California
##lose
Beste
Marathon
1839
##itsch
Produktionen
kündigte
Grün
Regen
Fortsetzung
letzter
verlieh
politischer
seltener
##ku
Point
##ras
Schlagzeuger
Zentral
berücksichtigt
Amateur
##gemeinde
Journal
Last
Ausschuss
drehte
##name
darauffolgenden
Indianer
Nachwuchs
Jersey
Zustimmung
beherbergt
##ial
EC
Geburtstag
1836
Philadelphia
Labor
Änderung
1834
Roll
Formation
Ober
Knoten
Auswirkungen
persönlich
künstlerische
##og
umliegenden
anderes
Mode
##nnen
Bedarf
verpasste
Schreiben
##tern
Angst
##ete
Einzug
Luftwaffe
Up
Wilson
Heirat
Schuld
frühe
Li
##kin
schwedische
Psychologie
musikalische
gesichert
Weser
Rumpf
Ärzte
Langhaus
Diözese
Law
##losen
Stufen
angehörte
##chs
Graben
Gegenstand
Präfektur
typischen
Freundin
##erten
Hinter
Vizepräsident
Bauer
stattfand
##chor
jährliche
enge
Ulm
fehlen
ausgesetzt
stammten
lat
Ostsee
erhaltene
Ed
Fell
historisch
Helm
Cambridge
Vorstellung
##well
##istischen
schlecht
##zo
befasste
##welt
##kunst
Schach
betroffen
##länge
Olympia
ans
1821
##ari
regionale
Schicksal
sowjetische
männlichen
erfolglos
SG
Aufstand
Eindruck
Lewis
schottischen
Romane
##biet
Barock
##räume
Hohen
##fach
Tatsache
Antrag
##tsch
##klasse
Duo
Bischofs
##sport
Südwest
1200
Douglas
Beton
Piloten
Staats
bedeckt
Glück
Champions
1820
gearbeitet
Kavallerie
##eister
indischen
Arm
bedeutete
Not
cm³
##ida
eingestuft
behielt
Profi
Jänner
persönliche
##tier
##ofen
##kirchen
##aren
beteiligten
##eten
Haushalts
##licher
Nassau
Residenz
##felder
##nge
Frankreichs
stieß
Kanzel
##rei
##krieg
teilnehmen
offene
Games
Series
Gebiets
Tony
##inen
Armen
##richt
entwarf
Besonderheit
Eric
Gäste
Orchestra
Hart
Dame
##fahrer
##reise
##ain
Sciences
heißen
Kai
Zulassung
Wiesbaden
Taylor
##änger
häufiger
Abwehr
Heim
Volksrepublik
##и
Programme
erfüllt
Schlesien
Portal
Male
KG
wirken
Ostpreußen
Verantwortung
musikalischen
Identität
verstehen
befindlichen
Forscher
erneuert
Landgericht
Format
Partie
Verteidiger
Saal
durchschnittlich
Carlos
Zusatz
Mr
Erinnerung
Reiter
Südamerika
Peking
Oliver
Ruhe
Hard
verfasst
125
helfen
Vermögen
Völker
Krebs
erinnern
sichern
##enberg
##chten
##cy
geschätzt
Generalmajor
Stattdessen
##nia
Niederösterreich
##pf
Rad
Straßburg
Fuchs
160
FA
##reihe
##gh
Günter
legt
Eier
##eur
Kohle
Mischung
genug
Merkmale
vielfach
##dach
regulären
Zone
Grundriss
##gan
Gesundheit
Territorium
ähnlichen
Stoff
Erzählung
bezog
Londoner
Kategorien
Verhältnisse
Roland
sagt
Million
Kalk
begründet
ausgerichtet
künstlerischen
Night
Stars
Nebenfluss
jüngere
##ender
Mars
##tra
Inn
Typen
entworfen
Amts
##uen
##llt
leisten
Bernd
obere
Stift
1831
Ortsname
Centre
##kosten
Redakteur
Aluminium
vermeiden
Trio
komponierte
Río
##kommission
1812
Schlag
Komödie
erzielen
Las
Dozent
##region
Jahrhunderte
Konzern
##tätigkeit
preußische
##winkel
wichtig
Mario
Bar
realisiert
##ittel
Miss
Nordwest
##teile
Jeder
üblicherweise
beziehen
Vorbereitung
erlitt
Legende
##ngs
Kandidat
##nne
##ller
Hin
Werks
##äure
angepasst
Cross
Zweite
Schiffs
Mont
Corporation
May
##bs
Hirsch
Gallen
antrat
Weiterentwicklung
Holland
Restaurant
f
steigt
Plattform
Mandat
Thron
Angelegenheiten
Materialien
achten
##zellen
Außer
bewegen
Element
Bundesstaates
gelb
belgischen
Erfahrung
##satz
katholischer
##stellen
Sea
Unterschiede
##ska
##lz
aufweisen
lieferte
Kleine
Adel
unterrichtet
bekannter
veranstaltet
##cs
Eishockeyspieler
Islam
Vorpommern
verlegte
##sammlung
Moor
müsse
gefährdet
Church
Pommern
gefolgt
##ruck
Annahme
Regierungsbezirk
5000
##motor
männliche
geteilt
Mittelmeer
typische
Patrick
angebaut
##ris
Wurzeln
Wellen
verblieb
##kow
suchte
eingezogen
Höhlen
gehörenden
Vorstellungen
Angehörigen
##tur
spät
Draft
mir
Gebirge
##lu
unterschiedlicher
fährt
1808
Nahrung
1817
bester
erkennt
##eichen
##esen
Bistums
Back
Moderne
ersetzte
besiegte
Arbeitgeber
Soldat
Gleich
##wer
russischer
Drama
##dan
Mannes
Anordnung
weiblichen
Banken
##richtung
elektrischen
les
Sauerstoff
Chance
seinerzeit
Platte
##ors
Amtes
##ont
Ablauf
##era
Duisburg
restauriert
##team
##ok
Mitarbeitern
Weimarer
##kreuz
bevorzugt
identisch
CO
kulturellen
wer
Schiffen
SED
##ände
Dritten
gewidmet
qualifizieren
Maße
##graben
1833
##äume
Gabriel
##zt
hinsichtlich
##rennen
traditionelle
Ross
##orm
Jury
Bochum
##halten
Ausrichtung
##ahl
Kim
Alan
Brust
begleitete
Verständnis
erfuhr
Mehrere
Zahlreiche
Festivals
Herzogs
Autorin
Lyon
Geschäft
Times
rechte
Täter
empfing
bezeichneten
Seminar
##olitik
verbesserte
erhebt
1828
Gründe
Mund
Di
##tik
solle
Nordost
Town
105
##über
beruht
wachsen
##ord
1825
norwegischen
fehlt
Schichten
##geschäft
begraben
##raft
Areal
Instrumente
##tar
stationiert
ausreichend
versuchten
Allen
Information
stehende
Wahrheit
zählten
erklären
verbliebenen
Milch
anstelle
Time
Hochzeit
diskutiert
Gran
##ereich
Marien
weite
##rücke
verwaltet
Country
Verlags
##endorf
##lar
führende
Platzierung
kulturelle
jene
dank
angrenzenden
Beach
Wesen
##stedt
existierte
traditionell
##wski
##aft
Marsch
Produktions
weg
Pflanze
übernahmen
Bezeichnungen
##ieg
nötig
verhindert
Tel
Fernseh
Alters
##ala
Universitäts
##op
Demokratie
Gewinner
selber
Trotzdem
bestimmen
Heck
Alternative
Golden
Schlagzeug
Zuschauern
##ausen
Sophie
##det
Benjamin
##erin
Erz
Besiedlung
##aben
Rückzug
Ken
entsprechen
##phase
1807
internationaler
##mal
Klang
wahr
verfügbar
##isen
Schatten
Turniers
##ör
Edition
Zusammensetzung
speziellen
Finanzierung
Anteile
Freizeit
##förmig
Gesellschaften
Antike
Bestimmung
verwandt
Uraufführung
Carlo
##kultur
Gattungen
1809
vergleichsweise
Hauptmann
##sta
griechische
Okres
Kreise
Uni
##ppen
sank
dokumentiert
Bit
118
Hinweise
Naturschutz
Eugen
140
##iche
##ator
Championship
##ebene
zwanzig
verbreitete
Alex
intensiv
Hauptbahnhof
Untergrund
Bell
stammende
Sturz
Abgeordnete
teilte
##ora
Angehörige
unterbrochen
Rohr
hl
Wirtschafts
Mathematiker
Wo
is
Statue
Einzugsgebiet
Gedicht
Erforschung
alter
##oni
KPD
##ena
wohnte
nowiki
circa
umfassende
Vorsprung
festen
Anwalt
##zeiten
Day
##punkte
##ole
portugiesischen
Winterspielen
##ios
fördern
Zugehörigkeit
lautete
einziger
Satelliten
Schwerin
x
Überreste
russisch
Gießen
r
##ses
##lehrer
1826
##las
##quelle
##zel
Quadratkilometer
Geschäfte
Schützen
##ost
Endspiel
bessere
Lorenz
Nick
Hut
Diskussion
Besitzungen
Massen
##zy
Verluste
##ous
HC
älter
mich
Koblenz
##ack
Court
Costa
Waffe
Spenden
##uk
IT
Auszeichnungen
Umgang
Entdeckung
Kugel
innere
##ank
religiöse
DFB
retten
m³
Pre
Siedler
Summe
Mans
Erdgeschoss
##stoff
Mitbegründer
Lok
##prüfung
##ade
1798
Schnee
##äre
Erkrankung
Helden
qualifizierten
##rus
befasst
Lebensraum
Debütalbum
quer
durften
Claude
bedingt
Chefredakteur
Sports
Jugoslawien
##nik
Reis
Triebwagen
Mess
Trainings
Florenz
Zufluss
Nation
Model
##ive
Vizemeister
Berufung
Historic
Go
Getreide
Bernard
Ana
Atelier
Vögel
Neapel
Michigan
Worten
linke
verbundenen
sahen
Bäume
Sklaven
##modell
Früchte
hielten
Bekanntheit
##ungs
Fellow
Gera
##ndorf
letztes
Zweiter
Ludwigs
Hierzu
##trieb
vorübergehend
Kompositionen
##theater
1829
Südseite
Reihenfolge
Großvater
Entlassung
Spur
hinweg
zeigten
Bridge
übernimmt
maximale
Einkommen
Stufe
##loch
erfahren
sucht
hierzu
unmittelbarer
1822
Keramik
Automobil
1824
1802
Theologe
Ecke
betreut
##enbach
Zeichnungen
Hospital
Statistik
##fahren
107
Glocke
##ney
Pionier
Ruine
gefeiert
##kon
Gitarrist
##ats
Beweis
Benedikt
##nter
erfolgreichste
##platten
##latt
Schwert
Bauarbeiten
##po
111
Ursprungs
nationalsozialistischen
Grundlagen
##zahlen
Inzwischen
Gesamtwertung
Büchern
Siegfried
Hochschullehrer
erfüllen
ausgerüstet
Sonntag
Höhle
102
Kämpfe
Drogen
Monats
abgegeben
wären
Ki
Friedrichs
grün
Museen
darum
Gesetze
##owski
rote
Gebirgs
Gesicht
Touristen
Ur
Hot
##hafen
verzichtete
erfasst
Mineral
Saarbrücken
Sache
Betreiber
Little
Ten
##ł
Yorker
sozial
Schriftstellerin
Flugplatz
Osnabrück
Testament
##rkt
Landtagswahl
Fälle
Haar
Rande
Skulpturen
griff
niederländische
Inc
Pflicht
komplette
##tand
erfolgreichsten
Bände
##row
extrem
Singles
##ée
##yo
à
##tzen
Patent
vorne
Mitteleuropa
Braun
Bundesregierung
einziges
wovon
Training
Dritter
Valley
Vertretern
Adels
Protest
Planeten
Great
Demo
America
##ów
##lug
##tter
##größe
erkannte
Hände
Schau
Ereignis
##rate
Manuel
Fahrzeugen
zugeteilt
erschossen
Turin
Verbände
Offiziere
Napoleon
Betriebs
Cover
Rolf
Originaltitel
Fotos
Aufhebung
Versammlung
##iff
Gulden
Verleger
Verbandes
Hamilton
##dae
Aufenthalt
zusätzlichen
aufeinander
Wohnungen
Sei
mag
bestätigte
verlaufen
Brian
publizierte
1819
Tar
Gelegenheit
verband
Dank
aktuell
Fels
gesellschaftlichen
##fo
eingeladen
bekommt
##werte
Propaganda
Gräfin
Is
Fe
belegen
Lande
112
##shi
siebten
Hl
1811
Bevölkerungsdichte
wirklich
schwach
##ick
Garde
sammelte
Zentimetern
##erk
##jew
Out
Drehbuchautor
östliche
Pfund
##egen
Aktien
Trans
nachfolgenden
Ausbildungs
Genre
ansonsten
berühmten
Fast
##flug
Oberbürgermeister
verkaufen
Anwendungen
Interpretation
voraus
Andrew
##nische
geschlossenen
Hoffnung
DJ
##cus
##turnier
blau
Farm
##istische
antreten
Falls
##ros
Abenteuer
##gung
Erhaltung
##sha
Lediglich
Fred
spanischer
##maschinen
Kreisstadt
##pp
worauf
landwirtschaftliche
Erziehung
zurückzuführen
lateinischen
DS
ref
Zell
Kontext
##nce
Aufklärung
##ase
Bundestag
verlässt
##ommen
samt
##olo
Herrn
##rm
verbessern
Beförderung
geöffnet
Lebensjahr
##mel
Server
vielmehr
versuchen
erreichbar
Forschungen
##seite
Wohl
Andrea
weiten
Salzburger
Wissenschafts
BA
untere
Reinhard
##ira
denkmalgeschützten
Kleinstadt
Integration
bin
##uren
Mitteln
##ucht
Stan
beobachten
119
##gewicht
Conrad
##ding
Becker
reich
Flüsse
Steuer
vollständige
Vorsitz
überraschend
Berichte
##fassung
##ett
UEFA
##rbeit
Norm
gewissen
##kanal
entstammte
##gemeinschaft
ARD
##ath
Plätzen
Siege
Zylinder
Darin
Eines
Miller
Jede
Slowakei
Landrat
Oft
Feder
##irchen
117
##frei
Diesen
Clubs
104
Innere
IP
##figur
Wettbewerbs
Arbeits
paar
##unst
##а
1805
Zwecke
1827
Opposition
Zucker
##ufe
Porträt
bestattet
##opf
alleine
##ú
Bielefeld
Turn
Nu
stillgelegt
##min
Verbot
##chef
chinesische
##kan
Zahn
Marmor
UNESCO
Bulgarien
##ii
##ning
spätestens
##ef
Bürgerkrieg
1801
Premier
Pferd
übergab
Tätigkeiten
NATO
vorerst
##prozess
Hoffmann
Lissabon
##és
##macher
##mont
##fähigkeit
Jörg
##ruppe
bewohnt
arbeiteten
109
wesentliche
Harvard
Blumen
Lokal
besaßen
umfangreichen
Per
Via
Direkt
Lippe
##vi
Gefangenen
Tu
Zugleich
Kessel
##etz
##unterricht
Titelverteidiger
Landtags
##maßnahmen
##ato
geschah
besuchen
##nan
zwischenzeitlich
Damm
##zin
Hauptrollen
CA
Alliierten
##ile
Schaden
Redaktion
Manchester
gleichnamige
nutzt
113
Sozial
106
Innenraum
Begriffe
Traum
Dörfern
Minnesota
Bildungs
##ufer
Hochwasser
##manns
Bio
chemische
gelangt
##ö
as
Bildern
SP
##ess
erneute
Theaters
Teich
Fiction
##beck
national
Sex
Schuss
Phasen
Sohnes
1793
114
Creek
Irak
äußerte
geregelt
Komponenten
Han
Orts
Bett
##ui
Temperaturen
##lten
Willi
Amtsgericht
Comic
befindliche
verkehren
Business
##the
##grund
##sser
Badminton
##ücke
konzentrierte
##lia
Palais
Grube
Railway
Saar
##ă
rückte
##lter
Voll
##ves
arabischen
Vol
Kunststoff
kritisierte
Sammlungen
fünfte
Johanna
menschliche
Problemen
Landesregierung
Mu
Kreuzer
Del
Prince
jüngste
unweit
##elo
Willen
Nordseite
Unterscheidung
Schmuck
Nördlich
Prozesse
Ir
##ting
Sterne
750
Zehn
Dreharbeiten
Manche
##ssa
Senator
Aussehen
##ran
##ühle
##ffen
Jugendlichen
Kapital
Tim
christliche
Entscheidungen
##bund
Zeche
umfassen
Dinge
goldenen
Gau
Zentrale
namentlich
Index
1804
##eiten
##chutz
positive
Affäre
Probe
Gespräch
##owa
##ckt
großem
##richter
Sanierung
Pastor
Akt
SE
verbinden
Danzig
unklar
Übertragung
Versicherungs
Nachweis
Humboldt
##äge
Erzählungen
Verbands
kaiserlichen
Links
landwirtschaftlich
Sol
Hoch
Dorn
##eo
Erdbeben
##handel
Vorkommen
Rajon
##sky
Pest
Katholiken
##ball
Voraussetzung
Leutnant
Lady
rief
Endrunde
ne
unterhält
Kurfürsten
Georges
##rolle
bedeutender
Wander
##hagen
Vieh
Powiat
Metro
##iner
##kehr
##angen
fliehen
##fs
schlechten
René
##ätzen
Staatsexamen
##mark
##ão
Loire
Hubraum
Gesundheits
braun
Harz
Frequenz
##sbach
Non
Kommune
Syrien
Erben
aufnehmen
Zuletzt
Apostel
##san
keinem
Münzen
Generalsekretär
Sicherheits
1823
##ausbildung
Export
mittelalterliche
Vorfeld
Koalition
Grafik
verteidigen
automatisch
BGB
Space
manche
stammenden
schneller
demnach
finanziert
Kommandant
##oli
##plätze
Ausgrabungen
Heilbronn
##ations
##shire
We
Abkommen
##tig
Oskar
Verletzung
Früh
##net
Lou
Os
Hotels
Hund
Genehmigung
##wi
erwies
Raub
##ū
Ni
##ther
erneuten
##pur
Home
Details
##als
Sub
Tru
Nürnberger
Begründung
##uß
Stone
##litz
##ada
##hofen
Umbenennung
Kurfürst
##α
Georgia
Kriterien
##telle
Rainer
103
etablierte
berief
Alkohol
Kirchspiel
kämpfen
DNA
##low
Kämpfen
Konstanz
Marco
Nationalversammlung
Kuppel
Gehäuse
Kranken
installiert
bat
Zweitligisten
##line
Be
Allein
Dialekt
Verletzungen
Mi
Faust
Denn
normalen
Flecken
Head
erschlossen
stattfinden
Tisch
trotzdem
Salz
Nacional
Eigenschaft
Urkunden
Könige
gerufen
Aufstellung
##dar
Mini
Festland
Fahrrad
heran
Elizabeth
ausgelegt
Verteilung
griechisch
Schreibweise
##town
endlich
##amen
Aufführung
Ei
Niveau
##hersteller
Schlaf
Grande
Vereinigte
##rot
1790
Senats
Fulda
##rom
Ole
Kette
##reichen
bekannteste
Tabellen
Begegnung
##ängen
##ahr
Vorlage
Oslo
Forderungen
Mer
Mannschafts
Regelung
Angriffe
Veränderung
BMW
Vorhaben
##itt
orientierte
streng
Erzbistum
##länder
1600
##kette
Vorder
hinteren
Gründungs
##con
Eichen
bestellt
Finanz
Generalleutnant
Forschungs
zugeschrieben
Vertrags
##och
schwerer
##chiff
Elektro
##tas
Medaillen
medizinischen
benannten
Bester
Begründer
seitens
1940er
Franco
##prache
##ppe
Feier
Ara
LP
Bauch
##iga
Sockel
Gebietsreform
Zerstörer
##inden
Priesterweihe
Vereinten
Racing
Weinbau
töten
##tions
Abhängigkeit
##tation
Kriminal
##uten
##wertung
Russischen
##hy
Königreichs
1700
##ären
Elementen
Bamberg
##din
überführt
##eau
Ankunft
BBC
Telefon
Allianz
Sechs
Bein
kandidierte
Nachfrage
Meeres
versorgt
Höchst
Ban
##oy
dortige
News
codice
Nationale
Erstligisten
Voraussetzungen
##ub
Teilung
##nken
Hits
Blei
##ero
tot
##serie
Mühlen
Pilot
Heilige
##ars
##hal
##pan
angegriffen
Ausgangspunkt
##spor
Regime
beenden
laufen
Vermutlich
##schaften
Beat
Texten
Seele
zeichnet
MS
Wachstum
türkische
eben
##sson
Mut
Moment
##anten
vereinigt
deutliche
Anführer
Hamm
Dialog
Romans
vornehmlich
Stipendium
Christ
Motive
Wittenberg
inklusive
Board
##ese
Vordergrund
Ausdehnung
##att
##ichter
Disziplin
Häufig
Brot
medizinische
erhebliche
Innen
unterzeichnete
literarischen
Gefangenschaft
District
Hauptsitz
Clemens
Musikern
Gesellschafts
##oden
Gebietes
Hop
Experten
Südkorea
##rig
##ark
Südost
Howard
Tatsächlich
Hochschulen
dänische
Stürmer
Dance
##use
##chtung
Steiermark
Obergeschoss
1794
Märchen
Nationalen
Do
Antwort
Eigen
##mauer
Punk
##nu
##ova
Standards
##tan
meldete
##bra
Anstellung
Dokumentation
Ozean
##kar
Wuppertal
Immobilien
Etappe
Benz
Haushalten
Briefe
##bene
##ante
Forderung
Motorrad
Kleinen
legen
Death
##hon
Überlieferung
##е
Evangelische
##dauer
fertig
vorderen
Davon
Yu
Geo
##hilfe
Stadtbezirk
CS
Vorrunde
Hinsicht
##lte
übertrug
Erlangen
##folge
Ohne
##quellen
handeln
##hütte
ersetzen
Abraham
##rau
trans
Vorlesungen
Talent
Allgemeine
##platte
los
##ä
##nga
bedroht
ÖVP
Ontario
Fan
Handlungs
Ä
verkauften
Lehr
##läche
Null
Gras
Antrieb
116
bezeichnen
Erb
landwirtschaftlichen
Montreal
Umzug
DE
Berger
##sin
gebaute
Korn
108
Modus
Sicherung
##urf
schwierig
##nach
Kraftwerk
längeren
Bauwerke
Public
vorhandene
Khan
aufweist
Ser
vergleichbar
Leder
Volumen
dritter
Harald
studieren
Athleten
gehabt
MA
Bruders
Chemnitz
Admiral
Episode
##runde
geliefert
##bruch
##ju
Renn
TSV
zusammengeschlossen
Brut
##gar
Te
gebildeten
Vers
junger
Fox
Daraus
bewegt
##fenster
##geschwindigkeit
Außenminister
##ela
Reichstag
gerne
kennt
fertigte
welchen
Syndrom
Luis
Wird
Kroatien
Soziologie
Nova
AD
technisch
betont
Abbildung
##ori
Kulturdenkmale
Terror
Bären
##ws
##landschaft
Konservatorium
eingeteilt
Restaurierung
##hnen
##körper
ATP
Kennzeichen
Anthony
Strategie
Einflüsse
Gewölbe
##oe
Junior
spezialisiert
##nus
Bos
Sternen
Durchschnitt
Raketen
Sonnen
SPÖ
Erkenntnis
Rauch
##tellen
##cks
Jon
Felder
##tu
##üsse
tiefer
Dokumente
gemessen
Entwicklungs
Dessen
##lein
Thüringer
##wettbewerb
##tro
Teils
##van
##ktion
Ny
##ona
##bu
akademischen
##fisch
##ahrt
feste
##osa
Forum
lesen
Krise
##istisch
##rischen
Giebel
Nachlass
IF
Oberösterreich
Aspekte
##bro
Wähler
Umständen
##rische
betreiben
bedeutendste
Pedro
Dekan
grünen
Buenos
##losigkeit
Autos
Minen
Generationen
zeitgleich
verließen
Wirklichkeit
Vorjahr
geehrt
teilnahm
##fel
Spezial
##ters
Missouri
Wunder
Planungen
bewaffneten
Marcus
Römischen
Atmosphäre
Luzern
##stätte
wissen
gefallen
##ž
Darunter
##lf
##version
registriert
##chau
Leiden
##usik
Renovierung
allmählich
dauerhaft
Jo
Marcel
beinahe
eingenommen
##dorfer
Aires
Verbrechen
##vin
Prinzen
Ehepaar
Cro
##ecke
verursacht
guter
betätigte
Studioalbum
Wehr
##ziehen
zeitgenössischen
Paderborn
IS
sofern
gesammelt
engen
Foundation
voran
Rob
gedacht
besonderer
##schicht
Karosserie
##säure
Insolvenz
##sitz
Stephen
Stanley
Geschlechts
beschreiben
Erwerb
##waren
Periode
Strafe
Flüchtlinge
Umgeben
deutschsprachige
Schall
Informations
##einheit
sagen
Alice
Dre
Matt
el
Sky
besetzte
Marketing
Güterverkehr
USS
Fame
CH
##typ
##karriere
französisch
##essen
##geräte
Achse
typisch
##licht
renoviert
Normal
Mel
Duke
Ruder
Metz
Südlich
Moll
##dern
Derzeit
kommenden
Julia
plante
Asteroid
Vereinen
Freunden
AM
##ita
Neuzeit
##tiv
be
Schnabel
offensichtlich
Wood
Ros
Kompanie
##systeme
##uhr
Faktoren
Wettbewerbe
Schwarze
##har
west
Flur
Township
lösen
TU
##ruppen
äußere
Leib
##gericht
Tai
Helsinki
##sst
Roy
Tafel
Kolonien
Boy
##hs
teilt
Riesen
erkannt
Nachbarorte
##cia
##oi
Ganz
einzeln
Krieger
Befreiung
finnischen
Haltepunkt
Konflikten
Exemplaren
erzeugen
empfangen
##ès
Col
##projekt
publiziert
##о
Sommerspielen
Lothringen
Größen
Ausrüstung
##station
sitzt
Grenz
##unter
se
##tau
Kabel
Götter
Verbund
Beendigung
##ieb
##rsdorf
Weiden
Physiker
Glasgow
Louise
flachen
seitlich
gemeint
Akten
wesentlichen
Bataillon
Senioren
Grau
phil
gebunden
Lexikon
##dra
Riga
Granit
gehandelt
verzichtet
Friedens
Hochschul
Adams
Trasse
Fähigkeit
Peru
Europe
Kurzfilm
transportiert
##örper
##gon
Wahlbezirk
##ş
Départements
##olz
Schädel
Mythologie
Textil
##uchen
1789
gestartet
1792
##è
Far
##ultur
##rke
natürlich
Decken
Achtelfinale
Pilger
Brüdern
Pi
##gy
SD
Fer
Neo
Vorname
AB
Schließung
Ausscheiden
450
davor
besseren
HD
Ala
vergangenen
op
erlernte
Lokomotive
##ente
Verhaltens
jüngerer
Düsseldorfer
##uchs
Rasse
##nda
Ron
##rien
##pi
##iter
Fürstentum
Zar
Digital
umfassenden
orientiert
Verkaufs
Colorado
Mauern
##pieler
Leistungs
Ry
##voll
RS
Projekten
Germanistik
wirtschaftlich
Thailand
Erwin
aufzunehmen
Schulden
##nung
Eintritt
##nbach
bi
Zweifel
zerstörte
##reform
Werbe
Kommunalwahl
Ferrari
Länderspiel
Damals
Einladung
Zoo
##struktur
Willy
##bad
plötzlich
Institution
Oberflächen
Staatssekretär
daß
##nlage
ansässig
abgehalten
markiert
entschloss
Angriffs
selbständige
tschechischen
Ressourcen
Absatz
Peters
Stuttgarter
Gegenstände
Var
Kredit
Westseite
Acht
ähnelt
innehatte
##bi
Faktor
##gelände
Kuba
Wohnsitz
Kampagne
Johnny
halben
Herrenhaus
befestigt
Gerät
Umsatz
##rit
Verfahrens
polnischer
Bull
Mein
Behörde
schoss
Erstausstrahlung
Küche
Vorstandsmitglied
Gemäß
##ationen
Münz
Janeiro
Good
Motors
##ilm
Mitgliedschaft
hingerichtet
##way
kirchlichen
Jane
##du
Gleise
deswegen
Letztere
hell
Welle
##lm
Feldzug
stiegen
##nin
Belgrad
Website
Prototyp
##änder
galten
##artig
richtet
##zig
Ketten
Militärdienst
Jimmy
Austragung
##maschine
süd
Austria
Siegel
beliebt
##ru
##achsen
Bemühungen
Hunde
gegeneinander
Langen
##hai
Mainzer
Liebes
##sko
Universal
gesperrt
Shin
Si
Disziplinen
Entwicklungen
##ø
##utz
Lech
Gerichtsbezirk
##stellung
vermehrt
Stammes
Sizilien
Einnahmen
##kos
##ellung
Latein
Jordan
Baudenkmäler
Arbeitnehmer
Inhalte
wechseln
Bewegungen
Tatort
CSU
Ya
Kaserne
##eus
verliebt
Litauen
Kindes
Delegation
##ele
##dung
erhöhen
Rassen
Evangelisch
##gramm
Leit
Goldene
verarbeitet
Gordon
Weihnachts
Communauté
##karte
##hrt
Vincent
##mäßig
Serbien
with
Elite
Soul
Ortsteilen
Nominierung
Stämme
gekauft
Anlehnung
unabhängige
Frucht
##pt
Aktionen
##kademie
prä
Erreichen
##schiff
feiern
Gregor
geprägten
##uft
Länderspiele
Comics
Böden
erwartet
Special
Nikolai
##nas
reine
##scha
Seither
Gärten
Ple
##strecke
uraufgeführt
Chemiker
##lers
Za
##basis
Personenverkehr
Zwerg
Linden
Sportler
##pass
unterwegs
##fähig
Manga
Landesstraße
Unentschieden
OS
präsentierte
Kenntnisse
normalerweise
Philippinen
Maschinenbau
Ermordung
##car
UdSSR
Tests
älterer
Händler
Detroit
Baumeister
##ew
gewöhnlich
##chan
Infolge
auseinander
##ecken
laufenden
Pius
Mari
urkundliche
##aka
hinterließ
Kult
Kapazität
Hilfs
##isiert
abgesetzt
##eisen
Beute
benachbarte
jeweilige
##sz
Mercedes
##uth
Realität
Gotha
##dem
##ativ
FK
##lus
Zürcher
niedrigen
Phänomen
Kleidung
##ance
Weiss
bestritten
Hahn
Na
verschoben
Tief
Airport
Kulturen
Profil
##liga
niemals
eigenständigen
Borussia
keinerlei
Siemens
##hart
Entwickler
Dark
Urban
kritisch
Standorte
zerstörten
Fische
Charlie
spendete
liefert
Hip
Ansiedlung
Burgen
Bischöfe
##rode
geraten
untereinander
Tageszeitung
Gastgeber
##fi
Petrus
chemischen
##meter
sorgen
Nachricht
wählen
Flora
##sti
Mega
Gene
Or
zurzeit
Est
Individuen
VfL
NRW
These
Mayer
Greifswald
Dra
##zene
Vorort
barocke
Queen
Dreh
Continental
Paulo
re
Fußballnationalmannschaft
Grunde
befreit
Dokumentarfilm
voller
##ode
Nutzer
##enburg
Stadtteile
Meeresspiegel
Dritte
Win
##zu
##iz
qualifiziert
Acker
Beobachter
##alten
Pra
gründen
Australian
##uppen
##eri
Au
Maurice
verbessert
ü
vertritt
##orden
##auen
städtische
leichter
jährlichen
Organ
litt
PA
angesichts
Wettkampf
Schnell
Sat
##karten
Konstantinopel
Havel
zweit
Ku
nahen
Türken
einzelner
angekündigt
Cheftrainer
##idae
soweit
Bart
Wisconsin
Bebauung
Wälder
##verbandes
##aner
##kes
NBA
Bürgerschaft
Bond
Su
##geld
##ösen
##ali
Kärnten
Erhöhung
##rechts
Bande
Archäologie
Balkan
Konsul
##vereins
überall
Laien
Aktiengesellschaft
##acher
Anwesenheit
Adelsgeschlecht
##grenze
##club
##not
##lung
Will
kanadische
##aba
Volks
Blütezeit
##ș
Passagiere
Rechtswissenschaft
Bomben
##rock
##fin
Luftfahrt
Kreuzung
Fern
Mittlerweile
Hanau
Prager
Camp
Geschwister
Werbung
##rre
##rath
Gil
##farben
Auftreten
##ße
Christopher
121
un
Händen
##arbeiter
Paulus
Folgejahr
Verfasser
Haag
Gruben
Programms
hölzerne
Vorteile
konzipiert
1799
##wn
Zeichner
##artigen
com
##sion
##house
##etzen
##xt
##kie
ausgesprochen
Wenige
Deck
viermal
Billy
Let
eigenem
Bro
Diego
Theatre
Partnerschaft
Darsteller
Käfer
betreute
Sternbild
##pielen
Staffeln
Staatlichen
Reederei
Brett
Auguste
Wolfs
Monarchie
Philologie
Hohe
Sara
##nal
Press
Absicht
finanziell
##bal
##aison
by
##zeichnung
##gewächse
Dirigent
floh
##gl
verteidigte
##ied
Kalkstein
häufigsten
Spielbetrieb
Rou
IX
verpflichtete
##entwicklung
DA
##ammer
Spannung
##ex
##ois
Weiße
Ch
NA
Ky
Rückseite
angestellt
abermals
##dor
Polizisten
##oa
##pitze
##olen
VIII
Privat
Hauptstraße
Erlaubnis
Königlichen
Ostseite
##chu
##trag
verwundet
Höfe
Elektronen
Gemeinschafts
##versorgung
ausgeliefert
größerer
Nummern
taucht
Deren
##ima
Zeugen
VfB
Java
Philip
na
stirbt
Ran
Québec
Unterseite
##anteil
Diplomat
Entertainment
Benutzer
##tet
##eder
Vancouver
zustande
Beine
##cho
##fuß
Leichen
1797
Poly
Gymnasiums
Florian
##mie
unabhängigen
benötigte
ausdrücklich
polnisch
Francesco
vorzeitig
vergrößert
Mittelfeld
entfernten
MW
##toff
lebende
hohem
Kenntnis
Audio
##ister
Ministerpräsidenten
Bayer
##now
Verwandten
Bewohnern
Chi
Handlungen
Schweine
Mississippi
angewendet
begab
Abschnitte
##lei
Denis
Kunstgeschichte
Atom
##mmen
Schul
Santiago
Can
##nig
Roh
Ihren
Schaffung
Berufs
jüdischer
Donald
##urt
geschieht
Wiedervereinigung
##lock
Moschee
##ders
he
Volkes
nationaler
##ella
##uri
##val
Lob
Sarah
Landschafts
Verteidigungs
Moore
Final
flach
dunkel
##bor
##paar
beheimatet
By
Haute
##out
Mar
##orte
Nachbarschaft
##aro
etliche
Getriebe
Teilchen
Abteilungen
##partner
Stifts
falls
Abstimmung
Nest
überzeugen
Reichweite
Abriss
inter
annähernd
Salon
Bestimmungen
##tellung
##ass
Friedhofs
##mes
leichten
Ltd
##ede
katholisch
anzutreffen
Pan
Phil
##gio
##sie
Palm
Abgrenzung
##una
Werkes
Philosoph
Klage
Projekts
##ary
German
elektronische
Adresse
##iste
erbte
Stausee
bestes
Hubert
##wege
Schar
Dar
Räumen
Kindergarten
Roma
##ía
produzierten
##mpf
unbekannten
Down
##ech
Nieder
volle
##eien
Anstieg
Luise
##ift
Konstantin
Freie
genauer
Trocken
Clark
Leonhard
eingeschränkt
Gelb
go
Angel
Schmiede
Opera
Kansas
##ity
Campus
eigens
##let
Sud
Bo
Buches
gänzlich
##SA
Jh
Vulkan
360
Ville
Gent
Gross
Dampf
##offizier
##nna
zugrunde
Fachwerk
Atlantik
Wasserstoff
Mountains
##reiche
beauftragte
##figuren
##MA
verkehrt
Vorfahren
Erkenntnisse
Edmund
Jedes
Eck
##win
Obst
Führungs
Et
##ute
schmalen
Multi
bürgerlichen
gehörende
gelungen
##č
Wandel
Magnus
135
Taiwan
Gegenzug
Rein
Memorial
Walther
Konflikte
erschienene
Epoche
Spa
meinte
Yo
Auflagen
Apple
wendet
grau
Unmittelbar
Gor
della
erteilt
Angreifer
##dien
Afghanistan
langjährigen
Bon
vereinzelt
Area
1795
To
leichte
Stettin
wissenschaftlich
##xi
Achter
Aufschwung
##kräfte
For
stetig
Melbourne
##eier
##rben
Ruth
Bayerische
##wein
Wertung
Valentin
##zeitung
Run
Kent
##grad
1300
unmöglich
Gottesdienst
Komplex
Mail
Jar
Sultan
##unkt
gen
##born
DC
Vermittlung
Anklage
geschlossene
Bou
ma
Women
Dick
landete
förderte
##ame
##lang
RE
##tem
Elf
Mangel
aufbewahrt
Order
Bodensee
##achse
##ott
##schi
##kte
ländlichen
1780
Fischerei
erwähnte
Vorgehen
Kaffee
Hildesheim
Pur
Pflanzenart
##lau
Schön
##keiten
para
Stadium
##fels
Ähnlich
wolle
Vogt
lo
entscheidend
bewertet
Range
Wladimir
Bundesstaaten
Bär
Lösungen
Jesuiten
Arbeitsgemeinschaft
##por
Lüneburg
Meist
Möbel
Moskauer
##jäger
erfolgreicher
170
Kontroll
Sar
##gne
Speyer
##sburg
##orschung
Vis
##gie
Fotografie
##ind
Cruz
##rde
Edinburgh
##kas
##isches
Playoffs
##zimmer
Nerven
##echt
Wahrscheinlichkeit
##enen
Ausstellungs
##neu
dorthin
Wissens
Erfinder
Rats
Kronen
Aufsteiger
Sperr
##schrift
notwendigen
behauptet
HMS
##etrieb
Global
untersuchte
##einrichtungen
eingesetzten
ansässigen
Nebel
Lothar
Finger
geschaffenen
Katalog
RA
##yi
##fort
##nburg
Hauptquartier
verstärkte
Ba
gewählten
Trauer
Turnieren
##lied
##ands
aufs
Zivil
geklärt
##uck
ergaben
Rugby
Bor
##sches
##pflanzen
verliert
Chu
Human
Melodie
Pacific
Stau
Goldenen
lutherischen
Fair
Bischofsweihe
Set
Berechnung
Pakistan
##welle
##kov
##bauten
Invasion
##mon
##altung
Handwerker
verabschiedet
notwendige
EG
Italiener
Auslands
Rates
##kunde
Nor
Liedern
wider
Abu
##walde
Bel
sammeln
##muster
Gesellschafter
##ohn
##igung
##gers
gebe
Spektrum
Porto
Kan
Frey
Place
Stadtmauer
ethnischen
##verbände
Wahrnehmung
Ash
As
Iwan
Dichte
##heimer
vermittelt
seltene
Zentrums
##rahmen
Wolff
Gitter
veränderte
ungewöhnlich
Technische
Relief
Holding
Guts
Ems
Dave
##bedingungen
Pod
124
absolviert
##cz
Ehrenmitglied
identifiziert
gefahren
##inseln
##etten
##enge
zuständigen
Mani
Microsoft
Tote
##ila
ru
produzieren
not
##hauses
Kiew
Hi
Biologie
Forest
Peri
##cki
größter
vorn
##ado
zurückkehren
Kara
Ruinen
##hm
##bteilung
Porsche
Mir
Boris
Reichsbahn
aufgelistet
Palästina
Breisgau
Weihbischof
unverändert
##ohr
Öffnung
##aar
123
##illa
Thor
Mönchengladbach
##uppe
##cio
Maine
Fahr
##bezeichnung
Uran
Lausanne
dauert
ex
Scho
Mörder
1796
Schatz
Drachen
Level
##ça
mittel
kontinuierlich
##typen
Rap
RTL
Stoffe
Anderson
##eitung
Homo
trainierte
Dro
##ches
kanadischer
##ags
Bäumen
Ohr
##verteilung
heiraten
ausländische
Schienen
Ho
Mara
Fire
Tank
Nutzen
Gefecht
##wil
##artige
liefern
Schmid
Indiana
Höchstgeschwindigkeit
Bewertung
Reifen
##hard
übliche
##sco
##xe
##waltung
Dublin
Hochaltar
##een
Mönche
Mc
##akt
##dale
##uta
Geschäfts
##ama
einfacher
Posen
##gue
zugewiesen
tiefe
Listen
Pri
Edel
Château
Christine
Hongkong
örtliche
privat
Inschriften
mehrheitlich
Versorgungs
##nheim
ändern
Darauf
Liechtenstein
##hmen
Steuerung
##äumen
wonach
##strom
##asser
Heinrichs
Feind
Lu
Schwaben
##hase
gesellschaftliche
Standorten
Schiller
##vel
Story
ungarische
umgestaltet
malte
reinen
Entsprechend
##ères
schlägt
Regierungs
Künstlers
DIN
Bukarest
nad
Kirchturm
Tabak
Jer
Stollen
vorherigen
fern
Conference
##verbindung
Budget
##iet
HK
##osen
Lac
Erd
Kilogramm
Übersetzer
Guy
saniert
Dun
Bundesautobahn
literarische
heilige
Emma
122
Rade
Sendungen
##eter
tiefen
Tennessee
Rittergut
Mast
generell
4000
##ban
Gewebe
Laubblätter
Wassers
Jahrhunderten
Copa
Gestapo
Ter
preußischer
Minderheit
Mais
A1
##rl
Kulturdenkmäler
Schiedsrichter
Bre
##odi
Künstlerin
##ral
Funktions
obersten
gemeldet
erwerben
derer
##maß
Synthese
Kohlen
Baby
Sakristei
Spar
220
Aktivität
Stadtzentrum
Boots
Rue
AT
fuhren
##ár
gebauten
Politikerin
Körpers
Technology
##sung
Gründungsmitglied
##ote
Normandie
Verfilmung
##ugh
Pfeiler
Systemen
##menge
Magazine
##händler
BSG
##ener
regelmäßige
Zurück
Olympische
Kron
##partei
Slalom
absolute
Aufzeichnungen
Nordsee
##hoff
unterstand
bekamen
##non
mexikanischen
interessiert
##wan
Gedächtnis
3D
Fußballverein
Europameister
##rr
##stab
Meilen
abgesehen
Kulturgüter
Knie
Zweit
Katzen
Heil
##piele
##mba
erlaubte
Ju
Uwe
##zeug
Giuseppe
##minister
islamischen
grundlegende
Abbruch
Sage
Perspektive
1791
##pro
Mis
##meisterschaft
Erhalt
Ära
Dam
##verhältnisse
Konzerten
behaart
Beschäftigung
Robin
##iat
Magnet
Base
Regelungen
Lübecker
Denkmalliste
Anlässlich
auftrat
Light
Bakterien
natur
interpretiert
Pedal
gegangen
##fte
mitunter
Videos
##oss
Allee
Vietnam
##ücken
##ruch
Dub
Beispielsweise
Ausländer
##wall
Ma
Ablehnung
##risch
Vin
Antarctic
Bismarck
westlicher
1750
Larven
##Ö
Kanzler
ES
Österreicher
Flieger
Liverpool
1784
brasilianischen
Gerd
dieselbe
##sy
##ochen
Lloyd
Dienstleistungen
##organisationen
Titeln
Sportverein
Kreisen
Schulter
##prinzip
abgebildet
Pa
Niederlagen
äußersten
genauso
Amerikanischen
Reformen
or
Arme
École
##einheiten
Turner
##tive
Action
Iso
##nds
Motto
Sammel
Oberstleutnant
Übersicht
Bug
Anbieter
entwässert
Mantel
Ermittlungen
##nta
anschließende
##fluss
inhaftiert
##arm
wichtiges
sitzen
Naturpark
##flügel
Staatsanwaltschaft
Erscheinen
neunten
##elli
meint
##ragen
Professoren
Airlines
Pier
##ico
Merkmal
Grüne
Nachbar
Siedlungs
Rau
konservativen
Agrar
Worte
Folk
historischer
Philosophen
Namensgeber
##behörde
Brenn
Gesangs
Neuer
##igt
Vertretung
Disney
##gerät
Fassaden
schenkte
falsch
Schwer
erheblichen
betroffenen
##öse
Erwachsenen
Balken
Kolumbien
Bevor
unver
Fo
Konzentration
##oß
Erneuerung
##verhältnis
Zucht
Student
Bin
1400
Mediziner
Theorien
Gift
##å
Philippe
##ret
Norbert
Mühl
Ausnahmen
zurückkehrte
gliedert
##therapie
schickte
Connecticut
benutzte
irischen
##nat
Pont
Iowa
##pin
aufnahm
##oll
wahrgenommen
Spanier
Kanonen
Stade
##srecht
Übergangs
Vorschriften
##gor
Habilitation
passiert
Viktor
Leer
verkörperte
Gewerkschaft
##äu
ausländischen
Steinen
Kriege
##ühren
etabliert
negativ
Tha
Obersten
Marokko
Kongo
Katholischen
Chief
Sainte
##ändler
Nahrungs
##förmige
##firma
Ko
Mine
Zinn
##ν
Tau
Kalender
Gehirn
##ás
Meta
Hinblick
Café
Techniken
Ann
Mono
Bruce
Cottbus
römischer
Water
##ić
Fra
Axel
##ierungs
Hor
Wohnhäuser
##üter
wachsenden
Häftlinge
Masters
##lon
##brunnen
absolvieren
zahlen
Department
berechnet
Ange
##rne
Türen
Johan
Agent
kehrt
##xa
niederländischer
Ballett
Lagen
División
Leon
Bomber
Verpflichtung
Tee
Planungs
##tri
Erzähler
##ix
##ried
Müll
doppelt
Bru
negative
angeführt
Ursachen
schwedischer
Gon
Agnes
##systems
##rohr
128
##enz
organisierten
hessischen
##het
erhob
Staub
##ré
##gehalt
##dom
Maximilians
Belle
Held
Indonesien
Are
Darm
breiter
Stammspieler
Kamm
Abzug
berühmte
Handeln
Vermögens
Mrd
etablieren
Kle
Inszenierung
Bud
Bekämpfung
Bauart
Bahnsteig
Umwandlung
Nar
verweist
##ampf
Arizona
richtig
##cen
zentral
##tzer
fortgesetzt
Königlich
##wissenschaften
Bra
Olympiasieger
##ña
schnellen
Bosnien
Beau
vorkommen
Four
Ausstrahlung
UK
##gabe
Performance
##rz
Nicolas
live
##gebiete
Rum
fordert
Morgan
Legislaturperiode
Shi
Schiffes
angewiesen
japanischer
ä
SO
Ja
entscheidende
bar
zurückgezogen
durchquert
Operationen
Eintracht
Kla
##oo
##anischen
Lig
Franklin
##rts
Ca
##andel
Stall
eingewechselt
Social
Luftlinie
##wen
Ebenen
Sierra
gerettet
Nelson
Russen
Bauzeit
##sal
##orchester
##eich
##block
Uruguay
##etzung
Dorfkirche
##debüt
Stimmung
vorgeschlagen
Ansichten
##nnt
##nit
##ika
Zeitungs
##alter
##alt
##ziel
##kum
Bürgern
verglichen
Spannungen
starker
##dal
ragt
Wäldern
Gefahren
##stischen
regelmäßigen
Abfahrt
##iers
Vielfalt
Realschule
Lern
Laden
Modellen
Hütten
##wort
Kunstakademie
Erdöl
Tower
Nachkriegszeit
##die
Früher
##oten
Hat
Teilnehmern
warf
Geistlicher
Lese
Fächer
zeitweilig
Popularität
Off
Einweihung
ro
Laura
Heu
Cooper
schnelle
deutsches
Scher
Porträts
##til
Kämpfer
umge
Angabe
##scht
Weit
Pilz
Zusammenbruch
Tin
Moral
vorrangig
Strahlen
Söhnen
Rück
Landwirtschafts
Gattin
Cal
genutzte
Kos
juristischen
wahren
##eu
##com
##luft
verbreiteten
communes
Leber
BM
##mp
Captain
SF
normale
##armee
tat
jenseits
Margaret
AR
Vi
1785
Terra
Begegnungen
Motorsport
##lands
zugesprochen
Hauptrunde
##pflicht
##management
Re
##nehmen
Schäfer
befreien
Harris
gesendet
Kevin
Fernsehserien
##iges
glaubt
dominiert
Himmels
Dol
##werks
Volleyball
Möglicherweise
##pflege
Torhüter
Lust
verfolgte
trennte
kleinste
##dichte
Edgar
##räger
Hy
Departamento
Coast
enger
Grundstein
Ansehen
##älle
##chter
##öhe
Lat
Ansbach
Fein
##ager
Kaufmanns
##fre
Pause
Bauweise
Wieder
Ehrenbürger
half
Staatsbürgerschaft
##ysteme
freiwillig
Notwendigkeit
Kriegsgefangenschaft
Ek
Unterarten
Passagier
##rang
En
Westlich
##aße
Caspar
##bogen
Ice
Plateau
Pazifik
Neun
Sprachraum
tri
überlassen
Car
Boxer
hinzugefügt
Repertoire
##red
Pokalsieger
Gemüse
Schwarzwald
Talsperre
entscheidenden
Zelle
ziemlich
He
##esi
Krankheiten
##bury
Chronik
Datenbank
Eingemeindung
##rio
Mountain
##upt
Vil
Normen
Municipio
##erf
##eno
Gräber
Nationalspieler
Geistes
Lahn
Kandidatur
Hallen
rumänischen
##én
scharf
Mol
Basilika
Reh
##ffe
1770
##une
Umland
Rettungs
Quartier
Br
Schein
Korea
Konkurrenten
Net
Benannt
Truppe
Lincoln
##laden
Färbung
kommunistischen
Ph
Sim
##tionen
##our
Cole
##via
Kritiken
CC
Tausch
Rache
##echnik
Wiederherstellung
Generals
1787
zeitgenössische
Zier
Gerichtsbarkeit
Worms
schriftliche
amtierte
Mid
nachweisen
Uhrzeigersinn
Fokus
SI
##OS
Quartett
##ügen
Maus
gestrichen
##lasse
sechste
Verbindungs
GP
Südtirol
Schuppen
Coburg
##dler
eiförmig
##rund
##onne
it
##ght
Gitarren
##zustand
name
Atlanta
Informatik
ORF
##lassen
Stewart
Hä
Filter
Antonius
##becken
te
vermitteln
Fi
festgenommen
Rotterdam
ausschied
stiftete
##rp
belegten
Antwerpen
Überlegungen
##rücken
juristische
Wit
Ji
##affen
Sa
post
##jer
Shanghai
Pianist
Of
Vorgang
##eise
Freiwilligen
Blo
##eiter
dünn
Einbau
ausgedehnte
##org
Denken
##tat
##eh
Ansprüche
erobert
Oster
bittet
Sächsischen
##ssel
Stifter
##vater
Kohl
tropischen
Logo
Dynamo
##sam
Mad
##geben
Samstag
kirchliche
##usch
##ichtung
Orient
Countys
populär
##transport
##more
Ecken
Kommunikations
Krakau
Dal
Nachbarn
moderner
kommend
##ob
Monument
Holocaust
Pau
##oc
##kau
Marktplatz
Apsis
##mas
lokal
Binnen
Gi
stürzte
Men
##my
##itten
nachweisbar
Broadway
Miami
##ügel
##ckel
konzentriert
##ndi
##mitglied
AL
Christentum
nutzten
Rapper
gültigen
Bock
Bir
##verbindungen
Haushalt
Fernsehfilm
##ė
Vertrieb
Alma
Erik
Hills
Solche
Bilanz
##trainer
Neumann
CF
Aufwand
##last
##inge
##bre
eventuell
Wol
##schlag
##ndet
rechtlichen
God
##enst
Fantasy
Andererseits
Selbstmord
nordöstlichen
Störungen
Österreichische
Py
##tl
##rbeiten
Türme
Zähne
##versammlung
##gesch
##hor
nördlicher
Kur
Ursula
Bundesland
Gu
Politisch
hohes
Clara
##saal
##eum
##eins
##dis
poem
Lade
##sia
reiche
Sto
Kennedy
Lot
##hem
##boden
genügend
Hubschrauber
Fernsehsender
Zen
Lar
Amtsbezirk
##feuer
##ress
unbedingt
Comedy
##bauer
Kapellen
BS
Transfer
endgültige
##ib
Sitzung
Fang
Pit
Komitee
##verhalten
königliche
Aussicht
##stil
##artei
Neuro
archäologische
Eli
Dokument
##ici
Erfindung
##rna
herausragende
##deutschen
AP
letztendlich
Stadtverwaltung
Mor
Fa
Rückspiel
vormals
ost
Wachstums
betragen
Parlamentswahlen
orthodoxen
Offiziers
Railroad
Abb
Gelehrten
##iedlung
Claus
prägte
Schulzeit
##ßt
##korps
Tiefen
##worth
Sta
Sind
vollkommen
Zeichnung
##zentren
##ildung
Ländereien
siedelte
Franziskaner
##tze
warum
Sparkasse
veranlasste
Östlich
##awa
ordnete
überzeugt
Zügen
Rö
##itter
SM
Instrumenten
Southern
Kre
Beobachtung
Berner
Australia
elektronischen
##mu
zueinander
Mikro
israelischen
Unterrichts
##ño
Wirken
Kommissar
Schwerpunkte
Empfänger
Wände
Book
Wa
##vogel
Lars
Grant
Senior
Match
Erfolgs
Braut
Bassist
Po
GA
##ais
Bade
##bein
Malers
zurückzu
##temperatur
Preisträger
Landesliga
Jens
Hartmann
Immer
Beschäftigten
##nacht
Kirchengebäude
CI
Offenbach
650
Termin
gestiftet
me
Betreuung
neueren
Dir
eröffneten
##ingenieur
anerkannte
##verbot
angelegte
Dekanat
Bayreuth
##gte
Alb
zumal
Benennung
derart
Kolonial
veröffentlichen
PR
südwestlichen
Wahlkampf
Mare
öffnen
##zell
solches
Verlegung
Aufgebot
Pfarrhaus
Erstbeschreibung
1786
Militärs
Altenburg
##eide
Kings
Platin
##nos
Handwerk
##rag
Jay
au
##bot
##bat
Con
Sen
Erkrankungen
##achs
herab
onlyinclude
Zwangs
##glas
Skulptur
Russell
greift
Bedrohung
Protein
##vis
##reuz
Produkten
Network
Cour
##nar
Gerichtshof
württembergischen
abgetragen
Bahnen
##tage
##head
Kaiserreich
Decke
Bologna
Bla
niedriger
Wurzel
schmale
##lor
zunehmenden
Busse
##lände
Sou
formal
##ono
fein
Italiens
Germania
Massaker
Hawaii
##sgesetz
##ington
Lebensweise
genehmigt
Renault
südöstlichen
einzu
Flensburg
##quote
Stücken
fliegen
Lukas
Kühl
Get
bemühte
Volkspartei
Dessau
Heimspiele
verschwunden
1788
positiven
##hardt
Auschwitz
Leu
verlangt
Platzierungen
Ferien
Bearbeitung
Innern
Ak
##bilder
##mut
Pfarr
Sprach
Fehlen
Slowenien
MP
Estland
BR
Ad
Effekte
Gotteshaus
##gu
##uma
begangen
Elsass
##euer
Kaiserin
Alaska
informiert
Allgemein
gotische
Bisher
##ämter
Moderator
Farb
flache
Turniere
Pole
Kanzlei
Graham
darstellte
Nationalrat
Baus
Sommerspiele
Astronomen
##wiesen
verziert
goldene
blauen
Rebellen
Mosel
##gymnasium
Pe
Klöster
ar
##itung
demokratischen
Quer
Kiefer
Ausgang
##teuer
##das
Mönch
##linger
##pol
##ets
Gottesdienste
ukrainischen
##oto
##stische
Soundtrack
nord
Meißen
Salt
##boot
Reaktionen
erstellte
Missions
Pseudo
Hessischen
##ront
Tiroler
vollzogen
##oro
##kern
ausgelöst
Kurse
Julian
Rasen
Protagonisten
Regierungszeit
Matrix
Ha
##zogen
demselben
Puerto
NN
Steuern
Russlands
Verdacht
Segment
##borg
##chicht
mithilfe
Engländer
Kentucky
schlagen
Stadtbahn
Landstraße
erhöhten
##iere
Ae
Schalt
Ernährung
Charaktere
ISO
Urs
spitz
Engels
Steinbruch
##pu
Fu
Canada
zugehörigen
Lawrence
Bundestagswahl
vorbereitet
Zimmermann
##sverfahren
Kirchenschiff
##nien
Chal
sub
Berücksichtigung
Frederick
schien
Antoine
ur
Hunt
Ale
Kairo
Lohn
Heine
##mit
##ński
##freiheit
umgekehrt
regional
Büros
EN
las
##rzt
##sbe
vollendet
Wörter
Seil
Marseille
##tedt
Stich
Orleans
##schluss
Sofia
Klubs
Virus
Verhältnissen
Frei
Wahlperiode
##ften
dunkle
##decke
Seelen
Radar
Office
##blätter
Weltraum
##stan
##jährige
##echen
##stück
##leistungen
##ax
Maha
Bois
Geschlechter
Landschaften
Gla
Bekannte
Messer
Laser
erwähnten
Stuhl
##ngt
Datei
240
co
Og
Kong
pa
übrig
Zypern
Unruhen
extra
DR
Barth
NFL
off
Prediger
Logik
##war
geschaffene
##var
Englischen
##truppen
lateinische
aufzubauen
Religions
##ult
wahre
trainiert
sorgt
Ves
Richtungen
1783
Theo
Bowl
##häusern
Job
Bestände
Singapur
Stirn
Elb
##ners
XVI
Sul
##aktion
Duell
Hauptwerk
Gesamt
Challenger
2020
kritische
verlaufenden
IUCN
Rinder
##ichten
Mun
inszenierte
App
Lyrik
XI
Werkzeug
erteilte
##sellschaft
ME
Referenz
##ffer
mechanische
Sal
Prä
übersetzte
Malta
History
Emanuel
abgeschafft
Schallplatten
Instanz
##nehmer
Abfluss
##rollen
##chrift
Halb
Gehalt
Geister
Lucas
Prinzipien
Commonwealth
Gegenüber
Ereignissen
Mae
GE
Ausgleich
137
diejenigen
##äufer
gesungen
Ke
##в
startet
erweiterten
##haltung
nordwestlichen
Schröder
Niedergang
Gliederung
verbundene
EV
Neffe
Mul
Gala
Vorträge
Operations
Beobachtungen
variiert
Wu
selbständig
##hu
Dagegen
##rift
Folgejahren
orange
bo
##yan
zitiert
Statthalter
Lisa
erwiesen
##ös
##bung
schriftlich
##ān
digitale
Venezuela
gebraucht
Riesenslalom
Fett
##hus
sterben
##chung
Schweizerischen
Werden
##bek
Griff
Born
Laufzeit
Fürth
Ernte
Diesel
##ito
spezialisierte
##ç
##ish
##oma
Magister
Teilstück
Substanz
Bürgermeisters
Genres
australische
Persönlichkeit
Nordischen
Dor
Verwaltungsgemeinschaft
Noten
##its
Ortsgemeinde
Tele
Leiche
##arzt
Ähnlichkeit
sportlichen
##ill
Landeshauptstadt
avancierte
Gitarristen
Förder
herangezogen
beeinflussen
Casa
Gef
Fuße
Unterfamilie
Spring
Menschenrechte
Nat
##zucht
Kot
##dos
wiederhergestellt
Zer
Caroline
Ast
Tur
Klagenfurt
Valle
Konzentrationslager
Ionen
Menschheit
##nti
praktische
Wy
Achsen
##mund
Versuchs
Rekonstruktion
Minden
##kis
##ssung
Emeritierung
Flugzeugen
##kloster
##gestaltung
##ache
Kaiserslautern
Hör
Bergwerk
überquert
leer
Schuh
Designer
Alois
##olle
##eng
Kommunistischen
angetrieben
Spitz
Boys
behauptete
besiegt
gefordert
##ness
Magdalena
##tos
##verlauf
ordentlicher
Bedingung
##ili
##freie
WDR
Bestehen
550
##ques
##luss
Hu
Klassiker
Beachtung
Misch
Solar
Min
##ibliothek
Stru
Kelch
##raben
Mitkonsekratoren
Xi
Alpes
gedruckt
Ve
Gramm
philosophischen
beginnend
Koe
##quet
##ces
massiven
betrachten
Mala
Einnahme
eroberte
Ideal
Bush
##rop
verlieren
Metropolitan
FI
Erziehungs
zunehmende
ägyptischen
Lands
Haltestelle
basierte
Sattel
einbezogen
erzielten
Diensten
##nko
Ins
##TA
##fahrten
Rallye
##este
Total
bestimmter
Rhône
Biathlon
ihrerseits
Ble
zurückgekehrt
studiert
Piano
Andy
Oberlauf
Gilbert
##ct
versteckt
spezifische
##iro
starten
Wohnungs
Aufsicht
##erer
Eu
mitten
Bremerhaven
gotischen
Viel
Tro
Pu
Markgrafen
Independent
anwesend
Piraten
Aufsehen
Fresken
Berges
übersiedelte
gelöst
Rechten
##amm
##ebiet
##saison
##ader
Sur
Linke
Ivan
##fragen
##uro
##nor
µm
##achen
unterhalten
schöne
Gedenkstätte
Paare
Naturwissenschaften
##uti
Spät
stärksten
##meisters
##inie
Freistil
Bewusstsein
Kommunisten
##hel
Stra
afrikanischen
##bri
Most
Mehl
Debatte
IG
grüne
Walker
Springer
Titan
Oberseite
IA
beschränkte
##omi
##nka
genutzten
Schönheit
si
##tätte
staatlich
##ep
Übersetzungen
Lehm
erwarten
Hai
Untergang
SR
endgültigen
Nil
nachträglich
südlicher
Aussterben
##eer
schen
stattfindet
gesetzlichen
ST
Auftritten
##esch
##af
erstreckte
Un
Großstadt
Ari
gewinnt
Lungen
Demokraten
Cra
##kal
trennt
Rain
Woll
Atem
Angebote
gewählte
##bis
##aler
gelangten
Befehlshaber
Maryland
Traditionen
Sumpf
Kir
Satteldach
Blättern
CE
##antrieb
Griechen
vollständigen
##ip
Mittelalters
##nst
lernen
Bindung
##alle
Lichtenberg
##lls
Nordafrika
Sum
Ram
gi
Resultat
Pol
Europapokal
Wiederwahl
Hirn
rechtliche
entfernte
Ce
Vierer
Evans
##ram
Sach
##zan
##volle
Musikvideo
entkommen
Revier
Rechnung
Anbindung
Gedenktafel
primär
kostete
Stör
Natrium
Muskel
Wüste
Diskussionen
berufliche
Ried
1775
Göttin
Ru
Blüte
Witt
Längen
Wenzel
Minderheiten
from
IN
Apostolischen
##jn
Meisterschafts
Außen
##anbau
befahren
stimmte
verändern
Einteilung
Bé
##ement
Hub
AV
##udium
vorkommt
Reb
Pho
Besuchern
##ü
##bahnhof
TH
inmitten
Begriffs
##aceae
##ales
Einheits
Dai
antike
halbes
Kirch
##yt
##wig
Widerstands
##zie
##zow
Umlauf
Durchschnittseinkommen
##chts
hu
Überblick
up
Innenminister
teilen
abseits
verkündete
Kreuzes
hörte
Pad
Besatzungszone
##chow
Jr
Empire
Heft
##zonen
Passau
Rosenberg
Exemplar
##enster
einstigen
Mei
##int
Begleitung
verstorben
1772
Ach
##zar
vernichtet
benutzen
##ati
Denk
Girl
Teilweise
Garnison
Stadtteils
deutet
Scheidung
##oz
Charlottenburg
##marke
Track
Erstellung
##osten
Parker
Nigeria
##hit
wofür
XII
Homburg
Kantone
Fertigung
##ι
Tiger
Schwefel
Bewegungs
zeit
Mohammed
Houston
Tagebuch
##oh
festgehalten
gelbe
##kamp
##aki
Gerechtigkeit
Fur
jemand
Anstalt
##tür
stärkere
##räumen
##bücher
Buck
##motoren
Helene
Sant
zufällig
Stuart
##inn
##abe
Polens
Aufführungen
Bevölkerungszahl
Turms
##wellen
##keits
Dichtung
Utrecht
##physik
Ausgangs
##eiben
dunklen
durchzuführen
Offensive
Lea
##gänge
linker
Under
Kelly
##hat
##ür
Bundesländern
Erlass
FIFA
##ßer
Gleichung
ermitteln
hob
Tuch
beachten
##ahren
##raf
##eifen
Vetter
Publikums
##ative
Zyklus
Herrschafts
enden
vorgeworfen
aufgeben
Fehl
durchgesetzt
Messung
niemand
Mittels
Gürtel
Avenue
Asa
Aufträge
##DA
Poli
##ust
Chlor
Kuh
Bahnlinie
Kal
230
fo
Carter
##äger
inner
Fen
133
Eisenbahnstrecke
##т
Grimm
Planck
anstatt
einzig
Zuordnung
##orum
##brief
runden
Pädagogik
durchgehend
deportiert
##institut
vergeblich
##ward
Hyper
##förmigen
Streitigkeiten
Föderation
##rick
Jonathan
dahinter
##dorff
zehnten
europäischer
Begleiter
Sende
Tempo
Sack
Denkmalpflege
##literatur
Sala
Pauli
Ralph
##siedlung
##irektor
herrscht
Wahrscheinlich
Treppen
Wahlgang
##St
türkischer
Verträge
Lü
BK
Us
Schub
Alles
Ringer
Ortsnamen
Konzession
brannte
TA
Gui
Zauber
Schreib
oberste
Vision
Ortskern
Westküste
weichen
silbernen
##hle
Heilig
##truktur
Stralsund
Pot
More
Bun
mar
##rea
Your
Ryan
Anime
Wenig
Kastell
Genua
Wüsten
##szeit
montiert
Schwager
##studium
Sammler
##air
Over
Gerichte
lateinisch
freigegeben
königlich
Landung
##aw
direkter
Rod
Feste
sa
Engagements
##has
Konkurs
Por
Ti
Orientierung
##auten
Wettbewerben
##werken
##lach
Mali
UCI
Char
##dit
##amp
zivile
Lebzeiten
Gewässern
Spanisch
Klosterkirche
##sre
bayerische
Volker
##lea
analog
Segel
archäologischen
Winde
Rü
gewertet
Liu
Hain
##stra
##ormen
gerichtet
Jeff
##produkte
besuchten
echte
Juristen
nachzu
Weide
##zeitschrift
##dl
Dead
##aa
Kie
Ehre
##dol
Sitzen
Synonym
##king
Audi
AE
##rück
Überwachung
Schulz
Konzepte
Dorothea
gestalten
geführten
Statuen
car
1776
gerechnet
Places
Kies
Französische
##stin
romanischen
##tiere
ko
Nieren
Ay
##ware
barocken
Reporter
##eid
1782
Ul
##erz
wohnt
Lehrerin
verschieden
##get
##küste
Saisons
##ruf
romanische
##bacher
Hitlers
Double
Widerspruch
Mozart
Buchen
AN
##ń
##chel
##rats
##haupt
Wiederaufstieg
wechselten
Zi
Umstand
zeitlich
Low
Verbraucher
Bolivien
ausgegeben
Rost
Kalten
vermuten
Hell
Canadian
Delta
ernähren
MC
##ood
##front
Präsentation
##able
Aufenthalts
##pfen
weitergeführt
individuelle
Rick
##ava
einsetzte
Pas
Speise
Klassenerhalt
Fracht
##tab
##ssi
##lio
##frequenz
##änderung
##steuer
gelben
abgekürzt
Sel
Raymond
##hafte
Hauptdarsteller
Automobilen
ba
##teilen
Experiment
##rium
Tol
lu
##ütte
##tia
Hal
Abwesenheit
berichten
unserer
bu
Verschiedene
Raupen
misst
Oberbefehlshaber
Notar
verwachsen
offs
kurzfristig
Break
##ij
Louisiana
##halt
Rechen
wohnten
Publikation
Bey
verwickelt
Restaurants
erlangen
Entwürfe
##arn
Wach
Pia
Dei
kommunalen
Geometrie
##iegel
Pensionierung
##griff
Lima
Interviews
Boeing
##arte
kritischen
schräg
##sar
##rates
Limburg
Ausschusses
Sang
Margarete
Linux
##rsch
##asa
rechter
geprägte
##nkt
moderierte
Lie
Veranstalter
Stiftungs
empfohlen
CV
##verlust
##halter
##ev
nannten
Brems
##uel
##reihen
##eni
theologischen
Hydro
Detail
##itze
fehlenden
Bienen
bewarb
Freitag
Challenge
##eller
Fachhochschule
Modernisierung
Schöne
Rückstand
##ude
##nsch
kur
##konzept
Küchen
##posten
Container
Bang
##eta
verbracht
##grün
seltenen
sportliche
Mon
Ernest
Aba
Landau
##position
##bäude
Kurve
##jährigen
regierte
##fonds
Schlangen
interne
interessierte
Spree
Å
##charakter
##herrschaft
1777
Ohren
repräsentiert
##lat
Hass
Augsburger
##ücher
erlassen
Konsum
gewährleisten
getauft
Contest
##legen
##rst
Weltrangliste
untersuchen
##gern
Vertrauen
Orange
Börse
Salvador
Development
angeklagt
##lik
Sorten
##rogramm
gewährt
Ethik
##ieben
##ias
Industrialisierung
Republikaner
Logistik
Kor
Filmmusik
Madonna
Vertriebs
hart
Sicherungs
ve
Ing
Autors
Autonomie
Konfession
Finanzen
Austin
Deli
Ol
angefertigt
Koordinaten
Ful
Engineering
Nachteil
Fernando
Billboard
Santo
Ger
Alabama
warten
trennen
Zink
Mindest
127
##ík
Ordnungs
Cou
Rechtsprechung
Morris
Historische
Adolph
##gesellschaften
wiedergewählt
Dachau
Vorarlberg
##analyse
##lde
Algerien
##bergs
VEB
Läufer
fehlende
Moon
##niveau
beruflichen
höchst
Nichte
vermarktet
##hain
theologische
Zentren
Castro
##leute
Freistaat
Benzin
##iftung
gestanden
Breiten
Beratung
Reparatur
Maßnahme
Pension
##oka
Peak
Monster
##handlung
Untersuchungs
Marshall
Treppe
Ot
Regisseurs
unterzeichnet
Gutachten
absch
Unterhaltungs
Regierungen
intensive
Wan
Stiel
Kel
##farbe
##yp
Triumph
erbauten
Ultra
Verarbeitung
Cu
##ndung
liberalen
gelblich
##kra
Gör
Gary
##isieren
verlaufende
siedelten
Weltrekord
Japaner
Bundesministerium
Unterart
##allen
Petri
Tan
Skandal
steil
Verb
Eisenach
IM
scheiterten
deuten
Tochtergesellschaft
Hel
Halt
Uhren
Eng
scheinen
Primär
##regiment
Gro
Erinnerungen
Baker
Bergland
##owitsch
Empfangsgebäude
##ühl
Wi
teilgenommen
reguläre
dreißig
Rem
tausend
gewährleistet
Schu
##ater
Stuck
Oregon
##ï
##ngel
Lut
##cat
Gottlieb
trocken
Verstärkung
Hunger
Abschied
##ögen
scheinbar
##roman
dick
Gelegentlich
kürzer
##wirkung
glatt
Statt
Kro
Second
Zagreb
Survey
Luxus
fusionierte
inspiriert
Herstellers
Pfarre
Brünn
herzustellen
Northern
MI
Mitglieds
Ré
##oberfläche
Kra
##stern
Stapel
Sri
LA
##ław
Vertreibung
Demnach
Stalin
Sinfonie
Auswertung
##nier
Obere
Burgund
##mung
Tante
Kunsthistoriker
schlechter
Asyl
zuständige
Erschließung
Warm
Kabinetts
Franchise
Forstwirtschaft
ständige
angelegten
##wissenschaft
##volumen
drohte
aufzu
Stängel
Rückgang
Niederlassung
anfänglich
Privatdozent
Festungs
Gerade
Räumlichkeiten
1760
##rius
##enstein
Schaffen
abzu
Weiterbildung
##tums
widmet
##uli
Putz
Erwachsene
verfolgen
Gewerkschaften
Übergabe
##dreh
gefasst
##gene
Medium
Fun
Modern
Kriegsdienst
Ian
Gian
Bros
AI
##omo
Mütter
Glockenturm
erweitern
##tre
Sieges
Dallas
wachsende
##iss
##cu
mein
Katholische
##ober
##amin
Se
Nau
##usse
Lösch
Westfälischen
Oswald
AF
vereint
##verordnung
##gger
flog
Wichtige
Referent
Kapitulation
##ą
massive
Geologie
##tha
Sche
##xen
geeigneten
Gärtner
zer
Wintersemester
Besondere
Hinrichtung
Proben
Neffen
Niederländer
Qualitäts
Vergabe
##law
SW
lobte
Gedenk
##mme
Zwölf
RB
Brom
Crew
Ü
##00
##ê
##bit
##meyer
diplomatischen
1100
##ido
verheiratete
blaue
##qualität
Kurze
Aufsatz
Leg
falsche
ti
Kirchenbau
Toni
##ießen
##kind
##itzer
##gebieten
klare
Putsch
Diener
Schiefer
Provinzial
Anker
##ceae
Side
gezielt
wertvolle
Clo
##nation
##egg
Elektronik
Electric
Millimetern
Gewichts
##ej
Thompson
##usi
Gos
##spe
##bas
Cook
technischer
Kosovo
Folter
Bä
Niederrhein
online
besonderes
1778
Dirk
wörtlich
Lehren
charakteristische
Kristall
Kost
Echo
##maler
pi
Joan
##text
Nutz
Mons
##oje
##aufnahmen
Baudenkmal
Pietro
##sver
Schilling
Cher
Eddie
Aspekt
via
schrittweise
Studies
Meier
Kreisstraße
##qui
erringen
Spanischen
Berkeley
eingebunden
Ziegel
Hur
einander
behaupten
Nachkriegs
##chie
Rie
Gesch
Administration
##tafel
Agenten
##ration
##lien
Zeilen
Zaren
##chul
Turbo
kombiniert
##rge
Sachs
Kut
Agentur
##abend
zusammenge
Planet
##par
Bordeaux
Empfehlung
A3
##ugel
beibehalten
letztere
Wen
Cousin
Bänden
Taufe
##tto
##rache
##panzer
bemerkt
Chen
con
Lit
gesucht
Norman
Helfer
gesagt
Malaysia
Habsburger
##sab
aufrecht
His
Batterie
initiierte
weitestgehend
Brooklyn
##ox
Bunker
##brand
Hauptgebäude
##streifen
emigrierte
Mah
Cricket
##regierung
Par
##bett
Miguel
Steins
Fin
##förderung
westfälischen
Vereinbarung
##macht
verehrt
Anpassung
olympischen
Osteuropa
MB
Legion
Kommunen
##iegen
Protokoll
Bas
Henne
Vorwerk
##kh
##eigen
Lor
Elster
Campbell
Alternativ
Tarif
Oberschule
##höhle
##ond
zweigt
##rra
Sogn
beschäftigen
DG
##sho
Poe
Augusta
##olt
##fahrzeug
betrifft
1763
Umgestaltung
Backstein
entscheidet
Filiale
##rtschaft
##lügel
ben
##wind
zweitgrößte
ehemaliges
digitalen
niedersächsischen
sozialistischen
##tieren
##sing
gesundheitlichen
Journalistin
Ata
##stoffe
fasste
MG
Kil
##avi
Aue
öffentlicher
grob
Parameter
ausgeliehen
Sus
Mittleren
Freiwillige
Sekundär
##RA
##mond
##friedhof
##dell
Torpedo
Wilden
Thriller
Stoß
##ringer
stattfindenden
Fotograf
Neuordnung
Historischen
benötigten
Roche
Ansätze
##ensis
##mani
stattgefunden
längste
behandeln
Sha
Islands
dia
Mot
##sä
einheimischen
Vir
Richtlinie
##inder
##ester
##burger
angewandt
##loge
bricht
Verfassungs
Stadttheater
Hasen
gescheitert
Chan
verdient
eingeleitet
Gouverneurs
Gel
Boll
##pot
Slam
Attentat
##fische
weltweiten
Sig
##stre
Birken
##ský
derartige
Vorgaben
##tzt
Ty
Kom
treu
verzichten
Alp
Steiner
Ham
alternative
##ktor
Sau
BD
langjährige
ap
Nationalparks
Anhöhe
Muslime
##nice
##opfer
##nha
1740
ähnlicher
Fonds
Käse
Korb
Sauer
Labour
Kant
##forscher
Ensembles
Käufer
2000er
1774
##vit
Schriftstellers
Augustus
##sso
jenen
Herzen
Empore
##tige
##fähige
betriebene
Magen
Laub
Weine
Stadtgemeinde
##ystems
##ph
##nutzung
##nommen
sonstige
renommierten
Saarland
##lot
beseitigt
Bonner
Belastung
Ant
Münchener
##ausschuss
Mundart
Stile
Sten
Aserbaidschan
Shu
Krim
Fro
Cape
anzunehmen
Wochenende
Photo
##önig
betonte
##logische
behalten
Semester
Mauerwerk
##ähnliche
ID
Command
##milie
herrschte
betraut
Tibet
Pulver
Oberhausen
NE
##rren
##court
Petra
MTV
alliierten
Wai
##eb
Rückrunde
Futter
##linge
##mers
vorge
##ρ
Hypo
##ace
geschehen
Demokratische
Betten
##sprache
befreundet
Erscheinungsbild
Erwartungen
Diktatur
##ndel
ibn
Blas
Scha
stellvertretenden
ausgegangen
aufgegriffen
Silver
Täufer
Thai
Karibik
##nke
Spitznamen
verhältnismäßig
thematisiert
Unterbrechung
Mora
Schema
Che
Abfall
##feier
ständigen
Cleveland
##cin
forderten
Kamp
Grundsatz
AA
Sz
Stroh
Anhängern
##eda
Vera
Ey
verschwand
HA
angebunden
Michail
##rden
Überfall
rötlich
heutiger
Hohl
zukünftige
Reit
Gesichts
##qa
Zonen
Trinkwasser
Beta
Sätzen
Pick
überarbeitet
angehören
Umbauten
Baptist
Aero
Unterlagen
Pater
Luc
Ingolstadt
ausgespielt
Düren
Frühling
Diagnose
##ander
U20
##stalt
geführte
rechteckige
Kol
Berlins
Zahlung
Kompetenz
Inbetriebnahme
Brach
Kameramann
Este
Schreiber
SL
Care
Betrag
Manhattan
komponiert
Bai
protestantischen
FM
##ichte
Vegetation
Konvent
praktischen
Professorin
Petro
Häfen
Hexen
Herausgabe
##ierenden
Taschen
##läufer
fungiert
Brothers
##änden
##chnik
Mo
philosophische
freigelegt
beschriebenen
Field
selbständigen
Schwan
Mau
Verhaftung
Still
##graphie
sowjetischer
Reife
Nazi
gerät
Fleck
126
##if
norwegische
##lé
Mill
Har
##yr
Winterthur
Vorwurf
Röntgen
##ahme
Clan
schafft
Stände
Lambert
Adrian
erkrankte
Russisch
Poker
Tarn
Mak
Namibia
Gemahlin
folgendermaßen
listet
Ai
##deutsche
Lind
Barry
##ierende
Reinhold
Dimension
Verbandsgemeinde
##güter
##teilung
Sue
runde
1773
Enden
Lund
##listen
zivilen
Bil
##ritz
belgische
Umstände
##ehr
unbe
Rhythmus
##laufbahn
Mixed
Angestellten
Flüssen
Erwerbs
internationales
integrierte
Gre
verlangte
Frisch
Alm
Robinson
Ochsen
Munition
Kanadier
verknüpft
Alltag
helle
Ronald
##ühne
geheiratet
Zo
Unge
Systematik
systematische
##vas
Bul
verfügten
hinauf
Hybrid
Armut
##piegel
unmittelbaren
Sportarten
Grafiker
nachts
Unit
kostenlos
##könig
widmen
Bi
##uhl
##sit
Botaniker
##swi
angegliedert
wechselnden
mi
Els
Einschätzung
bauten
Sin
Warner
Ras
mittig
Schlachten
Cer
##itel
Territorien
Staatsstraße
Anliegen
##wart
kaufen
Kali
Gros
erheben
Meisters
List
Längs
Kaplan
BB
Vila
Dekret
##ligen
grundlegend
gesetzliche
##tunnel
##lern
Dream
##sau
Matthäus
##nza
##gens
Bibliotheken
##bezirk
Organe
Fahrten
##zon
lebens
GB
##cer
Swiss
Sonder
zeichnen
##imo
Link
##ammlung
Modul
rechtzeitig
##alis
##inde
Warschauer
Steck
DF
##uert
zwang
Zugriff
Indian
drittes
##yu
komplexen
heimlich
Konvention
Anschlag
ra
##unt
entstammt
1781
##aja
Gesamtfläche
Leinwand
##bet
Oberf
Ang
##nei
Treibstoff
She
Rüstungs
##sinn
##bereiche
reagiert
Herman
Weis
Rag
##erl
Ott
Martha
offener
Gur
##division
Bezirke
Swa
##trecke
fassen
berühmt
##brunn
Wayne
##twicklung
Treue
Aga
Quadrat
##walt
##mans
Grass
FF
Ars
Moos
Fat
legten
##nic
ändert
verwechseln
engeren
Sekunde
umfassend
Kontrast
anerkannten
Sec
unterhielt
Taunus
Schubert
Micro
Arno
##bände
Sportwagen
Humor
Brun
Augustin
##äne
professionelle
##konferenz
unterstützten
schlechte
Kha
Murray
Sprech
##stet
Republikanischen
Theologen
##schau
abwechselnd
portugiesische
Luigi
##hand
halbe
Fla
Kanals
hervorgegangen
elektrisch
##oda
Kontinental
Abd
Prosa
Jahn
##zentrale
Jason
reduzierte
Staatsbürger
Nancy
##bachs
##stock
##sto
##nel
vergab
elektro
Fortschritt
Marianne
Koo
Ge
İ
späterer
##æ
##ym
schmal
konkrete
Schaf
Folgenden
reduzieren
Verwandtschaft
##isi
##hang
Tommy
Services
##smo
##kasse
##gast
Jonas
auftritt
##jagd
trockenen
Kasachstan
Filmregisseur
Säule
Abschaffung
strategische
einheitliche
Richtlinien
Englische
##direktion
Einwanderer
Isle
reformierten
Commission
mächtigen
jüngsten
reisen
Marschall
##arkt
Bürgermeisterei
##tic
Flandern
Bohr
Ackerbau
Plastik
Ethnien
Hanse
##anden
Aufteilung
weswegen
Gö
Celle
Hohenzollern
Blasonierung
##ebäude
##lam
Dicke
Bobby
##magazin
Dy
##eli
Seoul
Heart
vierzehn
hilft
Wrestling
Wirbel
##sicht
wa
Jochen
Grundstücks
##aria
gültige
##owo
individuellen
Canal
##dienste
Organist
Großherzogtum
Werder
Lords
##oper
Schuljahr
Erdgas
1730
gegenseitig
Hörspiel
##kraut
sonstigen
Messen
Harn
##ief
##heiten
hängen
Leichnam
Ig
Ghana
Bernstein
##büro
Birmingham
Aka
##egung
2500
Ra
Mahl
feststellen
##fahrzeuge
militärisch
Reichstags
Linken
Hansestadt
##felde
##vor
##dischen
Rama
Fahrbahn
Liedes
Geheim
durchführen
Guido
fehlte
Wis
##oth
Gri
##tochter
durchgeführten
Alfons
geringere
bemüht
Way
Geschmack
Flotten
Kaliningrad
##masse
unbekannte
##planung
##tch
##lay
klassifiziert
##ntin
solange
Sexual
Jubiläum
Denkmäler
##tück
Ideologie
Beurteilung
##vers
früherer
beliebtes
Pen
Gute
##eine
##bes
gelassen
Take
Spalte
Trieb
Note
Gütern
##uda
##erne
Google
Bal
##undes
abgetrennt
WS
Intelligenz
Caesar
##bb
Eifel
EA
##num
##bol
Mittelfeldspieler
##fu
Short
##unkte
weitaus
fünfzehn
##quartier
Arzneimittel
Year
Großer
Alberto
Bonus
Qui
Joch
Vorwürfe
Kon
1779
##hire
nacheinander
Sven
Oberen
cha
Zuerst
Herzogtums
EB
Antriebs
##ło
Nahe
CP
Wiese
Coach
##meinschaft
Teufels
Besch
Aachener
##IS
senkrecht
seinerseits
Gesamtlänge
Schumacher
Kohlenstoff
akzeptiert
Walt
Tobias
Polar
Gartens
Ostküste
Dü
Arabien
my
Eich
##adi
Austragungsort
Burgenland
##reifen
Zwickau
Wil
wiederholte
Zweige
Phoenix
gutes
Territorial
Quell
Option
##fehler
Ältere
##hlen
Wahlbeteiligung
##top
##olf
##giebel
tatsächliche
denselben
Son
Gummi
Atlas
Mur
BV
Catherine
Beamte
einzusetzen
Vornamen
Rundfunks
Joint
Extra
Chinas
Gips
konstruiert
AK
Jungfrau
Ze
Scham
evangelischer
Nah
Image
##gott
Projektes
Subjekt
Machtergreifung
Glo
leiten
Flu
##kor
orientierten
gedeckt
Differenz
Bella
210
##rma
Schle
Bahnhöfe
##äusern
hindurch
Flut
##altar
Anzeige
1648
Boulevard
Potential
Landschaftsschutzgebiet
##ösung
##ór
##örderung
Schulgebäude
Mag
##reisen
Nam
Werkstätten
Classic
##usschuss
Italia
Gruppenphase
Glen
Gemeindeverband
##wy
Schumann
Lem
Handschriften
Etappen
betrugen
Vokal
Wars
Seattle
Kaspar
##ota
Zensus
Symptome
kommerziellen
Wehrdienst
Teufel
Peer
Erstliga
Jam
##leit
Sehr
Schlei
Project
Glanz
##rmann
hand
Auswärtigen
##asten
verbringen
Plural
Julie
Betrieben
Nations
##enko
Einzelnen
Carol
pflegte
Venus
Meli
Brandt
Kis
Amphoe
Portland
Ga
##chlag
Kä
Mil
Meisterin
Theaterstück
Situationen
Druckerei
##veranstaltungen
verringert
gegenüberliegenden
existierten
Haare
Arte
Sk
Nagel
Pays
Gru
Cat
heftigen
Handwerks
Helen
##bon
jenem
Vereinsgeschichte
##cum
Datierung
Trag
versenkt
Großmutter
##organ
Kirk
Aki
##öfen
verlängerte
ri
kontrolliert
Watt
Getränke
Bari
##logen
Geschehen
sprachen
Mitwirkung
Stark
Trend
Schauspielhaus
Natural
schwarzer
liefen
Tra
PP
Gray
Experimente
Bristol
Unterhaltung
Bann
##inhaber
##allee
wöchentlich
Stickstoff
##iri
Jas
##kus
Sony
Deutung
##vereinigung
Claudia
Regierungsrat
Löwe
CR
##ministerium
##kli
Sai
Leitungs
Kay
##rian
Lenin
Geschoss
KV
##ske
Stützpunkt
Kam
Jülich
Rangers
Erzherzog
Bur
praktizierte
##back
Que
##mbi
Märtyrer
Mitarbeit
Mata
Konzeption
Gertrud
Gli
Erzeugung
Arti
Ain
##tho
NO
Š
lernt
##hammer
##mos
##kontrolle
entnommen
Viktoria
##rtig
Violine
Vegas
Apotheker
LS
##spiele
begrenzte
##ziert
Download
##flotte
industrielle
Geschütze
Nit
Autonomen
##öffnung
Expansion
Schmerz
Trophy
stellvertretende
XIV
Sanitäts
Prädikat
Community
Schä
##ition
##amtes
GS
Torwart
Rica
Lava
Geburtsort
##energie
Race
Mas
Fließ
##üd
##nitt
erfordert
nahegelegenen
Auftrags
nebeneinander
nachge
Reden
Ralf
Staatsoper
Jüdische
Hae
Wright
Anden
136
vereinbart
gehe
Henning
Überzeugung
Investitionen
##20
##anal
Justin
##ues
Masa
Förderer
ni
##rem
erlitten
##kten
##raten
Beu
wert
Baudenkmale
##register
##uis
##nisch
##hoch
verh
FIS
Abel
Leonard
##useum
Dutzend
##stärke
##nstein
##wal
##hte
erlauben
##herstellung
optische
Vierter
Ries
##shausen
bezeugt
Zan
weltweite
exakt
Synchron
Falter
überließ
Ori
Revision
Studierenden
Leverkusen
##phe
böhmischen
Göteborg
##mmt
konzentrieren
gebildete
Pink
Chau
Beamter
Geschichts
Börsen
Auftraggeber
männlicher
Suizid
Markgraf
Cent
##nick
##decken
Chip
Armutsgrenze
Alexandria
Panama
Kopie
Gedenken
VW
Differenzen
190
mu
Wachs
##spielen
steigen
angesetzt
erregte
aufstieg
Membran
Plo
##heorie
umgebenden
Konzil
Porzellan
Hardware
Wohlstand
Geländes
Hansa
verzeichnen
Jerry
CB
Grundstücke
Gespräche
Libanon
seitlichen
Saudi
Ida
##gny
Pay
hervorging
Beirat
##aub
Booten
überlebte
fach
Lock
Dennis
Görlitz
Ess
Alba
##nah
##mid
besagt
tourte
##elemente
Blitz
##wälder
Umstellung
Cie
260
Politische
Endpunkt
##scho
verfilmt
tödlich
Quanten
Landeskirche
Substanzen
ordentlichen
Til
Fenstern
##insatz
argentinischen
##time
##isation
##gebirge
Neuguinea
Bed
Stabs
Heimatland
Dateien
getestet
##frage
negativen
Strahl
vo
Lein
Harold
Gewerkschafts
Bestätigung
##ege
Radsport
Gelenk
geeignete
Cre
Generaldirektor
##ätte
Erfolgen
##tone
##how
niedrige
Bildschirm
Garden
Gal
verdrängt
##rise
Zwischenzeit
gelesen
Gefühl
Bataillons
Zins
##gesetzes
Rettung
Elefanten
Bu
Vermutung
##spitze
##niederlage
Verse
drehen
Philipps
mitge
meine
##hrer
kannte
Say
##sge
film
##dri
##lust
untergeordnete
Parti
Ar
Materie
##bestand
Galli
##ltung
Neues
Landwehr
##ören
##pat
Singer
Ladung
Kasten
FPÖ
bearbeitet
##asen
Walk
VD
##uern
##truppe
##bin
repräsentative
Theresia
##inus
Zeile
Primera
##ffel
Arbeitsplätze
Wang
Va
Laufen
Lai
##portal
vordere
Wei
Lettland
Hudson
serbischen
Mitarbeiterin
Jugendlicher
Instrumental
nachfolgende
Jules
par
And
##tals
Forts
##trom
##zieren
##mitte
Lehmann
Astronomie
Störung
Gunsten
Geschäftsführung
##freien
Tagebau
##waffen
bezahlt
Straf
Weihe
Spannungs
Adi
##nlagen
BC
##ð
Susanne
dementsprechend
Zeitgenossen
jemals
Verfall
Papa
##liches
folgend
Spreng
Schwere
Bronzezeit
##hne
Sabine
Part
Konstruktions
Erzähl
##aux
basierend
Sorge
Lom
Lüttich
pfälzischen
Mix
##kommando
##nell
Preußische
Boss
##höfe
zerstören
mono
Ermland
##usa
Chancen
entzogen
dei
Pack
Augustiner
sozialer
Ware
Dokumenten
leiden
Pir
Rah
Prof
Hansen
Einträge
##kat
sexuelle
Oro
Hunter
Fundament
##reste
Stätten
Ellen
##precher
##mir
Globe
mo
##PA
##jen
agierte
Villen
Ligen
Betrachtung
silberne
Pfand
Biel
Entscheidungs
##ğ
Valencia
Stimm
Steven
sche
Ostfriesland
eingespielt
Erfüllung
Ostern
Gert
Coupé
Automobile
1720
##treffen
SB
Krater
Fernstraße
##yama
##ndo
Sher
Lud
##orst
##tow
##kinder
Chat
fa
ausgehend
##hra
ac
##orten
##meisterschaften
##kirch
bekanntgegeben
angeordneten
Tet
Landkreise
Einmündung
professionellen
jung
Bundesamt
BI
##kai
##klassen
gewordenen
aufge
Summer
##eht
Sektor
Röhren
Maas
Hirten
östlicher
ausgetragenen
Medal
##ärke
ausgeübt
organisieren
Wohnort
Tetra
Grammy
eroberten
Aussprache
veranstaltete
umso
WA
ausgeprägt
Chur
Vorjahres
##streit
GG
1768
##ë
Fußballer
##einigung
Din
6000
Yan
María
Lebensunterhalt
Helena
Cala
Brod
Baseball
##rweise
Kinofilm
Kei
##bur
gern
indische
explizit
Präsenz
##isierte
##ieß
geographischen
beinhaltete
##gat
ausgehenden
Wasserversorgung
Rakete
Oh
Ludwigshafen
Rico
Kus
Massa
How
Eigentums
Bezirksamt
##tle
##abel
zugehörige
Kata
Fre
multi
modernisiert
Rechnungs
kaiserliche
Lutz
Investment
##ppel
Franziskus
angehört
Gefühle
Fähr
Aktuell
Rippen
ähneln
Event
Wor
##quer
Ziegen
##liegenden
sinnvoll
herausge
Wolfsburg
Emden
Channel
##wat
Klammern
##trakt
##sens
lehnt
Vorgänge
##ändische
##test
unternommen
Schna
Staatsrat
HS
dreizehn
Lateinamerika
Gar
##sand
Pet
fördert
Muhammad
##krise
Village
Sozialistischen
ABC
##vier
weiterentwickelt
Yi
Pr
##any
Palmer
deutlichen
Ebert
##nä
Liberalen
Eins
Bert
##zung
Ortsrand
##ffi
##cle
Proteste
##uto
##tritt
##day
Mehrzahl
Erholungs
Ane
##unk
heimischen
Romanen
Materials
##konzert
amtierenden
Satzung
##reiben
##ield
Pei
Med
Reaktions
Dul
tätigen
betreten
neo
##roth
##rb
Strahlung
Mira
Tenor
1765
Triest
Haller
sichere
Qu
Hörfunk
schweizerischen
Reichtum
Krisen
DP
Flüssigkeit
Finanzminister
##methoden
Japans
##gre
Medical
Eingangs
pe
Lieutenant
Eurovision
##heater
steigern
kinderlos
Krefeld
##oj
Schmitt
ausgesch
Irr
Porta
##ò
ohnehin
Magdeburger
Gol
Fortuna
harte
Oklahoma
Kurven
Asche
##frau
schwierigen
hi
gemeinsames
##uh
Vermont
##äl
##tragen
Landtages
##bericht
##bahnen
steilen
heutzutage
gewonnenen
Neuere
Beinamen
##д
Roberto
Hugh
Cara
Nouvelle
gefüllt
täglichen
hy
RAF
Fuji
Lernen
wirft
benötigen
Lew
Buslinien
Names
Jahreszahl
Berichterstattung
##quin
harten
Tram
Objekten
Hou
Dean
##andes
zugerechnet
geistlichen
Rath
##vet
gelebt
Bretagne
finanzieller
Sil
Gei
Sah
Präsidentin
Galaxien
Feldern
##zügen
##ssystem
Toulouse
##tigen
Doll
Dahl
##misch
angezeigt
##nationalmannschaft
Flak
##wesens
Nonnen
Anschlussstelle
##emann
wechselt
sichtbare
Huber
Amp
##eth
Quadratkilometern
Puppen
Asse
industriellen
kosten
quasi
abgelegt
Lon
ober
konstant
Kegel
##professor
zentraler
Profis
wirkten
Sor
Zeuge
bewahren
gerecht
##uan
Prop
##ο
gelistet
##itglied
Kunstwerke
weißer
geschieden
gesetzlich
Newton
Import
If
##gründen
##akademie
wanderte
Dakota
verkehrten
Masuren
Anregung
Mach
##scheid
##fallen
vermieden
280
##fle
Wirkungs
Taler
hölzernen
##err
##enten
Übersee
griechischer
anschloss
frühzeitig
Nickel
Tell
Semi
Gebrüder
komplexe
Monta
versorgen
beweisen
Nan
Freising
Burschenschaft
Abe
Neuf
Geistlichen
Schwimm
Leuchtturm
Großherzog
##icher
##dle
zugeschlagen
Zeitalter
##rod
flankiert
Resonanz
Geographie
320
##logischen
erforscht
Städtischen
ED
##uge
##kur
verteilen
Buddhismus
Baltimore
2n
##uba
Platzes
Alta
lutherische
Untere
Ludwigsburg
Guten
fortgeführt
Aristoteles
Schah
##medizin
Abständen
##versuch
rechtlich
gebräuchlich
##τ
Marktanteil
Zivilisten
Ausge
##lings
Cho
Abgeordnetenhaus
##ntwicklung
Explosion
##gkeit
weigerte
reagieren
holen
##größen
gegenwärtig
##lho
##aya
##lie
vorbehalten
umgehend
niedrig
##nch
Steinkohle
##rche
singt
eingeordnet
Fries
italienisch
Kongregation
##pal
vollen
Typus
Hey
Examen
Streich
Ue
Ward
Resolution
##ør
##ägen
##assung
bulgarischen
Religionen
Montana
##zier
##pert
Jubiläums
Fossilien
Benutzung
künstlerisch
DH
##opi
Modells
##ates
schildert
gegebenenfalls
RM
Landsberg
Ausläufer
richtige
Vo
TC
Flach
Bekenntnis
##stücke
##grab
##einrichtung
Hü
ET
Schönberg
1753
##tens
Sali
echten
bevorzugte
beruhen
Orgelbauer
Gay
##universität
Rus
Marg
Fachzeitschrift
Kälte
Jährige
Deich
##haften
Tallinn
Tabellenplatz
künstliche
Ortslage
Limes
massiv
Rheins
Ren
330
##jin
Wich
With
Skelett
1771
##weit
Titels
##CA
##yle
bewirkt
Labels
Geiger
Filmproduzent
Alto
##wick
##lätter
Kate
1756
Ökonomie
Grammatik
Auslegung
##enze
rechteckigen
konkreten
##leu
verhinderte
Landshut
##rks
##oor
Pittsburgh
Cy
estnischen
##ô
##einsatz
##ře
beeinflusste
Parade
Belege
##eti
Trommel
##ST
wiederholen
##räte
Schulze
MO
Alpha
annahm
Cha
Heiz
##chein
Grey
##rade
Übertragungs
Geis
Jahrestag
geschützte
braune
selbstständige
##branche
Wel
Verzicht
Muttersprache
##finale
##uni
Kurator
Az
##vereine
##schichte
##meinde
Perl
Leih
Knight
Aller
Thun
Provence
Kongresswahlen
Ada
##erger
Dreieck
Vernichtung
Rheinischen
Betroffenen
##anische
begeistert
Ritters
Kurzgeschichten
Ghetto
Filialkirche
Arabischen
March
Kraftstoff
Dio
##AS
##ekt
beschließt
Ele
Prüfungs
Grabmal
Fri
Adria
TS
Britischen
Arbeitsgruppe
zuzuordnen
Such
Spital
Altona
##talbahn
teilzunehmen
Vel
##aga
##nse
##mitglieder
##denz
Kran
Hul
Ehr
Anhieb
Freiheits
##uche
Söldner
Motiven
Á
1715
erstellen
Grie
Geh
empfahl
Ankara
##az
But
Call
Sla
##kam
Signale
Kau
Data
verursachte
denkmalgeschützte
ho
Leiterin
isoliert
erforderlichen
Rundfahrt
Christina
Doping
fühlt
mor
beigetragen
Gy
Schritte
KP
Bub
α
verstand
Schwe
##funktionen
Überprüfung
we
eingesetzte
Querschnitt
Freude
##met
##kapazität
Außerhalb
##bl
zweigeschossige
Horror
##aat
indirekt
##ovi
Ō
Kommentar
Handschrift
Vorstadt
Quarz
Farmteam
Bestandteile
KS
Gasthaus
Brad
Terminal
##hler
##gia
längst
einsetzen
Wurf
Tals
##produkt
definierte
##mat
##ction
Mitherausgeber
Analysen
schönen
##leich
##baus
unge
Leidenschaft
Grabungen
Benediktiner
ereignete
Prüf
abgeben
Symbole
Klassische
175
Publizist
Lichtjahre
##arme
Associate
##zio
spätgotische
fester
ausgedehnten
##iß
##chse
genauen
Atlantic
##kä
Wal
Radstand
Bestrebungen
Ausmaß
Schweinfurt
Quadratmeter
1650
Pfarrers
##ön
Waldeck
##drama
##chens
Sprachgebrauch
Odenwald
##hau
geringeren
Geräten
Drucker
##ap
erzählen
##hä
Kammermusik
Dritt
##zzo
kommerzielle
Kirchenkreis
Thi
1769
##xy
einberufen
##rger
##gner
Treb
Shakespeare
Mehrfach
##ming
Gefangene
##elen
löst
einheitlich
TE
Hauptf
Hau
Dela
##aufen
geworfen
dritt
Betriebssystem
Gin
Cali
Vorfall
Rast
Scheiben
Gestein
##ao
Ah
##AC
Udo
##ögel
##oba
Geburtsstadt
Evolution
Beteiligten
##zelle
pra
Verwaltungsreform
##mangel
jetzigen
Währung
Taten
Maßstab
Sommers
Hauptartikel
Germain
Cla
##nisse
tschechische
bildenden
Neigung
Henriette
stärkste
Well
Sö
Sporen
Messungen
##herr
Landsmann
dato
Yale
Herzegowina
Brau
##vermögen
ältester
Songwriter
Jurastudium
##apelle
Yama
Linde
##fan
une
Kammern
Tochterunternehmen
Blood
African
Draht
##mis
zusammengelegt
Gegründet
##mei
po
hinterlassen
Wester
wandelte
Penn
Heavy
##schuss
verkehrte
Qa
Ringe
Mariä
Äthiopien
Saug
Paradies
Geschäftsmann
Bemerkenswert
Fahnen
##osition
Marian
Jupiter
##staat
##lles
Sachen
orthodoxe
##arsch
annehmen
SN
Feinde
##rechtliche
XIII
Ortsteils
Ergebnissen
##legung
Beleg
BP
Ion
Betracht
##bibliothek
Private
##tube
##oge
Stabilität
Ecuador
Paket
##ome
##can
Rügen
##sol
Than
Mä
Sigismund
##dge
künftig
aufgelegt
Weiher
theoretische
entstehenden
Maurer
Iron
CM
##oga
Review
##logisch
öffnet
##jar
##ehl
##design
Russische
Jugendstil
Trip
Beliebtheit
##wehr
desto
Notre
##wing
arabische
Burganlage
##arben
Blanc
Wille
Gewichtsklasse
##SS
akademische
Basler
Verschluss
Ama
Menschenrechts
##schar
##phon
##aud
überwinden
vergessen
Plus
Höhenlagen
Milli
Lena
Intel
##eilen
dänischer
Nenn
siebte
Säkularisation
laufende
Nasen
DK
Rud
Härte
Staatstheater
Maul
##geber
##knochen
Swing
Hochland
verfiel
##10
##ogel
##flugzeug
Kri
zukünftigen
Mähren
Who
veränderten
erlebt
##versch
##uin
Verzeichnis
Kritikern
Sak
Bab
Annäherung
##tse
Unterhaus
Storm
##eile
Flaschen
Einzelne
##Ma
einheitlichen
Rec
Treffern
Hofmann
##tlich
##ichtig
verkürzt
Aufsichtsrat
850
insofern
getrieben
Hue
kommende
Gali
Bath
##vorkommen
##breite
Platt
Kana
Cornelius
##toren
gest
geschützten
Psycho
Erweiterungen
CDs
Eger
##werkstatt
Oc
Ani
##ienst
##ees
Pö
##ER
##zzi
Waldgebiet
##lina
systematisch
spiegelt
Regimes
1680
##gion
slowakischen
Leine
Indi
Auftakt
##ulin
##sohn
Hedwig
Eder
Autorität
vergrößerte
Avi
Gou
Cups
##tei
##pannung
wusste
verle
Fauna
##heide
Nai
Besonderheiten
##ordens
messen
Rechner
Bele
tötet
tu
Geheimnis
li
Wolfenbüttel
132
Vorgängerbau
Tun
Row
Sarg
Population
Gerald
schlicht
Sy
bereitete
Würde
##rbe
Hua
Vorlagen
richtigen
Isa
Fremd
##rta
Innenhof
Tauch
Beer
Schwäbisch
Manuskript
##hol
##fern
##chal
##bedarf
##rab
Terry
Montag
Bautzen
jegliche
Taka
##bschnitt
Sr
##py
StGB
Angela
##hall
Komitees
Kenia
Gr
##dro
singen
Wid
Oberste
Kommandanten
##ält
überschritten
Steigerung
Mog
Kill
##hip
reg
Blech
Biographie
##lder
aufgewachsen
Hochzeits
##asch
Elberfeld
##yc
unterschied
Kompromiss
höchstens
ansässige
Page
Seiden
Lib
Karlsruher
prinzipiell
durchfließt
Schnecken
Braunkohle
##rste
Zuständigkeit
Wuchshöhen
Berichten
Treib
Stre
Heller
sta
Bulle
tatsächlichen
osmanischen
Zensur
Speed
Gun
Ina
Heiden
Privilegien
geschmückt
Veranstaltungs
NSG
##lanung
cor
Wahlrecht
Rudi
Tumor
Monuments
Sergei
Kaliber
##versicherung
ke
Syn
klassischer
Schi
FS
Bewerber
Ora
Apollo
Hampshire
Eastern
Castell
Waldes
Bee
byzantinischen
##rri
##rier
##obi
langem
fränkischen
Schrein
##setzung
Observatorium
Köhler
Bezirksliga
##ná
variieren
internen
Om
Sevilla
Rich
Bitte
Hitze
Bag
##ttung
Investoren
##ingt
quadratischen
Raumfahrt
Verbündeten
Sh
Liefer
##ünde
Laurent
Stütz
##ted
##peicher
##atus
nah
Rog
##ping
Transit
##pers
Wohngebäude
Stro
Fluggesellschaft
Berthold
jur
Scheitern
##erfolg
##oko
Ergänzung
##türme
##kti
##idi
Himmelfahrt
Gastprofessor
Realisierung
Knaben
Leuten
1766
##ndes
dich
##nahmen
Gefäß
Dill
##uber
IK
##moor
##mma
##deri
Beitritt
##pokal
Sing
Diakon
befestigte
##onia
##ldi
allesamt
Durchgangs
##ilung
ausgetauscht
Gale
Bela
Albanien
Freiburger
202
1525
##vik
##politischen
gestalteten
Gleit
Kō
Kno
Fru
##komplex
##bundes
charakterisiert
Pü
Championships
Unglück
Schlucht
durchlief
Comeback
griffen
Wat
Süß
##lösung
##pit
BRT
##tö
angekommen
Kast
##rac
##gleich
Cin
##lb
##iesen
Pat
Tendenz
Sé
Bara
##rik
entdeckten
Beethoven
##angaben
amtlichen
Warren
Nationalstraße
Flammen
Luftwaffen
Lorenzo
Götz
Geschenk
Luke
Hun
Has
Kne
Aa
nachhaltig
geformt
Marktgemeinde
##konstruktion
Mexico
präzise
Flo
##spiegel
Weihnachten
Triathlon
NASA
Divisionen
Privatbesitz
Oberlandesgericht
##bart
##besitzer
forschte
Sterbe
Ausführungen
##urkunde
Exo
##AP
##ierungen
##fahr
TuS
Mythos
Ly
Egon
1755
##schild
##ektor
Titelrolle
zurückgeführt
mathematischen
270
##lut
##dh
Constantin
##eiden
Katastrophe
##oid
ER
##ün
##rgen
zurückzukehren
Tänzerin
CN
##oria
Stu
Ringen
Knapp
##tf
Eingliederung
Blind
##stes
##ean
platzieren
kn
Miles
schätzungsweise
fing
Springs
Radrennfahrer
Ling
Heimspiel
Mülheim
Samtgemeinde
Mathilde
verwandte
Großraum
Sorte
##horst
betrachtete
Stummfilm
##alm
Vorschläge
Two
1758
##angebot
lose
Karst
##ple
Winterspiele
persönlicher
IR
Entwürfen
höherer
Res
Galaxie
##urch
Auvergne
falschen
Xaver
Verbleib
Königliche
Class
##eimer
Thur
Kru
Dee
##mb
Ted
Marion
berücksichtigen
MHz
Hort
belief
Salm
1764
hintereinander
basieren
##zis
Skandinavien
##ogramm
Kaukasus
French
Stellungen
Lehrers
Aschaffenburg
##teams
##nica
##ful
NDR
Koran
##messer
Wasch
Fahrgäste
Bundesrat
##modelle
Mori
##wie
##enne
erarbeitete
Synonyme
Saturn
Kleve
##rchiv
Wilhelmshaven
Lab
##ň
##kurs
##geschlecht
wasser
Tala
Madison
##präsident
konfrontiert
##äter
Sagen
gegossen
eingelassen
außerordentlicher
Winters
wirtschaftlicher
Make
##gate
##behandlung
übersch
wohnen
monatlich
get
Tsu
TR
##ttet
SSR
Io
##indung
##bindung
vorgelegt
sk
Trikot
Roosevelt
Malerin
Control
trieb
Gab
dichte
Spätestens
Wolfram
Durchgang
##gal
Just
Betreiben
Moses
Filialen
##nze
Pul
plant
Viehzucht
Kongresses
Para
Ausfall
Witten
##lly
Maj
Ermittler
Buchs
##rechen
reformierte
Untertanen
Martins
Lid
Schalke
Fußgänger
Trade
Kun
##uder
##rle
##inheit
überprüft
Gläubiger
Verwalter
Torschützenkönig
Mand
Gewinnung
starteten
mechanischen
Proc
Falken
Beratungs
eigen
Keil
##liegende
versprach
Eiszeit
Befestigung
rotem
Giro
##set
Nutzungs
Nahrungsmittel
Entry
##ř
kroatischen
##kha
##av
verwiesen
Bundeskanzler
##tok
sexuellen
Nie
1767
##oßen
##nth
Gaststätte
Ausbreitung
##angs
Mobile
Core
##fell
gewordene
Yoshi
dauerhafte
Wies
Ruhrgebiet
Burn
Bevölkerungs
uni
semi
##ngton
ku
Weiters
##yla
##abrik
Sparkassen
##sat
Battle
facto
Vorwärts
Armenien
zuge
ch
Lenz
##orts
Obert
Ner
Merseburg
Landgerichts
Greg
Gläubigen
##betriebe
Blütenstand
##л
zurückge
durchs
Mitchell
Mauri
##aß
Wissenschaftlern
betreffenden
Bat
IBM
##far
##atur
Sieb
vollständiger
verwechselt
Montevideo
Hein
Branchen
##lehr
##arbeitung
geo
##jahre
Karin
Filmemacher
Propst
Gemeindebezirk
##zahn
pan
Kabarett
Ela
##AG
Lauter
Bet
##ologische
Wolken
Weißrussland
Sole
Thal
Schenkung
Neuauflage
##evi
Marktes
Klar
hervorgehoben
Osmanischen
Intervention
Age
Zitat
##artikel
Wallace
Scottish
Mitter
Biber
380
getan
Maya
##stift
existierenden
Fotografien
Sehenswürdigkeiten
##archiv
theoretischen
Ta
Schmerzen
Rabbiner
Nadel
##hrung
##hos
Zustände
Elektrotechnik
##iven
braucht
Herzöge
##paare
Psychiatrie
Münch
Stilllegung
##rektor
fünfmal
##polizei
verwandten
steuerte
ruft
Fem
##ländischen
spanisch
glauben
Gleichgewicht
##sische
Kanten
unsere
Harrison
Jahrhundertwende
##lem
Matthew
##gras
versch
Vernunft
Hobby
Bachs
##chnitt
neuere
angrenzende
längsten
Torf
Politikwissenschaft
Rail
Director
Basse
##rni
einbrachte
Erlebnisse
bürgerliche
Saiten
Münze
mitzu
##rbeiter
verwirklicht
Nina
Hanns
konservative
Monaco
Abi
Zahlungs
Dob
1762
##rmen
heftig
fremden
bewohnte
Jahrzehnt
##rep
##ake
Endo
Asteroiden
##gua
Richt
Did
Schwiegersohn
tor
Pelz
Ministeriums
##woche
##nbe
Hügelland
Geheimen
##osi
##abbau
Franche
Bron
Trink
Solothurn
Bala
##jahren
Wirtschaftswissenschaften
##yk
Einstieg
gestattet
ersch
##zenen
##owitz
##ilder
##austausch
Vikar
##run
olympische
##erbe
wirksam
kor
Whit
Umweltschutz
Hei
Artikeln
##rakt
entfielen
This
Wilhelmine
Gremium
139
##ged
ernährt
ausführlich
Reliefs
M1
Kalt
##cas
beherrscht
Tischtennis
Parteitag
Elm
begegnet
##hältnisse
symbolisiert
Sudan
Universidad
Preisen
##möglichkeit
##anen
Guss
Asp
Abgaben
politisches
kehrten
Hen
Energien
besichtigt
Def
Transformation
Landesliste
Auskunft
##igkeiten
##gent
Mod
Kirchenprovinz
Lan
Hay
##irtschaft
Gedenkstein
fasst
BE
##eihe
Freiberg
Ami
privater
jo
formuliert
Dag
Abbildungen
Rudolph
Dis
umgestellt
Polo
relative
Pou
Fertigungs
##ő
anzu
Sis
##ree
verletzte
offizieller
TT
Pere
Meso
Bent
exportiert
Vertrages
Staatsanwalt
Gesteins
##post
##ect
Saul
Elias
Boi
##zien
Susan
##ube
Kontinent
Niedersächsischen
Hon
Sowjetischen
Inventar
##zes
##tart
geltenden
Utah
Verurteilung
##rungen
##lum
##dd
β
beerdigt
Puls
MT
Silva
überw
realen
us
geringfügig
Meiningen
Mandate
Ausschluss
##gin
Hack
ZK
Verg
Hubble
##qua
##periode
##olin
dürften
finnische
kommunale
Wey
Beobachtungs
##lächen
Pascha
##mbo
Isar
##hung
geographische
gebrochen
fließen
##vol
Räuber
Library
Romantik
Hol
Cran
Angestellte
##aj
kennengelernt
Geleit
Deutsches
Card
Meg
vorgesehenen
Unterlauf
Hes
Handbuch
Volksmund
Rebellion
Europäer
##etta
Harmonie
##mini
unregelmäßig
bezahlen
Isaac
##ossen
baut
Laa
Bird
Analog
boten
Norddeutschland
Napoleons
Liebhaber
##ausgabe
At
##palast
Rep
Mura
Kommunal
Etwas
##ruktur
gewährte
##inister
Brauch
Zeugnis
Diana
##jk
angesprochen
Landesver
##äder
##methode
##busch
gedeutet
Paaren
vermerkt
Stadtgrenze
##sischen
dir
Delegierter
##hes
##ción
Äbtissin
Kleinst
bedienen
Ste
##malerei
##gis
vermittelte
anknüpfen
Reliquien
OH
Körperlänge
##yd
Tempels
Lagers
Bundesländer
Angola
Sächsische
##sei
Passage
KA
##ə
##tod
##kation
verzeichnete
Antennen
Abwasser
##sper
brechen
Movie
Asia
##mbe
##icherheit
folgendes
Stadtteilen
Pflichten
Landesamt
Bö
Baptiste
Diesem
entfallen
beherbergte
Uniform
nu
Nebenrolle
Naval
Fehde
Methyl
geschenkt
Zelt
##kers
##rede
##lur
##cheid
##roi
Tunesien
Calcium
##rak
##bitz
Teu
Erbfolgekrieg
##gürtel
fünfzig
Federation
Chrom
endeten
wenigstens
realisierte
Ye
Marne
Bestands
##istik
##ziehung
Frost
Eisenbahnlinie
Lau
##ume
Aviv
##iso
##elf
vorangegangenen
verfassten
Wappens
Erm
Cannes
gelobt
##zität
interniert
Kart
Bibliotheks
weiterzu
entsprechender
Schauplatz
Kolben
inhaltlich
alljährlich
Torre
Dienstgrad
##ssion
Erlebnis
verhalf
##ägt
##zsch
##dens
erklärten
ausge
Kamerun
Installation
Got
Eisernen
##iehen
spe
Lehrern
##etti
Lehrtätigkeit
Wests
Blu
jenes
ehrenamtlichen
Weltausstellung
Europacup
People
Landesmeister
Eingabe
Wag
Senders
Pai
musikalisch
Lo
Gül
Wörterbuch
Wahrzeichen
Bode
vielfältige
Buffalo
##ink
Tscha
Einschränkungen
geborgen
Princeton
##cre
Urlaub
Pers
Lin
fiktiven
befunden
Colonel
##vat
zeitliche
Vielmehr
GM
Eichstätt
1742
##TE
##eon
erinnerte
Techno
ste
unterliegen
sorgten
eingeb
Zünd
grosse
fühlte
verlorenen
Sophia
Impuls
Levi
Cun
##iki
Champ
HT
Gutes
Ree
##sthe
größeres
auszu
vergleichbare
Emmy
Preisgeld
Pokals
unterworfen
Freud
##she
Gelsenkirchen
##Co
mächtige
Ci
Five
Belange
Grundbesitz
Verde
gewechselt
erscheinende
untersagt
Verehrung
Lus
Jefferson
Grundsätzlich
Charakteristisch
Bran
##qi
Mes
Einkünfte
##asi
Fachbereich
Arc
##edi
Geliebte
Konzerns
Betrachter
finanzierte
Ut
Tang
##cis
glaubte
##issen
##entrum
Dscha
geistigen
Grat
Distrikts
Erzbischofs
dazwischen
Lazarett
Grabsteine
ungarisch
Kirchhof
##fä
Pala
gezeichnet
Ust
##männer
müsste
Lehns
Here
intra
Fal
Editor
##ς
vorliegen
ggf
Olga
##verkehrs
##urne
##falls
##faktor
##ams
erobern
bedeutend
Unterhalb
Beschlüsse
##ema
Schweiß
##übertragung
Arnsberg
steinerne
israelische
##wärts
##vollen
##pä
##eß
platziert
beitragen
Ne
##illi
Erhard
Boe
Ansonsten
Angelo
##verarbeitung
##setz
äußerlich
Strauß
Propheten
Lod
##rige
##ollen
öffnete
sächsische
frz
U18
Académie
##stisch
Kameras
##haltige
##teri
##führt
auto
aktiver
Hörer
Hofes
##tru
langjähriger
##keller
deutlicher
Veit
Revolutions
Freilassung
Einigung
Asch
##andlung
Ablösung
Herzinfarkt
##ē
beraten
Biografien
##vice
##nam
immerhin
Wave
organischen
Volt
Pfi
Hanna
##ttel
##nstalt
erlangt
dra
Vere
Landwirt
GR
Depot
##stik
Butler
homo
Cur
Vic
hochge
bestellte
Handelskammer
Guatemala
Theologischen
Strauss
Jin
ta
Hag
##gend
Armin
##lation
Île
Dia
##umme
##rechnung
##gem
überzeugte
kleinerer
Tora
Staubblätter
Pfarrgemeinde
Algorithmus
bundesweit
fügte
Werkzeuge
Athletic
ähnliches
Sozialdemokraten
Präsidentschaftswahl
##λ
##tafeln
sogenannter
Werten
##50
##witsch
Had
Bosch
Meine
HP
Waffenstillstand
Kr
##ture
##led
##ako
beantragte
Gegenteil
##tischer
##fleisch
gleichfalls
Oberpfalz
Ligakonkurrenten
##zyklus
##thi
ungewöhnliche
Soziale
Medizinischen
##ope
Armstrong
##sfeld
##erle
##tad
##ija
Panorama
Stiftungen
Prima
Matura
Elo
##immen
##iana
slawischen
##oral
müssten
Circuit
##prä
hintere
Außenstelle
##xo
Aufstiegs
##lge
##Ü
##renz
##lk
##eriode
Chaos
##LA
##ndlung
staats
Cru
##bühne
Tie
Basalt
##stri
entfernen
Edwin
##programme
1759
Sund
Seat
Populationen
dichten
Risiken
Hierfür
##uz
Georgen
Daimler
##hörde
##dium
##že
##rti
Bergwerks
##rey
##ographie
wozu
begleiten
Gelder
##vögel
künstlerischer
irre
abgef
Petr
Adjutant
##west
YouTube
Seven
##ła
ausgegraben
Vogtei
Roberts
Impulse
Angestellter
##rechtlichen
##beruf
münden
enteignet
Ia
Deep
Chang
Nase
Geburts
Bibliothekar
gepflegt
##ubi
##aer
Sti
Behandlungs
Madagaskar
##side
Honig
##treten
häufige
Lach
Ofen
##zwecken
##code
za
herauszu
Ska
Eb
##lme
##bte
Zorn
Stachel
Blog
##sor
##log
Paula
Kompetenzen
Englands
Naturdenkmale
##hill
##rose
verdiente
Lkw
Hängen
##oxid
überarbeitete
Future
Collins
verabschiedete
w
U23
Angriffen
##rün
krautige
Kin
Spielstätte
Op
Ap
Reduktion
##äche
##zentrums
##verzeichnis
Wirksamkeit
Erzgebirge
Spe
Prie
##opp
Dell
##sow
##mak
verblieben
asiatischen
Umkreis
Stille
Organisations
Mick
Degen
verhalten
Split
überregionale
Zwangsarbeiter
Entdecker
Widerstandskämpfer
Einleitung
##errschaft
verurteilte
protestantische
militärischer
Weizen
Plasma
Gymnasien
Machtübernahme
Hundert
Butter
entsandte
Wacker
##gur
Mob
Departement
##feldzug
##burn
verkleidet
gleichermaßen
Tir
Spruch
##yne
überlebt
Fitz
Lieblings
Flanken
##tori
Romeo
##enti
Gram
Fürstbischof
style
Beschaffung
##AM
Linda
##ân
##lbe
##cor
wählten
Tonträger
PT
Hänge
##enbe
##dea
##ohl
Seh
Irene
geistliche
biologische
Protestanten
Profit
Kraus
##rigen
kahl
Zirkus
Aargau
Hurrikan
##damm
kämpften
Sco
österreichisch
VS
Heidelberger
##tudium
Äußerungen
eingeführte
geholt
Yacht
Entlang
ruht
Monopol
Welten
Adalbert
##sum
Krupp
##ahrer
Keith
Lasten
Gis
vorzu
tra
Hardcore
##chin
EL
##ε
##artner
freigelassen
Pfeifen
Jorge
Hö
Sigmund
Aufsätze
Agi
##rechtlich
##ieder
Montage
##än
Trenn
##wka
Verk
1757
##tere
Überlebenden
sortiert
absteigen
Stri
wohlhabenden
Wing
Pl
Honda
Comté
138
angehörten
Niger
##iker
wenngleich
mat
Pal
Com
Latin
Glücks
gerieten
beinhalten
Amy
##rth
##ibt
##rter
Kenn
umgangssprachlich
Gefolge
##jas
##alo
Brigitte
durchzusetzen
Vas
sal
Bureau
##tell
sprang
Our
Neuss
Neubauten
Jose
Id
##ES
Deb
Stipendiat
Staatsbahn
Sibirien
ber
Mechanik
Baukosten
##zeichnungen
##ichkeit
##alin
Hauptfeld
Gebäudekomplex
##lha
Work
##rme
Zweier
Schwimmer
Engine
lud
can
Africa
##rken
Hale
DI
Cri
##zte
Vau
Sä
Nichts
künstlich
Mathias
Apo
überge
ji
Wüstung
Paz
Mitt
##verg
Zisterzienser
##tour
SMS
##ewa
breites
Mack
durchschnittlichen
Freiherren
Wasserburg
Töpfer
Radi
Lei
Else
##té
##lub
##gle
wi
bestätigen
Zement
Hochfläche
Herford
##künstler
j
##verbrauch
Rey
##aterial
beginnenden
Energy
jedenfalls
aufgezeichnet
Habsburg
##format
Indiens
##tron
##sees
Fremden
##szene
##kranz
typischerweise
faktisch
Fle
Eintrag
##ghe
externe
Ges
Cham
##н
Perry
##ulen
geringem
Cinema
Rapid
##dus
kommerziell
Bauteile
##eger
Keim
##ʿ
##ál
##sil
##nummern
Begräbnis
##uktur
##abschnitt
Rafael
Jeanne
Synode
Pris
##ign
Trust
Steh
Pfeil
Angesichts
Stell
##ivi
Verschwörung
Kletter
Einkaufs
##hauptstadt
gefährlich
##lg
##anne
Starter
Geheimdienst
##mol
##klinik
einheimische
Orgelbau
Gräben
##у
Ämtern
Champion
##mand
##gewinn
Elfmeterschießen
Eben
statistisch
Volkswirtschaft
Tänzer
Steg
Doctor
##abf
Unterkunft
Georgs
##ewegung
ganzjährig
##uster
sichtbaren
Willem
1745
##reiter
##erei
Immun
##ürme
##ák
Regio
Fine
##rist
Mos
eingeführten
Vizepräsidenten
Priesterseminar
Diözesan
##stor
demokratische
Weltmeistertitel
Ley
aktiviert
Springen
Jahresende
Flughafens
Ag
heiße
Verbandsliga
Stadtrecht
ph
kleinsten
##ments
##wiese
##partie
reagierte
Teatro
Train
Larry
Dog
gesteuert
Zerstörungen
Société
NT
Ursprünge
Prize
Pitt
Glad
##dow
kompletten
Rings
Liturgie
Inner
##stone
Fähre
##versuche
##steine
Maro
verzögerte
1752
##äler
zwingend
geleistet
Franziska
1754
##fri
identifizieren
gespeist
Jos
Unions
Transkription
Kriegsmarine
##less
Palma
Geschosse
chinesischer
Neumarkt
Nachfolgerin
Fichten
##loster
Prototypen
Kernstadt
Soll
Georgi
Fragmente
Biografie
Absteiger
Einhaltung
Mittelschule
Health
##uff
##autor
zufrieden
charakteristischen
Pferden
Arsenal
##sma
##apo
##elin
populären
hellen
geheimen
Einstein
Bars
stabil
ana
Moto
##ichi
Solingen
Sci
Programmen
A2
Mant
##plätzen
##ziele
Radiosender
Nicholas
überh
Nahen
Kaiserlichen
##ave
Kou
Strömung
Reichswehr
Missionare
wann
gültig
eingebracht
Tü
Schulbesuch
Gerüchte
Roe
Klassifikation
Gegenden
##rekord
Warn
Bestehens
##ebe
weithin
Qualifikationsrunde
##sleben
##chemie
Johannis
gu
Gom
Kassen
##ís
WTA
Lotus
##ved
Danny
getrennte
Norddeutschen
Rolling
Reichenbach
Bürgerkrieges
Magazins
##št
Shows
Jungtiere
##bn
verbaut
geordnet
Veran
##lden
kla
Rip
Paläo
ungarischer
geborenen
einw
Deportation
rekonstruiert
Reinhardt
Sko
##ründung
##ami
richten
Cut
Rockband
Chromosomenzahl
Aufge
Klee
Beleuchtung
##cci
Streckenabschnitt
Square
Gai
Erhebungen
##kreises
##iba
Hero
##pul
Reiche
##latte
Pana
Milchstraße
Liberal
Krankheits
Hochhaus
Wirts
Shan
Pictures
Kostüme
Convention
##teich
Lebewesen
Sp
Investitions
Bundestages
Anweisung
1660
##ih
Titelgewinn
Papstes
##mischen
##klub
##iko
grundlegenden
Toleranz
Assistant
Neuhaus
##sur
überwacht
Oberamt
NL
##xte
##gegenstände
Ker
Jet
nachhaltige
Sas
Jod
Eiche
##vorgang
Blum
##pitz
##jahres
betriebenen
Schmal
Aufklärungs
RT
Bak
##geo
##rtigen
verdanken
Zwecken
Sep
Ingenieure
Salomon
Marina
##wohner
Wee
Gebet
Beweise
hört
Wanderweg
Tiefland
Commander
##flege
##konzern
Wurm
Beatles
##osse
altes
Tennisturnier
Resultate
Archäologen
mäßig
Hara
Fabriken
Webseite
Polnischen
Georgien
Fotografen
geistige
Trump
Rab
Kath
##bru
eigenständig
Rhön
Raumschiff
verschiedensten
Empfang
##rone
Naturforscher
##käfer
spezifischen
etablierten
Allan
##ulation
Räder
Arkaden
##šov
Frist
weiblich
##regeln
##gro
##enp
Six
##ummer
Spin
Kaufleute
1748
##wände
##wei
Gefechts
##sla
Plat
##zän
##né
zeugen
nebst
ausüben
Ding
Reichsver
Steinbach
##hälfte
hydro
Martini
Leucht
Bodens
##personal
##ém
che
##rze
##ries
##ersch
Krems
verschont
san
Predigt
Musikhochschule
Bot
restliche
darzustellen
Key
Markenname
##uerung
##ging
ablehnte
Ocean
Kö
Disposition
##instrument
Übereinstimmung
ländliche
Speer
President
Partisanen
Oberp
Jau
kümmerte
Zerfall
Ehrendoktor
Lep
Ever
Bia
##quit
enorme
Schü
##änderungen
##aster
neuem
trockene
##suche
##lith
##hofer
verwandelt
Vizegouverneur
Regentschaft
Paolo
längs
fla
Sed
Hus
##erge
##ranken
Suk
Gio
Alarm
stößt
León
Kfz
Übungs
Ignaz
Gie
bewegte
anscheinend
abgenommen
Herrmann
340
##lant
stadt
Pech
Hong
Gastronomie
##müller
herstellen
entsandt
Myr
##taler
Tsche
##wissenschaftliche
##historiker
land
doppelte
Assistenten
Aktions
ju
Opel
Massiv
Würzburger
Oberlausitz
Dichters
eingegangen
##zent
Homer
unterirdische
Maut
Kalium
##uhe
##para
Gus
Wett
##gelenk
##anda
erzeugte
beteiligen
Verbänden
##lotte
##isk
Gle
##zylinder
##uo
##nol
Mosaik
Limousine
Hühner
Bratislava
teilnahmen
roter
Nintendo
##box
Tausend
Sign
Eröffnungs
Det
##lba
##but
Tr
Indischen
Aufruf
##lä
##lit
English
Sätze
Staatliche
Pis
Fischen
##lier
Tri
##beste
verweigerte
ukrainisch
Bott
Andre
Adaption
vorherige
muslimischen
Hypothese
Côte
stattfanden
SH
##weisen
Breit
##rol
##inghausen
Wortes
##hier
geprüft
Timor
Lemberg
Led
LSG
##odell
##krone
Untertitel
Monti
Alexandra
Nizza
Krö
Epi
gra
Schifffahrts
Hölle
##pon
##ols
##machen
Rechteck
Fahrgestell
##imi
Libyen
Brecht
reale
frühesten
Begleit
##hre
##ahmen
Nils
1717
Niederschlag
Kristalle
ei
bedeuten
Wör
Vögeln
Domkapitel
Brü
##störungen
erstrecken
Nicola
Lärm
Vektor
Reims
Codex
Schulhaus
Saa
Kop
Bürgerkriegs
##dat
zirka
riesige
physikalische
Strophe
ND
Alf
Letzterer
Ausschreibung
Musikschule
Muse
Case
ir
Weltwirtschaftskrise
Süßwasser
Rücksicht
Family
1751
Vu
##yse
##kol
##fra
OP
Bewerbung
Champagne
Anatomie
##pper
Rös
Cis
Makro
schön
Klassik
Hil
ökonomischen
lehrt
Zwi
Grünland
##DS
##umfang
Mö
Krüger
##icherung
##esta
Baut
##vić
kV
droht
amp
Drucks
##dr
##riff
##fassade
##besitz
##rü
beabsichtigte
Isabella
Hoo
Friederike
schrieben
Wirt
unmittelbare
##pter
##lee
Antarktis
##phi
##eru
denken
##ér
##oti
scharfe
zusammengesetzt
aufgelösten
Pla
HB
Ottawa
Kräften
##ène
wechsel
Landess
##nern
Vorbereitungen
Rezeption
Queensland
Plauen
Education
Apostolische
##NA
Moss
Indo
Brock
##bschluss
bisweilen
Roboter
Revue
PL
Lieben
englischsprachigen
Jen
vertraut
Teleskop
Palermo
##uit
##boote
staatlicher
##urteil
##ines
Doms
tut
Ruprecht
Internat
1550
hingewiesen
weltliche
Westeuropa
Raj
Cart
##hundert
##behörden
verursachen
Stadtwerke
pol
##gten
Pool
##ike
Reichsstadt
ökologische
Schlager
Nevada
##zeuge
Sparta
Bez
##recke
Bildhauers
bereitgestellt
Scheitel
Australiens
##gran
Kar
jahrelang
Verschiebung
##Pa
VR
Perm
Padua
Mrs
enthaltenen
besetzen
Schra
Wangen
Rado
Algebra
globalen
Ster
##ago
Sap
Beschäftigte
##initiative
##iar
##beg
ent
Brook
Angli
fragt
jüngster
Oberleutnant
Fiat
beliebten
Kärntner
Grönland
##ihe
##dre
verleiht
durchgehende
Clinton
Vorderseite
Oe
Förster
zurückgeht
schwachen
eG
Bestseller
südafrikanischen
heller
Stolberg
dunkler
Vorstands
Vorlauf
Versch
Innenministerium
Civil
Aqua
##plattform
Stolpersteine
##pus
verbleibenden
genoss
Dora
##ril
Ziffern
Č
Bae
Potsdamer
Mano
Kid
Edo
##jat
##ielen
Nowo
Brest
Großmeister
Census
Parlamentswahl
lä
Jakobs
Tak
verteilten
entführt
129
##ärzte
##then
##systemen
##itte
Tunnels
Leopoldina
Gletschers
Dachreiter
##urnier
Kreistag
Gemeindeb
##ßig
gegenseitige
Tä
Stanford
Kollision
Interstate
Diplomaten
##star
Zwischenzeitlich
VO
Sag
Len
##wegung
##projekte
globale
Prospekt
1761
achte
225
##él
##hallen
Vierte
Kit
Verteidigungsminister
Prozessen
fe
rheinland
Beschwerden
AHL
##milch
##flo
##eto
Umsch
Pianisten
##zs
##helm
korrekt
Span
Rin
Jude
Iris
##lka
Direktion
langes
Schätzungen
Kanu
Ameisen
##ersdorf
har
##vertreter
Grundwasser
Besten
Baku
##meier
##lav
##mberg
##chtern
tschechischer
tropische
absoluten
Limited
Fahrwerk
Bäcker
präsent
gesprengt
Temple
Scar
Luftangriffe
Prozessor
Nature
##haut
Neil
Congress
vers
PD
Ernährungs
Bahnstation
##rät
##reunde
##mor
##funde
Rausch
Intensität
##rtige
##rek
##biete
tägliche
stattfindende
feuchten
gekrönt
Standardwerk
Pauls
Nathan
strengen
Zielen
Wettkämpfe
Shō
Komponente
dreht
Mey
##oul
##enta
Unterstützer
Kleinb
Bauernhof
##nsis
Hertha
CIA
1710
##münde
aufgefunden
Schotten
Einmarsch
Yards
Demonstration
päpstlichen
Hochstift
Gan
sandte
keineswegs
Verwaltungseinheit
Geschwindigkeits
rosa
Zá
145
wegge
Sportf
Campo
##ül
optischen
ermöglichten
Vergrößerung
Pisa
eingefügt
Zusammenfluss
Zeugnisse
Rokoko
Archipel
Mör
Berührung
verleihen
angewandte
Thu
Afrikas
##ilfe
entschlossen
##ndig
##abs
Tran
Schalen
##stad
##aun
Inge
##ugen
##grube
liberale
geäußert
Amor
plus
bereiste
Stü
Klu
Bundesverband
##tts
befahl
Vr
Entschädigung
##klo
Perth
Sch
Nacken
Bestellung
##40
Ard
besiegen
Sut
Gat
Enterprise
Casino
Craig
##hou
Kry
Traditions
##gos
LKW
##politische
##gn
unterliegt
ausübte
Spielfeld
##kom
##hörden
Tas
Penta
Großa
Arbeitsplatz
##ži
erd
Turbinen
graue
gemeinnützige
##sweise
##had
Präsidentschaft
Kub
Fahrgast
Briefmarken
##kle
Pha
kar
Protesten
Nordkorea
Kollektiv
Dé
beschlagnahmt
Keine
IB
Gouvernement
##rou
##sekretär
ernst
Gästen
FFH
Notfall
Player
Kale
Anz
##lbach
Korruption
Klinge
Verknüpfung
Saône
Reiz
Pyramide
Schwimmen
Interpreten
##nek
##ewo
Optik
Lack
port
Substrat
##zze
Pablo
Missionar
Gestaltungs
Auslieferung
##federn
sel
Sli
##schulen
amtliche
Unterk
stimmten
Wut
Gedichten
Dieselmotor
##filme
##ckte
vorkommende
Werra
Manifest
##brett
Nis
##tner
##kop
med
Streik
Nachmittag
##elder
mitsamt
Lücke
Kopien
##denkmal
##kompanie
##berge
Regina
Radweg
Mud
Bögen
##erde
Tara
Osmanen
Hank
##musiker
##marsch
Sonntags
##bringen
Thorn
Rust
Steinmetz
HO
##vre
verworfen
Kampfhandlungen
DV
Aufstiegsrunde
Gnaden
Gemeinschaften
Vortrag
Ib
Partikel
134
##äus
##orth
zunehmender
Duc
Cor
##rain
##lischen
kra
Bourbon
1741
Heimatverein
##sio
Kreuzberg
Bewaffnung
Alli
##м
##enes
Versetzung
Elementar
Pac
Ill
Verbesserungen
1744
##zl
Mik
Carmen
##ändige
schottische
Wings
Sportart
Montenegro
Gebirges
Rogers
Griechisch
Einem
rechnen
##uchi
##tio
##regel
vermutete
Nordirland
Kiefern
##pl
gold
Vermarktung
Russ
Franc
##nsi
##ents
späte
genehmigte
Bie
lau
feierlich
Mulde
eignet
Passe
Fünfter
##nähe
Pus
KO
gla
Flüchtlings
Bac
ausgenommen
zugeführt
Moldau
##ähnlichen
suchten
Santos
Kü
Technologien
MD
Flüge
##esetz
heftige
Disc
Wöl
Topo
Päpstlichen
lès
Wismar
##bk
Watson
Saw
Pres
Leibniz
Bozen
Bangkok
##olu
##inhalt
Sozialismus
Alltags
##eva
Landhaus
Hem
Scheibe
##dingungen
ausreichende
Colin
räumliche
Gültigkeit
Rennfahrer
Bedürfnisse
herkömmlichen
Simulation
Rams
Erzbistums
##iu
##fälle
Würfel
##gewebe
glücklich
Dirigenten
präsentieren
Rub
Miet
Begrenzung
##Ba
binden
Put
Lille
Mind
Kanäle
##SI
##weite
var
existierende
Prime
Fahrzeugs
frisch
Ilse
Dunkel
Ausübung
##jugend
##enn
##ausschusses
dünnen
Teheran
Luk
günstig
Poll
Bruck
##bers
Fächern
1250
Flat
Cir
##child
Opfern
Lia
nordamerikanischen
jederzeit
Executive
Antisemitismus
##smaßnahmen
##BA
Saga
Nationaltrainer
Lektor
erließ
##union
##heits
Sollte
Snow
Konstitution
##werfer
Rookie
##erat
##dische
Lal
Asiaten
Sá
lieber
Bonaparte
kontrollieren
Roa
Merk
##SC
##tzte
##pse
##hers
optisch
emeritiert
Schmalspurbahn
##rda
Filmt
Fahne
##swert
##hör
verbleiben
Lanka
Kolleg
Earth
##nner
qua
##edo
normal
Tokyo
Nicole
Illustrationen
##gest
schuldig
Illustrator
Industries
Hauptschule
Aquitaine
Schö
Apotheke
Mus
Demonstrationen
##röhre
##enl
##alz
Source
Kieler
##uns
geplündert
Gesetzgebung
##öt
##tain
##probleme
Ableitung
##veranstaltung
##mpel
##graf
##efe
rege
Glaube
Balthasar
##ová
##hir
Schott
Redaktions
Luthers
##mission
neugegründeten
dünne
Ruhm
eingebettet
verbrannt
Aufständischen
Pyramiden
Nim
Mittelschiff
EF
##chsel
gebürtige
Sternwarte
Drum
##nsk
zulässig
mobile
##uga
Nominierungen
tauchte
nötigen
Gabel
##itis
Vilnius
Haas
Edwards
##irs
##alp
Grazer
##wissenschaftlichen
##srate
##anus
##agentur
Mile
1747
historiques
einnehmen
##nc
finanzieren
dienst
Eingriffe
1732
##irk
iranischen
Satire
Pete
Fünfte
##verträge
##ello
Regimenter
Lago
real
hor
Kompositions
##zol
##arbeitet
Poesie
##verletzung
##sein
Trau
Petition
Lane
Hr
Naumburg
Farmer
##stau
sichergestellt
Kleinbahn
##lige
rumänische
illegalen
##ury
Tragödie
##gleise
verweigert
Spaltung
Oberhof
Kommunalwahlen
Finn
##aufstand
Paraguay
##holm
aufging
Spencer
Killer
##schn
akzeptierte
selbstständig
##llung
Manchmal
##metrie
Report
Lieb
##helfer
Prozesses
Schlaganfall
Italienisch
##joch
##alität
Merz
Freundes
##variante
##abschluss
Stadtviertel
Smi
Schnittstelle
Obersch
Cockpit
##hügel
erfunden
Pauline
Fürstenberg
Dolmen
##schein
fi
Branche
Befürworter
Todesstrafe
Ou
Leb
##onal
Boh
Drive
Edi
Detmold
kultur
gespeichert
Leningrad
Bekanntschaft
Angehöriger
##lab
Reaktor
##CO
separate
Moh
Dana
##reife
##kolonie
##igur
mangels
hinnehmen
Säure
Bol
Beg
Ka
480
verbannt
erarbeitet
Unteren
stießen
PI
Katar
Jüdischen
420
##30
García
Fr
Alfa
##US
##vu
##liegen
schlichte
Strömungen
Dö
BL
##durchmesser
Eisenbahngesellschaft
Borg
Blattspreite
##ovice
aufgefordert
hergestellte
Klo
Atlético
Witte
142
günstigen
Militära
Beerdigung
##tsu
eindeutige
##nts
uner
Treffpunkt
Staatsdienst
Spaniens
Cle
Trauben
Krimi
Jamaika
automatische
Stadtzentrums
Selbstbe
MM
##äte
Steel
Herzogin
Abschnitten
Offizieren
Bli
potok
erbauen
TB
##ngo
wechselnde
Chirurgie
Calgary
Abst
##bil
Vertrauens
Gepäck
##cul
bestraft
Zugangs
Vitamin
Fol
##taat
schwache
prägen
Darwin
1746
ausgeschrieben
RC
Ac
##disch
Nut
Kriegsgefangene
Komitat
Bef
##gha
##gard
Zor
Stö
##stätten
stärken
langfristig
What
Pflanzenarten
Adenauer
zurückziehen
Kraftwerks
Wilde
Sowjet
Lun
Facha
ga
gelagert
Gefäße
Favoriten
Füße
##ällen
gedient
dos
Türk
##üt
##zweig
##sle
##ull
##rine
Mittelmeerraum
Epitaph
Edith
##architektur
Steil
Saba
Jenny
Molekül
##shof
überlegen
##wache
Kleider
Eh
Bha
Bene
##firmen
##fikation
ser
MR
##moto
Ratten
Nass
Jähriger
Geschwistern
##lü
##halte
Pern
Porte
Eulen
Balz
unterlagen
blass
##tak
##nto
Sklaverei
Crow
bewaldet
armen
##arg
schlugen
Wiederholung
Lies
Braunschweiger
Verhandlungs
Naka
Cap
##ünstler
Westdeutschland
Lyriker
Ermittlung
##stung
##phen
##pause
Häufigkeit
##umi
##ime
individuell
Lichts
Bandmitglieder
##eschichte
##äufe
##ändern
##jähriger
sobald
körperliche
kurzem
Sitzplätze
##rasse
dasselbe
Hed
Rea
Expeditions
##owe
##inb
##hme
Missionen
Absturz
gewachsen
Three
sto
punkt
Plata
1736
##edt
verschwindet
Gutsbesitzer
Hofe
##wirt
##oku
bele
Flottille
##zins
Starts
Mou
Fix
volks
Lehrauftrag
Richmond
1620
##uc
steigenden
radikal
lineare
dauern
bor
Sui
Motivation
##gaben
Juri
Igor
##völker
amerikanisches
Vorbereitungs
Nano
Krug
##sman
sp
Gruppierungen
Eber
Netze
Munitions
Buchholz
205
##ulus
##ston
##rote
markierte
bio
Letzteres
##sca
##pflanze
##gge
Curtis
1735
##bataillon
Helligkeit
Göttinger
##öße
##schnitt
##ierter
Überarbeitung
hervorragende
##folg
out
beschriebene
Reed
Pel
Goethes
##pelle
##late
Hope
##с
Schale
Holl
##р
##verluste
Grä
Eingriff
##õ
fünft
Töne
Gasse
Apfel
Aca
Jur
##ypen
Stammsitz
Schaum
##ilen
##cro
Studiengang
141
##ierbar
Neb
Margarethe
Leichtathlet
bemerkenswerte
##nom
Schlösser
wohin
binnen
Symphony
Shaw
##praxis
##isa
durchlaufen
Sommersemester
##erze
menschlicher
Winzer
Irish
##apa
bedacht
Sopran
##fla
Universum
##fried
ausgebildete
Amtmann
Alain
elften
Größere
Balkon
verwehrt
Landebahn
LC
Dmitri
Bek
##roda
poly
Niko
DT
##regionen
Schiffbau
theoretisch
Magic
##polis
Studiengänge
Stempel
Hoff
Erreger
Befehle
##kowski
nächstgelegene
Tres
Justizminister
Add
Abgabe
##rage
Tourneen
1630
##mina
ank
Falk
##ört
##alde
Rohstoff
Minsk
Schöpfer
##yra
Schütz
##rch
Étienne
ineinander
Synchronisation
Bürgerrecht
Artist
Abspaltung
##wegen
vorliegt
Originals
##vs
Piet
Burgruine
##fil
reichlich
außerordentlichen
Telekom
Session
Oberbayern
Lenk
##gewölbe
Haupteingang
bedarf
Mana
Entgegen
Concert
##preise
Territoriums
Kreta
Familiennamen
##gleis
Zurzeit
Israels
Carri
##vern
##mens
##brigade
künstlichen
Rundbogen
##ós
Middle
Enzym
1714
Rate
Beth
erz
transportieren
##problem
Oberschlesien
Ano
##atten
vergibt
scho
##technologie
##jet
##hold
Tausende
Schülerinnen
Pascal
##indi
##aufgaben
Tit
Konsequenzen
Trilogie
##profil
##lieder
Niederlassungen
Conf
1743
##roduktion
##orientierte
Raw
Hora
Camb
##oche
##ärts
##fang
Tauber
Brühl
##core
Shuttle
Erinnerungs
##irat
sicheren
Infektion
##tsche
##sts
##sek
Winterpause
##üssen
##trop
Jetzt
##iell
##haben
irische
Komödien
Dah
ausgeschieden
Schallplatte
Laurentius
Ante
##oris
##bewegungen
Volkswagen
##AR
##sda
##laf
##eher
pu
baden
##hum
jährig
Snooker
Pracht
##staaten
##messung
Turmes
Hydroxy
Alexandre
vierzig
bewahrt
##schiffe
##pie
##chon
##chlorid
Vorgängers
Tors
Spirit
##kurve
Ungarns
Tragen
Milieu
##sender
Wasserfläche
Vorstandsvorsitzender
Mittlere
vi
Propstei
Lak
##reu
##lichkeiten
Oka
Oi
Baubeginn
1530
##zahlungen
Lex
##qu
##brücken
erb
maximalen
anzusehen
Sequenz
Mat
##ider
##ario
Adelsfamilie
Verantwortlichen
lieben
eintrat
definieren
allgemeiner
Bundesbahn
##deutsch
kürzere
Volksabstimmung
Versuchen
Nachfahren
##RS
festgelegten
benutzten
Mé
Cord
##örmig
##ith
##handwerk
quadratische
fremde
Chin
##recken
Grundsteinlegung
##jekt
Tre
Stoffwechsel
##ebi
landes
That
Realismus
Fie
FBI
##aufbau
Progressive
143
Wanderer
Süda
##ric
##lig
Léon
verschwinden
gemeinsamer
Nic
##arde
bemerkte
Rolls
1749
Schleuse
Ihnen
Brenner
Sonn
1713
##ular
verschlossen
angelehnt
Vorliebe
##sste
##mach
öfter
transferiert
Turk
Bür
##rati
##enha
liebt
Aver
mathematische
interessant
Justus
##verbund
Steyr
Stereo
Schock
Proteine
Gartenbau
Anni
verkehrs
verarbeitete
Wikinger
Rennens
##ikon
##aca
ungeklärt
1737
Mitspieler
Chap
##tam
##alk
Rathauses
Kamen
Grabstein
##formel
##auswahl
decken
Volksbank
Metropole
##lp
firmierte
Wallis
Bestes
Arsen
##rns
##mot
Plattenvertrag
Masken
mg
freige
Privileg
Kastilien
Abteilungsleiter
bekämpfen
Yang
155
dreischiffige
verkörpert
##ehe
touristische
Unterkiefer
Chinesen
Letztlich
Christiane
Abweichungen
komp
Schlepp
##begriff
Ansch
##rup
Volksb
Trail
Maxim
Genau
Ferro
Duett
Ballon
nationalsozialistische
Tem
Regisseurin
Aaron
##kins
Dominikaner
überla
Hetero
Cand
##peri
Ok
Št
Sardinien
Gotthard
##urn
##hals
##afen
Hoe
##ritt
minder
Neugründung
Commune
##olge
Stier
Aufkommen
ter
teilten
langsamer
Langzeit
Kat
Banner
1738
beige
Tou
Schwangerschaft
##reuth
erfüllte
Krönung
Fernsehproduktionen
Toyota
##yas
##heri
##ison
##esa
wiesen
begründeten
Wetzlar
Festlegung
Campe
syn
Morde
Ableger
##landes
##auern
Geschäftsstelle
##utt
Gesandter
##chsen
physikalischen
Grave
##wang
Zehnt
Miliz
Geschütz
Gefallenen
gerichtete
Mia
##ätigkeit
##uat
##echte
germanischen
epi
Disco
Dachverband
verringerte
Lüt
##lokomotiven
Geno
Emp
Währungs
##ior
dazugehörigen
Staatspräsident
Dae
Arkansas
##ahm
weitesten
Wirtschaftsgebäude
umf
scheiden
Marienkirche
ICE
Bend
Gewinne
bes
Ritual
Parkplatz
##chaften
Höfen
##dingen
Zuf
##borough
auffällig
##lmann
##ctor
Kultura
Einwohnerzahlen
lokaler
landesweit
christlich
Rennwagen
##sicherung
verschaffte
rep
Osta
Korrespondent
##inter
##ellschaft
verkündet
geh
Ert
##mul
zweieinhalb
Proto
Aut
##mitteln
intensiver
erwarben
Genauigkeit
Hauptfigur
Guillaume
##tm
arbeits
Zweitliga
Polit
##urger
##lsa
unser
Steinb
Kubikmeter
Anzeigen
##ots
Nietzsche
Mathe
Gua
80er
detaillierte
Pine
Jacobs
Derby
##anteile
Renten
##sg
##iums
rück
grenzen
Wimbledon
Phänomene
Neuburg
Gris
##ymnasium
##eler
betraf
Wasserscheide
##ket
überrascht
##dustrie
Seelsorge
Seeb
Hoppe
gewe
Stor
##yon
Olivier
Landgrafen
Geiseln
Felle
##bia
LI
1540
verstärkten
non
Cod
##zew
teilnehmenden
ausgemustert
Nico
Hindernis
gem
Schutzgebiet
Pil
Flughäfen
psychische
mon
geheim
Referendum
Lux
Behinderung
Prior
Bourgogne
##reit
grossen
geologische
Mitgliedstaaten
Geb
Bundesverdienstkreuz
Öko
ethnische
Uli
Allgäu
##spannung
##hig
Aush
Alphabet
##vir
Wohnplatz
Tot
Hab
Essays
Eintragung
Eid
CT
unwi
Vergleichs
Nachts
Lost
Selen
Mao
Botanik
Venture
Lucius
##gesetze
vorgesehene
V8
Soccer
Bedingt
##setzen
Verona
Rotten
Rajons
Koll
##ufnahme
ten
Zunahme
Advisory
##vá
##lement
Type
Befehls
##vorstand
##ufs
Titularbischof
Ere
1618
##tech
eu
Gemeindegrenze
Formulierung
##dorn
Versteck
Machine
Guan
##geräten
Schuster
Johns
Dru
1670
##ogene
wählt
verteidigt
Warte
Förderverein
##straßen
Kronblätter
Herstellungs
Genossenschaft
##lti
ol
Märkte
AW
Kempten
Eisenerz
ehrenamtlich
Hep
Dock
vielfältigen
1690
sozialistische
sec
##effekt
riesigen
näheren
gestützt
Besatzungsmacht
##ppt
trainer
Schloß
Montréal
Architekturbüro
Anspielung
##pläne
erm
Sprengstoff
Regi
Kraut
Hauts
##nov
maß
indes
erforderliche
Krause
KF
India
Glashütte
persischen
dicken
bra
Mee
##pti
Wänden
Castel
##erien
Rückst
##water
Mate
Lis
Hinterland
1733
##tius
##hochschule
##dez
Gesetzen
##slav
##kot
fiktive
ant
Stadtrand
Gern
Mills
dominierte
Gemeindegebiets
Freimaurer
##knoten
berührt
Tad
Esch
Wä
##trich
kü
Einkaufszentrum
1724
##ulo
Too
Body
biologischen
Stea
Erh
Seel
Maske
Gries
##sien
##kka
berechtigt
Rut
Rechtsform
Ligaspiele
unterirdischen
Zeremonie
gleichmäßig
Honorar
Füßen
Fließgewässer
##utor
Osttimor
Lancaster
Prägung
datieren
Suite
Petit
Bezugs
##etzt
bed
Jab
##erklärung
##ekretär
##dienstes
Sohle
Maximal
versp
organische
Tei
Buss
##й
bestreiten
Nachteile
Holmes
##cet
folglich
Made
##zing
##braun
einstellen
Wiederaufnahme
Steink
##spro
herausragenden
gesamt
Daran
##sprachigen
Unterbringung
Timo
Schutt
Hafenstadt
##nahen
##mou
Forschungsinstitut
##ommission
orientieren
fressen
Rossi
Oak
Baches
Advanced
1721
##verlag
Stockwerk
Lehrbuch
1701
Pavillon
Affen
##še
##herren
Wü
Jazzmusiker
Feldmarschall
Dienstleistungs
1520
##llus
##icke
##gemeinden
you
verun
nennenswerte
anbieten
regelt
Konföderation
Gangster
Süddeutschland
Gegnern
schätzte
Administrator
##ád
##gler
vorsah
Medi
Mang
Beseitigung
##tional
##olizei
##nkel
gezielte
Währenddessen
Rim
Dreis
Stichwahl
Nachschub
Erk
Ehrendoktorwürde
Auslöser
feindlichen
einschl
unterstanden
belgischer
Zusammenhänge
Vollendung
Tam
Ingrid
Dimensionen
Boxen
1718
##cou
il
Fragment
##smittel
##nö
##nzen
CEO
Ausdrucks
##rim
Passagen
Officer
Abw
##ār
##vsk
Streicher
Rent
Fed
##dic
##chl
herrschenden
Hom
Hasel
Genfer
Flügels
Flash
##halb
zo
Sos
Redner
Mobilfunk
Klingen
Curt
Ähnlichkeiten
gefundenen
eineinhalb
##nea
##rö
ausgezeichnete
Halbzeit
##ilig
##eits
schi
nächst
Großf
Bona
strebte
geheime
Südlichen
Löcher
##best
erlosch
Witz
Leid
Kulturdenkmal
Kuhn
Judentum
hinunter
Bata
1725
verstärken
ki
Reichen
Landesgrenze
fer
besiedelten
1640
##itäts
ven
form
ausdauernde
##hie
übrige
##emi
moralische
Schuhe
##tran
Sean
##getriebe
##ausstellung
kontrollierte
##ì
sechzehn
erleichtern
##sme
left
Serben
Lions
Entführung
8000
##lens
pl
##wel
##lett
##agung
belastet
ausbilden
##poli
##ensch
dominierten
angeblichen
Schrauben
##stände
##kauf
##chst
formale
Ell
Balt
verbliebene
Horse
##zid
Spalt
Pré
Bundesligisten
sam
begegnen
Step
Rotor
Horrorfilm
##zugehörigkeit
kommentierte
typisches
steigerte
##termin
##dere
mer
Schifffahrt
Mängel
Gegebenheiten
Chant
##renze
##nay
Monika
##ächte
##zyten
Vita
Ent
##hua
##eden
Auffällig
durchgängig
Television
Talk
Saxophon
Erika
Ausstieg
Initiativen
Drehbücher
Dornen
##uka
hei
Rupert
Heilung
##mente
Durchsetzung
##waffe
##vent
heim
erzählte
Eisenbahnen
Tana
Ironman
Fruchtknoten
Zukunfts
Senatoren
Schleif
Gewehr
Claire
Aktiv
##gek
##dru
zeitgenössischer
verschleppt
##ní
bild
Behauptung
Frühlings
Austritt
Abo
gl
feine
Preises
##ändig
##führen
repariert
Wittgenstein
Pädagogischen
Plattenfirma
Heid
Haltestellen
Gabe
FIA
Burgstall
Arie
Weltmeisterschafts
Sit
Pädagoge
Luca
Amalie
trennten
einjährige
##uy
##eist
Till
Legenden
##lius
##tzung
Spalten
Kör
##sgesch
Armeekorps
perfekt
##cos
Zusammenlegung
Twin
Raumes
Pendel
##unktion
##ilo
##erren
Vorwort
Spielerinnen
Meinungs
##wu
abge
Verstorbenen
UV
##ketten
Vorst
Fußballmeisterschaft
##tanz
##läu
##lungen
Bea
##kund
##hop
kre
Lichten
440
Gad
Fürstentums
Denkmals
##äft
##gräber
verweisen
Thesen
Steinh
Quedlinburg
Gere
Bedenken
1723
tätige
dynamische
Waldemar
Dampfschiff
##mutter
##hing
länglich
fle
Kapellmeister
##orr
##wäldern
erleben
##TV
Weltmeisterin
Prozession
Palazzo
Conne
##mine
##gui
UM
##regen
klassisch
fol
Lys
Kirchenmusik
##ucher
##ngebot
weiblicher
Sozialisten
Kein
##sation
Kee
##rojekt
denkbar
UD
Hess
##tine
Graubünden
##rob
inszeniert
aufhielt
Luftangriff
##tot
durchweg
Kredite
Buche
##sty
längerer
einstimmig
beschafft
behandelte
Rechtsstreit
Finalrunde
##ehn
erneuerte
Brit
Bour
##80
##utung
##grenzen
##etter
historisches
einstige
Pros
Bedienung
1688
##papier
gebeten
Sze
Ponte
Mandats
##sart
Tut
Hak
Alliance
Manu
Bassisten
##gewinnung
zweithöchsten
Profikarriere
##DE
platzierte
Behälter
##usschusses
Rei
Pin
Pep
Lesen
Cassi
Brat
Workshops
Hilfsmittel
Ave
##äisch
##tiefe
ents
aufgetreten
Esca
##ól
IL
Hafens
Facebook
##zka
##werden
Parish
Landesp
Indie
Griffel
Argumente
##phie
##egel
##betreiber
gebräuchliche
Tropen
Nad
ökonomische
sporadisch
Sitten
Kama
Dynamik
##logy
Murphy
Brügge
investiert
Luftk
Kehr
Falcon
Divisions
##moni
##geni
Kasernen
DL
Chart
Bildes
##onic
besch
Argument
##xel
##ahlen
Koma
Bundesgesetz
Alban
##ätten
##ohe
Verweis
Mendelssohn
##či
##lemente
##erre
##von
##runn
##lta
##auto
hochwertige
Katze
##iens
ö
sen
Zweibrücken
Violin
VA
##reb
##deck
Mafia
##ović
gestürzt
Het
Friedensvertrag
Ea
Spurweite
Halberstadt
##treffer
aufr
Homosexualität
##erna
##ckung
angef
Unterwasser
Außenministerium
geweihte
betreffen
beliebte
auff
Pohl
##euti
weltlichen
##risiko
##messe
##cti
fehlender
Tuberkulose
Sho
##ignal
##chuss
##stufe
ergänzen
besichtigen
schriftlichen
Auszug
##xid
Hauptt
Flan
FE
Em
Count
Cae
##partien
amtierende
Schaff
Lil
Konservativen
greifen
Faser
Faden
Kob
Haid
konstruierte
Tauben
Playoff
##haftigkeit
Kamin
Soest
Siedlungsgebiet
Nepal
Kriegen
Gemälden
Freundschaftsspiel
165
1634
Voraus
Rhin
Jä
Auer
##rka
beides
Voss
1683
##stel
##alla
ungesch
Tō
Forschungsschwerpunkte
Dou
##mpfe
Vl
Kapuziner
Höhenzug
Capital
##tscha
gemalt
beschädigte
Sera
Lä
Herausforderung
kap
geologischen
Partido
Unterdrückung
Ridge
1739
herunter
Dreiecks
##ähigkeit
Musi
Gefälle
Patron
##tib
Ureinwohnern
Plattenlabel
Langstrecken
##hut
Stadtkirche
Sichtweise
Font
Blaue
##11
abzusch
Sab
Rott
##ünder
##ebo
##abi
passieren
Stärkung
DD
##toffe
Schenk
Gans
##yg
##grade
Ame
##ær
##nfeld
Geschwader
Durchschnittsalter
##meer
##kante
Gün
##situation
##lop
##bögen
##alb
Gabriele
##kalk
Universitätsbibliothek
Sperre
Joy
##endi
unternehmen
gestiegen
Reno
##lfe
weiterver
##kurse
wesentlicher
fortsetzen
Thermo
Hauptver
370
##fon
Ura
Fé
enthüllt
aufgestiegen
Stevens
Ris
Ibn
##nf
##kritik
Flaggen
Constan
##tröm
starkes
letzteren
##gefahr
##furt
Oberhalb
Cel
Trägerschaft
Giorgio
1678
##nsen
##dim
wilde
##enk
neutrale
Bess
AO
ger
Wart
Obern
Lucia
##wich
##endung
angeregt
Marko
##itzen
##cup
illegale
Nazis
Anhang
##tagen
##rgi
##amo
##ifen
Rita
Lyn
1734
urteilte
Verne
Minerale
Jes
Empfangs
##finger
diplomatische
verfügbaren
mündete
Polizist
Aktivisten
Cow
##ündung
Novelle
Cars
##mouth
geboten
Plei
Chester
##ég
##sfe
##schin
strategischen
schafften
kräftig
Goi
##rar
instand
Gesamtheit
1727
ausgerichtete
Tos
Ausk
##ory
##oran
##iya
gegebenen
Vorher
Stämmen
Magistrat
Zeppelin
Gig
1722
##würde
##ista
Zivilisation
Mongolei
Mentor
Landesverband
Cai
##chtet
LT
entstehende
##zit
##manager
lieferten
bauliche
Professional
Moe
Chol
vorkommenden
Wächter
Sediment
Raja
Kirchberg
shi
Tessin
Lehens
##ladung
##ence
Ruta
Knut
##eam
##aschinen
Schlie
Partners
Blake
##egi
Patente
Neus
Kantor
Gul
Fühler
Dys
Doc
intensiven
funktioniert
Langhauses
Churchill
Boo
##triebe
##grafie
Stiftskirche
Ned
Einbeziehung
Century
##chichten
wiederzu
legendären
Orchesters
Lüb
Landeshauptmann
Bod
##pet
##iguren
##designer
##ël
##nteil
##esse
Schwarzenberg
##enau
Heiligtum
##swa
statistische
brasilianische
Soft
Klinikum
Bäche
überging
gefragt
Zeitweise
Hert
##niert
überaus
bewiesen
Pächter
Gallery
Einkommens
verdankt
beging
Haken
islamische
berichteten
##mé
Steuers
Katastrophen
hervorgerufen
Nebenrollen
##aufnahme
Vorgesetzten
Starr
Aul
##ission
entstammen
Rif
Feststellung
##inga
künftige
Römische
Moser
Gauliga
Arbeitslosigkeit
empfunden
Vaterland
Luna
Jüngere
Cold
Bergfried
prüfen
Restauration
Leonardo
Bruderschaft
##stro
##kriege
passende
kümmern
Roß
Einmal
Britisch
wiedergegeben
Grace
Eden
##wohn
realisieren
##gab
VV
Gä
Geschwindigkeiten
Bergst
##ká
##istoriker
Gue
##CC
statistischen
Veri
Sullivan
Sot
Hannes
Columbus
Blütenstände
1712
##tärke
Zentralbank
Filmkomödie
Koz
werfen
aufbauen
Pic
Beha
Armeen
##ndt
##kro
##ibi
##chlich
Drehmoment
##ento
administrative
Uri
australischer
Metropolregion
##erni
Wasserk
Partnern
Höhere
##elände
Zin
##bridge
Referat
Prüfungen
Guinea
1632
dominieren
ai
Vend
Kreuzzug
allzu
##pos
##ehrer
arti
Ziegelei
Völkern
Rasch
##irkung
Mauritius
Eri
Chores
##yna
Vogelarten
Schleusen
Parallelen
Oz
Mie
Lagerung
Essener
umk
U1
Brass
gemischt
Orlando
Gamb
Animation
##aktionen
##acker
erw
abf
Stä
Pforzheim
##bauweise
schönsten
Umschlag
Tötung
Madame
##parteien
##nni
zurückzog
Sensor
Mechanismus
Karel
##yli
##sl
gemischte
##hofs
interessante
Tep
Fass
Bewu
kons
Platon
Kreislauf
Delhi
##räder
Rachel
Lö
Annexion
Aborigines
##zza
##gü
##appen
nordrhein
comp
Luftstreitkräfte
##SE
bulgarische
getreten
Fichte
Einsch
Colle
##prozesse
##opa
ordnet
genetische
Verz
Siebenbürgen
Ler
Heiß
Ged
After
##jak
gewürdigt
Eure
selbstständigen
kennenlernte
Respekt
Lindau
Konzils
##mili
Weltcups
Ravensburg
Archi
##iege
##mäßigkeit
separat
##ape
Buddha
Basen
Amerikanische
##immt
südamerikanischen
Wilder
Gerber
##pfl
bewaldeten
Ramb
Kernkraftwerk
Kanadas
Wohnungsbau
Steppen
Elternhaus
tan
slawische
Sozialwissenschaften
Kramer
Come
##barer
enthielten
Weltkulturerbe
Schla
Gewerbegebiet
Einst
Drehzahl
Cr
Cornwall
##rner
##familien
vors
Provinzhauptstadt
Lay
##üste
##zki
##lsch
hergestellten
Senegal
Pkw
Orléans
Eil
Dit
Auswanderung
Abwehrspieler
1719
auffällige
Podest
Brö
Chie
Brennstoff
##gk
##besch
abgezogen
Maier
##rief
##kla
##bä
Raimund
Propeller
Newcastle
pH
Standpunkt
Mb
Geistliche
Anwender
##teils
##inski
##bie
herz
fliegt
Lippen
AfD
Ästhetik
Phosphor
Cs
1689
##leitungen
mechanisch
lauten
Zap
Filmdrama
Briefen
klaren
Walds
Körner
Gremien
Evangelisten
##gebung
Türmen
Sponsoren
Inspektor
Bourg
gewünschten
einsp
Hughes
Abends
##öcke
wirkende
moderiert
NRHP
überlieferten
erwartete
Mona
Bark
kunst
Abzweig
##elm
verfehlte
lösten
Municipal
Komplexität
##eig
##chiffe
überwiegende
gemäßigten
Hare
##bst
Wessel
Zwangsarbeit
Insassen
untersuchten
nachweislich
Musikf
Mez
Diet
##duktion
##bul
Ša
end
Staatsminister
Mannheimer
Grenadier
Fußballs
Clare
##änen
##utet
einflussreichen
Maritime
Guild
##lische
##briefe
vierst
Cemetery
Airways
##IN
entdecken
##usf
##schel
##lätze
zahlte
gastierte
Kombi
Full
##rans
##beit
Kehle
##festival
erforderte
begrenzten
Weichen
Afroamerikanern
Abschieds
##stetten
letzterer
beherrschte
Nes
Mall
Landesmuseum
Gemisch
Dav
Südostasien
Kas
Beschreibungen
##vie
Kirsch
Gänse
##inhalte
##abtei
verdienen
eingeschlossen
Geisel
alliierte
Albrechts
##tiert
##oze
##arz
null
Industrial
Ausstattungs
reichten
Shop
Hitparade
##techniken
##hd
ausgewählte
Ruh
Ode
Geliebten
Selbstverwaltung
Pollen
flüchtete
Schweizerische
Schli
Raben
Ps
Inkrafttreten
Einordnung
Building
Cincinnati
##steiner
##runnen
konventionelle
Sj
Mordes
Mehrheits
Fraktionen
überstanden
keltischen
Una
César
##ča
##pool
##geist
berechnen
Eschen
##kapitän
Vorsteher
Af
Nash
Klö
Gregory
1716
intern
Herb
Kulturgut
Erzieher
Einheimischen
##lberg
##ieger
##holt
überspannt
Textes
Support
Stadts
Rosenheim
Diskriminierung
Betriebswirtschaftslehre
##schwindigkeit
##ardi
versorgte
Strauch
Glan
Fußballverband
##funk
christlicher
Nennung
Kickers
Cop
Ax
1880er
##jon
reist
Hindenburg
Chas
##nzi
unterzogen
fertiggestellte
Seu
zweithöchste
bewaffnete
Interaktion
his
Gase
##wissenschaftler
##moos
Schlü
Melo
Fü
Variation
Cas
Beschwerde
##ż
preis
##bestände
##aue
##assade
auftretenden
Palace
Cl
Cad
Weichsel
Strassen
1672
reden
einzurichten
Sem
Oberhaus
##leis
Rex
Klosterg
Ket
Höhenunterschied
1450
##wai
jünger
Fertig
Bow
1570
##VA
##ausch
einsch
Libretto
Kapsel
##cla
Korrespondenz
Außenpolitik
##tock
woraus
Vermeidung
Abgas
ortho
gesteigert
brauchte
Balla
Fö
1705
steuer
Pali
McG
Leistungsfähigkeit
Leone
##echer
vollendete
geltende
fixiert
NP
Halbleiter
Era
Anwalts
1728
illegal
glückliche
Verkäufer
1350
Pölten
Liber
##hara
durchzogen
Verwaltungsbezirk
Devi
##vic
##darm
##board
kö
Etagen
##album
men
Karoline
Holm
Grundge
Bergs
##otte
Lip
Info
angetreten
Tannen
Sauerland
Rekorde
Bedarfs
erschwert
Ub
Einflüssen
##ßler
pal
Weich
WE
Volksmusik
Democratic
autonomen
Sandra
Sande
Fakultäten
##user
##np
verlagerte
Schlamm
Claudius
##ın
verschollen
Judith
##tchen
Uro
Konto
##üche
Tort
Persönlichkeits
Bergmann
##OR
##yen
Standes
Fleet
Astra
Savoyen
Ausgestaltung
Arbeitern
Kick
##ssistent
##inte
Triebwerk
regionaler
getrennten
UNO
Kleist
Abgesehen
ver
DEL
##mäß
##datum
Mater
Haaren
Fly
Richtungs
Nischen
Ng
##hei
Preußens
Now
Lebensmitteln
##treue
Nea
Fitness
Datens
schnellste
Queens
Federn
Deu
Bezüge
##GA
Vorbilder
Variationen
Cen
##rba
##noten
##eute
zivil
Maschinenfabrik
##weiß
##real
##ilde
##ament
Voice
verbot
sinkt
Wad
Pearl
Nebraska
Kompilation
Kho
Barra
##tors
schweizerische
landesweiten
Kreide
gegnerischen
biblischen
beitrug
Wasserkraft
Dortmunder
weißlich
republikanischen
medi
erfassen
Lebenswerk
##ürt
##aff
regiert
dotiert
Ostafrika
Niederschlagung
Kami
GI
Anger
##tv
religiöser
Marquis
Anleitung
##chtig
bea
Nora
Lama
LM
Cola
Angeklagten
tal
formulierte
Thematik
##gattung
fehlten
dieselben
Versailles
Optimierung
Mü
##öffnungen
##sort
##arin
Tren
Tafeln
Nahverkehrs
Landa
Dramatiker
##ngu
beis
Kad
Jal
Flügeln
##vorschriften
##punkten
##brü
ragen
Lebenszeit
##iw
##genen
##chn
geschafft
durchflossen
ausser
Radebeul
Ostasien
Modi
Experte
Chaussee
Bartholomäus
##oly
##bestimmung
Wicke
Tob
Taufstein
##richte
##parlament
##ows
viert
Wilm
Gag
##stationen
##skirche
##omb
vereinigte
aussch
Sepp
Pfingst
Weinberg
Erfassung
Dialekte
##gru
##edien
beträchtliche
Wacht
Stahlbeton
Akteure
1711
Ži
vorgeschrieben
Module
ton
außergewöhnliche
Gew
##zwi
##objekte
einf
Zuchthaus
Steffen
Mönchs
Güte
schwierige
eingetreten
ausländischer
##isse
Shen
Gutshof
EHC
##ucci
##tla
kreuzen
Einbruch
290
##wohnung
##uar
##bei
initiiert
aufgefasst
Schre
Ark
70er
1709
Zusammenstellung
Sämtliche
Merkel
Faul
##lokal
##ffa
Pott
FSV
##phor
Psychotherapie
McCa
Antikörper
##lugzeug
##jewitsch
##anns
warb
Rüdiger
Doris
##uchtung
KB
Decks
1729
##chia
zusammengestellt
Stadien
litauischen
Hauptan
Außenseite
##swe
##chern
neunte
Spionage
Hosen
##tümer
bau
Vorrang
Schme
Dingen
ausgegliedert
Unver
Straßenrennen
##fähigen
schwieriger
Intendant
Altäre
##sze
##inst
##ault
##ři
##iale
verwi
Drag
Bali
##leiden
##geri
SpVgg
Relation
Musicals
Inspiration
Bagdad
bek
Pes
Inland
GW
##irm
##arischen
Stammplatz
Slo
Hörs
Food
##upp
##enc
fahr
Pfarreien
Never
Bd
##к
##éra
##merkmale
optimale
momentan
gewünschte
Trinidad
SBB
Memphis
Lipp
##haufen
##folgen
abgesch
Stätte
##lade
leidet
glatte
Abbey
##ähne
##iza
eigenständiges
Wanderwege
Rik
Anfänge
##inischen
Tasten
ged
Sitzungen
Absch
##kö
ut
aufwändig
Winkler
Wallfahrt
Henrik
operative
Wre
Peg
Kartell
##flüge
hebt
##lüsse
Lam
Kinn
Ausgleichs
Waadt
Gefieder
##veni
Wes
Lead
Diamond
Spielzeug
Devon
##mäßige
##llig
weißem
alleinige
Sü
Suco
Gegners
Ahnen
##tn
##erp
Ähnliche
erschließen
HE
Befreiungs
##som
Seiner
Gebets
Emporen
niedrigere
Toledo
Schwab
Kes
##linde
Mallorca
##weis
##nwe
Neuerungen
Holger
Bors
Bruns
Akte
##llier
Yar
Verpflichtungen
Thie
Sad
1685
##pta
##ieh
##grat
umschlossen
kräftigen
Objektiv
##ů
Ses
Nashville
Mason
Kronprinz
Dup
Auss
##ysi
##eae
Reflexion
Depression
Vikariat
Her
##szi
##mh
##kter
##gli
Rechtsver
Messing
Wann
Tours
Secret
Präsidium
KI
##tempel
dauernden
Initiator
Dau
Barri
Reut
kontinuierliche
erwähnen
##ize
ruhen
ausgedrückt
Imperial
##EG
##sey
##dur
dringend
Arztes
##RI
##ssch
qui
befassen
Rätsel
Lieferung
Leeds
1580
em
Schwein
Ostro
Wörtern
rec
konventionellen
Tanzs
Neuenburg
##vertretung
##riedhof
Unbe
Schafe
Loi
1560
Tach
Qualifikations
Phillips
Litt
Auswärtsspiel
##örmige
##wässer
##atik
kaufmännische
Schlosser
##seitig
toten
reichs
Perser
Landgraf
Hohenlohe
##tun
Kenneth
Harvey
1704
##beh
sprachliche
gesteht
Bombe
##verb
##orge
Holzb
Fieber
##pfer
verwaltete
that
tauchen
hinab
herausgegebenen
Unterhalt
Thrash
##hauser
BG
##sus
##ror
##rai
##filter
möglicher
eröffnen
Streitkräften
Corre
Altb
##siert
lanzettlich
art
Talente
Sass
Teamkollegen
Schmelz
Papp
Hatt
Bluts
##mber
Weite
Variablen
Tup
Tamil
Eve
##alon
Oppeln
Melodien
Landwirte
Katalysator
Glu
Germany
##quen
psychologische
Stockwerke
Realgymnasium
Aussch
##scheibe
cou
ausgeprägten
Unrecht
Hebel
##schichten
##ogi
os
ehren
abweichende
Verwaltungsgebäude
Priorität
Cameron
##rach
##mast
##gewässer
offizielles
Zufall
Th
Jenseits
Bandbreite
##endes
Stella
Friedberg
1731
##achte
##verwalter
beruhte
Regulierung
Markennamen
##ährung
##for
Urteils
Alberta
vern
Uhl
Beiträgen
Abhandlung
Tritt
plan
Vakuum
Inselgruppe
Geldstrafe
##feldern
Rind
Lauenburg
Bankier
##balken
Fau
Denver
##ecker
zy
ausgewählten
abgestellt
Wells
Sulz
Netzwerke
Eg
##röhren
##lad
##gesang
Generalstab
Freiheitsstrafe
##nak
##js
Stei
Seitenschiff
Scharf
Donat
künftigen
geri
Vy
Kemp
##usti
kalk
Mies
LE
Iz
Galizien
Frosch
Übungen
Ef
übereinander
Streu
Distribution
##zess
##lossen
Ank
##armen
##nv
traditioneller
Viola
Strich
Rinde
##ortal
Ž
tro
Child
##under
##slo
##rfen
##lok
##instrumente
##feldt
kan
##vn
##udi
##bande
verringern
Fron
##mic
Sheriff
Karn
Cus
##â
##heil
Pharma
Marino
Kreuzweg
Foster
Fachschule
Rechtsp
Heimatort
BO
Anfrage
##upe
günstige
Wahlkreises
Pav
##pfel
##dio
strategisch
gehaltenen
brasilianischer
Herrschaften
##itr
##chnung
verschaffen
bediente
Westf
Fet
131
Tourenwagen
Luftaufnahmen
1697
Feldkirch
Hülle
stärkeren
durchführte
Domain
##iler
provisorische
Galla
##stell
##epi
überein
ergänzte
Welts
Manuskripte
Jungs
Becher
##varianten
steigende
bri
Cecil
##staffel
##rdi
##down
zurückgehen
geneigt
dicke
Wendel
Tigers
Neube
Fontaine
##ša
##list
##dam
Walmdach
Urteile
Tech
Schaffhausen
Manufaktur
Erlen
Buchenwald
##marken
wirkliche
meiste
Carls
Bana
##lah
##felden
Hieronymus
Gasthof
Cul
Cob
Aw
1635
richteten
festes
bela
befestigten
Distrikte
7000
##rbi
erzogen
Lauren
verschlechterte
erscheinenden
Komm
##darstellung
versah
definierten
Zam
Wrack
Komiker
Erstaufführung
Basketballspieler
FH
310
##sem
##esh
##emm
morgens
gr
Sozialp
Satellit
Profimannschaft
Legend
Kiss
##lze
verlagert
osmanische
han
Vie
FV
Böhm
##tek
##ifft
miss
gewisser
Tama
Arbeitskreis
##reibung
Wirkungen
Untert
Sakrament
Remis
Refrain
Jährlich
Andri
Federal
Blattstiel
##12
##ual
schla
Owen
Aspekten
##esk
Verf
Trom
Pokalwettbewerb
Pfeffer
##fie
system
fertigen
Reu
Dig
##nac
Tis
Sell
Bahnhöfen
##xie
##rdt
verspricht
Wichtigste
Seri
Motte
Medici
Cum
##organe
vorläufig
Nepomuk
##vig
##abkommen
zusammenhängende
Wanne
Kh
Filip
Dragon
Calcio
gesta
Taktik
Kennzeichnung
##tera
##iffen
##gus
Vä
Roter
weitem
Eleonore
##GB
est
bewohnten
säu
Vergessenheit
Kruzifix
Heilbronner
Besatzungs
##AT
##ichung
Reiner
##ship
##bio
Maxi
Inflation
##yri
##unft
##speicher
überholt
Maximum
Bloch
##ism
##tatt
Vorhalle
Faschismus
##iva
hoffte
ange
Blockade
1702
##training
##politisch
Römern
Reduzierung
Mass
Greif
##ching
Festspielen
obs
Roms
Drau
Dent
Demonstranten
entsprachen
cu
beliebig
Koh
Fli
##metall
architektonische
Piemont
Oberhaupt
##schlagen
##lken
norwegischer
Herkunfts
##lieger
kirchen
indonesischen
Hee
Bischofssitz
##sprachige
##onis
Ranch
Pig
Bergsteiger
##andi
Daily
Muk
Lutherischen
Chai
ökologischen
populäre
Zet
Teilhaber
Biz
##oldaten
##blick
Đ
Weißenburg
Töchtern
Chors
##ormat
##ktiv
Mom
Ausr
##trahl
##mr
##laufen
überregional
Öz
boden
Wels
Kräuter
Hilde
verteilte
unwahrscheinlich
Sept
sodann
##spektrum
##prop
fl
Ungarischen
Ostfront
##ych
kreuzt
flohen
aufgeb
Steuermann
Routen
Ri
##fischen
##bern
gliederte
aufgebracht
Simone
Schleife
Fossil
strenge
Jennifer
##dert
Spandau
Nikola
Handy
1726
1707
##chka
##card
stürzt
Police
Bü
Bri
##nfa
##kut
val
ausgeprägte
Skala
Literaturwissenschaft
Hauptgürtels
Entzündung
##äts
##höhen
##örder
öffentliches
elektrischer
Zehen
##ologischen
schieden
Göring
Gé
Filmk
Burger
Brien
mangelnde
Wesel
Opernhaus
Guide
Epochen
Arche
##kollegen
sendete
Phi
##yst
##over
##ipfel
arm
Tierarten
Füll
Fremde
Departements
Iv
##mag
##bens
nächstgelegenen
körperlichen
gestellte
außerordentlich
Weisung
Einschränkung
Direct
vielfältig
unterschrieben
niedergelassen
Verkehrsverbund
Obmann
Eigenbe
Banat
##therm
umgehen
Zealand
1708
##η
##act
gefallenen
abz
Fahrplan
Ego
Anhand
##atisch
aufzus
Uh
Ellis
Ausprägung
##erst
Naga
Funktionär
##obo
flüchten
abgeschnitten
Weih
Fortschritte
zwölften
badischen
Tischler
Reisende
Bech
##tests
Ro
Gebühren
Daw
Adelsstand
##tea
##egion
mac
Terrasse
Norfolk
Glenn
Barc
zurückgeb
berg
Urlaubs
##usion
Leicht
Lagune
Bundesgerichtshof
##eilig
##bos
##bele
Córdoba
Chassis
##übung
##tschen
##hein
##med
##deli
antwortete
Unabhängig
Japanischen
Erbauer
Gesamtweltcup
##älfte
##onische
##ilige
Jou
Fülle
Acha
zuweilen
zeitlichen
Rur
Herm
Flugzeugträger
##če
##ochschule
geschriebene
fordern
bedeutsame
Tragflächen
Thom
Petersen
Hörner
Beh
##éri
##maus
unsicher
aufgehängt
Tschu
TI
Pacht
Lili
Hierarchie
Bauwerks
##tuch
mbH
jetzige
gemein
Unterbau
Rocky
Rhode
Like
Langer
Aich
tre
Haj
Grundfläche
Früchten
Canyon
##üre
##gänger
##enba
eingerichteten
dreist
beliebige
Weltcuprennen
früheste
einher
angegebenen
Unser
Individual
Olaf
Kab
##unterstützung
verwies
beidseitig
Ming
Loh
##recher
##platzes
Grenzgebiet
##ländische
É
Erzeugnisse
Dong
##ione
ägyptische
beeinträchtigt
Kala
Norda
Borough
Att
##zeile
umstrittenen
entziehen
Versammlungs
OM
Lyc
Frequenzen
##ändischen
##ronn
renommierte
angebliche
Remix
Fris
##inspektor
Neunkirchen
Hama
Commons
höchster
Stadtrechte
Save
Dragoner
Deal
Zuflüsse
Wirtschaftsf
Schräg
Mitgründer
repräsentativen
Helme
Cay
Vorarlberger
Siena
Roden
Nords
##route
erforschte
Kwa
203
##pfad
Sortiment
Kirchdorf
Isabel
Industriegebiet
Rode
Mika
Einsicht
##öden
zeugt
kostenlose
Centro
Albin
##ituation
Verbrennung
Opi
##informationen
ze
korrekte
Schöneberg
Nou
##äs
##pre
fließend
Konfiguration
Kirchgemeinde
1622
##nja
##mte
Hefte
Bildenden
##áz
flu
dreier
doppelten
Strömungs
Schlange
Edmonton
##FA
##dig
Sterben
Künstlernamen
##äuft
##inisterium
Secretary
Kok
##tiven
##gst
Kranz
Eugeni
##loo
amtlich
Absolventen
##nym
experimentelle
beeindruckt
Saalfeld
Portugals
Kort
verankert
erleichtert
NPD
1699
##nstruktion
##lew
Stellenwert
Hui
Archäologischen
Intro
teuer
letztmals
Anlauf
##lech
##hari
vorgetragen
band
Tauf
Startplatz
Lj
Indianern
##ünn
Arn
erlag
abgedeckt
Patient
Kometen
##rufen
##olm
##atoren
weihte
frische
Straubing
Integrations
Hofer
##resse
ausgestorben
Unterbrechungen
Konsolen
##anti
Salem
Lotte
##nius
umfangreiches
gefertigte
Friede
Conn
Caro
sä
Querhaus
Batman
Anthropologie
##RT
##chnet
##anzeige
verwüstet
Xu
##itteln
##agt
iranische
Orb
Celtic
##läge
##fl
Pfadfinder
Himmler
Ausweisung
##ürger
Stendal
Lichtb
Jel
Albi
##stall
dunkelbraun
Tomb
Taxi
Perg
Cash
überstand
Hauss
Bear
##trasse
##fü
Warburg
Gutenberg
Assessor
##was
einzigartige
Verbrecher
Vatikan
Stress
Kleinasien
Gerichtss
Eugène
Umstrukturierung
Matti
Hardt
Cant
##sstelle
su
Teiche
Tabu
Goslar
##sun
##erke
unterb
mancher
Südh
SU
Reutlingen
Manöver
Cora
##reaktion
grund
Ship
Reisenden
Gütersloh
Ee
Amateure
##trau
fra
##TS
##dsch
informieren
Konferenzen
##rein
pla
kalte
Trinity
Security
Barn
Anwendungs
##bandes
residierte
Gmina
Buchhändler
Auswärts
##udien
unterlegen
Wahlkreise
Vorburg
Portugiesen
Generalversammlung
Dampflokomotiven
Artepitheton
##ôme
Ethnisch
Alessandro
##aris
Wasserfall
##eitig
Resten
##oso
neutral
RK
Ols
Dani
##dé
tötete
Mich
##igne
Teppich
Tah
Saum
Kunstst
##hro
Verschwinden
Thronfolger
Orgeln
Mk
Dieb
Dat
verbesserten
Ural
Schotter
Sacr
Kalb
Fußballspielen
FR
zukünftig
ungleich
Versicherung
Lessing
Kadetten
Enkelin
##unnel
##ssin
sogenanntes
entgehen
##liebe
bewirkte
Voigt
Vienna
Plans
Organismen
Norder
Koni
pädagogische
exakte
Innovation
demo
brandenburgischen
Schöpfung
##ürfe
Trig
Techniker
Ox
Highschool
##ME
##rüfung
zweitklassigen
charakteristisch
aufsteigen
Turbine
Königst
FL
##tir
mitwirkte
Small
Pfahl
Od
Exklave
Delegierten
Dale
##rsa
Wolle
Westfront
SWR
Bres
Stick
Fundamente
Fak
##eigenen
Scorerpunkte
Pull
Airbus
Adelheid
schmaler
Vla
Lub
Indiz
überzogen
veranlasst
Pakt
NI
Kum
Enge
Inspektion
Helga
Chamb
Belt
##onnen
ablegte
Zubehör
3500
##sgrad
##ppi
Zwillings
Synchronsprecher
Ett
##schung
##imm
markante
Plantagen
Fia
Böse
Antenne
##geschichtliche
untergliedert
spa
Tales
Severin
Schächte
Sno
Mieter
Emmanuel
Anruf
überleben
Works
Westm
Saf
OR
Kunstf
Jor
Jahrtausend
##ersi
Resi
Goe
Gate
Astronom
##sprozess
##richtungen
unerwartet
entworfene
Landesf
Altarraum
##tian
##sicherheit
##pst
##gründung
##brüder
beurteilt
Chelsea
Tränen
Stoll
Dachs
Clay
##roy
##mati
Vé
Stat
Soli
Schin
Jesse
Enc
Apache
##xia
##ngi
Onkels
Mole
Ewald
##eha
musikalischer
gezahlt
festgesetzt
Befunde
##llte
##ifi
vermischt
Winds
Qua
Natal
Montgomery
Infanterieregiment
Geest
sin
konsequent
führender
Yorkshire
Sportplatz
Selb
Obama
##ystemen
##technische
##fert
##ande
häufigen
Raf
Konsequenz
Karen
Holzt
DOS
##okal
##isierten
##gegner
WWE
Farn
##fal
erbracht
Verdi
Rena
Pixel
##ütz
##umer
##nai
enormen
Zeitgleich
Reine
Isolation
HR
Empfehlungen
Bedeutungs
##osch
##chne
Reso
Grun
Fisher
Besatzungsmitglieder
##irch
##fries
Aman
Adelaide
mos
Seminare
Loe
Esslingen
Bezirksver
Bes
##big
evakuiert
Rocks
Hegel
Cze
##pes
##kasten
##eiche
Nab
Gottlob
Geograph
Archive
Amar
Alpine
##übergang
Politikern
##rho
hel
Popo
Ens
##onie
##glio
Ż
Scheide
##ologe
##mandat
anlegen
angemeldet
Stopp
Kelchblätter
GC
##IT
##ttbewerb
bekrönt
Tons
Oberland
Kang
##г
##fußball
Wissenschaftlicher
Pilze
Gehör
Gav
hetero
Ord
##bed
##bachtal
verwe
regi
herstellte
Parma
Jade
Grade
##ray
tele
analysiert
Lebensdauer
Kreuzgang
Hygiene
Gund
Bergk
##zweck
##gemäß
##fache
##amten
kalten
Mena
Corn
Autobahnen
##äden
##yya
Regenwald
Gesprächs
Dampfer
##mper
Duran
Bundespräsidenten
##EA
Assoziation
##fli
##ennen
##bing
VT
Testaments
Souveränität
Seeh
Grundherrschaft
##twe
##mantel
ed
Geläut
Dorfs
##ängt
##lian
##iec
pen
Cicero
Chel
klinische
Nationalmuseum
Jahrgang
Harbor
Dementsprechend
überquerte
Wallfahrtskirche
Nü
Milo
Angewandte
##pra
##lom
kristallisiert
Rads
Kup
Eile
Cot
##werten
##tags
##eicher
radikalen
bur
##igs
Parodie
##kali
##feste
synonym
Ingenieurs
##eas
lateinamerikanischer
Rubin
Pale
Implementierung
Gong
Flüchtlingen
##ewe
kommandierte
Wagens
Saarlandes
Favorit
##yang
Nuntius
Ausb
##enda
überdies
natürlicher
Wulf
Servi
Milwaukee
Huf
Grove
Fundort
Cau
Anfängen
##wis
freiwilligen
Spätmittelalter
Rollenspiel
Mist
Mih
Cale
##reiten
Stromversorgung
Spu
Oli
Lichte
Bone
BT
Anc
##teur
##spflicht
##ridge
nötige
Staatspräsidenten
Nachbarort
Gee
430
204
##lov
vertreiben
Lucy
Hauptaufgabe
Harburg
##krati
##galerie
Wiki
Wider
Weisen
VE
Abschnitts
Viren
Verlages
Fas
152
##bef
##api
vorletzten
Westminster
Swan
Marty
Mandel
BN
##bischof
##anto
Mere
##show
##birge
orts
geladen
Ahl
##reiheit
##phone
einfaches
Seitena
Mariens
klinischen
bewertete
Schwergewicht
Einzels
AFC
prop
angesehenen
Vale
Ligaspielen
Hum
Fraktions
##rsi
Schwäbischen
Schaffens
Osaka
OF
Medikamente
Cello
Arne
Adligen
##opo
Hildegard
Bom
##öne
fränkische
Wettkämpfen
##fizierung
Tags
Hoy
Anm
##ädagogik
##nio
##inheiten
Sard
Hod
Forces
Buslinie
Temp
Stadtbefestigung
Literaturpreis
##problemen
ann
Spaß
Reim
##RC
##ndert
##chichte
fin
abgek
##ansk
Rassismus
Eink
Dw
Both
##verkauf
##setzt
##handels
##atri
farbige
Fliegen
##play
##apital
Brig
##str
##stete
Kirchenb
Gaul
##nitten
revolutionären
Filmpreis
Angels
##smen
geschossen
Nationalliga
Kunstwerk
Annie
##olis
##konzerte
Überführung
vereinfachte
Bänder
verg
Ohl
Landesbe
##äng
##priester
##orgel
##ops
##cheiben
Sweet
Regent
Erg
Bere
Badischen
Anzeichen
##öh
##reif
##cit
verlegen
Qing
Plattformen
Hauptbe
Gmünd
Aurich
Amadeus
begeben
Zuges
Scotland
Nutzlast
Katz
Fabian
##his
##gliederung
zehnte
Vertiefung
Jaguar
##ssp
##spruch
##röße
##ichtet
##etriebe
sogleich
krank
heimische
gehaltene
ag
Store
Michaels
Kane
Golds
Clarke
Aufw
gegnerische
Reichsmark
##я
##steller
berufs
Vorderflügel
Naturparks
Anh
##srat
werdenden
bundes
Steigung
Hauptg
Dum
##kult
verbl
Vasen
beförderte
Waisen
Mok
##seu
##lack
schickt
bräunlich
Schilf
Ow
Desert
Croc
Araber
##zirk
##sm
Skiweltmeisterschaften
Regens
Holt
Hendrik
Gens
Berber
Verlassen
Rover
Hervor
Großbritanniens
Abfolge
##rank
gerichteten
##münster
Tul
Kn
Geboren
Befragung
##ütze
##roa
Typisch
Rome
Grundmauern
Enns
Boom
Bahnsteige
##mil
Oph
Mythen
Markenzeichen
Indianapolis
Charakters
##schu
Städtische
1703
##hil
thüringischen
junior
Wals
Trent
Seilbahn
Krankenhauses
Ausweitung
##hom
##ensi
vornehmen
verbreitert
repräsentieren
Unternehmensgruppe
Tambon
Singen
Rufe
Kommandos
##î
##sier
##arth
Sokrates
Pie
Philo
Dot
##revier
##lc
##egr
vollzog
materielle
eingereicht
Print
Bauen
##ides
schnellsten
geraden
Villar
Nap
##uste
##kolleg
##bsch
romantische
meinen
integrierten
bewirken
Weinberge
Productions
##kleidung
auszus
Gehr
Fachzeitschriften
##ork
##linik
jähriger
entspr
Zweigstelle
Zugs
##gra
##cot
illustrierte
Strat
João
Bing
Aufforderung
##sierte
erwachsene
Verteidigungsministerium
Kostüm
Kirchengemeinden
Färöer
##zähne
##unternehmer
##fei
sportlich
Klerus
##äste
##ussch
##rauen
##loser
Überraschung
beachtet
Kul
##tom
##pielt
##annung
##amts
Lücken
##öfe
##dni
##axi
Gambia
Bundesminister
##itzung
bearbeitete
1590
##oot
ges
Wils
Schaft
Radius
Lokalbahn
ISS
Aufarbeitung
##ielt
feindliche
Gefährdung
##nca
##hov
##erste
WC
Verrat
Bunt
##journalist
entfiel
Viscount
Quad
Morav
Drittligisten
##verd
##bla
begibt
Zeichens
Hopkins
Amateurliga
##bler
beliebter
Hün
Amtsinhaber
stützen
schicken
scheinbare
kreisfreien
##sak
##bäume
niedergebrannt
Novo
##hter
##bürger
##angriff
begonnene
Masch
Girls
Anst
##σ
##unds
##uca
##tudien
##kit
lutherischer
Westpreußen
Lehramt
Glass
Gladbach
Aufschrift
##rrt
muslimische
isolierte
Round
Arbeitsa
sendet
abgesagt
Richters
Cool
##rel
##agazin
Älteren
##usbildung
##geschwader
beschuldigt
1706
##rse
##mun
überlebten
Ili
Gemeine
Entw
##rtal
##kine
externen
dargestellten
beendeten
Seb
Phantom
Mosambik
Kl
Goll
Ghi
Fors
Aktivist
Elt
##führers
TG
Stations
Schal
Jugenda
##blo
Mam
Carr
##sänger
##esellschaft
##assi
problematisch
Wiktor
Einzig
60er
##ská
##pod
stilistisch
Military
Factor
Direktorin
gesunken
Sme
Garmisch
Dep
##EN
##hten
Schwarzer
PO
Kliniken
treue
Maud
##äule
##sim
wiederaufgebaut
päpstliche
feuchte
Investor
Cohen
Beckens
##korb
Zustands
Vizekönig
PlayStation
Kaufhaus
Gha
##aire
dürfe
VC
##ländern
##gei
Roo
Falkenstein
äußert
pre
Schor
Fran
Beschuss
Dominik
##offe
##ezirk
wenden
Kreisgebiet
Hofs
Hase
##nord
angel
Verlierer
LL
##summe
bebaut
Stin
Korne
Durchschnitts
Bloom
Willens
Urnen
Powell
From
Altars
##IC
Überwachungs
Väter
Riet
EUR
##nver
perfekte
Gesundheitswesen
215
##ädte
##objekt
##bilanz
bürgerlich
Eisenbahnnetz
##sons
##lins
##esischen
##eistung
Zaun
Wund
Nec
##edizin
trag
Skr
Menhir
##büchern
absolut
144
##orsch
##geln
begünstigt
Podium
Kunsthalle
##neg
##kongress
Treu
Stadions
Schulabschluss
##verbänden
##tb
Familienmitglieder
##kno
stabile
Europastraße
Dorfbewohner
niedrigeren
bef
Jun
Ausflugs
Aren
##urz
##riss
Teufe
Passa
Kinderbuch
##sde
##lai
verraten
grenzte
Soziales
Slawen
Happy
Gren
Ersch
##lsen
braunen
Zhang
Vec
Staatsarchiv
##toni
schul
Tek
TO
Sporn
Konstrukteur
Geste
##EC
##uchung
##mith
steile
regierenden
Studierende
##üren
eignen
Thessaloniki
Bergf
Bausubstanz
##ntar
##enre
##cover
Steig
185
##90
erläutert
Todesopfer
Schulf
Ruhestätte
Plate
Kolonisten
##lität
##euz
gestoppt
Vormarsch
Virgin
Verwandte
Aro
##dai
ff
##gelung
##enb
umfangreich
sechsmal
flo
Snowboard
Netto
Jü
##ringe
##gnan
vierter
Oscarverleihung
Niederschläge
Esta
Abnahme
göttliche
Vet
Sterns
Sojus
Selig
##kraftwerk
beobachtete
Unterstützungs
Lae
Erle
##ähe
##inin
prominente
leitender
überst
##älder
religiös
notiert
Sint
Ordensgemeinschaft
Kahl
Gesandten
##hlung
gestohlen
UA
Synagogen
Metzger
Brigadegeneral
##ritter
Laboratory
Dim
Ahmad
##tü
##sic
diverser
Geological
Erliegen
Angeli
##üllung
##tore
Zach
Schlesischen
Quart
##lick
inhaltliche
comm
Stolz
Kurfürstentum
Japanische
Gottheit
Gers
##ssige
##kenn
vereinfacht
Signatur
Fragestellungen
stimmt
Komp
##überwachung
##chy
fremd
denkmalgeschütztes
Westerwald
WI
OK
Meu
Jaw
Engelbert
##xis
##sprogramm
Kaa
Cloud
##etal
##anth
reiner
Wet
Toskana
Südtiroler
Haber
Cyr
##mier
auslösen
Spitzenkandidat
Zem
Montpellier
Krü
unterschiedlichsten
Ved
Staatssicherheit
Erfurter
Belegschaft
##ь
##yb
ausgestattete
Ziels
Straßenk
Sandb
Aufbauten
##yro
##geh
##gb
luft
bewältigen
##kung
##alli
markanten
##engen
pat
flüssige
Sheffield
Lim
Langf
Interpret
Ester
Sm
Profifußball
##sieg
Salze
Rivalen
Holzk
Halbbruder
Dual
##60
##gerecht
oxid
gestört
ganzes
Wolga
Inhalts
##üttung
##shan
##ical
versprochen
abends
Wiederauf
Computers
##üro
##wölbe
##racht
##mö
##felsen
Versprechen
Katalonien
Baumaterial
unterquert
Teenager
Pent
Mitten
Milan
Andrei
derjenigen
Schwäche
Reichskanzler
Ine
Entlastung
warme
verfolgten
flexible
Umsteige
Industriellen
1654
tausende
Expeditionen
##signal
##fund
englischsprachige
ausgerufen
Vorgehensweise
Tyr
Meißner
Macha
Berufe
##cast
abwe
Husaren
##oman
Wyn
Vollb
Generalgouverneur
Gelds
see
Bonne
Rhetorik
##unn
##ega
Wassermühle
Prog
Produktionsfirma
Pran
Hebe
Dry
DO
##ersatz
Schreiner
Rotation
Mys
Ment
Letzter
90er
##zige
##send
##abst
heirateten
gestellten
Vest
Rückzugs
Lilien
Honorarprofessor
drittgrößte
Vorf
Spielers
Oliven
Hofrat
1610
##mia
halber
Torschütze
Sarajevo
Odo
CL
Beicht
Bahnhofsgebäude
##tk
Unschuld
Belo
##vere
##quel
beschäftigten
begegnete
Säge
Renate
Kriminalität
Holzsch
Gastro
##ästen
Weingut
Supers
Staatsf
Kraftwerke
Jemen
Gerard
##ę
##zwecke
##itig
Zü
Som
Rhe
PKW
Friesen
Bf
Aur
Altarbild
##bier
umwelt
Nachbargemeinde
Berechnungen
##irt
##glocke
Sym
Jungsteinzeit
Exponate
Arbeiters
Aal
##kul
##anga
Stahls
Staatsgebiet
Naturdenkmal
##osta
##emperatur
Einerseits
Bies
##brück
landen
Met
Kupplung
Gebrauchs
Bid
##ransport
kle
Patriarchen
NR
GD
professioneller
afrikanische
1675
bedeutsam
Melde
Avantgarde
Ao
##ulf
##phäre
korrigiert
Relegation
##ktivität
##gna
Vietnamkrieg
Sans
Geschehnisse
Coo
##tudio
##pflichtig
##oin
##befehl
umgerechnet
beantwortet
Uganda
Nobelpreis
Bris
Arbeiterpartei
##uben
sorgfältig
Staatsangehörigkeit
Lamp
Clans
Abmessungen
##usk
##put
stationierten
Stadtarchiv
Rai
PE
Ghost
Bauphase
verursachten
unange
Kartoffel
Chorraum
1631
##förder
aufrechterhalten
VG
##werbe
veraltet
Gir
##NE
verk
ausgerichteten
Orbit
Aid
##trukturen
##pringen
fu
besessen
ausgehen
Niederländischen
Fussball
Charter
##rtet
##geschäfte
dramatische
Senke
Roi
##studien
##hul
Vergleiche
##bü
Vorm
Trophäe
Minder
Heeresgruppe
Fluor
Pieter
Diamanten
##pid
##ower
##benen
Ši
Late
##ří
bewirtschaftet
abgegangene
Hochebene
1625
##logi
nachempfunden
beliebtesten
Machthaber
Heli
Freigabe
##teilnehmer
##itu
mexikanische
Herstellern
Tschi
Touren
Schür
Namensgebung
Lautsprecher
Benny
##mühl
feinen
Wochenzeitung
Buc
Peace
Ilm
Baureihen
##darf
einsetzt
Poz
Okzitanien
Körpergröße
Gruppenspiel
##aussch
freigesprochen
Gesamtk
Begeisterung
männlich
Cousine
##mse
fürs
Serra
##unfall
##ics
nordischen
böse
brachen
Rä
Geschäften
##ON
##ommissar
##graphische
best
Staff
Matsu
Bauherr
Archäologe
Richards
Eigenständigkeit
1661
##nstraße
vereinigen
Vermessungs
Promi
Innenseite
stil
Sale
##tatus
Pari
Fut
Exa
##thema
##element
geltend
Pfad
Palme
Gelege
Eheschließung
deine
bet
anhaltende
Prost
Haftstrafe
Bahr
A4
1603
##prung
##kanäle
aufwendig
Grundsätze
Dächer
##ssy
##motiv
##eve
##egt
kümmert
Underground
Friedhöfe
##ombe
##nster
Westafrika
##SR
##pitzen
Wirk
Straßenbau
Köpfe
Iu
##bee
##attung
Pli
Leslie
Dozenten
Aza
Aug
Aris
festzustellen
Loge
Gloria
##gehäuse
unges
Lesungen
Lad
Capri
Ven
Deutz
1480
##ugs
##clubs
Tansania
Osts
Oberkommando
##aine
Pik
Evangelium
Bilds
aufgestellten
VB
Some
wiegt
Wern
Vice
Rheine
Offenbarung
##pfeiler
Weges
Stam
Rangier
Howe
Herne
Baha
##achi
menschen
Vergewaltigung
Trost
Bog
##át
##loh
Yen
Psychiater
Hardy
Assistenz
##oph
##ngst
##ersteller
korrespondierendes
Zä
Mühe
Grill
Evakuierung
##storf
verbreiten
ständiger
Wohlfahrts
Tribut
TM
Oden
Meth
Leis
Guard
Glieder
Dominanz
##äten
##pulver
##leg
##enzen
ukrainische
Zeitz
Schwi
Organismus
Nordwand
Koffer
##rant
vermietet
Trient
Hauptteil
##pas
regen
Wasserturm
##zens
##status
##light
Jungvögel
Gibson
Cz
Bauhaus
##proben
riss
Herd
chi
Gog
Gilde
Gegenstück
Datenschutz
##tufe
##rla
##elde
##aci
versetzte
are
Schwedens
Rundb
Kühn
Krankenpflege
Grabstätte
Bah
##teg
##nns
Schläge
Pt
Anal
wanderten
sar
geschm
flacher
Woods
Third
Mino
Jährigen
Eintritts
Ado
##dampf
vereinbarten
fil
bewusste
Sektionen
Fasern
Anno
Schauspielern
##gehen
Verwaltungsrat
##mler
Viva
Screen
Patri
Org
##GE
##czy
wertvoll
verfl
umstrittene
bedrohte
Phra
Landesteil
##zb
##rina
##mein
##lou
class
Zusammenfassung
Wellington
Sponsor
Schulte
Haydn
##nist
Nachfolgend
Journalismus
Jong
Funden
Nachs
Haiti
Bore
breiteren
Ziffer
Mahler
Lebensräume
Eisenzeit
Achs
##ielle
indigenen
beeinflussten
Problems
Hausen
Bayerns
Ace
##zeitliche
##lsdorf
##haltigen
##ego
kommunistische
Skil
KW
Gisela
Dominic
##rungs
Zir
Shim
Dienstes
Auen
##texte
##raut
Wanderung
Nuss
##blättern
seitliche
Send
Kleinp
Haube
FU
lit
eingest
Hufen
##elb
herausgebracht
abgeschlossene
Ricardo
Ausweich
##äulen
##zhou
blut
Rivers
Linné
Electro
Gruft
Arp
##urus
##ektion
originalen
neugotische
ka
Messi
ewige
Verdienstorden
Jacobi
Check
##chos
##arbe
Stadtbild
Riff
Endstation
##ungsp
##bezogene
durchgeführte
Ono
Hinrich
Dramen
1684
##ruder
##nae
##lá
wandern
vere
angewachsen
##ergebnisse
Teilnehmerfeld
Arminia
##nski
##iment
##entin
##bremse
##ask
treiben
fälschlicherweise
abstieg
Wintersport
Kür
Jana
Hauptdarstellerin
Cac
Arbeitskräfte
##col
##arische
räumlich
Querf
##äst
bloß
Newport
Nero
Mest
MAN
Kunde
##tien
##pau
##eux
praktizieren
margin
ausg
Gleichstrom
Fronts
Fara
Experimental
1698
##HA
beiderseits
Wölfe
Großb
235
##eißen
##efer
vorzubereiten
Mama
##got
##aku
nm
beschleunigt
Nei
Emigration
##bergen
Neid
Diebstahl
beha
Nationalf
NW
##II
##adel
Schütt
Compa
##igo
##br
praktiziert
Wechselwirkung
Sigmaringen
Hecken
Ehen
##tp
unzureichend
Wim
Wiederer
Soloalbum
Selbstver
Pyro
Bezahlung
gesenkt
beseitigen
Int
Hochk
##jes
Kna
##eton
deckt
beschränken
GF
Bryan
##spa
##oon
##hé
Umfrage
Coul
Zweikampf
Tac
Ore
Beni
Arndt
##mannschaften
##kap
überdeckt
Thurn
Puccinia
Kellner
Cox
Sekretärin
Mündungs
Hesse
Fee
1572
##mmi
##cing
##arine
außerordentliche
alternativ
Schuldner
Rockmusik
Levin
DEFA
##nais
serbische
gefällt
Neubrandenburg
FO
##uts
##tina
umzusetzen
dreifache
Sulzbach
Sonnenb
Pumpen
Landesvorstand
BSC
##äumt
##trat
##radio
##eran
##abschnitte
Kriegsge
Koordination
##ufgaben
Townships
Staudamm
Cyclo
Atr
##chulen
Schol
Julien
Foll
##vár
##schie
##nsa
##hur
Heiner
##werder
##onder
##ehmer
##blut
extremen
erfand
Tendenzen
Cem
##genossenschaft
##cheibe
Zweigen
Trompete
Nationalteam
Mansfeld
KD
Grundk
Alti
##bou
Gesetzgeber
Eigentlich
Breu
##oca
##aschine
aneinander
Westa
Government
Fjord
##igh
Sett
Seeha
##unger
##sig
##eiß
Marl
Cres
##utze
##beiträge
Heus
Gib
Bennett
Augenblick
1656
##mai
Triebe
Stadtkreis
##rbt
Sey
Hemm
Emily
Bundespräsident
1628
##zek
##läufe
Ó
verlangen
Innenausstattung
Geni
Elsa
Cari
Agency
950
schottischer
fri
Vorge
Noth
Monarch
Gier
Gesteine
##ehmen
##ando
genauere
erwachsenen
Nom
Emilia
Einge
Burgh
Betty
Batterien
##raba
Schaumburg
Moderatorin
Kantonen
Ino
##heck
##ems
##dampfer
effektiv
Schülerin
RI
Mausoleum
Herschel
##türen
##durchschnitt
Vá
Stoffen
Neugestaltung
Gra
Fis
Conce
Tian
Kita
Kahn
Amberg
##heizung
syrischen
kombinierte
bedeutendes
aufzugeben
Spre
Princip
Damaskus
1870er
##stufen
##abw
leistungs
Ans
##kapital
still
gre
geometrische
RNA
Lett
Grae
Bieber
siegreich
Sternberg
Rhy
Kriterium
Amtsantritt
##renn
kontra
hab
abzweigt
Youth
212
##usstellung
verdeckt
Strophen
Kooperations
Amin
##kü
zentrales
tagsüber
rückgängig
gewöhnliche
##querung
Ull
Enteignung
verschr
stimmen
elektrifiziert
Studienzeit
##uki
##ads
essen
Bram
Algen
##winn
##izi
Rak
Einblick
##mühlen
##ensemble
Trümmer
SGB
Elektrifizierung
Amazonas
wog
unterdessen
Verlusten
Partnerin
1693
Urin
Sanskrit
Dänen
Diktator
Arrondissements
##RO
##übers
##haw
##bares
aufgesetzt
Rochester
Prod
Neugliederung
Mab
Lösungs
1629
##ikel
##bewe
Effizienz
Diagramm
Bambus
##ù
##eigne
Drake
Bolt
##lak
wind
Swi
Abstiegs
XV
Program
Buff
##oco
eis
aufhalten
Wirkstoff
Wesentliche
Tatsachen
Shell
Scheune
Altmark
##cross
Zittau
Ortsvorsteher
MV
Hz
Greifen
Bamberger
##tzsch
##kampagne
hinzuge
fungieren
abstrakte
Sparte
Quin
ProSieben
Ostg
Hintergründe
##verschiebung
##ulis
##sir
##sc
Umgangs
Rid
Mobilität
Melchior
Marin
Krypto
Justice
##alls
gescheiterten
##regelung
##kl
fragte
Neust
Gaius
Bahngesellschaft
anderthalb
Konstruktionen
Boro
Banks
##vorstellungen
##ashi
Ortsbürgermeister
Ivo
Harp
Finanzierungs
Dich
Steina
Dh
hunderte
Superintendent
Schirm
Rohstoffe
Reservat
Nektar
Crawford
Adjektiv
überlieferte
gep
Filmf
Display
##tschi
zusammenarbeitete
verunglückte
vertikale
Koi
##sieger
warmen
Spanische
Rangliste
Endung
##ktur
durchsetzte
Polymer
Individuum
Holza
Ulrike
Dieselmotoren
##zet
fett
Otten
Lur
Kunstgewerbeschule
Colt
Bevölkerungswachstum
Bergleute
##sius
unregelmäßigen
Kugeln
Gestalten
Ferri
Belg
anbot
NC
Begabung
##zla
Stadtm
Sidney
Mart
Kreuzb
Hers
Blank
##mpa
##besuch
##ards
Gleichstellung
##runden
##rieden
##emo
slowenischen
Kurier
Fakten
Arrangeur
Amtsgerichts
275
##träge
##nker
Liege
Krankenschwester
Knecht
##ragt
##lies
##apparat
gebogen
angehoben
Stadtver
Momente
Dunkelheit
##voi
Paarung
Kleiner
Kabinen
Cluster
##lima
akzeptieren
Jahrbuch
Erasmus
##usb
##elden
kräftige
analoge
Vork
Verst
Mitternacht
Körpergewicht
Einsatzes
##änke
##reichs
gewa
gekoppelt
Rox
Gemeindever
Erträge
Electronic
##fnahme
##anke
eingesch
Ligue
Fou
##adion
Verwaltungszentrum
Bereichs
##rieben
##mst
part
Vid
Plau
Feuchtigkeit
Eugene
Crus
##setze
##anisch
Android
##wahlen
##nfe
Öffentlichkeitsarbeit
unre
persische
kontrollierten
Zunft
Rank
anbietet
Sle
Pina
Lup
Know
Karo
##gewerbe
beliefen
Vampir
Magi
Betonung
##wurf
nutzbar
kühl
gleichmäßige
Württembergischen
Ritterkreuz
Militärregierung
Albu
##perre
##fk
##dörfer
Trif
Schmitz
Akzeptanz
Abstell
##presse
##grundlage
##gla
Kontrabass
Birgit
Beeren
Antip
Alexei
##Ra
stre
enttäuscht
Stop
Sanders
Inszenierungen
##nadel
kontrovers
gewonnene
Volkshochschule
Verzögerung
Sommermonaten
Schwedischen
Bem
##MS
ärztliche
sicherten
mitgewirkt
bekanntes
Schaa
Hinrunde
Hertz
##olla
##geschoss
##esheim
stehe
Trö
RF
Novi
schlichten
Linsen
Archäologische
1623
##zha
##mn
grauen
erwarteten
Mug
Hessische
Gret
##tschaft
##rohre
##ians
erlangten
Wed
Verwe
Regionalbahn
Operetten
Kampfes
Hornb
Geldern
Baua
starkem
erzeugten
Leinen
##kens
##differenz
Schmier
Pom
Musikwissenschaft
Delaware
Aufb
Skate
Nuklear
Joel
1686
Rezension
Blöcke
##ši
##lini
##erische
zitierte
verschwanden
Theatern
Pak
NCAA
Brandenburger
Bergh
##räfte
##chä
dokumentieren
aufgesch
Wasserf
Tageszeitungen
##ärten
psychischen
Trierer
Papen
Gegenständen
Essex
Bataillone
##rds
##ntrum
einnahm
Begriffen
unabhängiger
Katrin
Hausm
Hari
Flusslauf
Autom
##parks
##nhof
passt
Tracks
Moni
Missbrauch
Anweisungen
Also
##Mo
Nachnamen
Integral
Giacomo
Fus
Abspann
206
##üm
##zus
##erh
verfallen
Habitat
Catal
##sprecher
##enheim
##assistent
tschechisch
kas
ausgebaute
Zähl
Niederung
Desi
Auflistung
##jun
zusätzlicher
schwanger
ordentliches
angedeutet
Nackt
Eye
sep
Kyr
##sri
##hri
mil
Weisheit
Königshof
Deh
##ί
##nges
Schlosspark
Motion
Johanniter
Henderson
1621
##äum
##äfte
##erein
neuesten
Seege
Fußboden
##üf
##beschluss
welt
bemerkbar
Walz
Stils
Pérez
Pegel
Dämonen
Anste
einflussreichsten
Täler
Sv
Gutachter
Bok
Ache
oblag
Zielsetzung
Philharmonie
CBS
##übungen
##éd
##pfe
Bereitschaft
1652
##üller
schn
ou
Trauf
Dri
##weide
##sitzung
##gele
##gation
stehend
flieht
Rundbogenfenster
López
Jama
BF
Wiedergabe
Haager
Enten
Berufss
##skla
##kämpfe
Weltweit
Wake
Price
Niederl
Brooks
rettete
fortsetzte
Generalkonsul
Erfahrungs
Dünen
Bib
##teine
##rochen
arr
Zai
1664
Holzf
##llan
profitierte
Hud
Charta
Registern
Lori
##üll
##rá
##nens
Tras
Gegenspieler
wohingegen
naturwissenschaftlichen
Doe
Conc
1667
1526
aufwies
Sechster
Mittelst
Katholizismus
##orschungs
##flugzeuge
überbr
leistet
Zuschlag
Wünsche
Speck
Sinnes
Rotations
Hummel
##kreisen
org
antiker
angestrebt
Theodore
Gill
Bl
##steinen
##grau
ostantarktischen
heiratet
Zeh
Rollstuhl
Lobby
Half
González
Events
Bever
##mengen
serienmäßig
mehrst
Moi
gängigen
Rabbi
Erhalten
Allo
##winde
able
Wikipedia
Triple
Sprecherin
Schieß
Handelsb
##uchten
##entwurf
gedrängt
Ziegler
Regelfall
Freedom
Erwärmung
Antik
erschaffen
Rohrbach
Ritz
Gruppensieger
Beil
Aha
##netzes
vermeintliche
ul
Skip
Niederb
Gelbe
Canterbury
##rest
##beratung
gesteckt
alphabetisch
Riz
Merkmalen
Manila
Jakobus
Hersfeld
Asian
##nü
neuro
Wandmalereien
Persien
HI
Freguesia
Entschluss
Beutel
##stahl
##absch
integrieren
Kog
##sbr
##annt
überragt
LDP
Altk
##gerichte
##emeinschaft
Zahlungen
Pank
NH
Aussichtsturm
Anstelle
1529
##krankheit
geflohen
ernste
Untersch
Skizzen
Gleichheit
Assistentin
##treter
##massen
##chla
##arriere
verschrottet
pri
jugoslawischen
Children
Alternativen
##shin
solide
kalt
betrachteten
Sek
Lap
Gelehrte
Ec
Süddeutschen
##pap
abgetreten
Scout
Infrarot
Freiwilliger
##dchen
überprüfen
Vatikanischen
Smart
Landschaftsschutzgebiete
Gira
##muskel
Vocal
Leopolds
Holo
Filmfestival
vorr
Wide
Ulmer
Stadtkern
Schönen
Capo
Beschleunigung
##schlacht
##kommandos
parti
Walda
Pioniere
Ireland
Australier
Ver
Gruppierung
##iese
bevorzugten
Großgemeinde
##warte
Truppenübungsplatz
##pri
feierliche
Zeller
Panther
Nantes
Lithium
Gibraltar
Guerilla
Genu
1679
##noc
kop
getr
angesehene
Schnellstraße
Impact
Flugb
##gramme
Client
##onf
wartet
Nebengebäude
Kameraden
##usz
##labor
überwunden
empfiehlt
Domingo
##krieges
Pani
Eiern
C1
Brem
##ässe
verschärfte
Hartmut
Cos
formell
Jugendabteilung
Jac
Frö
##Ch
Umlaufbahn
Muss
geleiteten
Puppe
Lombard
##wachsen
##steuerung
##omm
ban
Pfennig
##anat
irischer
arme
Tum
Spezifikation
Puch
Kosaken
Barbarossa
liess
Kaiserreichs
Goss
Welterbe
Pelle
##ages
wirksame
wich
separaten
angeordnete
alters
Omnibus
Nordrand
Feierlichkeiten
1692
Raab
Milton
Baumann
##éo
##yw
##unken
Überlieferungen
göttlichen
Tes
##dene
gelernt
Staatss
Farbf
Anjou
Anderen
Ande
##draht
##brachte
Memoiren
Hunsrück
Extrem
Burkhard
##mmel
dazugehörige
Hochf
Afroamerikaner
Taxis
Oberschicht
Hameln
##biologie
ausgedehnt
auftretende
Mussolini
Michaelis
1536
verdrängte
posthum
Streben
Nicaragua
Muschel
##sers
##ordern
eintraf
Hecht
##tler
##ometer
warm
Atti
##kino
##deln
eingehalten
abgeschlossenen
Hauptre
Amphibien
##ugt
##gren
##bris
durchge
Zuhörer
1694
va
Genom
Einb
Bauteil
##ereit
Wied
Kenny
Hürden
Goldberg
Geruch
Burke
##darstellungen
verschm
res
pr
linearen
ev
Traut
Parteif
Jensen
##sehen
verbraucht
modifizierte
Unterla
Syr
Spor
##zei
##nahe
##gitter
que
einmalige
Tone
Solist
Etage
Cuxhaven
##yll
##sent
##gleichung
versagt
Vorhandensein
Supreme
Penis
Konsortium
Grabungs
Flöte
Britische
##unternehmens
##traßen
##museums
indi
böhmische
Kleinh
##ique
##dels
##brauch
Sacha
Ponti
Nebenflüsse
Gutsbezirk
Feuers
Baustil
##ylo
##rube
##laub
##dn
reicher
differenzierte
bedingte
Ute
Scan
##pei
Paro
##kreise
##ehren
##volk
Sprinter
Hra
Glied
Eller
Ausarbeitung
zweijährige
scha
drückt
dichter
basierende
XX
Sc
Kambodscha
Grundgesetz
AU
1555
##schäden
##rhe
##hotel
vergleichende
anf
abgewickelt
Waisenhaus
Dic
Ander
##wor
##track
angesch
Tatra
PG
Neptun
##geschichtlichen
parlamentarische
kom
Zwillinge
Meh
##schli
Wiederver
Pendant
Buchstabe
Anstrengungen
##ό
##ativen
Popular
Pio
Furcht
Armand
eingelegt
Urheber
Telekommunikations
Sobald
Schmied
Ringel
Mede
Dion
Chit
Ahmed
211
##äg
##sive
##reg
##llar
visuelle
Gesandtschaft
##lic
##istin
##beton
vereinen
hinge
ausgeglichen
Postamt
Kunstsch
verborgen
Linzer
Jew
HF
Freiherrn
Exposition
Ask
##orti
##ordert
##kämpfen
Verabschiedung
Thomson
Monroe
##mode
rü
aufgeführten
Zielgruppe
Straßens
Einfahrt
##erson
##erb
Sängers
Lina
Landgemeinden
Brus
##wurz
##gängen
##dier
zugehörig
umst
resultierenden
ausk
Oberrhein
Ers
Dialoge
überfallen
Verstoß
Gree
Dil
Chromosomen
222
##ivität
##hülle
Zub
Wertheim
Veranlassung
Monde
Lynn
Computerspiel
Bereitstellung
Anwohner
##atsch
Trompeter
Tig
Soo
Feststoff
Erlös
##sätze
##phasen
##geb
##chis
ungewöhnlichen
meta
Reuter
Misserfolg
Kingston
Kasan
Dome
Anselm
vergleichen
konzipierte
Staatsver
##puren
##modul
##ersa
steuern
problemlos
mol
Kokos
##hund
vermeintlich
gegenwärtigen
erfolglosen
Sensoren
Magnetfeld
Lum
Heimatmuseum
Coverversion
##wurzel
##mitt
verarbeiten
NK
##wicz
sukzessive
freischaffender
Garr
Dauerausstellung
##AN
##zba
konf
String
Jets
Bam
Andenken
##ezeichnung
musik
Zuflucht
Moro
Krypta
Betriebsge
##ahrzeuge
materiellen
Lose
Beiwagen
Bauf
##eicht
##bd
interpretierte
angemessene
Ria
Herrschaftsgebiet
Groningen
##wk
##pult
##organis
##etri
cl
Recherche
Musikt
Bregenz
Bildnis
195
##inist
sicherzustellen
heimisch
Siebenjährigen
Roz
Robertson
Medizinische
Karriereende
iur
Reinigung
Noir
Goa
1676
1633
1626
##völkerung
##probe
##hild
##bilität
dachte
Fundorte
Bauform
##mf
##grä
gewöhnlichen
Vit
Spielp
Iserlohn
Dinosaurier
Barre
##tka
##swerte
##augen
experimentellen
erworbenen
Verlage
Sug
Stabilisierung
Napoléon
Kreisreform
Judo
Gü
Bezirksgericht
1547
cal
Kirchheim
##erse
Schlachtfeld
geistig
Hauptp
##wappen
##dou
Olympic
Horizont
Attribute
umfassten
modifiziert
Universitätsprofessor
Schma
Lehrbeauftragter
Einstellungen
Duncan
Deswegen
Chuck
Bena
##sp
##gründe
##atal
eingerichtete
Weid
Tea
Mazedonien
Beur
##uter
##stem
##rug
relevanten
knüpfte
Schadens
KM
Drew
Debatten
verhält
kämpft
erstere
Sportge
Scheu
Musée
1890er
##onzept
##berichte
##unda
##raub
##eber
vrch
begeisterte
Wiesent
Obs
Moers
Mers
McLaren
Generator
##open
Vizemeisterschaft
Ret
Havanna
##empf
bloße
Schur
Bundesverfassungsgericht
Atari
##kamm
##frist
kraj
Sonde
Goldf
Einschlag
Abor
##zw
##zf
##unterschiede
##rut
##rae
##note
entnehmen
Schanze
Pistole
Fish
##sba
##esische
##cam
Offen
Oa
Eisb
Buchhandlung
Artefakte
überflutet
vormaligen
verputzte
gesch
Volkswirtschaftslehre
Symmetrie
Knick
Aussp
Ankündigung
##ängerin
##strasse
##omen
Wohnhäusern
Renner
Lehrbe
Hap
Adressen
##schwanz
##inien
Verkündigung
Verh
Spezies
Rhythm
Blocks
Bitter
Angelegenheit
##yin
##inat
postum
Therese
Radfahrer
Präsidentschaftswahlen
Murr
Kriegsgefangenen
Erstflug
Argumentation
##weltmeisterschaft
verdächtigt
Grimme
Entwicklungsz
Eingangsbereich
1695
1668
##hunde
vereinigten
ce
Myo
Kann
##röm
elegante
Zoologie
Verstärker
Neiße
Mittag
Historisch
Brüstung
Blä
Astro
Anfangszeit
##lizenz
##lif
##guss
generelle
Zentralb
Pola
Entsprechung
Baba
##fat
##enh
Maz
Halter
##CH
glänzend
Schwankungen
Mayr
Inva
##tent
##pferde
##hlt
wild
Westw
Ts
Sup
1681
##mara
wilden
dramatischen
Posta
Grö
Fußballliga
Öffnungen
sozialdemokratischen
Tagung
Hé
Forte
ETH
Doppela
Freundeskreis
Evangeli
Erkenntnissen
Chöre
460
##uerte
##scu
##kennung
##gd
warnte
Träume
Phantasie
##vera
##nh
gebrauchte
Rha
Norweger
Grabhügel
Dod
Chim
Boa
##mische
betreffend
Liszt
##öst
##yar
##uet
##gangen
Verfassungsschutz
Hierdurch
abgegebenen
Strafrecht
Rezept
Nordhausen
Malereien
Granat
Ahn
##zoi
##krebs
weitgehende
q
betätigt
Schalter
Olo
Minneapolis
Luh
Disk
Akustik
##revolution
Zentralen
Wilfried
Veranstaltungsort
Uppsala
RG
Mosch
Bien
##BS
kriegs
bemalte
Zauberer
Jiang
GPS
Bildende
##Te
##sperre
##itan
##fic
Reid
Lehn
Gleisen
Erdoberfläche
##ils
##genieur
##eigenschaften
##angi
physische
großteils
eingefasst
Valen
Unger
Schne
Formationen
Davos
Aufsch
##strecken
##ichs
Zulassungs
##samt
##norm
##ldung
Zentrala
Naturraum
Dubai
Dip
Dietmar
##oun
freiwillige
Rosenb
Oberli
Behr
##wende
##undi
vermeintlichen
Verge
Terre
Marti
Bundesbe
biblische
andauernden
Anlässen
147
mitbe
Zunge
Waldh
1687
1682
##obmann
Überleben
zahlenmäßig
Martina
Maga
##gela
##dde
bspw
auswärtige
Wonder
Sporthalle
Nissan
Belohnung
anschließen
Verwaltungsgebiet
Strategien
Scheinwerfer
Helmstedt
##technischen
##ndustrie
kulturell
Mithilfe
Hyde
Gesellen
Crystal
##zac
##lane
##klima
Polnische
Erneut
Dino
Arms
##stig
##ologi
vorläufigen
kno
View
Malmö
Lombardei
LB
PH
Grades
##chirm
geschütztes
eintreten
Touch
Percy
Kien
##iac
Schutzgebiete
Rodríguez
Ablagerungen
##zia
##lieb
ermordeten
Unterb
Nachhaltigkeit
Linear
Lamb
Diamant
Breslauer
1696
##nsp
einflussreiche
digital
befürchtete
Ossi
Hubertus
Err
überflüssig
horizontale
Wasserstand
Tiflis
Satan
##rauch
##jsk
klären
Untergeschoss
Trop
Teg
Katastralgemeinde
Collegium
Blend
Schlauch
Aufzug
1665
##nium
##itet
Yor
Verdun
RP
Karnevals
suspendiert
Wool
Tall
Spo
Gesamtrang
Burton
Banda
##TI
ungültig
rät
auss
Todd
Rothenburg
Regelmäßig
Partenkirchen
Nottingham
##ův
##rgs
##onk
vorangetrieben
Holzst
Chom
1642
##ograph
sti
Neua
Interpretationen
Friedrichshafen
##yth
verlorene
Sahara
Rh
Relativ
Reichstagswahl
Lent
Goldmedaillen
Gatten
heil
dell
bel
Zirkel
Glatt
1666
##bling
##abwehr
systematischen
Migration
LV
Brutto
##erungen
beizu
anglo
Traun
KK
Hexa
Avr
pflegt
Grotte
Gd
##ument
##schl
##ogy
##bles
demontiert
Yon
Städtchen
Strip
Reparaturen
Reglement
##spolitik
##afel
Steam
Mäzen
Maßwerk
Lance
Kriegsbe
Germ
##sdi
##dichter
Unterf
Terrassen
MIT
Jugendarbeit
Halbs
##ähl
##ensee
Zigeuner
Puffer
Pfä
América
##rdnung
zus
Zeus
Schulleiter
Essay
##éa
Vasallen
Oy
Kae
Haupta
##osit
##nsu
Zel
Physiologie
Gründungsmitgliedern
Eisens
Bülow
##ound
##chwe
väterlichen
Wuppertaler
Summen
Ostr
Gome
Git
##dent
##bag
##anspruch
##ail
beschließen
Privats
Patriarch
##komödie
Zy
Olsen
Nist
##widerstand
##grüne
##ense
wiederkehrende
gek
befahrbar
Vereinigungen
Taucher
Protektorat
Detektiv
##kriegs
##erv
Rüstung
Papiere
Kronprinzen
Geburten
Amphi
Monitor
Circle
##MP
##vio
##rno
##plin
##ebel
##annte
meiner
Theaterstücke
Lef
Abk
##epo
Tree
Straßenverkehr
Sozialistische
Leim
Hannah
Geheimer
1624
##AA
##μ
##nera
trä
Satzes
Lé
##arlament
maßgeblichen
Sca
Kommentare
Echtzeit
##ingang
verstorbene
nachgeb
Muschelkalk
Minus
GL
Dekor
##ross
wirkenden
ausgeh
abzus
Ethnie
Clair
Chrysler
##auk
überbaut
ruhig
niederge
Tris
Musc
Falsch
Bora
horizontal
WB
Ug
Jai
Dienstzeit
Brasiliens
##zahlung
##svor
##erd
weich
Twi
Staatsprüfung
Somalia
Schär
Poul
Otter
##rzi
Vorstoß
Terroristen
Giese
Energieversorgung
Conte
Bergischen
scharfen
denk
Portale
Goldm
##vert
##hilosophie
##hasen
keltische
Yellow
Horne
Doh
1645
niedergeschlagen
armenischen
Welche
Grundst
Generala
1598
##sele
##jährig
Sünde
Melk
Etablierung
Eichel
##äm
##wassers
##vid
fr
Seitenschiffe
Reichsgr
Pharao
Krem
Erwartung
##ilit
zusammens
kreuz
Untergruppe
Tab
##äer
##sna
##ritik
##ký
##ieler
verbündeten
Schnauze
Kurzform
Briefwechsel
##21
dreigeschossige
Geschichtsschreibung
##ump
##mess
##formation
Mühlhausen
Barber
##öste
##ovsk
involviert
Rosenthal
Goebbels
Coch
Bundesf
##rap
##onst
unp
abschließenden
Wale
Nitro
Gotik
Doppelk
##stitut
##lob
##eal
glänzende
Wartung
Schwei
Ahr
##tationen
##löcher
erkrankt
Lemm
Kirchengeschichte
Karpaten
Jud
##psis
##pha
##angebote
weiterge
##own
##faktoren
zuverlässige
steckt
aufgerufen
Vorherrschaft
Vogtland
Subs
Krankenhäuser
Gedenktag
Einzelheiten
Bischofskonferenz
Absetzung
##wasserstoff
##uelle
##otter
prob
Vag
Mittelteil
Lara
Augustinus
##ltur
##eform
##ahnhof
gefundene
Nem
Durchfahrt
Deckel
1655
##roh
##ierer
##edel
gleichem
cum
Vai
Miniatur
##erischen
vorf
ehrenamtliche
PV
Museo
Flanke
##urse
Potter
Pianistin
Frédéric
1644
##mien
derjenige
Lel
Landesh
Heg
Grob
Danne
##onzern
##lund
unt
photo
bemerkenswert
Zigaretten
Wartungs
Legislaturperioden
##mbl
##haar
Shar
Malcolm
Lamm
Geme
##psi
##pli
##medaille
##behälter
vorm
Entscheidungsspiel
##itzt
##gremium
versehene
erweist
Lufthansa
Lave
Lah
Calv
##unfähig
übermittelt
alias
Versen
Dobr
Böck
Ausmaße
##wetter
##tücke
##gefühl
Ministers
Bundestags
##cc
Wade
Sac
Kapitalismus
Barna
Atlantis
Schauspielschule
Perlen
Eno
Corne
156
##Po
##ellt
##bun
geometrischen
Neutralität
Moleküle
Compagnie
##nm
##belt
verst
stoßen
eintr
Past
liegend
distanzierte
Spartak
Basti
##ärs
##schütz
##ient
##gerichts
Säugetiere
Singular
Oranien
Musikvideos
##sucht
##schuld
pul
locker
Wiens
MK
##bow
unterge
Ranking
Offs
Maur
Look
Kelten
behe
Wohnraum
Treppenhaus
Ik
Erker
##RE
##uzi
Vorr
Mittelrhein
Malo
Kain
Gunter
##vision
Tänze
Ordinarius
Maa
Jug
Herzens
Fischfang
Berk
##pilz
##illon
Prakti
Finals
Emissions
Billig
Atoll
ununterbrochen
symbolische
Zak
Schriftzug
Jed
Berufsausbildung
##bez
anst
Odessa
Mailänder
Kapstadt
Autounfall
##ommer
beleuchtet
Rundschau
Plymouth
Operette
1637
1559
##werkes
##vö
##dera
vorherrschenden
Zentralasien
Velt
Tschechischen
Spinnen
Händel
Historien
Gamma
Domes
Ahorn
##torf
##rtete
##nehm
##aken
pazifischen
ci
Zee
Pyrenäen
Mim
Krei
Kollegium
Haven
##mü
emotionale
befürwortete
Unters
##kast
modern
metall
Wul
Sure
Assembly
realistische
Vore
Unsicherheit
Strebepfeiler
Rothschild
Heidegger
Differenzierung
Berna
Ausf
##teuerung
##onu
##nab
##hebel
Kehl
Gem
Agn
Achim
Spieljahr
Nachbau
Behinderten
##Bo
ähnelte
gewi
Brauns
##schwei
##dō
##bf
stellenweise
Schutze
Gös
##tinger
bewaldete
Verden
Keyboarder
Hippo
##ünfte
##ause
ungeeignet
Tuc
Parr
Mohr
LG
Faye
##uard
##rater
##bud
rau
Windsor
Trib
Sail
Repräsentanten
Mittelh
Alexanders
##neur
##alan
schützt
koordiniert
Vul
Spätantike
Schim
Gewand
520
##böden
##bten
schwäbischen
empfand
Woman
Mela
##tol
##kessel
##erts
verdeutlicht
romantischen
Seitens
Scherz
Ror
Jazzs
Dreifaltigkeit
##ordnet
verbuchen
außergewöhnlich
Unabhängigkeitskrieg
Neum
Netzes
Möller
Felsb
Chefs
aggressive
Troll
Stadtr
Krasno
Klassizismus
Heiliger
Geologe
Eisenb
Alonso
##gruben
##freundliche
##anu
Ét
mut
ly
dokumentierte
Perioden
Oberbau
Manne
Filmes
Emi
Badmintonmeisterschaft
1612
##ühlen
##cent
Weißb
Porter
1651
##hera
##gift
##enter
graduierte
einzuführen
Patricia
Gegenwärtig
Entschl
BH
##şa
##nop
##mura
##irn
##agte
neuseeländischen
arte
Stal
Staatsgrenze
Aufstandes
##üchern
##inae
##gebnis
Ums
Nordh
##treifen
##stü
##ischung
Verkehrsmittel
Tastatur
Quartal
Mozarts
Arbeiterbewegung
##regat
##quil
##laus
Metalls
Corpus
Arb
##sbereich
##mig
##alge
zeitge
beworben
Sander
Merri
Gattungsname
Diab
Browser
##kohle
##cott
beliebigen
Westturm
##räsident
voraussichtlich
Ortszentrum
Muri
Cana
##produkten
##asis
##arp
abgestimmt
Grenoble
Doo
##ärtner
##würmer
##teig
sinn
Schüsse
Reptilien
Hille
Haß
Flie
Codes
CG
##zal
##hot
Öffentliche
gegebene
Sprachwissenschaft
Spezialisten
Christa
##āh
##icus
##häuschen
##esitz
herange
definitiv
ableiten
Wasserst
FT
Bui
##rent
##nft
##goni
##ession
verwirklichen
jeher
Zwerge
Lega
Grü
##ühr
##ränge
##rell
auftraten
Entwurfs
##rh
überb
verka
Verdienst
Sechste
Face
##bels
##abr
wertvollen
vorläufige
buddhistische
Profess
Hofa
Eduardo
Dier
##ât
##oui
##isla
##enkmal
vereins
ausbauen
Spion
Samb
Popmusik
Gospel
##reh
##nki
##mechanismus
##belastung
Émile
vermachte
Pfleger
Dä
##ristall
##oster
##lko
##lip
primäre
Puy
Frances
Fad
##ulu
beb
Vororte
Taxon
Sicherheitsrat
Firmensitz
##feder
##agi
stimm
pflegen
Wohngebiet
Rituale
Posse
Imperium
ITF
Aberdeen
verschmolzen
verpasst
verlängern
Mille
Gymnasial
##aktivitäten
goldener
aufgestellte
TSG
Schnur
Persi
Neuh
Aloe
steinernen
angeschlossenen
Kah
Guer
Dow
Bertha
planen
bestimmtes
IOC
Diskurs
##ulle
##ilis
##chwa
##betriebs
Zitate
Quat
Qi
Nische
Leader
Bedeutungen
Ausgehend
grobe
Offensiv
Feldes
Aktivierung
##tradition
##loss
##eigene
verliefen
Wassersch
Militärbe
Meisterwerk
Jugendk
Hash
##reitung
##programms
tanzen
mobilen
klassizistische
Lenne
Königreiches
Besiedelung
##mee
dat
autonome
Jani
Diabetes
Dekoration
1609
namhafte
geschickte
Neutronen
Mic
Einbr
##trans
##tages
##studio
##steri
##stellungen
##mod
genießen
Spr
Schädigung
Gleichungen
Donnerstag
##räg
zurückgegeben
Militärakademie
1636
##istischer
ermittelten
Xavier
Rheinische
Hinspiel
Heraus
Domherr
Besatzer
Antworten
##öpfe
##igte
##char
Sib
Fä
##fg
marschierte
ele
Schulle
Rückspiele
Regisseure
Paper
Palmen
Hügels
Funktionäre
1643
##ukt
##inis
naturwissenschaftliche
haus
Vierzylinder
Spitzname
LPG
Bäder
Ava
##eckung
rührt
UTC
Quadratmetern
Pach
Lul
Kaunas
Inver
##vors
##ustausch
##thor
##rena
Romano
Lugano
Hirt
##ungsa
##schafts
##maa
##kandidat
Süds
Simpson
Konfrontation
##ök
##isb
geradezu
disqualifiziert
Schlitz
Sanierungs
Mech
Gebhard
##stop
symbolisieren
befehligte
Erprobung
Ass
Staud
Peta
Nester
Heirats
Hauptsch
Birk
versteigert
spezieller
europaweit
Zitadelle
Zapfen
Philologe
Laufs
GU
##sb
drang
auszubauen
Kühne
Kommentator
Heidi
256
##nsdorf
Überlebende
unterrichten
kraft
[...]
