[PAD]
[EOS]
[UNK]
[CLS]
[SEP]
[MASK]
der
und
die
in
von
den
des
im
mit
wurde
dem
er
ist
das
Die
als
zu
auf
ein
für
##s
eine
##n
sich
war
an
aus
auch
bis
nach
##en
am
Der
bei
##e
einer
zum
sie
durch
werden
einem
sind
nicht
Im
Das
wird
##r
es
In
zur
einen
über
oder
wurden
um
dass
Er
unter
Jahr
1
wie
vor
##er
##a
vom
seiner
sowie
nur
Nach
noch
hatte
seine
Jahre
##t
aber
zwei
Sie
hat
waren
2
eines
ab
zwischen
Jahren
sein
Am
dieser
Es
gegen
jedoch
Zeit
Stadt
seit
ersten
so
3
etwa
drei
##es
wieder
de
##o
5
of
Als
seinem
seinen
man
mehr
kann
später
diese
##m
Bei
liegt
4
Von
beim
##i
ihre
Ende
##y
konnte
Mit
ihm
erste
heute
wo
Gemeinde
kam
Teil
Mai
haben
dann
bereits
Januar
##in
August
März
Oktober
ihrer
20
dort
anderen
ihn
Ein
September
6
Diese
Juni
während
April
US
##l
10
Juli
Universität
erhielt
können
Dezember
da
beiden
15
Seit
Kirche
vier
ihr
diesem
November
000
gab
Deutschland
dessen
##ung
gibt
B
Saison
Eine
Jahrhundert
Berlin
8
7
##d
18
Platz
Mitglied
alle
Auch
19
Februar
zurück
damit
m
sehr
Auf
16
zusammen
Für
zunächst
keine
deren
ihren
##us
befindet
12
Ort
Namen
allem
14
weitere
begann
km
9
Film
30
worden
13
2010
Sohn
bzw
bekannt
17
deutschen
steht
ebenfalls
2011
anderem
selbst
Personen
2008
Familie
nahm
2009
spielte
was
St
dabei
denen
0
statt
gewann
formula
hier
neuen
2007
ohne
2012
##k
Während
a
2014
bezeichnet
neue
2015
gehörte
2006
11
ins
Jahrhunderts
2013
25
erstmals
New
immer
fünf
deutscher
schon
Band
##on
trat
ging
I
Seine
##te
A
Ab
Titel
sondern
gehört
So
Meter
Zu
einige
The
Art
Name
Deutschen
führte
erst
seines
sei
2005
Sein
II
neben
##g
Menschen
Durch
zweiten
besteht
arbeitete
andere
wegen
hatten
2016
rund
dieses
Friedrich
fand
z
studierte
mehrere
großen
ihrem
Gruppe
##z
genannt
Da
##ch
wenn
2004
allerdings
##ten
sollte
diesen
2000
Geschichte
##den
21
Tod
Anfang
##u
s
24
##de
große
soll
letzten
2017
weiter
Kilometer
1945
erfolgte
##um
Gebiet
wobei
Unternehmen
u
gegründet
tätig
the
nun
Frau
22
Johann
viele
Nachdem
##h
musste
Karl
Zweiten
Mitte
sechs
Liste
schließlich
Form
blieb
Einwohner
##ing
deutsche
folgenden
USA
wechselte
2003
Gebäude
weiteren
100
Straße
C
Region
erreichte
übernahm
Vater
jeweils
2001
Bis
23
welche
neu
Kinder
2002
An
Bereich
Norden
meist
Prozent
verwendet
Land
erhalten
Dabei
führt
Mannschaft
König
dazu
lang
verschiedenen
Bau
gewählt
Dies
insgesamt
entstand
Leben
Album
aufgrund
28
Dort
d
Haus
Neben
26
and
Tochter
2018
Wien
darauf
Wilhelm
stand
gilt
folgender
Amt
Rahmen
Dieser
erschien
München
27
Mal
Süden
teil
Millionen
insbesondere
konnten
finden
Verein
1999
errichtet
Einsatz
University
Rolle
Dorf
Aus
ließ
John
50
erneut
Heinrich
Stand
davon
Beispiel
oft
##berg
also
eingesetzt
fast
Richtung
Weltkrieg
Arbeit
S
Um
Frankreich
Provinz
innerhalb
Folge
Hans
Osten
1990
Außerdem
Jahres
Staaten
eigenen
damals
stark
Beginn
Westen
Seite
starb
Unter
Gesellschaft
York
Partei
kommt
29
Peter
1998
U
##is
##an
kurz
Paul
heutigen
zog
dies
Schule
ehemaligen
Paris
ca
zweite
Zur
muss
Entwicklung
Musik
Welt
31
Landkreis
Regierung
Frauen
Höhe
Bevölkerung
habe
zahlreiche
##le
je
findet
gegenüber
Spiel
folgte
darunter
1994
FC
Sitz
V
Insel
Burg
besonders
sowohl
allen
1996
verschiedene
1997
1992
Werk
Kreis
Team
Bedeutung
beispielsweise
Zum
lange
weil
##S
Österreich
Serie
Krieg
##el
danach
##mann
doch
1995
bestand
1991
##ng

veröffentlicht
französischen
Mann
meisten
teilweise
stellte
40
Europa
alten
zudem
Gemeinden
sieben
lag
Professor
acht
Sommer
Spieler
hinaus
lassen
1993
D
besuchte
setzte
gemeinsam
daher
##dorf
zuvor
gehören
Alter
geht
Mutter
gelang
Hamburg
##au
zehn
##chen
geboren
##A
Schloss
ihnen
1989
Karriere
machte
London
Armee
zeigt
befinden
Maria
Strecke
Liga
hin
schrieb
##al
häufig
kamen
möglich
Arten
eigene
Franz
DDR
Mitglieder
Tag
Zwischen
amerikanischen
Danach
kleinen
einigen
Vertrag
##sch
Georg
etwas
gleichen
entstanden
Schweiz
genutzt
gründete
Reihe
##ischen
kein
##ler
Bruder
Betrieb
Hier
vielen
##ne
sehen
handelt
erreicht
Wasser
stehen
zwar
##os
nachdem
aller
Den
Vereinigten
Saint
somit
Ziel
deutlich
County
Buch
kleine
gut
beide
Bereits
Über
##ner
La
##ia
aufgenommen
Ersten
Grund
1933
1972
Politiker
Nähe
Deutsche
Chr
Ludwig
##bach
Bahnhof
Stelle
veröffentlichte
##G
v
lässt
direkt
Studium
Bezeichnung
außerdem
##na
##x
pro
1988
folgende
Michael
ursprünglich
Berliner
##gen
##f
Linie
mehreren
National
dafür
Euro
Spielen
1987
1980
letzte
1970
Erfolg
III
liegen
Werke
erwähnt
West
hinter
absolvierte
weniger
schloss
##se
kommen
##schen
Kaiser
Thomas
stellt
Präsident
Kloster
gewesen
1974
Weg
Preis
Klasse
ernannt
1939
Museum
1986
1938
Truppen
entwickelte
Raum
Nachfolger
südlich
##ie
Robert
1984
1985
Besitz
San
##C
1975
System
welches
erster
selben
ganz
kehrte
stammt
Zudem
Ihre
League
Martin
Teile
e
Familienname
Landes
Einwohnern
anschließend
größten
Schweizer
1944
Köln
umfasst
1968
Sprache
Verbindung
mm
Spiele
Damit
dritten
Siehe
Olympischen
1978
ihres
1969
Dieses
nördlich
h
60
E
bildet
1983
1971
Weitere
1973
Erst
verheiratet
Ausbildung
gebaut
diente
Begriff
1982
Beim
##ach
heiratete
Bad
200
Johannes
Gründung
Fall
Ortsteil
dar
1979
amerikanischer
Meister
1976
hohen
befand
##ig
sogar
##c
##as
500
1946
1960
Tage
##ge
Frankfurt
Italien
ehemalige
Wahl
damaligen
##B
wenig
Sieg
England
##re
##ck
einmal
##ra
Kunst
Bischof
##isch
ebenso
spielt
##w
1950
1981
City
Carl
##ka
Otto
Hälfte
Ernst
größte
benannt
Zuge
Länge
britischen
Theater
##sten
Joseph
Regel
einzige
AG
nahe
besitzt
Institut
Grenze
entwickelt
weit
Vor
See
1967
##or
Hilfe
1977
Arbeiten
M
1964
Wie
Bahn
französische
fanden
Stil
Zahl
Ihr
Leiter
Herrschaft
späteren
General
Sachsen
müssen
Firma
Leitung
politischen
##ische
Leipzig
bisher
Nr
bevor
1965
Zentrum
Ehe
Produktion
Anschließend
Aufgrund
Rang
weiterhin
##sen
##st
Rennen
1966
##p
Schlacht
L
Park
##and
verbunden
1961
ob
beträgt
##V
entfernt
enthält
la
Wiener
##P
GmbH
frühen
1963
Division
Später
cm
1956
1962
1952
Christian
1940
##nen
Lage
Man
1949
lediglich
Finale
Kanton
1948
heraus
Gruppen
##ke
Fläche
Republik
##lich
viel
brachte
eher
International
machen
internationalen
T
##sche
R
Künstler
1941
1958
##ungen
##M
ausgezeichnet
Akademie
Abschluss
1943
1942
Männer
wohl
Nord
Version
Heute
##0
hohe
wollte
Bayern
Tour
neun
erreichen
##1
sollten
verlor
##at
Vorsitzender
##straße
Schiff
1959
deutsch
Schüler
führen
David
##2
km²
Gegensatz
zahlreichen
Polen
beteiligt
siehe
Gattung
östlich
Rom
1957
ersetzt
Funktion
Literatur
Roman
Stadtteil
William
Dr
Soldaten
Berg
Richard
hauptsächlich
Projekt
Mitarbeiter
##ta
##é
1947
Weltmeisterschaft
westlich
1934
##ar
wenige
hielt
1953
aktiv
gesamte
Verfügung
sollen
Runde
Staffel
1955
##ter
##K
1936
erzielte
Zeitpunkt
Fluss
1954
##feld
belegte
##ion
Vertreter
früher
Baden
alte
##it
Alexander
erfolgreich
einzelnen
Basis
keinen
nächsten
1920
bilden
1919
Eltern
Metern
##R
Max
Meisterschaft
Anzahl
80
Reich
1918
Hochschule
Hof
Dienst
Kultur
dadurch
stieg
betrug
Dollar
##F
College
Hermann
##T
##b
Position
vermutlich
eröffnet
würde
Hauptstadt
Anschluss
##haus
folgten
mussten
du
##L
Einfluss
bald
politische
knapp
darüber
##et
##ow
Zwei
gleichzeitig
##rt
Main
Anlage
1937
##ur
1951
##heim
1935
Unterstützung
James
lebte
##nd
Bürgermeister
verläuft
leicht
##man
daraufhin
##4
geführt
Markt
35
Trainer
J
will
sogenannten
wiederum
Alle
Jean
K
gestellt
besten
1930
denn
trägt
China
lebt
##D
indem
Bild
##ns
Seiten
Union
George
Spielzeit
gehörten
##keit
nie
amerikanische
fiel
O
beendete
zuletzt
überwiegend
Papst
##3
River
gefunden
Cup
H
übernommen
kaum
Dresden
öffentlichen
erfolgt
ausschließlich
legte
bietet
90
Uhr
##la
vollständig
Dazu
ehemaliger
70
##tz
Zusammenhang
##6
jeder
Gymnasium
##land
Bundesliga
verließ
##che
heißt
Verlag
Turm
G
F
##zeit
Fußball
gesamten
Einige
bestehen
Schauspieler
zerstört
##ers
for
Hannover
1914
mindestens
verloren
Graf
heutige
1928
erwarb
Verwendung
Direktor
galt
n
Lied
Minuten
Auftrag
Tätigkeit
Le
wuchs
langen
lebten
School
schwer
1929
1932
Japan
##E
Darüber
Mark
##da
##ce
##ll
1970er
Schutz
großer
Lehrer
Zusammenarbeit
genommen
Zeitschrift
wirkte
nimmt
Stiftung
entlang
Jugend
leitete
American
zwölf
Club
##der
##rs
Monate
45
welcher
Stück
Ländern
deshalb
erbaut
1900
Daneben
durchgeführt
300
Familien
Doch
Recht
Walter
Obwohl
Orte
selten
Josef
SPD
Zeitung
World
Friedhof
gemacht
Insgesamt
Verfahren
relativ
##9
1980er
##O
Stuttgart
leben
Mannschaften
regelmäßig
Herbst
Thema
verkauft
Juden
Wochen
Charles
Umgebung
IV
folgt
Département
##tal
Organisation
Gelände
Russland
seien
##hof
32
Kampf
weiterer
Anna
Programm
Autor
zusätzlich
Artikel
Politik
Allerdings
Städte
Stunden
1925
hoch
##ren
Grafen
1960er
katholischen
erstes
Brücke
südlichen
Vom
Punkte
##rn
bildete
weitgehend
##ca
P
fest
Kopf
bekam
Zürich
startete
1924
Kapelle
##ern
Nationalmannschaft
schnell
##burg
Bezirk
europäischen
dient
1990er
erschienen
Modell
Motor
Großen
1927
weltweit
al
spielen
anderer
Möglichkeit
inzwischen
historischen
zeigen
größere
Boden
Laufe
Wappen
Verwaltung
verliehen
Jazz
Abteilung
400
vertreten
Philosophie
di
1910
Ost
##8
Single
größeren
entdeckt
Halle
##I
vorhanden
Song
beginnt
sogenannte
Tor
Kind
Schriftsteller
Staat
Weise
Süd
gebracht
Führung
sodass
dritte
Nordosten
oben
Größe
##N
Wert
verfügt
##ei
Maler
Hand
Anteil
Wagen
1931
Siedlung
##v
1921
Beide
##ton
Weltmeisterschaften
1923
Regie
dagegen
geprägt
nichts
Frage
geworden
Spanien
Weltkriegs
Open
W
1926
van
##ki
wichtige
Bank
nördlichen
##7
stammen
Tal
jeweiligen
Angaben
1912
Schwester
Darstellung
gehen
westlichen
Großbritannien
Los
ausgetragen
Rudolf
##ja
Krieges
italienischen
Südwesten
gleich
gingen
Stimmen
englischen
Gold
1922
##iert
hervor
wahrscheinlich
Nur
Wort
Schon
eingeführt
darin
gerade
jährlich
Rock
gegeben
betrieben
Wolfgang
eingestellt
früheren
Opfer
endete
russischen
groß
produziert
Herzog
bedeutet
##gruppe
##no
außerhalb
Grand
Sammlung
stellen
Typ
##ni
trotz
gebildet
führten
Daten
berufen
Verlauf
et
##erg
Herren
Nordwesten
Ergebnis
Deutsch
Kategorie
Bewegung
setzt
Westfalen
Tiere
Abschnitt
Award
##5
Württemberg
##ste
TV
Louis
geben
arbeitet
Schweden
genannten
sah
Wald
österreichischen
Königreich
Viele
Albert
neuer
macht
per
Südosten
Themen
gewinnen
wäre
United
Aufgaben
mehrfach
Hessen
##ierung
##ingen
Kraft
trug
Geld
höchsten
Rat
##ert
Rhein
Tore
Winter
Heiligen
hingegen
könnte
65
##itz
Festival
Heimat
beschrieben
jungen
laut
Inseln
1913
Bildung
unterstützt
sieht
enthalten
ähnlich
Ortschaft
Nacht
SS
weist
Bundesstaat
Kurz
hätte
Noch
entspricht
Grundlage
Sinne
Fahrzeuge
wenigen
bekannten
zählt
Washington
solche
##platz
Frühjahr
frei
Vergleich
gleichnamigen
fort
##em
Ungarn
zugleich
Polizei
Turnier
##hausen
Bremen
obwohl
##igen
Teilen
Punkt
##heit
Vaters
##ed
##ger
Radio
Royal
dahin
versuchte
Co
Dem
Des
wichtigsten
Quellen
Air
1911
standen
her
Wegen
Aufgabe
X
aufgelöst
verlassen
Start
halten
Medien
Schulen
Präsidenten
Objekte
Bahnstrecke
Punkten
Zentimeter
De
neues
##ein
Adolf
hergestellt
Folgen
erweitert
Forschung
75
N
##nt
lief
höchste
versucht
##werk
Laut
Person
Fußballspieler
gegründeten
Ehefrau
Musiker
##urg
1905
1000
Weltkrieges
erhielten
##ien
Düsseldorf
Landwirtschaft
l
Bonn
umbenannt
Teilnehmer
1907
Architekten
nahmen
Ebene
internationale
##th
##ma
1917
Schiffe
offiziell
##ier
Kindern
britische
Wenn
Island
gelegenen
Bücher
Sowjetunion
1908
##stein
Andreas
CDU
1950er
Gründen
weiteres
##ation
geschlossen
gespielt
Frank
erscheint
zeigte
bestimmt
##bahn
Gut
Gesetz
allein
Aufnahme
Weiteren
Einführung
Station
mittels
ich
Chor
bestritt
beschäftigt
##ort
Straßen
33
Studien
katholische
eingerichtet
nehmen
Abitur
Leistung
Kosten
Interesse
Söhne
Rückkehr
breit
##ich
dargestellt
WM
bekannte
verbreitet
außer
erklärt
weiß
Autoren
Ortes
arbeiten
Sprachen
entsprechend
Erde
Philipp
linken
Kirchen
Druck
verantwortlich
##W
Villa
36
elf
zuerst
oberen
Text
kg
##H
rechts
Bürger
tragen
##bau
1906
Körper
Standort
besaß
Moskau
Bach
römischen
kleiner
##ieren
angeboten
zählen
Preußen
Mittel
EU
Orgel
Aufbau
vierten
Häuser
##ß
junge
älteste
wodurch
Königs
Teams
Technik
Hamburger
Veröffentlichung
Niederlage
Werner
bestimmten
Records
##ken
unterschiedlichen
unmittelbar
blieben
##ts
Kritik
Sänger
t
##j
##ee
Macht
Münster
##U
Elisabeth
jüdischen
##ville
Fritz
Flughafen
Kontakt
1909
SC
Länder
34
Top
Trotz
Anton
Fenster
Durchmesser
Mädchen
to
##mus
Sport
Silber
Ausgabe
bringen
1904
Müller
Industrie
östlichen
del
Stein
##inger
##ut
Australien
Brandenburg
kurze
zunehmend
##ige
französischer
Kanada
150
Wirkung
verlegt
Erzbischof
Marie
Alfred
Films
ebenda
##io
South
Auswahl
gezeigt
nominiert
Regisseur
besitzen
jetzt
angelegt
1915
Nürnberg
stets
ganze
Verband
Gott
##bar
Formen
tritt
Wettbewerb
##traße
Brüder
Richter
Europäischen
Nummer
Hockey
PS
vertrat
belegt
namens
Freund
Pfalz
rechten
verfasste
Bilder
geschaffen
fließt
Liebe
Ich
Aufstieg
übertragen
bezeichnete
Rand
Bewohner
gelten
Filme
errichtete
genau
hält
##tion
jede
##il
Deutschlands
Henry
Vereins
Studenten
Medizin
links
North
Holz
Hektar
Zusammen
dienen
Ferdinand
Natur
Prozess
Kreuz
Parlament
Marine
Probleme
##ri
Dadurch
bleibt
gehalten
Internationalen
Nutzung
38
eigentlich
Hotel
hinzu
1903
Auflösung
zweimal
Nicht
alt
Fuß
SV
Angeles
##kirche
bestimmte
Debüt
Drei
##rat
##lle
traf
Öffentlichkeit
nahezu
Lieder
erstreckt
State
Schauspielerin
CD
All
Meer
römisch
Einheit
Reise
zugeordnet
Informationen
Company
Freiburg
1916
werde
gewonnen
entweder
##li
erklärte
Lebens
Pfarrer
beste
daran
Mio
2019
mittlerweile
Tradition
Luft
polnischen
Energie
geschrieben
erkennen
##ben
Theologie
Parteien
Zug
Figuren
modernen
Fernsehen
Linien
sur
Leistungen
preußischen
Rechte
Christoph
##ine
Spitze
entschied
verkaufte
Pflanzen
Wirtschaft
##ski
Formel
1902
Material
nieder
##ey
nationalen
begonnen
Gustav
##hen
Tode
##ik
Mittelalter
Gebiete
Regiment
Hafen
i
##cht
Jan
Revolution
benutzt
Kommission
1848
1901
##am
unterhalb
##ker
seitdem
baute
##á
bleiben
verstarb
House
wesentlich
Theorie
##Z
würden
Ufer
Music
jedes
##schaft
Daniel
##ko
vorwiegend
gegründete
Hall
völlig
spielten
Prag
k
Situation
600
Einheiten
Zeiten
##X
unteren
##art
Fakultät
Große
64
1899
##len
aufgestellt
##raum
jedem
##meister
on
mal
Unternehmens
en
##co
Laufbahn
55
Neubau
Städten
##ro
Daher
Konzept
ursprünglichen
umfasste
Gegen
Bauern
Kongress
##ga
historische
Millimeter
Ausnahme
zuständig
Wahlkreis
besondere
##form
Kalifornien
Mitgliedern
Qualifikation
öffentliche
ausgestattet
ehe
begannen
unterschiedliche
37
##ngen
Architektur
##me
Maschinen
promoviert
Herstellung
42
Küste
Tagen
Chemie
Ritter
##tor
Verhältnis
Boot
kleinere
Aber
##aus
##que
Quelle
Internet
Pfarrkirche
##ry
Lauf
starken
Beziehungen
Ausstellung
spätere
teils
japanischen
älteren
ha
Züge
##ya
1898
gemeinsamen
##recht
Teilnahme
Gleichzeitig
Besuch
Zeichen
Status
44
Stellung
schied
Abs
Zunächst
Lehre
Anwendung
##system
##son
Grafschaft
Tonnen
##nde
1890
Landtag
Heidelberg
Stadion
besetzt
spricht
eröffnete
##rg
Lager
##ve
abgeschlossen
früh
recht
verbrachte
gute
Chicago
übrigen
Ergebnisse
zweiter
kurzen
Star
Untersuchungen
Hersteller
##ius
erhoben
verschiedener
Society
Elemente
späten
Augen
erhält
High
Figur
##ling
Metal
mündet
Indien
NS
Nordrhein
beziehungsweise
dortigen
besser
Angriff
Gegner
einzigen
alles
Basel
800
Klaus
Kurt
Hintergrund
##weg
Santa
Kiel
Bezug
Ausland
##arten
Schwerpunkt
unterscheiden
Heinz
geplant
gesehen
Gericht
Werken
Erfolge
Pierre
Förderung
aufgeführt
bislang
Mainz
spanischen
1896
griechischen
Struktur
Szene
Feld
##agen
Plan
1895
Entscheidung
fuhr
grenzt
Post
promovierte
gar
##fen
Satz
Ebenfalls
Aufnahmen
hätten
Sieger
schuf
1870
beschreibt
vorher
Handel
Mexiko
Fragen
Universitäten
urkundlich
Rheinland
Daraufhin
wir
Grab
erinnert
##men
Schleswig
##bereich
Wechsel
Rest
Infanterie
##sdorf
angegeben
versehen
##ld
aufgebaut
Zustand
Besetzung
##nden
##ell
Software
##ley
1897
Minister
unten
Klosters
##tt
Charts
Sankt
##see
betrachtet
Amtszeit
Bern
südwestlich
Herkunft
Fahrzeug
##tein
gelegene
parallel
kennen
Arbeiter
zählte
Bistum
1871
Flügel
südöstlich
Show
Alten
Arrondissement
ungefähr
wissenschaftlichen
Komponist
Alben
##ys
Lake
El
Eisenbahn
##anlage
Roten
##ang
##to
österreichischer
verurteilt
hoher
ältesten
Jakob
Schrift
schweren
Bundesrepublik
fällt
damalige
wissenschaftliche
Sicht
Patienten
Stern
##ystem
einzelne
Einrichtung
gesetzt
##ad
entlassen
48
derzeit
Songs
vorgesehen
##lichen
##mer
250
Fällen
Waffen
Essen
Erste
nannte
##va
##liche
Breite
Mehrheit
Sender
Theodor
Licht
Idee
Flucht
Braunschweig
39
Abgeordneter
nordwestlich
einfach
##ende
ganzen
Live
Neuen
Großteil
öffentlich
international
Arzt
Klub
Studio
Errichtung
Super
Gegend
Charakter
befördert
Praxis
Besitzer
Beziehung
gelegentlich
nordöstlich
getrennt
Blüten
##wa
##lt
Zeitraum
Versuch
wollen
Vereinigung
##innen
Türkei
Monaten
##los
berichtet
Fahrer
großes
Gemeindegebiet
##tte
Halbfinale
Wissenschaften
traten
entsteht
Brand
darf
Regionen
Oper
Institute
Schriften
angesehen
miteinander
Weibchen
Krankenhaus
Chef
Dach
Königin
Zugang
eigenes
zeitweise
starke
Label
##llen
Arts
##ium
Bestandteil
lernte
Association
Groß
1850
endgültig
ermöglicht
Bernhard
ernannte
1893
Donau
Fort
geb
nennt
Wahlen
könne
Rollen
Halbinsel
Verfassung
##lin
entstehen
Dänemark
erreichten
Salzburg
Standard
möglicherweise
##he
1880
gemeinsame
Zuschauer
Sendung
Landschaft
Vorbild
##age
existiert
##verfahren
1930er
##reich
Dann
##ō
##ze
##orf
Don
existieren
reicht
Gerhard
Filmen
##cher
Göttingen
schwedischen
verpflichtet
anfangs
einschließlich
Black
klassischen
Stellen
Besonders
Kontrolle
Presse
Ruf
Neue
geborene
Ordnung
leitet
##ot
Ulrich
Gouverneur
##enden
ergibt
Bayerischen
Garten
engl
95
Verkehr
mittleren
1892
mehrerer
Junioren
verbindet
##ina
##atz
verhindern
Auflage
Belgien
Academy
Einwohnerzahl
erlangte
benachbarten
##gebiet
Bibliothek
Repräsentantenhaus
##technik
##wagen
Kriegsende
52
errichten
British
angenommen
fertiggestellt
Netz
##do
löste
sofort
1885
Texte
Ausbau
Ausdruck
##rd
##id
Anlagen
Kölner
Vier
##witz
85
Ehren
hieß
1894
Maßnahmen
Weiterhin
kleineren
bestätigt
41
bisherigen
Untersuchung
##go
Oberliga
Bay
handelte
Mathematik
schlug
Variante
Gebieten
weder
nationale
Auto
Einen
Kanal
guten
##za
120
geriet
Wissenschaft
1888
##ismus
Nachbargemeinden
Güter
manchmal
Frankfurter
Schließlich
Problem
Funktionen
Hauses
Initiative
43
Fischer
Julius
Holstein
Red
sowjetischen
1889
Ortschaften
Bund
##ek
befanden
Priester
scheiterte
Weltcup
##ls
##ss
NSDAP
Orden
Farben
stammte
Video
unabhängig
vergeben
##ag
benannte
gemäß
scheint
Joachim
Wolf
widmete
zumeist
##wald
Denkmal
Woche
Vereine
produzierte
Partner
Simon
zumindest
Paar
Widerstand
Israel
Ursprünglich
Einrichtungen
Besucher
dennoch
##un
bestehenden
komplett
Europameisterschaft
jeden
genannte
politisch
Schmidt
Sicherheit
allgemein
##schule
1891
Phase
Center
Instituts
sprach
Wunsch
schaffte
Brasilien
daraus
##uch
##dt
getötet
entsprechenden
gestaltet
bot
sozialen
##chule
Publikum
Mensch
Konrad
höheren
##ens
eng
Meisterschaften
le
freien
untergebracht
Museums
ausgeführt
##des
Kunden
Zusätzlich
1860
klar
Dennoch
51
weisen
Pokal
Pro
tatsächlich
47
46
Generation
überhaupt
Veranstaltungen
49
Gefängnis
gekommen
Historiker
##zen
Front
##of
1874
Gründer
außen
00
Farbe
oberhalb
##sa
Aktivitäten
britischer
ursprüngliche
Nachfolge
##nn
Volkszählung
Eröffnung
Eduard
Zweck
Bedingungen
1866
##eren
Football
verwendete
##ff
Brief
stellvertretender
##ann
schwarz
Einzel
Vielzahl
Tempel
versetzt
italienische
Rot
notwendig
Party
Street
Architekt
Science
inne
King
Orten
dt
Angebot
Ebenso
nächste
Vorgänger
offiziellen
englische
##weise
Arthur
Behörden
Je
Verbindungen
russische
Gewinn
Bereichen
##ster
##ly
zufolge
##ti
Erich
treten
ehemals
1875
umgebaut
Volk
Dorfes
Strecken
##ft
Gemeinschaft
Afrika
Alpen
Adam
offizielle
Behandlung
##ale
Männchen
Produkte
Ring
österreichische
bildeten
Mauer
##dienst
fünften
##ssen
umgeben
ausgebaut
gelangte
Grenzen
erscheinen
Gewalt
o
1867
1879
Mühle
Kammer
Militär
unterlag
Reste
1920er
erzählt
höher
Handlung
##sse
Verhalten
desselben
Design
Entwurf
Flächen
1887
weshalb
Orchester
Herbert
unterscheidet
bestanden
Group
trifft
Feuer
einiger
Bronze
Dörfer
##ard
geweiht
unterstützte
Kommando
Physik
rot
Vergangenheit
endet
Rio
##les
1872
Gottes
Reiches
Münchner
g
Deutscher
1886
Zahlen
organisiert
feierte
Distrikt
Etwa
Lösung
Operation
Bord
Lee
##ug
##one
Kader
##je
Frieden
##band
Smith
1884
Eigenschaften
dürfen
Portugal
##elle
nämlich
jüdische
Herausgeber
nutzen
Grad
verhaftet
Monat
heiligen
Gemälde
Altstadt
Altar
Vorstand
eingegliedert
Bundes
Und
Posten
##ir
##und
Spielklasse
##unternehmen
Gipfel
zentralen
Weiß
technischen
Modelle
1868
Nationalsozialismus
Magdeburg
1873
zogen
1500
##ba
weißen
kaufte
Festung
basiert
Kern
chinesischen
beigesetzt
Les
States
Edward
bieten
72
Tom
Würzburg
Rathaus
ließen
militärischen
Kassel
Route
wichtigen
##ana
##be
Menge
Rede
Senat
59
brach
Anhalt
67
1882
beschäftigte
nachgewiesen
Kino
1881
96
Bühne
Norwegen
Anerkennung
privaten
Andere
anders
deutschsprachigen
##gesellschaft
solchen
##kreis
erhöht
wirtschaftlichen
einst
Sängerin
José
Gestaltung
niederländischen
Insbesondere
Einer
Pfarrei
Wege
##zentrum
Francisco
hierbei
Klassen
Online
Künste
Z
abgerissen
schreibt
56
lehrte
Staates
Methode
Jürgen
Reaktion
##ny
Al
beschlossen
behandelt
Anhänger
ermöglichen
liegenden
1878
Aachen
54
Verkauf
verfügte
Zukunft
Neustadt
lokalen
Service
Hause
debütierte
Allgemeinen
Beispiele
Hitler
Niederlande
VI
Dichter
##gruppen
Internationale
Naturschutzgebiet
Jungen
Mecklenburg
verstärkt
Entfernung
Karten
erworben
##raße
möglichst
110
vorbei
jener
entsprechende
Van
Prinz
Management
anhand
##lage
beendet
Suche
Drittel
schließt
Erwähnung
Verbreitung
bestehende
1883
fungierte
bezieht
##amt
Namens
##gesetz
Beruf
Datum
lautet
Gefahr
zentrale
Organisationen
700
höhere
bedeutende
Magazin
Wesentlichen
1815
eigener
Morgen
Erfahrungen
Wehrmacht
##J
##ha
aktiven
Freien
größer
1876
Mary
fortan
Texas
1861
Transport
Thüringen
Herz
##pe
04
Siegen
womit
Krone
Abstand
schwere
breiten
Kamera
moderne
Tunnel
Werte
Bildhauer
Albrecht
Sturm
Register
Big
Marke
##ons
Tübingen
lagen
Übersetzung
Oscar
##hn
Niedersachsen
anlässlich
Auszeichnung
Sinn
99
Kombination
sicher
##ae
bekanntesten
kW
sagte
Pop
uns
mittlere
Pläne
##zug
beschloss
holte
Viertel
Stefan
Blick
folgen
Stücke
1869
do
Play
Übernahme
üblich
98
Anspruch
Streit
1864
definiert
seither
länger
1865
Journalist
Hugo
Träger
Rechts
Ferner
Best
1862
Flugzeug
infolge
Schluss
Unterschied
Komponisten
08
Entstehung
Neu
solcher
gelegt
68
##ol
57
Niederlanden
b
1849
Hill
engagierte
53
offen
Rücken
Original
Methoden
Bronzemedaille
##gt
Ukraine
Studie
Engagement
Umwelt
durfte
Strom
ausgestrahlt
Schwarz
soziale
Bands
Interessen
66
übernehmen
angebracht
Plätze
09
Kandidaten
88
Europas
05
stärker
gewannen
Stimme
##all
France
wirtschaftliche
offenen
Fürsten
Assistent
Master
##by
zusätzliche
Töchter
Amsterdam
##port
1877
verändert
Wohnung
Corps
begrenzt
Karlsruhe
Denkmalschutz
Heer
forderte
Unabhängigkeit
Augsburg
Graz
militärische
76
Franzosen
zieht
eigenständige
Ruhestand
Hauptrolle
Oberfläche
Erweiterung
##eld
fallen
Abend
Weltmeister
Technischen
begleitet
traditionellen
staatlichen
69
benötigt
Nationen
Ägypten
##linie
Regionalliga
##isten
Gesang
Dom
erfolgten
Konzert
erlaubt
Veränderungen
Tages
schließen
##lla
hören
verboten
63
SA
Jack
Computer
Gemeinsam
Griechenland
frühere
##arbeiten
Sekunden
betreibt
##í
Bericht
Objekt
##ist
betrieb
Darmstadt
Sir
Milliarden
Meinung
Eingang
Herr
Führer
zweier
Englisch
Expedition
festgelegt
KZ
##im
unterschieden
Funde
eingeweiht
Klein
92
errichteten
Systems
Amerika
beeinflusst
Jena
##ham
##ht
erfolgreichen
klein
angeschlossen
Qualität
##tes
##ierte
zugänglich
Prinzip
##aum
Offizier
c
94
Inschrift
93
Existenz
evangelischen
besonderen
Fach
anerkannt
unterschiedlich
##cke
Klavier
Europameisterschaften
Mission
##ser
mehrmals
sonst
Ziele
Fraktion
##ment
##mi
##eim
Gebäudes
Abgeordneten
Konflikt
entwickelten
Medaille
ältere
Boston
##punkt
Firmen
58
Freiheit
Bass
etc
bringt
1800
Mount
Exemplare
Auftritt
Nachrichten
eins
Beschreibung
stellten
Autobahn
speziell
Leo
Hierbei
Baureihe
1863
veröffentlichten
##tten
Nationalsozialisten
East
reiste
Baum
vorgestellt
Spieltag
##ay
Aussage
Mündung
jährigen
##ic
Western
62
##preis
Drehbuch
übersetzt
Beiträge
Konzerte
##verein
Freunde
##ring
Nikolaus
allgemeinen
Hügel
Möglichkeiten
vierte
Minute
Malerei
Herzogtum
Dortmund
Kabinett
Somit
##mt
Verhandlungen
Major
Botschafter
Mannheim
Abt
Antonio
Fernsehserie
Stadtgebiet
Anne
##ty
Helmut
aktuellen
Herrscher
Fassung
Baron
Columbia
##buch
##icht
Kreises
Rumänien
Alte
Temperatur
verlängert
Damen
##ice
Gang
entwickeln
Geschäftsführer
übergeben
ziehen
Lokomotiven
ausgebildet
Produkt
freie
Motoren
gelangen
Pariser
Höhepunkt
Blues
gedreht
##mittel
führenden
langer
darstellt
tief
Geburt
christlichen
wiederholt
könnten
gleiche
##ov
schaffen
Kommandeur
Rostock
##scher
Ensemble
letztlich
eingemeindet
Klima
Innenstadt
89
Haut
italienischer
Lübeck
Ball
##tag
Tier
Krankheit
Sonne
erheblich
geringen
Rundfunk
Sebastian
Venedig
Kantons
Ingenieur
07
71
maximal
83
Fahrt
Diplom
##erung
73
Übergang
Verlust
Bundesstraße
ergänzt
My
treffen
##halle
Unterricht
Anders
Bachelor
änderte
Zwar
getragen
Madrid
You
Seinen
##industrie
##eck
Gewicht
Tourismus
Flotte
84
Heimatstadt
Promotion
##ai
geblieben
##hi
##ild
##ky
##hl
Irland
andererseits
sprechen
##zahl
setzen
Ereignisse
Projekte
unterstützen
Besatzung
dänischen
Waren
verteilt
aufgegeben
##wert
technische
Verlängerung
diverse
1856
gelegen
Stahl
beteiligte
1840
Leopold
machten
wichtiger
unterteilt
Virginia
überliefert
Planung
Kilometern
Kirchengemeinde
Unternehmer
Dauer
Breslau
Alt
gaben
einfachen
Serien
Kardinal
beider
Bill
reichen
Anwesen
##ordnung
1806
Umbau
bedeutendsten
61
Athen
ähnliche
Büro
gezählt
EM
Jura
Juan
##end
Oberst
Ortsteile
##brücke
ergeben
beschädigt
78
Szenen
bereit
beobachtet
private
kanadischen
einerseits
##är
rein
NHL
Jedoch
Maschine
unterstellt
Erhebung
Joe
##iger
##stelle
Matthias
Sprecher
bekommen
##nis
##q
Nun
1859
Weil
Kinos
Green
Umsetzung
Woiwodschaft
Test
Prix
Code
79
##ica
##ies
Premierminister
86
Mittelpunkt
White
Koch
Schritt
Leichtathletik
städtischen
stattdessen
türkischen
Konkurrenz
Bundeswehr
Nationalpark
Wissenschaftler
Williams
Reformation
umgewandelt
Zeitschriften
größtenteils
##om
unternahm
Südafrika
m²
Innerhalb
Deshalb
Love
Schneider
Rechtsanwalt
##mühle
Partien
vertrieben
Mailand
gezogen
##ität
breite
erfolgen
Unfall
unterschrieb
##ent
wichtigste
abgelöst
Berge
Lord
87
Verteidigung
Ansicht
Barbara
eigentlichen
Säulen
DM
##ant
schwarzen
Systeme
Rücktritt
fielen
wandte
##smus
Renaissance
erlebte
DVD
evangelische
##res
y
##turm
nennen
Religion
Jahrzehnten
Ideen
##eit
##verband
Landgemeinde
siegte
Navy
Force
##ischer
geschlagen
Seitdem
Reserve
##ose
Arnold
Umfang
nutzte
möglichen
Doppel
##nitz
Gottfried
Kollegen
Spiegel
Glocken
untersucht
##lo
Beteiligung
Dieter
Ordens
##ber
Ben
Dynastie
Bergen
##ule
entschieden
Ursprung
erforderlich
maßgeblich
Emil
##cken
täglich
jüngeren
Saisonende
Wind
aufgeteilt
Barcelona
Trennung
Harry
diesmal
wissenschaftlicher
Bestand
entgegen
Viertelfinale
Bucht
Regeln
Brown
Plänen
##zeichen
Gemeinderat
staatliche
Wende
##verkehr
Straßenbahn
##fabrik
One
##leiter
gründeten
einfache
##her
wirkt
gesprochen
Fehler
Blut
Grünen
Berater
vorhandenen
Ersatz
Männern
Wissen
Korps
Haft
##ý
Albums
Horst
Ausstellungen
Christus
Gitarre
97
vermutet
Bauwerk
1803
beschrieb
Archiv
Weißen
tun
##ino
Carolina
Gestalt
Was
offenbar
sorgte
Ford
Fabrik
verletzt
Brunnen
integriert
##auer
Ali
wollten
Blätter
Geist
01
1830
Urkunde
1854
Eigentümer
Landkreises
Ausstattung
Bereiche
74
##anlagen
Central
Erstmals
Blau
Geschwindigkeit
##zer
Bauten
Keller
Tat
Y
derselben
fahren
nunmehr
Schwierigkeiten
Ton
Basketball
Analyse
unbekannt
Jones
ermittelt
Jagd
##geschichte
Real
polnische
1857
Veröffentlichungen
gefördert
entspringt
voneinander
Weiler
1852
1855
dreimal
06
aktive
kurzer
Tschechien
geleitet
organisierte
Toten
Treffer
##di
reduziert
Parallel
Nordamerika
direkte
Long
Samen
Verdienste
hierfür
Spuren
Florida
usw
##ou
##gel
##ks
##ellen
roten
Ob
Earl
Inneren
##höhe
##bel
direkten
Jurist
Karte
umfangreiche
Eishockey
Dissertation
Fassade
Stationen
geändert
Meyer
##ini
##si
77
1858
spezielle
Bekannt
bauen
Potsdam
Witwe
verwendeten
Christen
##fe
Provinzen
meistens
##ul
Leipziger
dienten
Auftritte
ausgewiesen
##piel
Streitkräfte
bedient
##stadt
Rechtswissenschaften
Erster
Wagner
errang
Michel
Onkel
jährige
nochmals
Massachusetts
langsam
eingebaut
Rose
Innsbruck
bayerischen
Silbermedaille
##chaft
Hauptort
zugunsten
Begriffsklärung
##uer
gefangen
Gebrauch
Wein
Typs
englisch
##markt
UN
82
Feuerwehr
Falle
##betrieb
finanziellen
Haltung
##gs
Fünf
Scott
örtlichen
entdeckte
grundsätzlich
91
Kräfte
verzeichnet
Reihen
sichtbar
gefertigt
No
##nes
Stamm
Masse
Geräte
wählte
Mord
sämtliche
Kritiker
Wiederaufbau
Fürst
abhängig
engagiert
Ernennung
Bob
Regensburg
##pa
Versionen
erzeugt
Eisen
datiert
europäische
##ahn
Trier
Seen
##ise
##ue
##forschung
##kt
Tiefe
##ate
Ausbruch
besucht
äußeren
gezwungen
##jahr
##ere
lehnte
verlief
unterrichtete
Linz
kleines
geringe
Franken
Wales
Königsberg
##wesen
##ux
Instrument
##trieb
Kaisers
Löwen
3000
Synagoge
Oder
1845
ermordet
##orn
##zone
durchsetzen
##ver
hundert
anschließenden
Castle
Kapitän
Marburg
Schottland
1813
Aufmerksamkeit
durchschnittliche
Ohio
Wir
##cker
sang
wies
Port
1851
Ex
möchte
Weber
Bruno
Wand
Österreichischen
wächst
Beitrag
kritisiert
positiv
Brücken
##tadt
Siedlungen
Flusses
##rten
Monte
Erscheinung
Zellen
menschlichen
Liter
persönlichen
USD
Konstruktion
Ausgaben
##familie
Jacques
Änderungen
qualifizierte
Mike
Petersburg
sicherte
Zuvor
stehenden
##wechsel
erhältlich
##ian
Französischen
zugelassen
##ak
1847
Versorgung
Jacob
Marx
##ierten
Argentinien
Umfeld
François
restlichen
Lehrstuhl
##gebäude
Produzent
Saale
Erfurt
Toren
Varianten
Premiere
Katharina
##reis
Aussagen
Aktion
zusammengefasst
##rk
bedeutenden
##ide
Moritz
darstellen
FDP
Strukturen
1846
Ist
##fer
##isierung
Gemarkung
Studiums
Tabelle
Dietrich
Galerie
AC
verwenden
Goldmedaille
Zerstörung
Felix
Me
eigentliche
erstellt
sechsten
japanische
dürfte
##erie
Abkürzung
Anlass
inneren
näher
Val
Vorsitzenden
Geschichten
kämpfte
Kaufmann
angeblich
Auseinandersetzungen
1816
Abtei
Symbol
Budapest
vieler
##ji
australischen
Bergbau
##theorie
läuft
Streifen
##rin
üblichen
Horn
Komposition
Befehl
Sekretär
Abstieg
##führer
Research
Lizenz
mittelalterlichen
eingetragen
hinein
1853
Fertigstellung
1818
englischer
Veranstaltung
Schacht
Runden
keiner
Gast
erfolgreiche
Hinzu
Bus
Gletscher
aufmerksam
herausgegeben
Samuel
römische
Tanz
Dienste
weiße
##ford
natürlichen
Line
Victoria
##druck
##holz
Österreichs
André
Reisen
81
##eite
Manager
Highway
Personal
geplanten
Schwestern
Hit
European
Gewässer
besiedelt
präsentiert
03
Warschau
beschränkt
bezogen
beginnen
brachten
Bogen
1814
##ón
Maximilian
Betriebe
Luxemburg
Spiels
Finnland
allgemeine
zweites
richtete
Ehemann
voll
antiken
bestehend
Fusion
ungarischen
at
ums
durchaus
##tät
westliche
Persönlichkeiten
##bewegung
Selbst
Mengen
EP
angeordnet
Army
##teil
abgelehnt
geeignet
##aft
First
Tür
Auseinandersetzung
Positionen
umstritten
##ps
Blue
War
längere
ermöglichte
ausgeschlossen
##unden
Jahrzehnte
##arbeit
Evangelischen
lebenden
aktuelle
Pferde
Golf
innen
welchem
Kommunikation
Rekord
Einstellung
Panzer
verfolgt
berichtete
Pennsylvania
Oblast
##berger
##nger
##kopf
Räume
Vorsitzende
all
Anforderungen
Francis
umgesetzt
leistete
##rand
ausgewählt
Pass
Young
Zoll
Platten
Schäden
Artillerie
##hr
Jerusalem
Davis
##stand
Gedichte
Block
Jesus
Elbe
##politik
äußerst
erbaute
manchen
##gasse
##ven
Künstlern
Urteil
liegende
ferner
südliche
Ruhr
Folgezeit
Kauf
saß
Metall
Neuseeland
Infrastruktur
Messe
Rektor
beauftragt
gekennzeichnet
##kraft
Sitze
##aten
##lager
Eberhard
Mac
##park
Zimmer
Himmel
mögliche
spanische
Bibel
Botschaft
ausgestellt
Darstellungen
##netz
Kapitel
daneben
Istanbul
Amerikaner
getroffen
gestaltete
##ans
gefärbt
Weimar
Kindheit
Glauben
Ausführung
Treffen
gestorben
nördliche
##off
begründete
Wohnhaus
Dresdner
##án
Asien
Nachkommen
gelingt
erfährt
Jesu
Werkstatt
jap
Papier
diversen
Giovanni
geringer
auftreten
schlossen
regionalen
Demokratischen
beinhaltet
Spielzeiten
02
Meistertitel
Sand
Kooperation
Reform
Manfred
Heide
bekleidete
Briten
##thal
Christi
reichte
Studios
Free
##wand
Sprint
##insel
Konferenz
##ßen
Haushalte
Tokio
Blatt
Verleihung
900
Dreißigjährigen
dauerte
##orm
setzten
Erklärung
Goethe
Becken
hinten
Road
##museum
Brüssel
ergab
Ihm
Versuche
erhaltenen
sog
1843
Jäger
erkennbar
Gegenwart
entstandenen
abgeleitet
##wasser
sächsischen
Ämter
Fest
Charlotte
Vorteil
1832
##spiel
##träger
##ins
Windows
hängt
Stunde
Durchbruch
natürliche
Weser
Rote
Auge
Einsätze
Eis
Schülern
Häusern
Kathedrale
Henri
##häuser
Rund
##ea
1844
Brauerei
Illinois
trugen
aufgehoben
Adler
Sowohl
Dafür
Sound
1842
Chris
Takt
Stadtrat
1835
trafen
vorgenommen
praktisch
Boote
Werft
Brigade
##ms
##leben
##adt
Roger
Verbesserung
ZDF
130
elektrische
abschloss
Q
Ministerium
Awards
##formen
Exil
Lehen
Anbau
##yn
Höhen
Kontakte
rasch
verstorbenen
Verbreitungsgebiet
180
weibliche
Zusammenschluss
##organisation
Netzwerk
Muster
Steine
Spielfilm
Europäische
Volksschule
dicht
schützen
##ock
finanzielle
##alen
Weiter
religiösen
##ć
Stockholm
schwarze
gleicher
Pflege
entsprach
Engel
##ura
Schild
oftmals
Klinik
königlichen
##are
##programm
##eg
Einsätzen
Oldenburg
Iran
vgl
freier
NGC
Buchstaben
kurzzeitig
Tennis
Ursache
starben
Gedanken
##änge
ja
##barkeit
Öl
Hollywood
Publikationen
Flug
Knochen
Glas
Media
verfügen
Markus
Tschechoslowakei
festgestellt
bezüglich
1810
Heeres
##igkeit
##ds
Prüfung
geschützt
Strand
Ober
##film
evangelisch
Eroberung
Johnson
##ano
VII
entscheiden
Französisch
enthielt
Steve
##field
Erbe
übte
1837
Interview
Wilhelms
Institutionen
abgebrochen
Verordnung
##ó
Stärke
Tournee
Committee
##uss
Schlosses
Flugzeuge
Spielern
PC
Palast
Gebäuden
Council
Folgende
Abstammung
##mo
p
Chile
gegliedert
zahlreicher
Hinweis
Lange
bewusst
Zeitungen
1838
Grundstück
##uf
Wetter
Professur
Verwaltungssitz
##chi
no
Günther
##ände
##ara
Tieren
Inhalt
Oxford
Ray
Böhmen
Victor
suchen
Preußischen
ständig
Toronto
min
woraufhin
Preise
Kolonie
##fall
Distanz
geschickt
Technologie
Anfangs
##per
##fest
klassische
versteht
##sis
Kopenhagen
##lichkeit
genaue
##fläche
herum
zeichnete
Journalisten
Eigentum
##lis
Stellvertreter
Fans
Parlaments
Arena
Freiherr
Jugendliche
Anti
besetzten
São
gering
AS
Geschlecht
erzielt
##zi
350
##werke
Produzenten
Grundschule
lokale
Insekten
DB
Effekt
Genf
Auffassung
eindeutig
1841
Luther
Parks
Sektion
vielleicht
erschienenen
##tischen
habilitierte
Fähigkeiten
Sydney
##ahl
Flagge
Belagerung
California
1839
Musical
Produktionen
kündigte
Therapie
Not
Fortsetzung
letzter
##weiler
##abteilung
verlieh
politischer
Bremer
Schlagzeuger
Doktor
berücksichtigt
Schicht
Definition
Beamten
Ausschuss
##ère
Leute
darauffolgenden
Jersey
Zustimmung
beherbergt
##rer
##lehre
Geburtstag
##bildung
##ci
Wer
1836
##nischen
GT
##liste
Episoden
Philadelphia
Änderung
1834
Abbau
angesiedelt
Formation
Knoten
##sh
Auswirkungen
persönlich
künstlerische
##nberg
umliegenden
anderes
Bedarf
Eier
verpasste
##ums
Angst
Vorläufer
br
Einzug
Luftwaffe
##tische
Solo
geplante
Dass
Pseudonym
frühe
schwedische
Psychologie
musikalische
gesichert
Rumpf
Langhaus
Diözese
schreiben
angehörte
Bit
typischen
Freundin
##eil
Vizepräsident
##gang
stattfand
##ichen
Ulm
Karls
fehlen
stammten
erhaltene
Hang
historisch
Cambridge
Vorstellung
verstanden
befasste
Prinzessin
betroffen
##iden
SK
Eva
##han
##gg
Stephan
1821
##kel
##ln
sowjetische
männlichen
##ula
erfolglos
SG
Aufstand
Risiko
Eindruck
Lewis
schottischen
Romane
##od
##ī
erweiterte
Hütte
Tatsache
Antrag
Kohle
##erte
Duo
1200
##irche
Douglas
Piloten
##lan
bedeckt
Champions
Vogel
1820
gearbeitet
Las
indischen
##fahrt
cm³
eingestuft
behielt
##horn
Jänner
persönliche
alter
Sees
beteiligten
Bündnis
Beschluss
IC
Frankreichs
##onen
stieß
Fleisch
Indianer
teilnehmen
Sun
offene
Games
Series
Bahnhofs
Tony
Motiv
Vorschlag
Besonderheit
Gäste
Orchestra
Ansatz
Maß
Enkel
Sciences
heißen
Bar
Zulassung
Wiesbaden
Taylor
Tirol
Bruch
Regiments
Leser
Volksrepublik
##pen
Hagen
erfüllt
Inhaber
Portal
Kurs
KG
wirken
Ostpreußen
Verantwortung
Rosa
musikalischen
verstehen
befindlichen
erneuert
Landgericht
Partie
Life
##bo
durchschnittlich
Carlos
Erinnerung
Reiter
Peking
Oliver
##mar
Schnitt
verfasst
Kupfer
Ministerpräsident
helfen
Vermögen
erinnern
##iel
sichern
Gesetzes
Du
geschätzt
Generalmajor
##ette
Stattdessen
Niederösterreich
Mode
##kow
abgebaut
Straßburg
##tum
##kommen
Schauspiel
Loch
160
Günter
Austausch
legt
Gas
Verfolgung
genug
Merkmale
vielfach
regulären
Zone
Grundriss
##sberg
##sk
seinerzeit
##bare
Gesundheit
##don
##bild
Territorium
##nte
ähnlichen
Erzählung
bezog
Londoner
Kategorien
##ufen
##ille
Power
##ene
Verhältnisse
sagt
Million
Mittelmeer
##ire
begründet
ausgerichtet
künstlerischen
Stars
##eln
jüngere
Schlüssel
entworfen
101
Bühnen
##reihe
##tin
##nia
Dur
Stift
Jackson
seltener
1831
Ortsname
Centre
Redakteur
##unde
##ria
gewisse
Aluminium
vermeiden
Trio
komponierte
Río
1812
Komödie
erzielen
Dozent
Jahrhunderte
Konzern
preußische
Jeder
##ong
wichtig
Mario
realisiert
Felsen
üblicherweise
Sandstein
beziehen
Vorbereitung
erlitt
Legende
Kandidat
Durchführung
bisherige
##rich
Freundschaft
Heirat
angepasst
Zweite
Corporation
Journal
Gallen
Bezirks
##dy
Schwarzen
antrat
Restaurant
Express
f
##ín
steigt
Römer
Plattform
Mandat
Angelegenheiten
Materialien
achten
bewegen
Element
Bundesstaates
belgischen
Erfahrung
Profi
katholischer
##del
intensiv
Sprung
Unterschiede
Südwest
aufweisen
lieferte
unterrichtet
bekannter
Marathon
Graben
veranstaltet
Ärzte
Sam
Eishockeyspieler
Mond
##urm
verlegte
müsse
gefährdet
Church
Pommern
gefolgt
Marc
##š
Annahme
Drama
Act
Regierungsbezirk
Wilson
5000
##tti
männliche
##lli
Kap
geteilt
typische
Ostsee
Neckar
Mühlen
Patrick
angebaut
Wurzeln
verblieb
suchte
eingezogen
Beste
gehörenden
Vorstellungen
Angehörigen
Draft
mir
Gebirge
unterschiedlicher
fährt
1808
Nahrung
Schreiben
1817
bester
##asse
Bistums
##Y
ersetzte
besiegte
##est
Soldat
russischer
jährliche
Anordnung
weiblichen
##leistung
##produktion
elektrischen
les
##material
Platte
Amtes
##wirtschaft
Ablauf
Duisburg
restauriert
Mitarbeitern
Weimarer
##nau
bevorzugt
identisch
Bauer
kulturellen
Winkel
Schiffen
SED
##ure
Dritten
Point
gewidmet
Opern
qualifizieren
1833
ausgesetzt
Stufen
hinsichtlich
traditionelle
##möglichkeiten
Kavallerie
Jury
Bochum
Ausrichtung
begleitete
ans
Verständnis
erfuhr
##baren
Jung
Bischofs
Mehrere
Zahlreiche
Festivals
Herzogs
Geschäft
Times
rechte
empfing
bezeichneten
erhebt
1828
drehte
Signal
Marken
Todes
Gründe
solle
enge
Town
105
Präfektur
##nk
beruht
wachsen
##tik
Junge
regionale
1825
norwegischen
fehlt
Schichten
begraben
Areal
Instrumente
Saal
##ndorf
stationiert
##nummer
ausreichend
versuchten
##tus
##funktion
lat
Information
stehende
zählten
verbliebenen
anstelle
Stab
Time
Hochzeit
diskutiert
##eis
##ye
Male
May
verwaltet
Country
##rie
Stock
Format
##auf
##eben
kulturelle
##rte
jene
Zusatz
häufiger
entwarf
Hammer
angrenzenden
Wesen
schlecht
existierte
Arm
traditionell
##ogen
Bald
Pflanze
übernahmen
Bezeichnungen
nötig
verhindert
Forscher
Demokratie
Justiz
Schicksal
Glaubens
##olitik
selber
Trotzdem
Alternative
Golden
Zuschauern
Vize
Sophie
Benjamin
Mr
Dan
Besiedlung
entstandene
Reichs
Rückzug
entsprechen
1807
##cs
internationaler
##we
verfügbar
Zusammensetzung
speziellen
##plan
Verteidiger
Finanzierung
Anteile
##vertrag
Islam
Südamerika
Identität
Gesellschaften
Antike
Bestimmung
verwandt
##nnen
Uraufführung
bedeutete
Carlo
Gattungen
Haupt
1809
Beweis
vergleichsweise
##verwaltung
Hauptmann
griechische
##kammer
Okres
dokumentiert
Hinweise
##ata
Nassau
Eugen
140
##tis
Championship
##Q
Schlesien
##ac
Hauptbahnhof
Untergrund
Speicher
Programme
##ah
stammende
Abgeordnete
teilte
Angehörige
unterbrochen
hl
Gabriel
Erdgeschoss
Jim
##nder
Einzugsgebiet
Wohn
Erforschung
KPD
Bier
##vo
Typen
wohnte
nowiki
circa
umfassende
Vorsprung
##acht
festen
Anwalt
Day
##tisch
portugiesischen
Winterspielen
##kommission
Zugehörigkeit
Wiesen
einziger
Funk
Sonntag
Überreste
##bus
Roth
Gießen
Kim
Grün
1826
obere
Quadratkilometer
Geschäfte
Roland
##rücke
It
Vorpommern
bessere
Diskussion
Besitzungen
ref
##hren
Verluste
HC
älter
mich
Old
wer
Koblenz
Gewerbe
Waffe
Auszeichnungen
##bert
Umgang
Entdeckung
innere
Zweig
religiöse
DFB
retten
m³
Siedler
Summe
leisten
Mitbegründer
Hinter
Gegenstand
##rum
Braun
Wild
1798
gelb
erhöhte
Erkrankung
Helden
qualifizierten
befasst
Rande
durften
Claude
bedingt
Sports
Jugoslawien
erkennt
Nebenfluss
Triebwagen
Florenz
##sheim
Nation
Model
Historic
Forst
Atelier
Bernd
Vögel
Garde
Neapel
Worten
##jo
##direktor
linke
verbundenen
sahen
Bäume
Lebensmittel
Früchte
hielten
Bekanntheit
letztes
Zweiter
Hierzu
vorübergehend
Kompositionen
1829
Südseite
Reihenfolge
Großvater
Entlassung
Banken
hinweg
Glück
zeigten
übernimmt
Einkommen
Stufe
erfahren
Mans
sucht
hierzu
##nz
##bank
unmittelbarer
1822
Stoff
##els
EC
1824
1802
Theologe
Ecke
betreut
##ausen
##aal
Zeichnungen
Hospital
Herrn
Kleine
Glocke
Eric
Ruine
gefeiert
Gitarrist
##latz
Benedikt
Außer
##old
Bauarbeiten
Ursprungs
nationalsozialistischen
Grundlagen
Inzwischen
Gesamtwertung
Büchern
Siegfried
Weiterentwicklung
erfüllen
ausgerüstet
Höhle
Kämpfe
Ross
##welt
##lose
Aktien
abgegeben
wären
Brust
Museen
darum
Gesetze
rote
paar
##flächen
Gesicht
Moderne
##esen
Werks
verzichtete
Last
##ald
erfasst
Saarbrücken
Sache
##las
Little
Chance
##kirchen
Yorker
Schriftstellerin
Flugplatz
Osnabrück
Landtagswahl
##wo
Fälle
Lyon
Labor
erklären
Olympia
spät
Skulpturen
Residenz
griff
niederländische
verbesserte
halb
erfolgreichsten
Mannes
##oren
Wahrheit
Bände
extrem
Singles
à
##yl
Allen
vorne
Mitteleuropa
Bundesregierung
einziges
dank
wovon
Lang
Training
Dritter
Valley
##ings
Vertretern
Dame
Planeten
Great
America
erkannte
Hände
Ereignis
Manuel
Fahrzeugen
zugeteilt
Beach
erschossen
Verbände
Offiziere
Napoleon
Game
weg
Rolf
##namen
Schuld
Originaltitel
##cha
Fotos
Aufhebung
Versammlung
Gulden
Verleger
##leitung
Verbandes
Hamilton
Aufenthalt
zusätzlichen
##à
##rechte
Wohnungen
##tsch
Mehr
weite
bestätigte
Brian
Täter
publizierte
1819
##nge
Gelegenheit
Kanzel
Dank
aktuell
gesellschaftlichen
##gut
Schatten
bekommt
Gräfin
##lagen
belegen
##teile
siebten
bestimmen
1811
Bevölkerungsdichte
wirklich
schwach
##ez
##rate
sammelte
Zentimetern
Schwanz
Keramik
östliche
Pfund
##baum
Wirtschafts
##lingen
Hals
Maße
nachfolgenden
Box
Beton
ansonsten
berühmten
Fast
Oberbürgermeister
verkaufen
Anwendungen
##klasse
Haushalts
##förmig
Andrew
##ück
geschlossenen
Hoffnung
DJ
##ola
Fels
Gebiets
##titel
sank
Völker
Seminar
Handball
Kreise
Erhaltung
Gewinner
Lediglich
Fred
spanischer
Hot
##ā
##felder
Blumen
Kreisstadt
worauf
Erziehung
zurückzuführen
lateinischen
Kontext
Aufklärung
führende
##elt
Bundestag
verlässt
##logie
samt
verbessern
Sturz
Beförderung
geöffnet
Lebensjahr
Mathematiker
Autorin
Alters
Ruhe
vielmehr
versuchen
erreichbar
##linien
Forschungen
Platzierung
Mischung
weiten
##sierung
##blatt
Salzburger
##cal
##daten
##ase
untere
denkmalgeschützten
Kleinstadt
Integration
bin
Mitteln
##nten
##haft
Fuchs
Conrad
##kapelle
Mont
Mars
reich
Flüsse
Hohen
vollständige
Vorsitz
überraschend
Berichte
Armen
UEFA
##wood
entstammte
Schlagzeug
##zellen
ARD
lautete
##ore
Plätzen
Siege
##lar
Darin
Eines
##züge
Slowakei
Landrat
Oft
Lorenz
##rad
Busch
Diesen
Steuer
Clubs
##owski
Innere
erschlossen
1805
Zwecke
1827
Opposition
Zucker
##chor
zwanzig
verbreitete
##lag
fördern
##ätze
Nordost
##ruppe
Nick
##ble
alleine
Bielefeld
Handels
stillgelegt
Verbot
x
UNESCO
Bulgarien
russisch
##führung
spätestens
1801
##ete
Edition
Pferd
Tätigkeiten
NATO
vorerst
Saar
##graben
##ain
Hoffmann
Lissabon
##gas
bewohnt
arbeiteten
r
wesentliche
Harvard
besaßen
umfangreichen
Holland
##räume
Peters
Lippe
Kriegs
Zugleich
##wahl
Costa
geschah
Beck
Back
##inen
besuchen
##dae
Schwerin
Michigan
Hauptrollen
Fellow
Court
Alliierten
Manchester
nutzt
##ani
Begriffe
Dörfern
Statistik
Endspiel
##pel
Vizemeister
Minnesota
Bernard
##usen
chemische
gelangt
Berufung
Bildern
Gedicht
Fiction
Phasen
Debütalbum
Sohnes
1793
Creek
äußerte
geregelt
Statue
Komponenten
Temperaturen
##geschäft
Verlags
##schutz
##lauf
Amtsgericht
##so
##losen
grün
Business
Schwert
Salz
Badminton
konzentrierte
Palais
Grube
Railway
125
rückte
Foto
arabischen
Kunststoff
kritisierte
Sammlungen
Bridge
Testament
Johanna
menschliche
Problemen
Landesregierung
Prince
jüngste
##chte
unweit
Adel
Willen
maximale
Nordseite
Unterscheidung
CO
Alan
Nördlich
Helm
##ów
Prozesse
Hochschullehrer
##ors
Sterne
##tzen
##länge
##kosten
Dreharbeiten
Abwehr
Betreiber
Thron
Manche
Getreide
Jugendlichen
Tim
Entscheidungen
##cus
Zeche
##chs
umfassen
Dinge
goldenen
Index
1804
positive
Gespräch
großem
Gen
Regen
Sanierung
verbinden
Danzig
##urs
unklar
Übertragung
Nachweis
Sklaven
Erzählungen
kaiserlichen
Law
landwirtschaftlich
Zufluss
Vorkommen
Rajon
Pionier
Katholiken
Voraussetzung
##ron
##ionen
Lady
rief
##og
Endrunde
unterhält
Kurfürsten
Patent
Georges
verband
Sieben
eingeladen
Powiat
##ereich
##beck
Chefredakteur
##ris
##ions
fliehen
schlechten
Staatsexamen
Touristen
##aren
Loire
##ive
Hubraum
Klang
Frequenz
Kommune
Erben
aufnehmen
Zuletzt
keinem
Spur
Münzen
1823
Export
Vorfeld
verlaufen
los
Koalition
verteidigen
automatisch
BGB
##theater
Space
stammenden
schneller
demnach
finanziert
Kommandant
##stedt
Ausgrabungen
##ite
Heilbronn
##kreuz
Sauerstoff
Abkommen
FA
Oskar
Verletzung
Hotels
Hund
erwies
##uk
Turniers
erneuten
##änder
Details
##ank
Nürnberger
Begründung
##gan
##ok
##iten
Umbenennung
Arbeitgeber
##chef
Kriterien
Rainer
##zahlen
etablierte
Gleis
##llo
DNA
Naturschutz
Kämpfen
Cross
##echnik
Nationalversammlung
Falls
installiert
Zweitligisten
##ührer
Dialekt
Kai
Verletzungen
wahr
Pilot
normalen
Fund
stattfinden
Tisch
trotzdem
Nacional
Eigenschaft
antreten
Urkunden
##grund
Könige
gerufen
Marsch
##nus
##öl
Elizabeth
ausgelegt
Verteilung
Turin
Krebs
blau
griechisch
Schreibweise
##dach
endlich
Aufführung
##team
Grande
Vereinigte
Norm
bezeichnen
schwierig
1790
Fulda
##gi
bekannteste
##stellen
Begegnung
Vorlage
Oslo
Forderungen
Mineral
Regelung
Angriffe
##ska
##ı
Veränderung
landwirtschaftliche
BMW
Wall
Milch
orientierte
Erzbistum
1600
hinteren
Becker
gewissen
bestellt
##ée
##gemeinde
zugeschrieben
##latt
schwerer
##ße
##up
beobachten
##ses
medizinischen
benannten
Gerichts
Bester
Begründer
seitens
1940er
Gebietsreform
Zerstörer
Priesterweihe
Vereinten
##musik
Racing
Weinbau
Li
töten
##jan
Tafel
chinesische
##tätigkeit
Monats
Russischen
Königreichs
Andrea
1700
##ges
Elementen
Bamberg
überführt
##ho
Ankunft
BBC
Allianz
##ett
Sechs
##ess
Pest
Amateur
kandidierte
Nachfrage
versorgt
Bürgerkrieg
##nie
Lebensraum
dortige
codice
Vertrags
Erstligisten
Voraussetzungen
Alex
Wärme
Hits
Hard
bestattet
##tar
##ec
Marmor
Heilige
Nordwest
Ausgangspunkt
Regime
beenden
laufen
Vermutlich
##nbach
Texten
Seele
##winkel
zeichnet
Abenteuer
Interpretation
##sser
Wachstum
##spor
Zehn
Night
türkische
ad
Moment
vereinigt
Drehbuchautor
Anführer
##well
Dialog
Romans
##zt
vornehmlich
##ühle
##rung
Motive
inklusive
Bett
Vordergrund
Landtags
Ausdehnung
##kunst
Disziplin
Häufig
##ät
109
erhebliche
##quelle
unterzeichnete
literarischen
Gefangenschaft
Hauptsitz
Clemens
Musikern
Kessel
Teils
braun
Gebietes
Hop
Experten
IT
Miller
Kugel
##ord
is
Howard
Tatsächlich
Is
Hochschulen
##ud
dänische
Stürmer
Dance
Steiermark
Obergeschoss
1794
104
Automobil
Nationalen
Antwort
##viertel
##hagen
##ppen
meldete
Willi
Grafik
Anstellung
Hin
Dokumentation
Porträt
Roll
Ozean
Derzeit
##tta
befindliche
Wuppertal
Etappe
Benz
Theaters
Haushalten
Forderung
Kleinen
Jede
##ender
legen
Death
Überlieferung
Premier
Comic
##garten
##erin
End
vorderen
Davon
Hut
Stadtbezirk
Vorrunde
Hinsicht
Erlangen
Ohne
ersetzen
Rad
Vorlesungen
Talent
Allgemeine
Reinhard
Up
bedroht
ÖVP
Ontario
Probe
Irak
erneute
verkauften
Antrieb
landwirtschaftlichen
Montreal
Heim
Home
Modus
Sicherung
##hersteller
übergab
##ari
##ane
Kraftwerk
##kultur
längeren
##min
Bauwerke
vorhandene
aufweist
vergleichbar
christliche
dritter
Harald
Via
studieren
Athleten
gehabt
Bruders
##raft
Chemnitz
Admiral
Episode
namentlich
geliefert
TSV
##egen
zusammengeschlossen
Redaktion
gebildeten
junger
Fox
Web
Daraus
bewegt
Senator
Höhlen
##oy
Umsatz
Bell
Außenminister
Reichstag
gerne
##ringen
##mm
##aden
Ö
welchen
Luis
Wird
Kroatien
##frei
Soziologie
##kin
Jörg
technisch
##bt
betont
handeln
Kulturdenkmale
Miss
##bteilung
Konservatorium
eingeteilt
ATP
verkehren
##eitung
Kennzeichen
Anthony
##yer
fünfte
Einflüsse
##sel
##fahren
##ala
spezialisiert
Teich
Gefangenen
SPÖ
zwischenzeitlich
Pastor
Felder
Innenraum
tiefer
Südost
Dokumente
gemessen
Dessen
Raketen
Pflicht
Thüringer
Traum
Sky
gleichnamige
Alkohol
akademischen
##eister
Forum
107
lesen
Krise
Küsten
Nachlass
abgehalten
Aspekte
Umständen
Humboldt
##lehrer
betreiben
Haar
Pedro
Kreuzer
Dekan
102
Motors
On
grünen
Buenos
Generationen
auseinander
Barock
verließen
Wirklichkeit
Schaden
##nische
Inc
Aussehen
Vorjahr
manche
geehrt
teilnahm
voraus
##reise
Missouri
##unterricht
##itsch
Planungen
bewaffneten
Marcus
Römischen
Lande
##rbeit
##anz
##ologie
Luzern
wissen
gefallen
Darunter
registriert
Satelliten
Wettbewerbs
##äuser
Leiden
allmählich
dauerhaft
beinahe
eingenommen
Aires
Verbrechen
Titelverteidiger
Prinzen
Mein
##ade
verursacht
mittelalterliche
##gau
guter
betätigte
Studioalbum
##aut
Affäre
zeitgenössischen
Paderborn
##ast
##mmer
sofern
Harz
engen
Foundation
gedacht
besonderer
mag
Erz
Stephen
Stanley
Periode
Strafe
Flüchtlinge
Umgeben
deutschsprachige
Spenden
Alice
besetzte
Marketing
René
Links
Güterverkehr
USS
Senats
Fame
Propaganda
Cover
französisch
##nne
Georgia
Friedens
Achse
750
typisch
Zentrale
renoviert
##ios
##era
Ski
Südlich
kämpfen
##liga
103
kommenden
Julia
plante
##gemeinschaft
Han
Asteroid
Vereinen
##ku
Freunden
Neuzeit
offensichtlich
##ona
Kleidung
##chten
Faktoren
Bauch
Genehmigung
Hart
Turn
Township
##region
lösen
Niveau
Kette
##eiten
äußere
##maschinen
Helsinki
Roy
streng
##sammlung
Kolonien
teilt
erkannt
einzeln
Wellen
Befreiung
finnischen
Haltepunkt
Konflikten
Kurfürst
Denn
Stone
Exemplaren
erzeugen
aufeinander
publiziert
Sommerspielen
dunkel
Lothringen
Größen
Ausrüstung
sitzt
Konstanz
##tation
komplette
Zell
Di
Götter
bat
Hirsch
Moor
##ès
Beendigung
Genre
Physiker
Glasgow
Louise
flachen
seitlich
Amts
112
Il
wesentlichen
Flecken
Bataillon
gebunden
Fan
Boy
##krieg
Lexikon
verzichtet
Adams
Trasse
##fa
Fähigkeit
Europe
Rohr
Sockel
Kurzfilm
transportiert
Wahlbezirk
##enberg
##ffen
Schädel
Mythologie
Leutnant
Gene
1789
1792
##stoff
natürlich
Achtelfinale
##telle
BA
##iv
Brüdern
##ack
bedeutender
tot
Vorname
Schließung
##ührung
Ausscheiden
450
davor
besseren
Marco
HD
vergangenen
Lokomotive
##ebene
jüngerer
Düsseldorfer
berief
##gung
##kampf
Fürstentum
Zar
Mund
umfassenden
orientiert
Erdbeben
Colorado
##cy
Mauern
##äume
##modell
##ora
Germanistik
Motorrad
wirtschaftlich
Thailand
Erwin
aufzunehmen
Schulden
Eintritt
##nahme
erfolgreichste
zerstörte
Fernseh
Feier
Kommunalwahl
Ferrari
Damals
Vorhaben
Na
##unkt
Willy
plötzlich
Institution
##tter
heran
Schlag
daß
ansässig
markiert
Kirchspiel
entschloss
##ua
Syrien
##ark
tschechischen
Ressourcen
Absatz
Stuttgarter
##äre
Gegenstände
Westseite
Autos
##rf
ähnelt
Staats
Faktor
Kuba
Kampagne
Mini
##ehen
Elektronen
Johnny
halben
Herrenhaus
befestigt
Gerät
polnischer
grau
Behörde
Erstausstrahlung
Küche
Festland
Gemäß
angegriffen
Janeiro
Mitgliedschaft
kirchlichen
Jane
Gleise
deswegen
##uhr
##ngs
Welle
Fisch
stiegen
Aufstellung
Standards
Burgen
Website
##losigkeit
##sbach
galten
Gehäuse
##ras
richtet
##town
flach
Ehepaar
##prüfung
Kuppel
Jimmy
##halten
Austria
111
Siegel
beliebt
##bi
Be
Generalleutnant
Bemühungen
gegeneinander
Mainzer
##eur
##rennen
medizinische
phil
Entwicklungen
##ick
vermehrt
##pf
##nlage
Server
##hilfe
Einnahmen
District
Latein
Jordan
Inhalte
wechseln
Bewegungen
Tatort
Verbund
Akt
CSU
Schmuck
Kaserne
verliebt
Litauen
erhöhen
Evangelisch
##mannschaft
##lia
Zeugen
Public
Teilung
verarbeitet
Gordon
Communauté
Vincent
Ludwigs
Serbien
Board
with
Feder
Märchen
Ortsteilen
Nominierung
Stämme
gekauft
Anlehnung
unabhängige
Aktionen
Finanz
Erreichen
Stipendium
Leib
feiern
Umzug
Sex
Gregor
geprägten
##seite
Böden
erwartet
Special
Nikolai
Evangelische
Abhängigkeit
##flug
Wittenberg
##ew
reine
Schnee
Seither
Gärten
##sitz
Chemiker
Spitzen
Personenverkehr
Sportler
LP
unterwegs
Freizeit
Brot
Manga
Landesstraße
Unentschieden
##erk
präsentierte
##oli
##fähigkeit
quer
normalerweise
Adels
##strecke
Philippinen
Ermordung
UdSSR
älterer
Händler
Detroit
##satz
##ittel
Baumeister
gewöhnlich
##kanal
Infolge
##ão
laufenden
Pius
urkundliche
hinterließ
Kapazität
Oberösterreich
Beute
jeweilige
Mercedes
MS
FK
Zürcher
Allein
niedrigen
Hamm
bestritten
Hahn
Airport
##ucht
Kulturen
niemals
eigenständigen
eben
Durchschnitt
Borussia
##grad
keinerlei
##usik
übertrug
Siemens
kritisch
zerstörten
Junior
Fische
Charlie
spendete
liefert
Hip
##way
Ansiedlung
Sternen
Inn
Bischöfe
geraten
untereinander
Tageszeitung
Gastgeber
Petrus
##tern
Abraham
chemischen
Dick
##zeiten
##handel
sorgen
Nachricht
wählen
kennt
Flora
##tet
zurzeit
##ücke
##rei
Individuen
VfL
NRW
These
Mayer
Greifswald
Medaillen
Queen
Continental
##prozess
Paulo
Fußballnationalmannschaft
Geschlechts
befreit
Dokumentarfilm
voller
Strategie
Nutzer
Stadtteile
Meeresspiegel
Dritte
Bart
qualifiziert
##ves
fertigte
gründen
IF
Australian
Maurice
Briefe
Hochwasser
##acher
verbessert
Heck
vertritt
beschreiben
##platten
leichter
jährlichen
litt
angesichts
Regional
Gran
Protest
##ost
Wettkampf
##artigen
Zylinder
##sky
national
nahen
##kette
einzelner
angekündigt
Direkt
Cheftrainer
##werte
##lein
Kapital
Finger
soweit
zeitgleich
Wälder
##ofen
NBA
Gau
Kärnten
Erhöhung
Bande
Archäologie
as
##и
überall
Insolvenz
Anwesenheit
Adelsgeschlecht
Kaffee
Will
Schnabel
##reichen
kanadische
##utz
Kompanie
Blütezeit
Passagiere
Giebel
Faust
Rechtswissenschaft
Kreuzung
Verbands
Mittlerweile
Hanau
Prager
Geschwister
Werbung
Blei
Lokal
Reis
Christopher
##owa
##istischen
Händen
##ity
Ten
Wladimir
Paulus
##dorfer
Volumen
Haag
Programms
konzipiert
1799
##ammer
##ida
com
ausgesprochen
Wenige
viermal
Billy
##ab
eigenem
##po
##hal
Diego
Theatre
Darsteller
IS
betreute
Staffeln
Staatlichen
Berger
Reederei
Flur
Monarchie
Erkenntnis
Philologie
Kabel
Atmosphäre
Absicht
finanziell
by
##rath
Duke
Dirigent
Bären
##hütte
floh
Rosen
verteidigte
##geschwindigkeit
häufigsten
Spielbetrieb
IX
verpflichtete
##richt
Spannung
##ats
Weiße
##sta
Karosserie
gemeint
Rückseite
##tan
angestellt
abermals
Polizisten
VIII
Erlaubnis
Königlichen
##läche
Ostseite
##größe
Del
Abbildung
Senioren
verwundet
Peru
Hunde
größerer
Départements
taucht
Deren
empfangen
VfB
TU
##uck
Philip
stirbt
Québec
##maßnahmen
Unterseite
Diplomat
Entertainment
##tur
##lz
Vancouver
zustande
Restaurierung
Elektro
Beine
##ena
1797
Akten
##lus
Gymnasiums
Florian
Hoch
##echt
unabhängigen
benötigte
ausdrücklich
polnisch
Francesco
Christ
vorzeitig
vergrößert
feste
entfernten
MW
lebende
hohem
Ministerpräsidenten
Bayer
Fahrrad
Tel
Verwandten
gehandelt
Bewohnern
##osten
##dauer
SP
##ira
##ru
Handlungen
Mississippi
gegangen
gesammelt
Kunstgeschichte
Santiago
##üge
Can
zugewiesen
##hofen
Ihren
Gera
Schaffung
Wood
##typ
##č
jüdischer
Marcel
Projekten
geschieht
Wiedervereinigung
Moschee
Volkes
nationaler
Sarah
##reform
Riga
##name
Moore
Generalsekretär
Schwarze
Schach
##wski
sagen
beheimatet
Haute
##ufer
Ur
Nachbarorte
Demo
##ero
etliche
Metz
##oni
Abteilungen
##zo
Dave
inhaftiert
falls
überzeugen
##biet
Reichweite
Abriss
annähernd
##bäude
##bs
Bestimmungen
leichten
Ltd
katholisch
anzutreffen
Abgrenzung
Verhaltens
Werkes
##lm
Klage
Projekts
German
##ären
##zel
Adresse
Rasse
##einheit
bestes
Lou
Wohnsitz
Hubert
##ager
Räumen
Kindergarten
Roma
##richtung
produzierten
Null
unbekannten
volle
##litz
Anstieg
Luise
Freie
genauer
Clark
eingeschränkt
Out
Kansas
Campus
eigens
Verkehrs
##bund
Farm
Buches
Austragung
Drogen
gänzlich
##osa
Ketten
Jh
##tel
##bene
##rom
zugrunde
Militärdienst
Mountains
Granit
beauftragte
##körper
Zweifel
verkehrt
Vorfahren
Erkenntnisse
Edmund
Jedes
Länderspiel
##systeme
##plätze
schmalen
bürgerlichen
DS
gehörende
##eten
Ma
gelungen
Disziplinen
Gegenzug
Memorial
Walther
##ić
Epoche
##voll
Auflagen
Bildungs
wendet
Unmittelbar
##loch
della
erteilt
##tand
##phase
##ros
langjährigen
##llt
hingerichtet
News
vereinzelt
Weiden
Schienen
1795
Stettin
wissenschaftlich
Achter
Verfahrens
Südkorea
Aufschwung
stetig
Melbourne
Go
##ampf
gestartet
Kent
1300
##ult
unmöglich
Gottesdienst
CH
##quellen
Komplex
Gerichtsbezirk
Mail
Krieger
Sultan
DC
Vermittlung
Schuss
##als
Sei
Women
landete
förderte
RE
##shi
Mangel
Kindes
Order
108
ländlichen
##det
1780
gesperrt
Leder
erwähnte
Hildesheim
##trag
Good
Pflanzenart
Stadium
Ähnlich
wolle
entscheidend
bewertet
##erten
Range
Bundesstaaten
##etz
Nachwuchs
Lösungen
Lüneburg
Meist
116
Moskauer
erlernte
erfolgreicher
170
Speyer
Marien
Fotografie
Edinburgh
Playoffs
Immobilien
##rau
##och
Wahrscheinlichkeit
Stammes
dorthin
Erfinder
Aufsteiger
notwendigen
behauptet
innehatte
HMS
##hin
Friedrichs
Baudenkmäler
untersuchte
Head
##itel
##isen
eingesetzten
ansässigen
Lothar
Belgrad
geschaffenen
Beat
selbständige
Hauptquartier
Universal
Verkaufs
gewählten
Turnieren
##ous
##ub
Hl
geklärt
##änger
ergaben
Rugby
verliert
Do
Delegation
##а
Melodie
Letztere
Pacific
Goldenen
lutherischen
Bischofsweihe
Berechnung
Invasion
Nationale
Handwerker
verabschiedet
notwendige
EG
Linden
##és
Rates
Liedern
Abu
sammeln
Gesellschafter
Fell
##iche
Porto
deutliche
##istische
Stadtmauer
ethnischen
Eichen
Prototyp
Ken
##spieler
Iwan
Dichte
##gh
OS
vermittelt
##oden
Zentrums
##line
##sson
veränderte
ungewöhnlich
Technische
Relief
Holding
Ems
absolviert
identifiziert
Khan
Gotha
Schiffs
zuständigen
##kes
Microsoft
Vorstandsmitglied
Kiew
Biologie
Forest
##ont
größter
vorn
zurückkehren
Ruinen
Porsche
schoss
aufgelistet
Breisgau
Weihbischof
unverändert
Öffnung
Mönchengladbach
##stellung
uraufgeführt
Maine
Feldzug
##ella
Dampf
##fenster
##opf
Lausanne
dauert
We
Comics
1796
##ū
verschoben
kontinuierlich
##mont
RTL
Stoffe
Anderson
trainierte
Realität
Sizilien
kanadischer
##rechts
Bäumen
Per
Lok
heiraten
Sat
Türken
Nutzen
Gefecht
liefern
Schmid
Indiana
Höchstgeschwindigkeit
Bewertung
Nordsee
Meeres
Maschinenbau
Dublin
##ii
Mönche
##ysteme
einfacher
Posen
Listen
Château
Christine
Hongkong
Eck
Inschriften
mehrheitlich
ändern
Darauf
##säure
Steuerung
wonach
Heinrichs
##dan
##gewächse
Schwaben
Standorten
Schiller
ungarische
voran
reinen
Entsprechend
AD
Wisconsin
##artig
##version
Konstantinopel
schlägt
Künstlers
Bürgerschaft
DIN
##endorf
sozial
##sion
Bukarest
##ran
vorherigen
op
Conference
Hallen
##amen
106
anti
HK
##ney
Kilogramm
Übersetzer
Guy
saniert
Bundesautobahn
literarische
Emma
##nik
##net
Sendungen
tiefen
Tennessee
##anstalt
generell
Wunder
4000
##kan
Laubblätter
Jahrhunderten
Copa
gebaute
Gestapo
##ller
Auguste
##ada
preußischer
fertig
Minderheit
A1
Kulturdenkmäler
Schiedsrichter
Künstlerin
obersten
gemeldet
erwerben
derer
Vorteile
Synthese
Baby
Sakristei
220
malte
Stadtzentrum
AT
fuhren
Car
gebauten
Punk
Politikerin
Aktiengesellschaft
##sport
##ting
Leber
Technology
Goldene
Verfasser
Ruth
Gründungsmitglied
Opera
Normandie
##üsse
##uß
Verfilmung
##con
Pfeiler
Systemen
##att
Magazine
Länderspiele
##maschine
Tests
Organ
##val
BSG
ü
Sternbild
Soul
Olympische
Damm
absolute
Aufzeichnungen
unterstand
bekamen
mexikanischen
interessiert
Lincoln
ausgeliefert
3D
##mal
##enbach
Europameister
Meilen
abgesehen
Kulturgüter
Höfe
Fe
##basis
erlaubte
Uwe
##sha
el
Giuseppe
islamischen
Folgejahr
Abbruch
Sage
Perspektive
Gleich
1791
Käfer
115
Gewölbe
Elite
Erhalt
Ära
##paar
##nacht
##club
Textil
Konzerten
Kenntnisse
behaart
Beschäftigung
Robin
Landschafts
Regelungen
Mittelfeld
Lübecker
Denkmalliste
Anlässlich
Acht
auftrat
Bakterien
##geld
interpretiert
Pedal
##ausbildung
Gitarren
mitunter
##ruppen
Wassers
Videos
Nummern
abgesetzt
##ères
Press
##ă
Beispielsweise
##manns
##itt
Ablehnung
Antarctic
westlicher
Final
Kenntnis
Brett
1750
IP
Liverpool
1784
brasilianischen
Gerd
dieselbe
Lloyd
Dienstleistungen
Titeln
Kreisen
abgebildet
Niederlagen
äußersten
Gras
genauso
Amerikanischen
Reformen
##rolle
Arme
École
##olz
##typen
##dia
angewendet
benachbarte
Turner
Jon
##ator
Trainings
Motto
Zeichner
Übersicht
Nova
Anbieter
entwässert
Ermittlungen
Schatz
##prache
##rücken
Leichen
Lehr
wichtiges
sitzen
Ganz
Naturpark
##ding
##iedlung
Staatsanwaltschaft
Erscheinen
neunten
##iga
zentral
meint
Airlines
##nce
Merkmal
Himmels
konservativen
Worte
historischer
Philosophen
Namensgeber
Ala
##runde
Vertretung
Disney
falsch
Bein
Standorte
erheblichen
Bevor
betroffenen
Digital
Gramm
barocke
Oberflächen
Ä
Konzentration
##su
Zucht
1400
Mediziner
Theorien
Donald
Sara
Wehr
Philippe
Norbert
Ausnahmen
zurückkehrte
gliedert
Hohe
verschwunden
##hrer
schickte
Connecticut
benutzte
irischen
##illa
Pont
##grenze
Iowa
aufnahm
wahrgenommen
Syndrom
Spanier
Kanonen
Stade
##bad
##ode
Vorschriften
##kon
städtische
passiert
Viktor
117
verkörperte
Gewerkschaft
ausländischen
Telefon
Steinen
Kriege
etabliert
negativ
Obersten
Kongo
Katholischen
##äure
##schicht
##karte
Chief
SE
Partnerschaft
Sainte
##sellschaft
Mine
Off
##ça
Kalender
##ceae
Salon
Down
##ichter
Erwerb
Hinblick
Café
Techniken
Ann
Audio
Bruce
römischer
Axel
Schnell
##nken
Wohnhäuser
Bebauung
Auftreten
wachsenden
Häftlinge
absolvieren
berechnet
Mer
Türen
kehrt
##aison
niederländischer
Non
Lagen
División
Leon
##op
Verpflichtung
Militärs
bedeutendste
Nest
Körpers
##hase
doppelt
##low
Ursachen
Getriebe
schwedischer
Agnes
##aben
##vi
organisierten
hessischen
erhob
##rm
Friedhofs
Maximilians
Held
##our
breiter
Stammspieler
Kamm
berühmte
Handeln
Mrd
etablieren
Water
Inszenierung
Bekämpfung
hell
Frucht
verweist
Arizona
richtig
fortgesetzt
Königlich
##din
Sozial
Atlantik
##nda
Olympiasieger
schnellen
vorkommen
Ausstrahlung
UK
##chutz
Performance
##eller
Nicolas
live
##örper
aufs
fordert
Vol
Morgan
Legislaturperiode
Kalk
Schiffes
Angel
angewiesen
japanischer
##orden
##pur
##reiche
entscheidende
##vin
zurückgezogen
durchquert
Ferien
##geräte
##bogen
Operationen
Gruben
Eintracht
##ultur
##olo
Franklin
Renovierung
eingewechselt
Social
Luftlinie
erbte
Ebenen
##mauer
Sierra
Nachbarschaft
gerettet
Ei
##rischen
Nelson
##iere
Russen
Haushalt
Bauzeit
##verbandes
Uruguay
Java
Dorfkirche
AB
vorgeschlagen
Bayerische
Ansichten
##oe
##idae
Langen
Bürgern
verglichen
Spannungen
starker
Vertrieb
##punkte
Wäldern
Uran
regelmäßigen
Abfahrt
Vielfalt
Fokus
##uft
Modellen
Kunstakademie
Hauptstraße
Bilanz
Fischerei
Tower
Nachkriegszeit
un
##firma
##bruch
Früher
Benutzer
Teilnehmern
warf
##ial
##licher
Geistlicher
##kehr
##unst
Fächer
zeitweilig
Popularität
Apple
##gramm
##cho
Laura
schnelle
deutsches
Porträts
Sea
Kämpfer
me
Angreifer
##eiter
Angabe
Zusammenbruch
##rot
Söhnen
##zy
Gattin
##ix
juristischen
wahren
##yo
##alter
verbreiteten
communes
Captain
leichte
##fahrer
##anten
Leonhard
jenseits
Margaret
Jesuiten
Teilchen
##karten
Bomben
aufbewahrt
1785
##now
Begegnungen
zugesprochen
Katalog
Abschnitte
verstärkte
Konstantin
Camp
befreien
Harris
##isiert
Kevin
Fernsehserien
##du
glaubt
dominiert
##rsdorf
Decken
Volleyball
Möglicherweise
Jo
Torhüter
##dor
SD
verfolgte
trennte
kleinste
Edgar
##hrt
##rus
Raub
Departamento
enger
Grundstein
Ansehen
Vorgehen
##use
##cia
Ansbach
##tier
Kaufmanns
Pi
Pause
Bauweise
Pol
half
Staatsbürgerschaft
freiwillig
Notwendigkeit
Betriebs
Kriegsgefangenschaft
Unterarten
##schrift
Westlich
elektronische
Caspar
Ice
Plateau
Pazifik
Kult
Sprachraum
Zoo
Wahrnehmung
Cruz
überlassen
hinzugefügt
##una
##ckt
Pokalsieger
Human
Gemüse
Schwarzwald
entscheidenden
Zelle
ziemlich
Krankheiten
##hu
Profil
Chronik
Afghanistan
Eingemeindung
Mountain
##uppe
##more
##wettbewerb
Normen
Municipio
##äge
Gräber
Denis
Kandidatur
rumänischen
meinte
Vers
##wer
Si
scharf
Basilika
##macher
Bodensee
wider
1770
Umland
Schein
Wohl
Gelb
##ning
Konkurrenten
Benannt
Truppe
##platte
Färbung
kommunistischen
##zustand
Kritiken
##san
geschlossene
Tausch
Rache
Wiederherstellung
Generals
1787
Angriffs
zeitgenössische
Ehrenmitglied
##landschaft
Gerichtsbarkeit
Worms
##ieg
##menge
amtierte
nachweisen
Uhrzeigersinn
Lern
##uen
Schuppen
Coburg
eiförmig
Magnus
Mörder
Atlanta
##jew
Informatik
Diesel
ORF
Stewart
Bio
Antonius
##ori
festgenommen
Rotterdam
Palästina
##ía
belegten
Philosoph
Antwerpen
Überlegungen
Wolff
Rassen
Est
##ui
##ú
produzieren
360
Urban
Shanghai
Pianist
Of
Abstimmung
##teilung
Freiwilligen
As
Denken
Wandel
Taiwan
Chi
Ansprüche
gefahren
erobert
bittet
Sächsischen
Four
Stausee
tropischen
Weiss
Logo
Inter
Dynamo
##ár
kirchliche
Countys
Kronen
##ind
Ecken
Krakau
Zurück
Zahn
Nachbarn
moderner
kommend
Schlaf
Monument
Place
Holocaust
Story
Apsis
##van
Laden
Global
stürzte
nachweisbar
Broadway
Wieder
Miami
konzentriert
Konflikte
AL
Wissens
Christentum
nutzten
Rapper
gültigen
##wertung
Apostel
te
Neun
##mark
Erik
Hills
Solche
Neumann
Wähler
##last
Area
##urt
eventuell
Matt
rechtlichen
Fantasy
Andererseits
##born
Tote
nordöstlichen
Störungen
Österreichische
##uren
Türme
Zähne
gesellschaftliche
nördlicher
Ursula
Bundesland
##lei
Politisch
hohes
Clara
##lon
##tra
befahren
Einladung
##einheiten
poem
Phänomen
Kennedy
##chiff
##kern
genügend
Hütten
Hubschrauber
Fernsehsender
Grunde
##cks
Amtsbezirk
##verbindung
Vorort
Zwerg
Kapellen
Sur
endgültige
Sitzung
Wertung
Komitee
##lung
Boris
übliche
archäologische
Dokument
##har
Erfindung
letztendlich
Stadtverwaltung
Luftfahrt
bar
Rückspiel
Rue
vormals
##ole
betragen
Parlamentswahlen
orthodoxen
##ried
Railroad
Spring
Ed
ausländische
##nburg
##angen
Claus
##gabe
prägte
erschienene
Schulzeit
##heimer
Tabak
Hochaltar
vollkommen
##fs
Ländereien
siedelte
warum
Pakistan
Sparkasse
##ssa
veranlasste
Östlich
ordnete
überzeugt
Ohr
Zügen
##fach
SM
Southern
Beobachtung
Berner
Australia
elektronischen
Arbeitsgemeinschaft
zueinander
israelischen
Minen
Wirken
seltene
Schwerpunkte
##rkt
##dale
regelmäßige
CS
##iter
Wände
Trans
Mi
Mais
Bond
Grant
Senior
##figur
Match
Erfolgs
Braut
Bassist
##hard
Malers
Mu
Liechtenstein
Landesliga
Jens
Elf
Produktions
Or
Hartmann
Phil
umgestaltet
or
Immer
Beschäftigten
Wettbewerbe
##mes
gestiftet
Reichsbahn
Betreuung
neueren
eröffneten
Bayreuth
zumal
Fair
Benennung
##enz
veröffentlichen
südwestlichen
Wahlkampf
Nebel
solches
Verlegung
Aufgebot
Pfarrhaus
Erstbeschreibung
1786
Altenburg
Kings
Platin
Korn
Wander
Handwerk
##zeitung
Kranken
Bug
##meinschaft
##ecken
Rauch
Erkrankungen
##folge
onlyinclude
##eich
Skulptur
Slalom
Russell
greift
Bedrohung
Turms
Light
##vel
##ath
württembergischen
abgetragen
Bahnen
Laien
Kaiserreich
Gegenüber
Decke
Bologna
niedriger
Wurzel
zunehmenden
By
Busse
Fassaden
na
Rats
Italiens
Germania
Hawaii
Professoren
Lebensweise
genehmigt
Renault
südöstlichen
Flensburg
Stücken
Moll
fliegen
Lukas
##chter
bemühte
Volkspartei
heilige
1788
positiven
Auschwitz
verlangt
Platzierungen
##fels
Feind
Bearbeitung
Innern
##arte
name
Bismarck
##ş
Balken
Estland
Effekte
Gotteshaus
begangen
Elsass
Kaiserin
Budget
Erwachsenen
informiert
Arbeitnehmer
tiefe
##sburg
Moderator
Turniere
Havel
Student
Pole
Kanzlei
Graham
darstellte
Sommerspiele
Astronomen
verziert
goldene
blauen
Rebellen
Mosel
Klöster
demokratischen
Kiefer
Ausgang
CA
Neuer
Mönch
Dark
##oi
##ches
ukrainischen
Orts
Ole
Oberstleutnant
Spektrum
Soundtrack
Meißen
Heil
Reaktionen
schenkte
erstellte
Hessischen
Arbeits
Tiroler
He
##vereins
##lu
ausgelöst
Julian
Protagonisten
Regierungszeit
Rittergut
Matrix
##mmen
demselben
Puerto
NN
Steuern
Russlands
Verdacht
##pitze
mithilfe
##nal
Acker
Kentucky
Landstraße
erhöhten
Folk
Ernährung
Charaktere
ISO
Ausländer
##MA
##car
Steinbruch
Johan
##ois
Canada
zugehörigen
Lawrence
Bundestagswahl
vorbereitet
Reifen
Vietnam
Aktivität
##gelände
Berücksichtigung
Frederick
schien
Antoine
Kairo
##ral
##uri
umgekehrt
regional
Level
Büros
Kastell
las
vollendet
Wörter
Marseille
Schall
Orleans
Sofia
##farben
##rio
Klubs
Virus
Verhältnissen
Kalkstein
Department
Seelen
Office
##station
Schulter
Bois
Geschlechter
Landschaften
##ters
Laser
erwähnten
Stuhl
Cottbus
240
##lied
Zypern
Unruhen
##welle
##zene
##muster
##ängen
NFL
Prediger
Col
Logik
Larven
##wein
##ile
geschaffene
Englischen
Mc
lateinische
aufzubauen
trainiert
sorgt
Richtungen
vergeblich
1783
Theo
Action
##verbände
Job
Bestände
negative
Singapur
Obst
##ova
##licht
##iste
Challenger
2020
kritische
Sportverein
verlaufenden
IUCN
inszenierte
Brut
Lyrik
##ufe
nad
Werkzeug
grundlegende
Metro
mechanische
örtliche
Malta
History
abgeschafft
Instanz
Abfluss
##entwicklung
Ph
Lucas
Prinzipien
Fußballverein
Commonwealth
Ereignissen
##rre
Ausgleich
##elli
diejenigen
gesungen
Tempo
Stall
startet
erweiterten
nordwestlichen
Schröder
Niedergang
Gliederung
##cum
verbundene
##pieler
Katzen
Habilitation
##ormen
Stollen
Neffe
##sin
Vorträge
Operations
Beobachtungen
variiert
selbständig
Dagegen
Umwandlung
Riesen
MA
##shire
Folgejahren
Bosnien
Base
zitiert
Lisa
erwiesen
Fern
schriftlich
Kirchturm
Gefahren
##row
gebraucht
##alt
Riesenslalom
Allee
Ville
Mantel
Schweizerischen
##fassung
##orte
Laufzeit
anschließende
Ernte
##my
Tee
spezialisierte
##verhältnis
Substanz
##wil
Pre
Marokko
##ätzen
Einweihung
Bürgermeisters
Bush
##mie
##dar
Genres
australische
Persönlichkeit
Nordischen
##SA
Verwaltungsgemeinschaft
##ungs
Leiche
Achsen
Ähnlichkeit
sportlichen
##kas
Landeshauptstadt
##meter
##ede
Zink
Realschule
avancierte
Gitarristen
##turnier
##ildung
herangezogen
Tabellen
beeinflussen
Unterfamilie
Ban
Menschenrechte
##eri
##bal
Anklage
Caroline
Ionen
##tas
praktische
begab
Minden
Masters
zeit
Emeritierung
Flugzeugen
##ichtung
Kaiserslautern
Bergwerk
überquert
leer
Erzähler
Läufer
##ragen
fein
Kommunistischen
##rahmen
angetrieben
Boys
behauptete
besiegt
gefordert
Magdalena
Ernest
##verbindungen
Ir
ordentlicher
Schützen
Bedingung
##tedt
WDR
Fire
Bestehen
##tellen
Beachtung
##eo
##ame
Mitkonsekratoren
Seil
Alpes
gedruckt
philosophischen
beginnend
Run
massiven
betrachten
Erdöl
Einnahme
eroberte
verlieren
##armee
##hart
Metropolitan
##ance
zunehmende
ägyptischen
Haltestelle
##länder
basierte
##chse
einbezogen
Pan
erzielten
Diensten
Universitäts
Schäfer
##versorgung
##schichte
##tze
bestimmter
Rhône
Biathlon
tat
##nin
ihrerseits
Erneuerung
Ausbildungs
studiert
Piano
Grüne
Hunger
Beobachter
Andy
Bauart
##dra
Oberlauf
##α
versteckt
##artige
##ache
starten
Aufsicht
Datenbank
mitten
Bremerhaven
##kunde
normale
gesendet
gotischen
Kolumbien
Markgrafen
Independent
##euer
##ations
Bahnsteig
Aufsehen
Verfassungs
Fresken
Berges
übersiedelte
gelöst
Rechten
##projekt
Over
Linke
##ama
Staatssekretär
µm
##ämter
Pilz
##alle
Rap
unterhalten
##eichen
##ński
Paare
Naturwissenschaften
Kanzler
stärksten
Bewusstsein
Kommunisten
##ė
afrikanischen
##ž
Entwickler
Debatte
Massen
Modern
IG
Tiefen
grüne
Walker
Springer
Oberseite
##ass
genutzten
##uz
##pass
Schönheit
##risch
staatlich
Übersetzungen
##verhalten
##osen
SR
##schiff
##lug
endgültigen
nachträglich
südlicher
Aussterben
##kos
Lig
schen
stattfindet
gesetzlichen
Hat
Auftritten
sterben
Großstadt
gewinnt
Demokraten
##hs
trennt
##iner
verschieden
Angebote
##mon
##ister
gelangten
Repertoire
Befehlshaber
Maryland
Traditionen
Sumpf
Satteldach
##ücken
Blättern
##gebiete
Schmiede
Griechen
vollständigen
Mittelalters
lernen
Bindung
Ad
Nordafrika
Resultat
Europapokal
Wiederwahl
rechtliche
Bomber
##ais
Franco
entfernte
angeführt
Evans
Früh
Musikvideo
entkommen
Rechnung
Anbindung
primär
kostete
Wüste
Kurze
Diskussionen
1775
Bo
Blüte
##organisationen
Prä
##afen
from
Apostolischen
Lahn
Indonesien
stimmte
Filter
Einteilung
Uni
Agent
Schweine
Gehirn
vorkommt
Besuchern
##ex
TH
inmitten
##kademie
ex
Südtirol
mittel
zahlen
antike
halbes
vermitteln
##rock
Re
##wan
Umlauf
Durchschnittseinkommen
##enen
Norman
##usch
juristische
##fi
Überblick
Gross
Coast
##hlen
Informations
##ote
teilen
abseits
Kreuzes
Sud
Neo
Jr
Empire
##nu
Passau
Rosenberg
Exemplar
einstigen
Begleitung
verstorben
1772
##meisterschaft
vernichtet
benutzen
Hauptrunde
Palm
##hoff
##stätte
Trauer
Teilweise
Aufwand
Stadtteils
deutet
Charlottenburg
Track
Erstellung
Parker
Möbel
wofür
XII
Kantone
Fertigung
Tiger
##yi
Houston
##rogramm
gebe
Tagebuch
festgehalten
##hain
Einbau
##ika
Anstalt
Selbstmord
populär
Helene
##yr
Kommunikations
Abzug
zufällig
Stuart
For
Polens
Nieder
Cooper
Aufführungen
##nga
Chan
Bevölkerungszahl
##tung
Valentin
##ziel
Au
Lohn
Dichtung
Deck
##gne
##affen
hölzerne
niemand
Legion
dunklen
durchzuführen
Offensive
##anteil
linker
Kelly
Ba
Bundesländern
Boxer
##bauten
##ary
FIFA
ermitteln
Korea
Zyklus
##hardt
vorgeworfen
aufgeben
Gelehrten
durchgesetzt
Messung
Kant
Avenue
##ball
Comedy
Aufträge
##dung
##keiten
230
SO
Carter
##mitglied
Brenn
Eisenbahnstrecke
##achen
Maus
Planck
lokal
anstatt
einzig
Zuordnung
Sa
##maß
runden
Pädagogik
durchgehend
God
Maul
Streitigkeiten
##tem
Jonathan
dahinter
zehnten
europäischer
Gitter
Second
##laden
post
Nationalspieler
Ralph
##ente
herrscht
Wahrscheinlich
Wahlgang
türkischer
Verträge
vorrangig
Alles
##ohr
Ringer
Ortsnamen
brannte
##achse
oberste
Ortskern
Westküste
Vorgang
weichen
silbernen
Stralsund
##pflicht
Quartett
Lech
Baus
dünn
Ryan
Wenig
Genua
Ju
montiert
privat
Atom
##rben
Zeichnung
lateinisch
freigegeben
Unterrichts
königlich
Landung
direkter
Feste
Engagements
Konkurs
Quer
##rna
Orientierung
Wettbewerben
##ute
UCI
Auslands
ragt
Lebzeiten
Gewässern
Spanisch
Klosterkirche
Empfänger
##pielen
##eter
bayerische
Volker
##systems
analog
Ron
archäologischen
schriftliche
gewertet
##zu
gerichtet
Jeff
besuchten
Juristen
Reparatur
##tzer
Ehre
Sitzen
##äumen
##lers
Synonym
##alis
ost
Stimmung
Überwachung
Schulz
Dorothea
gestalten
Noten
Kirchengebäude
geführten
derart
Statuen
##tage
Meta
1776
gerechnet
ausschied
Places
Französische
##ügel
romanischen
Quartier
Kommissar
Bull
Ata
königliche
barocken
##therapie
1782
##ese
wohnt
Lehrerin
Fernsehfilm
##zell
##scha
##org
Bel
romanische
##zeichnung
##management
Hitlers
Double
Mozart
fern
Wiederaufstieg
wechselten
Sprach
##aße
##via
##zin
Umstand
zeitlich
Verbraucher
##yan
Kalten
vermuten
##bedingungen
Drachen
Canadian
Delta
##tig
ernähren
##rz
Sub
MC
Protein
weitergeführt
individuelle
einsetzte
Produkten
Klassenerhalt
##zimmer
nord
CE
gelben
abgekürzt
Raymond
BR
Hauptdarsteller
Automobilen
Alb
##én
##gehalt
##krise
##kar
Abwesenheit
berichten
##ott
##ico
unserer
##kte
Verschiedene
Raupen
Oberbefehlshaber
##rde
##gewicht
offs
kurzfristig
Allgemein
##trom
Louisiana
wohnten
Publikation
verwickelt
Restaurants
##truktur
##sst
erlangen
Entwürfe
kommunalen
Geometrie
Pensionierung
Gerichtshof
Interviews
Boeing
Mast
Boots
kritischen
##å
##iro
schräg
Limburg
Ausschusses
Witt
Linux
rechter
Dam
##hus
Shin
moderierte
Tank
Preisträger
Veranstalter
nannten
##chel
theologischen
anerkannte
fehlenden
gestrichen
Freitag
Challenge
Fachhochschule
stiftete
##wen
Rückstand
##uern
##orum
##sko
##alten
##bro
Silver
##piele
verbracht
##ü
##auen
seltenen
sportliche
##ato
Mur
formal
Kurve
regierte
Talsperre
Schlangen
interessierte
Spree
Nationalrat
Instrumenten
##ruch
##win
1777
Ohren
repräsentiert
Pseudo
Engländer
Augsburger
##hafen
schlagen
erlassen
##ppe
gewährleisten
RS
Heimspiele
Contest
##figuren
##boden
Weltrangliste
##behörde
Vertrauen
Orange
Börse
Salvador
Development
angeklagt
Mare
Sorten
Pension
gewährt
SI
Ethik
Industrialisierung
Republikaner
Madonna
hart
Autors
Autonomie
Konfession
Hy
Finanzen
Austin
Konsul
angefertigt
Koordinaten
Engineering
Ari
##lte
Privat
##TA
Fernando
Billboard
##ystems
Santo
##haltung
##ram
##ax
Lac
Hub
Erd
##iegen
Alabama
Set
##ohn
trennen
Rechtsprechung
##händler
Morris
Aussicht
Adolph
öffnen
wiedergewählt
Vorarlberg
Bisher
##rke
Ca
Algerien
VEB
fehlende
Moon
##qualität
beruflichen
höchst
Spezial
EN
Zentren
MP
gestanden
Homo
Beratung
Maßnahme
##eisen
##lien
Marshall
Treppe
Regisseurs
##eide
unterzeichnet
Hexen
Gutachten
Regierungen
##ela
intensive
Stiel
##truppen
enden
Triumph
erbauten
Verarbeitung
liberalen
gelblich
Gary
verlaufende
siedelten
Weltrekord
Bundesministerium
Unterart
Stifts
gotische
steil
Marktplatz
Eisenach
Wahlperiode
##let
scheiterten
deuten
Alaska
##00
Tochtergesellschaft
Halt
Uhren
scheinen
off
Kurse
##dern
Erinnerungen
Baker
##ars
Liebes
teilgenommen
reguläre
Hell
tausend
gewährleistet
Oregon
##shausen
Gottlieb
Mess
Gemeinschafts
Abschied
##kus
scheinbar
##front
Zentral
dick
Gelegentlich
kürzer
Vermögens
glatt
Statt
Slowenien
##karriere
Zagreb
Survey
fusionierte
Spar
##zentren
##wege
inspiriert
Herstellers
Pfarre
##lau
herzustellen
Northern
Italiener
Balkan
Stapel
Sri
Messer
Ji
Vertreibung
Mannschafts
Demnach
Vogt
Sinfonie
PA
##inseln
##cu
##isches
Tante
Segment
##eu
Höchst
##hauses
schlechter
Terror
Asyl
zuständige
Franchise
Forstwirtschaft
angelegten
Sven
##wiesen
##luss
Yu
drohte
angelegte
Rückgang
Niederlassung
Stadtbahn
anfänglich
Privatdozent
650
Gerade
Räumlichkeiten
Offenbach
Mut
Ballett
1760
Grau
Schaffen
Weiterbildung
widmet
Men
Dekanat
verfolgen
Gewerkschaften
Übergabe
##ener
Weltraum
gefasst
Medium
##rode
Kriegsdienst
Ian
Glockenturm
erweitern
Rinder
##sar
Dallas
Müll
##igung
Krim
wachsende
Emanuel
##ö
##oll
mein
Katholische
herausragende
Westfälischen
Oswald
übrig
vereint
flog
Kapitulation
Geologie
geeigneten
Multi
Gärtner
##ther
Wintersemester
Besondere
##waltung
Proben
Neffen
ME
Vergabe
Gewebe
Belle
Stirn
Crew
diplomatischen
1100
verheiratete
##orschung
##wi
Aufsatz
##pp
##dichte
falsche
##struktur
unbedingt
Schiefer
Anker
135
gezielt
Mar
Fehlen
Schallplatten
Kirchenschiff
Jay
Elektronik
##lassen
Electric
Millimetern
Thompson
##gerät
technischer
Wu
##leistungen
Kosovo
Heu
Wang
Referenz
##zig
online
besonderes
1778
Statthalter
Dirk
wörtlich
Massaker
##hon
Pilger
Echo
Joan
Elster
DR
Baudenkmal
Pietro
Lars
Yo
Schwer
Eddie
Book
Aspekt
via
schrittweise
Studies
Kreisstraße
##uten
##gy
wiederhergestellt
erringen
Spanischen
Gil
Berkeley
##iff
eingebunden
einander
behaupten
Administration
Chu
Agenten
Zeilen
XI
##eum
##eise
Magister
kombiniert
Agentur
Schalt
Bordeaux
##nko
beibehalten
##ruck
letztere
##brunnen
schmale
Cousin
Bänden
Let
Fracht
Alois
ur
bemerkt
##kov
##fisch
gesucht
##til
Vorder
gesagt
Malaysia
##tia
Nachbar
aufrecht
##lände
Batterie
initiierte
weitestgehend
Brooklyn
Bekannte
Bunker
emigrierte
Miguel
westfälischen
##nds
Vereinbarung
##sy
verehrt
Anpassung
olympischen
MB
Kommunen
Protokoll
##ationen
Campbell
Alternativ
Schuh
Oberschule
zweigt
zurückgekehrt
##fel
Sogn
Designer
##gkeit
beschäftigen
DG
Datei
Augusta
betrifft
1763
Umgestaltung
entscheidet
Hauptwerk
Filiale
zweitgrößte
ehemaliges
digitalen
##serie
Gesundheits
niedersächsischen
ES
sozialistischen
Gedächtnis
gesundheitlichen
Journalistin
Tai
MG
Lob
Gilbert
Aue
##lten
öffentlicher
Tele
Engels
##ndung
grob
Wo
Parameter
ausgeliehen
##xi
##xa
Mittleren
Mitglieds
##ob
wahre
Freiwillige
##ater
flache
Thriller
stattfindenden
Fotograf
Neuordnung
Historischen
benötigten
Ansätze
##mund
längste
Islands
Stan
##nst
einheimischen
##rates
Sal
Richtlinie
angewandt
bricht
##prinzip
Network
##verbot
##lächen
Menschheit
verdient
eingeleitet
Ruder
Nahe
Gouverneurs
##lösung
Slam
weltweiten
Geistes
Rekonstruktion
derartige
Vorgaben
##gesetzes
Forschungs
Freistil
treu
verzichten
Dar
langjährige
Nationalparks
##ahr
Zimmermann
##produkte
Muslime
114
1740
ähnlicher
Passagier
Fonds
Frey
##rien
Labour
Ya
Ensembles
Käufer
2000er
##ias
1774
Schriftstellers
Augustus
jenen
Herzen
Empore
betriebene
Magen
Ch
Stadtgemeinde
renommierten
Gottesdienste
Saarland
Bonner
Belastung
##etzung
Münchener
sche
Österreicher
Ortsgemeinde
Darm
##bergs
Gift
Shu
Cape
anzunehmen
Wochenende
betonte
behalten
Stuck
Semester
Siedlungs
Command
Betrachtung
herrschte
betraut
##assen
Oberhausen
##uth
Petra
##jäger
MTV
##verordnung
alliierten
Dessau
Rückrunde
Lichtenberg
digitale
##ür
geschehen
Demokratische
Betten
befreundet
Erscheinungsbild
Erwartungen
Diktatur
##eus
Glen
##air
ibn
stellvertretenden
ausgegangen
aufgegriffen
Wissenschafts
Karibik
genutzte
Spitznamen
Außen
verhältnismäßig
thematisiert
Unterbrechung
Abfall
ständigen
Cleveland
forderten
Venezuela
Gründungs
Grundsatz
vollzogen
Anhängern
##strom
Solar
##lock
##dem
verschwand
Fachwerk
angebunden
Vi
Salt
Rallye
Ku
heutiger
##ä
##worth
Zonen
Trinkwasser
##förmige
Sätzen
Schul
##nna
Zeitungs
überarbeitet
kinderlos
Umbauten
Unterlagen
Ingolstadt
##wirkung
ausgespielt
Ol
Frühling
Diagnose
##walde
U20
geführte
Untergang
Klassiker
Berlins
Zahlung
Inbetriebnahme
Kameramann
##ommen
Börsen
##zan
übersetzte
Schreiber
SL
Betrag
Manhattan
komponiert
protestantischen
FM
##rbeiten
##pflanzen
Vegetation
Konvent
Fuße
praktischen
Professorin
Häfen
Herausgabe
##linger
##dal
##nach
fungiert
Brothers
Bowl
##tau
Alma
##achsen
Mo
##fo
Begriffs
beschriebenen
Field
selbständigen
erwarten
Verhaftung
##rund
sowjetischer
To
Nazi
gerät
Sattel
##cki
norwegische
Duell
113
##tone
Motorsport
Winterthur
Vorwurf
erteilte
Kontroll
Casa
##ado
##nas
schafft
erkrankte
Russisch
##fuß
Gemahlin
folgendermaßen
##dis
Nil
Barry
up
Reinhold
##öfen
Dimension
##pu
Verbandsgemeinde
##einrichtungen
Fürth
Cole
runde
1773
Segel
Minderheiten
Enden
##stil
zivilen
belgische
Umstände
Rhythmus
Mixed
Angestellten
Flüssen
internationales
Innen
##rig
verlangte
Fett
ST
Konsum
Robinson
Munition
verknüpft
Göttin
##tto
Alltag
Wol
Ronald
##fahrzeug
Werden
Gebirgs
geheiratet
Systematik
##rger
##hy
verfügten
hinauf
Gehalt
Armut
unmittelbaren
Sportarten
nachts
kostenlos
Schwimm
widmen
Nigeria
##ensis
##ossen
Botaniker
angegliedert
wechselnden
inner
bauten
##freiheit
XVI
Warner
##lands
Schlachten
Territorien
Wasserstoff
Staatsstraße
Klagenfurt
Anliegen
kaufen
erheben
List
Heft
Are
Kaplan
BB
Kate
grundlegend
NA
Dream
Matthäus
Bibliotheken
Organe
Fahrten
Lust
GB
##eien
Swiss
Girl
zeichnen
##etten
Widerstands
##sie
Konzentrationslager
##out
##decke
##nlagen
##analyse
rechtzeitig
##ilm
##fu
Warschauer
##inn
zwang
beachten
Zugriff
Indian
drittes
Ivan
komplexen
heimlich
Konvention
Anschlag
entstammt
1781
Gesamtfläche
Leinwand
Samstag
Ja
Vulkan
Vierer
reagiert
Herman
##ammlung
ma
Martha
##waren
offener
Bezirke
berühmt
##oten
Wayne
##eder
sechste
Sant
##eid
legten
##able
##ib
ändert
verwechseln
engeren
March
Sekunde
umfassend
anerkannten
##nter
Instrumental
Ried
unterhielt
Taunus
Arno
IN
Wachs
Humor
##aro
Gedenk
##äufer
##tat
##tive
unterstützten
schlechte
Denkmalpflege
##feuer
verändern
Murray
Kies
Republikanischen
Theologen
abwechselnd
portugiesische
Luigi
halbe
Kanals
hervorgegangen
elektrisch
##verteilung
Prosa
##enge
##bra
Voll
Ko
Jason
AM
Staatsbürger
Nancy
##schlag
Your
Gleichung
Fortschritt
berufliche
Marianne
##ill
TA
späterer
Biel
schmal
konkrete
##motor
Homburg
##ě
Wenzel
Folgenden
##uli
reduzieren
Verwandtschaft
Tommy
Services
Jonas
auftritt
trockenen
Franziskaner
CF
##arm
Filmregisseur
Säule
Abschaffung
einheitliche
Richtlinien
Englische
Bas
Kelch
Einwanderer
Shi
Isle
reformierten
Commission
##eb
mächtigen
jüngsten
anwesend
Mari
Zinn
##ester
##transport
##lf
Flandern
Ackerbau
Plastik
Ethnien
##tions
##ita
deportiert
Aufteilung
weswegen
Utrecht
Hohenzollern
Blasonierung
Teilstück
Mir
Garnison
Bobby
jemand
Volks
Seoul
##house
Heart
hilft
Wrestling
Jochen
##qui
gültige
individuellen
Sind
verkündete
Organist
Großherzogtum
##een
Werder
##glas
Lords
Begleiter
##е
stärkere
Schuljahr
Erdgas
1730
gegenseitig
Hörspiel
sonstigen
Hirn
hängen
Leichnam
Birmingham
##charakter
2500
##ners
Iso
feststellen
Verse
militärisch
Linken
Hansestadt
##inie
hob
Schau
Liedes
##ws
durchführen
Guido
##marke
##cz
fehlte
Verwaltungs
hörte
durchgeführten
Experimente
Alfons
ober
geringere
bemüht
Way
Geschmack
Pauli
Kaliningrad
Griff
unbekannte
##gl
klassifiziert
solange
Kong
Jubiläum
Beurteilung
reiche
früherer
Weide
gelassen
Spalte
Spa
Rundfunks
Innenminister
Gütern
Xi
Sammler
Google
##vogel
##ieb
Fu
abgetrennt
Intelligenz
##fte
##eins
Eifel
Bär
Mittelfeldspieler
##lügel
Knie
weitaus
fünfzehn
##ila
Ter
Arzneimittel
##ques
Year
Großer
Alberto
Nieren
Vorwürfe
##pin
##inden
RA
Besatzungszone
1779
nacheinander
Bang
Gerechtigkeit
##masse
schöne
Oberen
Zuerst
Herzogtums
##ban
CP
au
##fahrten
Wiese
##höhle
Aachener
senkrecht
seinerseits
Gesamtlänge
##unktion
Schumacher
akzeptiert
Tobias
Ostküste
Arabien
##öffnung
Vision
##tiv
##ood
##iegel
550
Zwickau
Piraten
wiederholte
##ühl
##versuch
Bolivien
Phoenix
Br
##por
##rohr
##offizier
gutes
Ältere
spezifische
Wahlbeteiligung
AP
##ν
##inge
tatsächliche
denselben
Gummi
Atlas
##ware
##szeit
##lig
Mali
Catherine
Beamte
einzusetzen
Gerichte
Low
Joint
Chinas
konstruiert
AK
Jungfrau
AN
##deutschen
evangelischer
Projektes
erstreckte
Schwager
Machtergreifung
##qa
leiten
orientierten
gedeckt
Orient
210
Bahnhöfe
hindurch
Versuchs
Ward
Anzeige
1648
##lat
Boulevard
Potential
Elb
Nerven
Landschaftsschutzgebiet
##ktion
Stifter
##pol
Nam
##dl
Werkstätten
Lie
Classic
Italia
Event
Gruppenphase
Gemeindeverband
Handschriften
Etappen
betrugen
Seattle
Moral
Zwangs
Zensus
Symptome
kommerziellen
Wehrdienst
Teufel
Ni
Sehr
Project
##eer
Auswärtigen
verbringen
beschränkte
bewarb
Betrieben
Nations
Ehrenbürger
Einzelnen
Lima
Venus
Brandt
Gedenkstätte
Bud
Amphoe
Portland
Audi
Meisterin
Detail
##gger
Theaterstück
Take
##rsch
Situationen
Druckerei
##ront
verringert
gegenüberliegenden
existierten
Sicherheits
Haare
##ju
Pays
##its
heftigen
Eingangs
Helen
##änden
##vor
jenem
Vereinsgeschichte
DE
##oro
misst
##nkt
CV
##iri
versenkt
Großmutter
Kirk
Gedenktafel
verlängerte
Kamp
it
Auftakt
kontrolliert
DA
Transfer
Logistik
Geschehen
sprachen
Mitwirkung
Knapp
Kirch
##chau
##how
Trend
Schauspielhaus
Natural
##dien
schwarzer
liefen
Bristol
Su
Unterhaltung
##bilder
Bann
Bienen
wöchentlich
Stickstoff
Kuh
Sony
##reihen
Claudia
Regierungsrat
Löwe
CR
Leitungs
Geschoss
##dol
KV
Stützpunkt
ausgegeben
##bury
gelbe
Rangers
Agrar
Kasten
untersuchen
Märtyrer
##ș
##lasse
Burschenschaft
Gertrud
##zonen
Erzeugung
##rden
Modernisierung
Ain
lernt
AE
entnommen
Viktoria
Violine
Vegas
Nonnen
Föderation
Geschütze
##älle
Autonomen
Mono
Expansion
##pi
Schmerz
##irchen
Trophy
Nor
stellvertretende
##igur
XIV
Community
##ø
Scheidung
GS
##hörde
Widerspruch
Geburtsort
Race
erfordert
nahegelegenen
##yp
nebeneinander
##ct
##az
Ralf
Hyper
Vieh
Staatsoper
Jüdische
Wright
##orchester
##meyer
Anden
##eile
##bre
vereinbart
Henning
##olt
##gte
Überzeugung
Roche
Investitionen
Kohl
MI
Förderer
##oberfläche
128
erlitten
##hre
##wort
Förder
##konferenz
gewählte
Mohammed
##äger
Baudenkmale
ben
FIS
Abel
##chtung
Leonard
ne
Dutzend
##tro
##fragen
erlauben
##dit
Vierter
Termin
##truppe
bezeugt
exakt
Falter
Zauber
Revision
Quell
Dreh
##ness
Studierenden
Leverkusen
Dead
böhmischen
Göteborg
konzentrieren
Beamter
warten
##schaften
Fehl
Auftraggeber
männlicher
Suizid
Markgraf
##mel
Japaner
Experiment
Armutsgrenze
Alexandria
Kopie
Gedenken
VW
Differenzen
190
Giro
steigen
angesetzt
Gala
erregte
aufstieg
##ele
Breiten
Qualitäts
umgebenden
Konzil
Hardware
##aner
Rick
Hansa
Anime
##wellen
verzeichnen
Jerry
##gericht
Sar
Grundstücke
Gespräche
Libanon
seitlichen
Saudi
Ida
w
Pay
hervorging
Revier
Booten
überlebte
Margarete
Dennis
##rweise
Görlitz
Grimm
CC
besagt
##räumen
Umstellung
260
##eiben
verfilmt
tödlich
Sten
Landeskirche
Guts
Substanzen
ordentlichen
Fenstern
##sches
argentinischen
inter
Dachau
Heimatland
Dateien
##ský
##kau
getestet
negativen
Os
Erlass
Harold
Bestätigung
Radsport
geeignete
Generaldirektor
Erfolgen
niedrige
##chsen
Garden
verdrängt
Zwischenzeit
gelesen
Gefühl
Woll
Rettung
Elefanten
Backstein
Vermutung
mi
Philipps
meine
Burgund
Stängel
kannte
Vera
##sgesetz
##icherheit
##siedlung
##lls
##kamp
Materie
Gesangs
##fluss
Neues
Landwehr
RB
FPÖ
##kräfte
bearbeitet
Zeile
Primera
Arbeitsplätze
##verlust
Auswertung
vordere
Hudson
Bahnlinie
##aki
serbischen
Stich
Mitarbeiterin
Jugendlicher
##kum
nachfolgende
Jules
Wichtige
Hass
SF
GA
trocken
Lehmann
Astronomie
##test
Tu
Störung
Historische
Gunsten
##red
##konzept
Geschäftsführung
bezahlt
be
Weihe
verwachsen
Fang
Dre
BC
Break
##reifen
Susanne
##iz
dementsprechend
Zeitgenossen
jemals
spitz
##awa
folgend
##ret
##rne
Fahr
Bronzezeit
Sabine
Verstärkung
basierend
Lüttich
##bu
##abe
pfälzischen
echte
zerstören
getauft
Ermland
##ER
Peak
##richter
entzogen
dei
Pelz
sozialer
Ware
Stalin
Dokumenten
##lio
Mara
Prof
Hansen
sexuelle
Hunter
Fundament
Stätten
##aka
Ellen
Heilig
Globe
Kirchenbau
Blind
App
Villen
Normal
Ligen
##division
Valencia
Steven
Luxus
##cio
Erfüllung
Valle
Ostern
Din
1720
##tzt
SB
Krater
Zwölf
Fernstraße
Landau
Ki
##gue
Eigen
##oper
ausgehend
dreizehn
##bein
##twicklung
bekanntgegeben
angeordneten
Landkreise
Konzepte
Einmündung
##wall
Reporter
professionellen
jung
Bros
gewordenen
Vetter
##ping
##gar
Dun
##uder
singen
Sektor
Röhren
Maas
östlicher
ausgetragenen
Medal
##ali
organisieren
Nachkriegs
Grammy
ausgedehnte
eroberten
Aussprache
##ausschuss
veranstaltete
umso
Bra
ausgeprägt
Hi
Chur
##pan
massive
##ces
GG
zivile
Po
##häusern
1768
##ë
##haupt
Fußballer
##bauer
empfohlen
BS
##handlung
6000
##uma
María
Lebensunterhalt
Helena
Baseball
##nos
alljährlich
Kinofilm
Hör
##ften
gern
##arkt
indische
explizit
Präsenz
Niederrhein
Radar
Nutzungs
##mis
geographischen
Misch
##ege
ausgehenden
Wasserversorgung
Rakete
Ludwigshafen
dunkle
Rico
##ito
Bezirksamt
zugehörige
##ube
modernisiert
geprägte
kaiserliche
Lutz
Franziskus
angehört
Gefühle
Aktuell
lobte
Rippen
ähneln
##jagd
Dal
sinnvoll
##mme
Hofmann
Wolfsburg
##förmigen
Emden
Channel
Klammern
##register
lehnt
Vorgänge
unternommen
Toni
Petri
Ny
##ima
fasste
Gewichts
##lter
fördert
Muhammad
Village
Sozialistischen
ABC
weiterentwickelt
Yi
deutlichen
Ebert
Liberalen
##lde
Ortsrand
##ij
Proteste
Wal
Mehrzahl
heimischen
Romanen
Materials
zweit
amtierenden
Aufenthalts
orange
##korps
##aler
tätigen
betreten
##ré
Strahlung
Empfangsgebäude
Tenor
Nichte
Gesteins
1765
##ilder
Haller
Filmmusik
Qu
schweizerischen
DP
Castro
##court
Benzin
Rob
Pfarr
Flüssigkeit
##horst
##rts
Japans
umge
Medical
Geschichts
Lieutenant
Eurovision
##ili
steigern
klare
Krefeld
wohnen
Schmitt
Bewegungs
##forscher
##ò
ohnehin
Magdeburger
##nan
##ope
##heiten
Oklahoma
Kurven
Asche
schwierigen
gemeinsames
Wachstums
Thor
Vermont
Spin
Landtages
steilen
heutzutage
gewonnenen
Neuere
Beinamen
Roberto
Hugh
Nouvelle
##oa
gefüllt
Mae
täglichen
RAF
Cricket
##nig
Å
wirft
benötigen
Buslinien
##änderung
##partner
Names
Folter
Dra
Berichterstattung
##ichten
Dy
harten
extra
Heine
##ík
##temperatur
##das
Objekten
Hu
Dean
zugerechnet
geistlichen
ap
##wal
##lach
gelebt
Bretagne
##die
süd
finanzieller
##bacher
sub
##ield
Präsidentin
##güter
##asen
Strahlen
Galaxien
Feldern
Toulouse
Brünn
Aserbaidschan
##eier
Zaren
Kr
angezeigt
##ändler
Hel
Flak
##brand
Side
Anschlussstelle
wechselt
Huber
Quadratkilometern
industriellen
Erschließung
##mpf
##aux
quasi
##tunnel
konstant
zentraler
Tibet
wirkten
Zeuge
##jährige
bewahren
Pater
##block
gerecht
GE
gelistet
interne
Porzellan
Flieger
Kunstwerke
weißer
geschieden
gesetzlich
Import
wanderte
Dakota
verkehrten
Masuren
Ing
Anregung
ar
sta
vermieden
stattgefunden
280
Taler
She
hölzernen
Käse
Begleit
griechischer
anschloss
##ink
frühzeitig
Verbindungs
Nickel
Tell
komplexe
##tu
versorgen
beweisen
More
Kle
Geistlichen
##räger
##bin
Leuchtturm
zugeschlagen
Zeitalter
flankiert
Resonanz
Geographie
320
erforscht
##sal
Städtischen
ED
verteilen
Buddhismus
Baltimore
Platzes
lutherische
Ludwigsburg
fortgeführt
Aristoteles
##gebieten
##volumen
Most
Abständen
rechtlich
Torpedo
gebräuchlich
Taufe
##num
Blech
Zivilisten
Private
Abgeordnetenhaus
##lik
Explosion
Empfehlung
##üter
weigerte
reagieren
holen
Born
gegenwärtig
vorbehalten
umgehend
niedrig
Ast
Steinkohle
singt
eingeordnet
##iehen
##ati
Kongregation
Rod
##not
##flügel
vollen
Examen
Meier
ständige
bulgarischen
Religionen
Montana
##dos
Jubiläums
Monster
Fossilien
Benutzung
##eam
künstlerisch
Referent
##king
ku
Stadttheater
Modells
##RA
schildert
gegebenenfalls
Sha
Ausläufer
##ssung
##rl
##eni
richtige
Steiner
##partei
##mu
##arbeiter
##aktion
Schönberg
Freistaat
Turbo
1753
echten
bevorzugte
beruhen
Fachzeitschrift
##ê
vermarktet
Jährige
Tallinn
Tabellenplatz
Pod
künstliche
Limes
massiv
Habsburger
Gesamt
Bohr
Lau
##ziehen
Skelett
1771
##heorie
##becken
bewirkt
Labels
Geiger
1756
Ökonomie
Auslegung
##uchen
Ü
rechteckigen
konkreten
##dler
verhinderte
Flut
Landshut
Pittsburgh
##tück
##eine
estnischen
##eth
beeinflusste
Parade
Belege
##bet
##versammlung
theologische
##mas
Alpha
##ffe
Grey
selbstständige
##bachs
Verzicht
Muttersprache
Vorwerk
Nachteil
Mütter
Knight
Provence
Kongresswahlen
Caesar
Halb
Dreieck
Rheinischen
Betroffenen
##sz
begeistert
Kurzgeschichten
Filialkirche
Arabischen
wertvolle
##istisch
beschließt
##macht
##ales
Mikro
Britischen
Arbeitsgruppe
zuzuordnen
Spital
Muskel
Altona
teilzunehmen
##förderung
Blitz
Anhieb
Motiven
AF
Heiden
##ügen
Baptist
AV
##amm
1715
##zahn
Lehm
##sia
erstellen
Lehren
ID
empfahl
Reife
Lambert
Container
Clan
Ankara
Signale
##iet
verursachte
denkmalgeschützte
##tiere
unbe
trans
Leiterin
Erwachsene
isoliert
erforderlichen
Rundfahrt
Christina
##iat
Doping
fühlt
Verzeichnis
Taschen
Profit
##oth
##rische
beigetragen
Gros
Dorn
Schritte
Kristall
##о
##gu
α
verstand
##oss
Überprüfung
eingesetzte
Querschnitt
Freude
IM
Außerhalb
Horror
##ña
su
indirekt
Kommentar
Handschrift
Vorstadt
Farmteam
CI
Bestandteile
##institut
KS
Gasthaus
Brad
Terminal
längst
charakteristische
Mega
##bücher
einsetzen
Wurf
definierte
Winters
beseitigt
Mitherausgeber
Aero
Analysen
schönen
Reit
HA
Leidenschaft
Grabungen
Benediktiner
abgeben
Symbole
Klassische
175
natur
Lichtjahre
Geister
blaue
Michail
fester
ausgedehnten
##äden
genauen
Atlantic
Radstand
Bestrebungen
Ausmaß
##zeug
Stände
Quadratmeter
1650
Treibstoff
Pfarrers
Grafiker
##anbau
Überfall
Waldeck
Pau
Futter
Sprachgebrauch
Quadrat
Odenwald
geringeren
Geräten
Drucker
##ante
kommerzielle
##minister
Vila
Kirchenkreis
##mir
##halt
1769
Rasen
Var
Nu
Inner
Binnen
Kir
Shakespeare
Mehrfach
Gefangene
löst
einheitlich
Kunsthistoriker
geworfen
Rou
Betriebssystem
##raben
Vorfall
##non
Lade
Gestein
##stoffe
listet
Udo
Sim
Geburtsstadt
Evolution
Beteiligten
Verwaltungsreform
PR
jetzigen
Taten
Maßstab
##eau
Hauptartikel
Germain
Ak
##stin
tschechische
bildenden
Henriette
Anhöhe
##ond
##freie
stärkste
##ington
Messungen
angehören
Landsmann
dato
Yale
Herzegowina
ältester
Songwriter
Jurastudium
Ana
Ves
Linde
Poker
Kammern
##tri
Tochterunternehmen
Blood
African
##isieren
##branche
##ç
##reisen
zusammengelegt
Kō
Längen
Hasen
Gegründet
systematische
hinterlassen
verkehrte
Mariä
Bir
sonstige
Polar
Geschäftsmann
Bemerkenswert
Jin
Jupiter
Sachen
Entwicklungs
annehmen
Kompetenz
Feinde
XIII
Ortsteils
Kanadier
Ergebnissen
##chlag
rötlich
Hinrichtung
BP
##örderung
##mans
Stabilität
zukünftige
Paket
##rats
Rügen
Mindest
Sigismund
##organ
##hel
künftig
aufgelegt
Weiher
Pulver
Nar
theoretische
entstehenden
Rain
Maurer
Iron
Einschätzung
CM
öffnet
Russische
##ruf
Beliebtheit
desto
Notre
arabische
Burganlage
Osteuropa
Schilling
##ás
akademische
Basler
##eta
Verschluss
überwinden
vergessen
Plus
Höhenlagen
Lena
##talbahn
dänischer
Säkularisation
professionelle
Härte
Staatstheater
Link
##owo
##ique
##var
Swing
Hochland
AR
##iers
##alität
zukünftigen
Mähren
Kre
Who
##listen
veränderten
erlebt
Kritikern
Geschäfts
FF
Kredit
Thai
Adrian
Unterhaus
Cook
Flaschen
Einzelne
##post
##erger
Übergangs
einheitlichen
Treffern
verkürzt
Aufsichtsrat
850
insofern
##stik
kommende
Tarn
Bürgermeisterei
Cornelius
##è
geschützten
Erweiterungen
CDs
##bek
Eger
Yan
Papa
##ndi
Pit
Waldgebiet
##quote
systematisch
Regimes
1680
Moos
Ideal
##wind
##meisters
Schwefel
##geber
slowakischen
##yu
Leine
##literatur
##etrieb
Reichstags
Hedwig
Autorität
vergrößerte
Vil
Cups
wusste
Fauna
Bert
Flotten
Besonderheiten
messen
Breit
tötet
alternative
Rein
Geheimnis
##pt
##laufbahn
##hle
Wolfenbüttel
##omi
Population
Kali
Gerald
schlicht
Total
##hung
bereitete
Mora
Fahrbahn
Birken
##tos
##ema
Vorlagen
##enster
##dorff
richtigen
Innenhof
Tauch
Beer
##orten
Schwäbisch
Manuskript
##gänge
Schema
Terry
Celle
Bautzen
jegliche
##Ö
##DA
StGB
Prüf
Angela
Komitees
Kenia
Kommandanten
überschritten
Steigerung
Atem
Biographie
##ütte
Schreib
##nice
behandeln
Alm
Schub
Lava
##vermögen
unterschied
vergab
höchstens
ansässige
Page
Schubert
##ands
Karlsruher
durchfließt
Schnecken
Pier
Braunkohle
##posten
##schau
reduzierte
Zuständigkeit
Wuchshöhen
Berichten
##nat
Tar
##vorkommen
tatsächlichen
osmanischen
Zensur
Helfer
Privilegien
Mel
Kohlenstoff
geschmückt
Treue
NSG
si
Wahlrecht
Fi
Rudi
Monuments
freigelegt
Sergei
Kaliber
para
Organisations
klassischer
FS
##pflege
Apollo
Bock
Hampshire
Eastern
Waldes
##hafte
byzantinischen
##IS
langem
##este
##anischen
fränkischen
##könig
Attentat
Observatorium
Med
Köhler
Bezirksliga
Täufer
internen
Sauer
Sevilla
Rich
Bitte
##sti
##saal
Investoren
quadratischen
Raumfahrt
Canal
Burgenland
Verbündeten
##has
Laurent
Sprech
nah
Mittels
##gent
vierzehn
Wohngebäude
fassen
Fluggesellschaft
Berthold
##nica
Wei
Scheitern
Korb
Julie
##lot
##allee
Ergänzung
##achs
Himmelfahrt
Gastprofessor
Realisierung
##ao
Stile
Leuten
1766
Dekret
dich
ni
Gefäß
IK
##rup
##hai
Beitritt
Cinema
##kurs
BV
allesamt
Kontrast
ausgetauscht
Albanien
Mill
Freiburger
1525
##ift
gestalteten
##stische
##tl
Hauptgebäude
##rken
##aja
charakterisiert
Verb
Championships
##nti
Unglück
Staub
Schlucht
Lund
durchlief
Comeback
griffen
Schulgebäude
EB
BRT
##AG
angekommen
Zivil
Pat
##trakt
##essen
integrierte
Tendenz
Eich
Berufs
##nta
Schar
Option
##OS
##ust
Image
##ān
entdeckten
Vokal
Beethoven
amtlichen
Wüsten
Sparta
Warren
Nationalstraße
Flammen
Lorenzo
Geschenk
##gio
Oster
nachhaltig
geformt
Marktgemeinde
Peer
Fleck
Mexico
##ahlen
Weihnachten
Triathlon
Ras
NASA
Divisionen
Privatbesitz
Oberlandesgericht
forschte
Ausführungen
##ury
Aufklärungs
##ßt
TuS
Mythos
Gips
Egon
Bon
1755
gescheitert
Titelrolle
Kühl
EV
zurückgeführt
mathematischen
270
Ve
Publikums
Mid
Leer
Katastrophe
Stau
##nel
zurückzukehren
Viel
##mos
Ringen
Grundstücks
##nier
absteigen
Eingliederung
Sul
platzieren
Miles
schätzungsweise
Stark
Radrennfahrer
Bonus
##feier
Missions
Heimspiel
Weine
Sala
Mülheim
Marschall
Bla
Samtgemeinde
Mathilde
Großraum
Sorte
betrachtete
Regierungs
Glanz
Torf
Vorschläge
Two
1758
Stroh
Cat
##erz
Winterspiele
Namibia
##zucht
persönlicher
Micro
Entwürfen
Datierung
höherer
Part
Galaxie
Leit
Auvergne
falschen
Luc
Xaver
Verbleib
Königliche
Gürtel
##wig
##gemäß
Kru
Dee
Ted
Marion
##eilen
berücksichtigen
MHz
##iges
belief
Salm
1764
hintereinander
basieren
Ghana
Skandinavien
Kaukasus
French
Stellungen
Lehrers
Aschaffenburg
##nka
NDR
Draht
##stück
Fahrgäste
Bundesrat
Mori
Synonyme
Kur
Kleve
##ici
Wilhelmshaven
##ollen
Madison
konfrontiert
Son
Sagen
Nutz
Mundart
BD
##nto
gegossen
außerordentlicher
wirtschaftlicher
monatlich
Weit
##sverfahren
##akt
SSR
Mauerwerk
##asser
vorgelegt
Trikot
Roosevelt
Malerin
Control
trieb
Spätestens
Wolfram
##damm
Durchgang
Just
Betreiben
##streit
##rme
Moses
Filialen
##klassen
##getriebe
plant
Viehzucht
Kongresses
##ätigkeit
Düren
##unk
##rst
Walk
Ausfall
##ingenieur
##gie
Werbe
Schumann
Konzeption
Ermittler
##tellung
reformierte
Ziegel
Lea
Kasachstan
Untertanen
Martins
Fußgänger
Trade
Lands
##tafel
Terra
Verwalter
Torschützenkönig
Gewinnung
starteten
mechanischen
##altung
Justin
Eiszeit
Beta
Befestigung
##politischen
##aceae
rotem
breites
Bella
##kasse
Nahrungsmittel
Entry
kroatischen
##hammer
##lk
verwiesen
sexuellen
1767
Lösch
Gaststätte
Ausbreitung
Mobile
gewordene
Ruhrgebiet
Weiters
Stu
Sportwagen
##eng
Wirbel
Sparkassen
##AC
##ná
facto
Vorwärts
mittig
Merseburg
Gläubigen
##ienst
##rang
Mitchell
Wissenschaftlern
betreffenden
überließ
Mitarbeit
IBM
##gal
Jülich
vollständiger
verwechselt
##position
##akademie
philosophische
Montevideo
Branchen
Photo
Karin
Filmemacher
##stärke
Propst
Ideologie
Gemeindebezirk
##einsatz
Masa
Handwerks
aufgefunden
Weißrussland
Sole
Schenkung
Sau
Marktes
##ph
##ielen
Speise
Osmanischen
Age
ba
Zitat
Wallace
Sing
Scottish
##tums
Maya
Landwirtschafts
existierenden
Reden
Fotografien
Sehenswürdigkeiten
theoretischen
Zustände
Elektrotechnik
##ap
braucht
Herzöge
he
Psychiatrie
Kara
reisen
Stilllegung
##irektor
fünfmal
verwandten
Schön
steuerte
ruft
##antrieb
##tre
glauben
Gleichgewicht
Stre
unsere
Harrison
En
Wut
##hau
Jahrhundertwende
Short
Matthew
Vernunft
Bachs
neuere
angrenzende
##kloster
längsten
##bände
Politikwissenschaft
Rail
Modul
Director
##rbeiter
bürgerliche
Münze
##stab
Unterhaltungs
Spannungs
##olen
verwirklicht
Nina
Hanns
konservative
Rey
##brunn
Monaco
Dai
##planung
##lbach
1762
##kal
heftig
fremden
bewohnte
Rück
##inhaber
Nagel
Berührung
##äufe
Jahrzehnt
Chip
Asteroiden
##bezeichnung
Por
##boot
rosa
Schwiegersohn
Bernstein
Ministeriums
Geheimen
##rab
##linge
Franche
##sam
##osition
Kost
Wirtschaftswissenschaften
Bou
Einstieg
gestattet
##ilfe
##friedhof
Vikar
Schlager
Kay
##nisch
olympische
Jahn
wirksam
Umweltschutz
Artikeln
entfielen
This
Wilhelmine
Con
##egg
achte
Joch
ausführlich
Reliefs
Dicke
##sus
beherrscht
Tischtennis
##gon
begegnet
Sudan
Preisen
Abgaben
politisches
kehrten
Energien
Sp
Landesliste
Kirchenprovinz
##head
Leistungs
##rit
PP
fasst
Lot
BE
Freiberg
##eda
privater
formuliert
Abbildungen
Rudolph
umgestellt
Politische
##studium
##rchiv
Tre
Hanse
##lie
Nau
Augustin
##isi
##gymnasium
Zweit
Buchen
##oc
##ierungs
##flotte
verletzte
offizieller
##kontrolle
Vertrages
Staatsanwalt
Planungs
Elias
##stischen
##besitzer
Susan
Kontinent
Hal
##ija
Sicherungs
Niedersächsischen
##ugh
Sowjetischen
Inventar
geltenden
Utah
Download
Coach
##fort
Wolfs
Verurteilung
Versorgungs
Denkmäler
β
beerdigt
MT
Silva
##runn
##auten
realen
Vertriebs
Lu
##esi
geringfügig
Meiningen
Mandate
Ausschluss
ZK
Hubble
##ght
dürften
Fri
Ce
Austragungsort
gesetzliche
finnische
Kaspar
Geländes
kommunale
Pascha
Isar
##nien
geographische
gebrochen
fließen
Membran
Hain
Blu
##rzt
##nza
Räuber
Rade
Library
##ota
Tin
Angestellte
kennengelernt
go
Deutsches
Ti
vorgesehenen
Unterlauf
Handbuch
Alltags
Volksmund
Rebellion
Europäer
##eno
##borg
begrenzte
##oma
Sol
unregelmäßig
Adi
##örder
bezahlen
Planet
Ott
Isaac
##nov
##gebirge
baut
Bird
boten
Norddeutschland
##Ü
Napoleons
Liebhaber
Ey
##tigen
At
##debüt
Quanten
Kommunal
Etwas
##ï
Wasch
Net
LA
Brauch
Zeugnis
Diana
Augustiner
##chicht
gedeutet
Paaren
##amtes
Watt
##chnik
Delegierter
##niveau
Äbtissin
##freien
bedienen
Gra
anknüpfen
Reliquien
Körperlänge
##waffen
Tempels
Lagers
Chancen
Bundesländer
Angola
Sächsische
Rath
##lay
Passage
Taka
Panama
Antennen
Abwasser
brechen
Asia
folgendes
Stadtteilen
Pflichten
Landesamt
EA
##dom
Hau
Baptiste
Diesem
##inde
entfallen
beherbergte
Uniform
Stro
##direktion
Nebenrolle
Naval
##luft
nachzu
Ka
geschenkt
Zelt
##volle
##vis
Stiftungs
##yama
##tritt
##pert
Tunesien
Vortrag
Federation
endeten
wenigstens
Marne
##wick
##spielen
Neuguinea
Frost
Bul
Plural
##oda
Aviv
vorangegangenen
verfassten
Wappens
Sche
Cannes
Hil
interniert
Farb
entsprechender
Schauplatz
Note
Kolben
Führungs
inhaltlich
##aw
Dienstgrad
Messen
Erlebnis
Gent
Alba
erklärten
Pia
Kamerun
Installation
Eisernen
ä
Lehrern
Lehrtätigkeit
jenes
ehrenamtlichen
Weltausstellung
Europacup
People
Landesmeister
##tha
##blätter
Senders
musikalisch
Küchen
Gray
Par
##mitte
##iven
Wörterbuch
Wahrzeichen
vielfältige
Buffalo
Bey
AI
Trust
Notar
Einschränkungen
##toff
##halter
Princeton
##fahrzeuge
fiktiven
befunden
Colonel
Vielmehr
GM
Eichstätt
1742
Klo
Lernen
##nor
unterliegen
sorgten
Wohnort
fühlte
Pri
verlorenen
Sophia
Impuls
##enko
industrielle
Tan
Dé
Cie
Apotheker
Gutes
##nit
##mäßig
größeres
Cher
re
Emmy
##brief
Preisgeld
##werks
unterworfen
##eh
mächtige
Five
##unter
Grundbesitz
beliebtes
strategische
gewechselt
erscheinende
Gesellschafts
##teuer
untersagt
Verehrung
Jefferson
Grundsätzlich
Charakteristisch
Mes
Fachbereich
Geliebte
Cent
Konzerns
finanzierte
Bataillons
glaubte
##üche
##dienste
wa
geistigen
Distrikts
Erzbischofs
dazwischen
Stra
Lazarett
Grabsteine
Automobile
##reste
ungarisch
Diener
gezeichnet
müsste
Lehns
HS
Beirat
vorliegen
ggf
Olga
Georgi
erobern
bedeutend
Unterhalb
Sor
Arnsberg
weltweite
israelische
##zon
##teilen
platziert
my
beitragen
Erzherzog
Ansonsten
Angelo
Propheten
##lé
sächsische
frz
U18
Bos
Académie
Kameras
##hang
Offiziers
##rasse
##grün
##büro
aktiver
Hofes
langjähriger
##messer
deutlicher
Veit
Prädikat
Freilassung
Einigung
Asch
##räte
Ablösung
Herzinfarkt
##ē
Biografien
##eden
immerhin
Wave
organischen
Volt
Hanna
Krimi
Iris
Hun
erlangt
Profis
##ries
Landwirt
Finanzminister
Differenz
Depot
##zzi
Butler
##werken
##schi
##arben
##arbeitung
Porta
Get
##hand
bestellte
Wohlstand
Handelskammer
Guatemala
And
##pelle
##oka
verschlossen
Deutung
Theologischen
Strauss
##ieger
##oß
##any
Tri
Île
Kiefern
kleinerer
Zier
Algorithmus
bundesweit
Krisen
##zentrale
##lätter
tourte
fügte
Werkzeuge
##enze
ähnliches
Sozialdemokraten
Präsidentschaftswahl
BK
sogenannter
Hirten
##reiben
Werten
Tha
Nasen
Geh
Bosch
Meine
HP
leiden
Waffenstillstand
Dag
Gegenteil
##verlauf
gleichfalls
Oberpfalz
Ligakonkurrenten
ungewöhnliche
Soziale
Sonnen
Medizinischen
##orst
Armstrong
##magazin
##useum
Panorama
Ostfriesland
Glo
A3
##nutzung
Stiftungen
Matura
Gute
Elo
Einträge
slawischen
müssten
harte
Circuit
hintere
##ES
Chaos
##rium
Summer
Denk
Chlor
Zahlungs
Laufen
##witsch
##rollen
entfernen
Edwin
Sack
1759
Triest
Seat
Populationen
dichten
Risiken
Hierfür
gehe
Georgen
Daimler
Sarg
Liu
Bergwerks
wozu
begleiten
##ändern
##ahren
künstlerischer
Vorstands
Theresia
IA
##int
##stern
YouTube
Vogtei
Roberts
Impulse
Angestellter
praktizierte
Deep
Sperr
Chang
##allen
Nase
Endpunkt
Bibliothekar
gepflegt
##müller
Schöne
Madagaskar
##lea
##ied
##sto
Ofen
Satzung
Zorn
##rbe
##ander
fing
Paula
Kompetenzen
Englands
Naturdenkmale
##nar
verdiente
Lkw
Konzession
Hängen
Fein
überarbeitete
nachge
agierte
Zins
Future
Collins
Brod
verabschiedete
Soll
U23
BI
Angriffen
##ritz
krautige
Auftrags
Reduktion
Wirksamkeit
##if
Syn
verblieben
asiatischen
Umkreis
drehen
Split
Entdecker
Zweige
Widerstandskämpfer
Einleitung
##chan
verurteilte
militärischer
Weizen
Preußische
Gymnasien
dreißig
Machtübernahme
Butter
##eli
Wil
Wacker
Departement
verkleidet
gleichermaßen
überlebt
gebildete
Fitz
Beau
##spiele
##ecke
Ho
Flanken
Romeo
##esse
##lden
##xe
##uchs
style
Torwart
Linda
Verfall
wählten
Tonträger
Hänge
##kraut
##elo
##design
pflegte
Tun
Irene
geistliche
Protestanten
Kraus
Ar
Zirkus
Reichtum
kämpften
Pai
##scho
österreichisch
VS
Heidelberger
Guten
Äußerungen
eingeführte
geholt
Schwere
Entlang
##ags
ruht
Welten
Adalbert
Mul
Krupp
Alta
Tol
Keith
##änderungen
##ción
Lasten
Hardcore
EL
Saisons
freigelassen
Pfeifen
Jorge
##olle
Sigmund
Aufsätze
Lenk
##zyklus
##fehler
wasser
Montage
##versuche
ver
herab
Tarif
Palmer
1757
Überlebenden
sortiert
##oto
wohlhabenden
Rica
Johannis
Ill
Honda
Comté
angehörten
Niger
Hypo
Aba
wenngleich
Sorge
NE
gerieten
beinhalten
##bung
umgangssprachlich
Gefolge
##vereine
Brigitte
durchzusetzen
Bildschirm
CB
Bureau
Bergland
sprang
Ruhm
Our
Neubauten
Kabinetts
##ration
Staatsbahn
Sibirien
optische
Mechanik
Baukosten
Lit
Hauptfeld
Kat
Vornamen
Engine
##hofer
lud
Africa
##nitt
DI
Nichts
künstlich
Resolution
Mathias
Paz
italienisch
Schle
SMS
Newton
##gern
durchschnittlichen
Stereo
Wasserburg
Else
Bekenntnis
bestätigen
##gesellschaften
NO
##sand
##pit
j
##uba
Kegel
##oje
##herstellung
Ska
beginnenden
Sporen
Gert
Energy
jedenfalls
Habsburg
Indiens
##hara
##mba
typischerweise
faktisch
Eintrag
Spirit
Perry
geringem
Tief
Jahrestag
Intel
Derby
Rapid
Ha
kommerziell
Bauteile
##wärts
##nheim
Kohlen
##AS
##ʿ
##anda
Orgelbauer
##mä
##ärke
##ativ
Gebrüder
Rafael
Laub
Jeanne
Synode
Pfeil
Angesichts
##chrift
Fortuna
Pala
Hochschul
Starter
Geheimdienst
ausgeübt
Gräben
##у
##ibliothek
Ämtern
Un
Champion
Elfmeterschießen
statistisch
Volkswirtschaft
Tänzer
Steg
Getränke
##jährigen
Doctor
##elemente
Unterkunft
sichtbaren
Koe
1745
##ře
##onia
##mers
Regio
Fine
Ordnungs
Mil
eingeführten
Titels
Vizepräsidenten
Fat
demokratische
Weltmeistertitel
Springen
Jahresende
Flughafens
Verbandsliga
Stadtrecht
kleinsten
Schah
##ehr
reagierte
Teatro
##chu
Lein
Larry
##gre
##medizin
##iti
gesteuert
annahm
Zerstörungen
Société
Kol
Ursprünge
Prize
kompletten
Singer
Liturgie
Bro
Fähre
##funktionen
1752
##ruktur
##chow
geleistet
Franziska
1754
##iesen
identifizieren
gespeist
Ada
Kriegsmarine
Kun
Geschosse
##fra
chinesischer
Neumarkt
Nachfolgerin
Marktanteil
Fichten
Putz
Prototypen
Mad
Kernstadt
##usschuss
##stände
Fragmente
Biografie
Absteiger
Hon
Einhaltung
##apelle
Health
Übersee
charakteristischen
Sai
Pferden
Arsenal
populären
hellen
geheimen
Bars
##the
stabil
Präsentation
Maha
Solingen
Programmen
A2
##reuz
Radiosender
Nicholas
Nahen
Kaiserlichen
Kälte
Strömung
##ürger
##qua
##felde
wann
gültig
eingebracht
Schulbesuch
##zelle
Gegenden
Frisch
##verhältnisse
Bestehens
##nehmer
weithin
Qualifikationsrunde
##spitze
kar
Pe
Kassen
Ay
WTA
Lotus
##ST
Mat
ET
Danny
getrennte
Norddeutschen
Barth
Tram
Rolling
Reichenbach
Bürgerkrieges
##egel
Magazins
Shows
verbaut
geordnet
##bot
ungarischer
geborenen
Mehl
Synchron
##übertragung
##bahnhof
rekonstruiert
Reinhardt
##stra
Sko
##teri
##führt
richten
##panzer
Niederländer
Rockband
Chromosomenzahl
##edt
Klee
Beleuchtung
##fische
Streckenabschnitt
Square
Erhebungen
##gaben
Hero
Milchstraße
Wirts
Pictures
Lebewesen
##gos
Investitions
Bundestages
Anweisung
1660
Papstes
##unkte
grundlegenden
Toleranz
Alto
Traditions
Skandal
Assistant
##entrum
Neuhaus
überwacht
Oberamt
Jet
##inghausen
##hat
Such
Erziehungs
Eiche
##oh
ro
betriebenen
Roh
##klub
bau
RT
Neigung
verdanken
Zwecken
Wy
Salomon
Marina
Gebet
Beweise
hört
Wanderweg
Tiefland
Commander
##legen
Ladung
Beatles
2n
altes
sichtbare
Tennisturnier
Resultate
Archäologen
mäßig
Fabriken
Webseite
Polnischen
Georgien
Fotografen
Ai
geistige
Chen
##öglichkeiten
##zar
##ffer
##com
eigenständig
Rhön
Obere
##ös
##uh
##roth
verschiedensten
Wi
Empfang
Ausstellungs
Trocken
Naturforscher
spezifischen
etablierten
Bi
Allan
##gion
Tet
Räder
Arkaden
##ő
Kammermusik
weiblich
Grabmal
BM
Six
##roman
##aufen
best
Kaufleute
Hilfs
1748
Schi
wiederholen
zeugen
Thun
##nstalt
nebst
ausüben
##CA
##zes
##roduktion
Urs
##werkstatt
Steinbach
Cu
Dro
Pa
##elder
##ffel
Primär
Kar
##inder
verschont
Predigt
Musikhochschule
Lind
Gay
restliche
darzustellen
Key
Markenname
Hey
##tad
##mitglieder
ablehnte
Disposition
##ierenden
##hmen
Scheiben
Partisanen
Lateinamerika
##stalt
Che
kümmerte
Zerfall
Ausgangs
##vas
enorme
##pre
neuem
##oo
TE
##öhe
##met
verwandelt
Vorjahres
Vizegouverneur
Tie
Regentschaft
Paolo
längs
eingespielt
##tals
##rea
stößt
Streu
León
Kfz
Übungs
Ignaz
GP
bewegte
anscheinend
abgenommen
Herrmann
##itze
abgelegt
Pech
Hong
Einheits
herstellen
entsandt
Ina
If
ausgeschieden
Lettland
doppelte
Assistenten
##ön
Opel
##err
Würzburger
Dichters
330
##ted
unterirdische
Kalium
KP
Lese
Ham
Bil
##ets
##avi
erzeugte
beteiligen
Verbänden
##vit
##af
Gle
Mosaik
Limousine
Hühner
Bratislava
teilnahmen
roter
Nintendo
##xen
Tausend
Nadel
Eröffnungs
Tr
Sin
Indischen
Aufruf
##nung
##zow
Flo
English
Sätze
Staatliche
Fischen
##elen
verweigerte
ukrainisch
Versicherungs
##can
muslimischen
Sieges
Hypothese
Côte
stattfanden
SH
Nah
Wortes
##д
geprüft
Lemberg
Led
LSG
Blanc
##otor
getreten
Alexandra
##ckel
Ziegen
Nizza
Hölle
Fahrgestell
Publizist
Libyen
Brecht
mor
frühesten
sichere
Rettungs
Nils
1717
##zeichnungen
Niederschlag
Kletter
##upt
bedeuten
untergeordnete
Vögeln
Domkapitel
##ätte
Vektor
Reims
Codex
##ymnasium
Schulhaus
Bürgerkriegs
zirka
Strophe
Rott
##ι
Letzterer
Ausschreibung
##uto
Til
Musikschule
land
Weltwirtschaftskrise
Rücksicht
Family
Coupé
1751
But
OP
Kut
Anatomie
##uta
Dei
##ction
schön
Klassik
Grenz
Far
##ome
ökonomischen
lehrt
beinhaltete
Grünland
##ichte
##ello
Krüger
kV
droht
##größen
Gian
##zwecken
Kil
##dus
Isabella
Friederike
##mb
Übertragungs
schrieben
unmittelbare
Wille
Schlepp
Antarktis
##tionen
##veranstaltungen
RM
FI
zusammengesetzt
aufgelösten
HB
Ottawa
Kräften
Rau
Vorbereitungen
Rezeption
Queensland
Plauen
Education
Apostolische
##ava
bisweilen
Roboter
Revue
##bor
englischsprachigen
Bundesamt
##LA
##hnen
vertraut
Palermo
staatlicher
Doms
##qi
Ruprecht
Internat
1550
hingewiesen
Ecuador
##dell
Westeuropa
Raj
Dis
##10
verursachen
Hohl
Reichsstadt
Cre
Nevada
##enten
Bru
##raten
Dio
Bildhauers
Scheitel
Australiens
##decken
TS
jahrelang
silberne
VR
Scham
Padua
Mrs
enthaltenen
besetzen
##yla
Betracht
Algebra
globalen
Fa
##ätter
##toren
Hafens
Bu
Beschäftigte
##quet
Brook
##egion
fragt
jüngster
Rechner
Oberleutnant
Fiat
##endung
beliebten
Kärntner
Call
wandelte
verleiht
durchgehende
Review
Clinton
braune
Vorderseite
Förster
Burn
Aka
zurückgeht
schwachen
eG
südafrikanischen
heller
Stolberg
Paradies
##moor
dunkler
Vorlauf
Innenministerium
Stolpersteine
verbleibenden
genoss
Bor
Geburts
Data
Ziffern
Sus
Zünd
Speed
##zylinder
variieren
Potsdamer
##oid
Kid
Heller
Brest
Wilden
Kurator
Großmeister
Census
bi
Schweinfurt
Parlamentswahl
ru
Jakobs
##faktor
verteilten
entführt
Rum
Tunnels
Leopoldina
Gletschers
Dachreiter
##mei
Kreistag
##chung
Typus
Stanford
Interstate
Diplomaten
Zwischenzeitlich
Te
Prospekt
Chat
1761
225
Vierte
##jer
Verteidigungsminister
Prozessen
WA
rheinland
Beschwerden
AHL
Pianisten
Mau
##sau
korrekt
Wohnungs
Jude
##iss
##rth
siebte
langes
Sexual
##ektor
##angebot
Schätzungen
Ameisen
Grundwasser
Meisters
Baku
car
Jer
##fonds
tschechischer
absoluten
Limited
Jahreszahl
präsent
Temple
Luftangriffe
Prozessor
Nature
##uro
Neil
Congress
PD
Bahnstation
Rausch
Intensität
tägliche
feuchten
gekrönt
Nathan
strengen
Kran
##lang
Zielen
Wettkämpfe
Komponente
dreht
Wies
##urnier
##tow
Unterstützer
Schloß
Bauernhof
##bestand
Parti
##vik
##quin
Hertha
Ochsen
Gr
CIA
1710
##woche
Schotten
Einmarsch
Yards
Ley
Demonstration
päpstlichen
Hochstift
##regierung
sandte
keineswegs
Verwaltungseinheit
Äthiopien
rechteckige
Zá
145
##griff
Campo
##Pa
optischen
ermöglichten
Vergrößerung
Geo
eingefügt
Zusammenfluss
Rokoko
Mala
Archipel
##mat
Under
verleihen
angewandte
Afrikas
Pra
##einrichtung
entschlossen
Schalen
Trip
Inge
liberale
Schenk
##odi
##gny
Pas
Ale
plus
bereiste
befahl
Wan
Ortslage
Entschädigung
Aa
##trainer
##gestaltung
Schaf
Perth
Heavy
Nacken
Landsberg
##né
##hip
##ahrt
besiegen
##vögel
Erstliga
Craig
##wissenschaften
Wolken
Steins
Rama
LKW
unterliegt
Storm
Luftwaffen
##bindung
Arbeitsplatz
Turbinen
Freising
##kommando
##fähig
gemeinnützige
Oberste
Präsidentschaft
Briefmarken
Schla
Protesten
Nordkorea
##igt
##asten
beschlagnahmt
Keine
Gouvernement
Eder
##wesens
##modelle
verschollen
##läufer
##cen
Gästen
FFH
Bai
##kers
befestigte
##breite
Player
Ringe
Korruption
reg
Saône
Reiz
Pyramide
Schwimmen
Knaben
Interpreten
##mond
##ates
Platt
Pablo
Missionar
Alphabet
Treppen
##chens
##anus
stimmten
Gedichten
Dieselmotor
Adria
##ähigkeit
Scho
Dill
Lieben
Hitze
Großherzog
##piegel
##uin
ste
med
Streik
Nachmittag
mitsamt
Lücke
Kopien
##sees
##lust
Sz
Regina
Radweg
Bögen
Tara
Osmanen
Sonntags
##gur
Ul
##methode
##ersonal
Steinmetz
HO
##räfte
verworfen
Kampfhandlungen
Aufstiegsrunde
##ude
Gemeinschaften
Fur
Cla
##grab
zunehmender
##politische
eingeschlossen
1741
Professional
Heimatverein
##St
##iker
Kreuzberg
Bewaffnung
Versetzung
##üste
Verbesserungen
1744
##ono
Carmen
schottische
Wings
Montenegro
Gebirges
##ů
Subjekt
Rogers
Griechisch
Einem
rechnen
einberufen
##rmen
vermutete
Nordirland
Sachs
Fla
Disco
Herrschafts
##drama
feierlich
Mulde
Ash
eignet
Fünfter
##über
##sprache
KO
##iler
Flüchtlings
##jar
ausgenommen
zugeführt
Moldau
Gel
##phie
suchten
Santos
Technologien
MO
Ge
##rod
geschützte
MD
Flüge
heftige
##rechnung
##code
not
Päpstlichen
##itte
##ebiet
lès
Wismar
##ree
Watson
Leibniz
Bozen
Bangkok
Sozialismus
Landhaus
Scheibe
Isa
##meisterschaften
ausreichende
Polo
Colin
##meinde
Söldner
Gültigkeit
Rennfahrer
Falken
Bedürfnisse
herkömmlichen
Erzbistums
spätgotische
##owitz
##methoden
orthodoxe
glücklich
Dirigenten
Carol
##bis
präsentieren
Wat
Begrenzung
##lit
Natrium
Lille
##peicher
Weis
Kanäle
var
Beleg
existierende
TR
Fahrzeugs
##tieren
frisch
Ilse
Dunkel
Ausübung
dünnen
Teheran
Fächern
1250
##chnitt
Opfern
Hua
nordamerikanischen
jederzeit
gen
Executive
Antisemitismus
##aar
Saga
Nationaltrainer
erließ
Unit
Qui
##TE
Ré
Asiaten
##fin
Putsch
Gun
AA
##uster
lieber
Bonaparte
##ston
##nahmen
##aya
kontrollieren
Götz
optisch
emeritiert
Witten
Kor
##reit
Fahne
##ppel
verbleiben
Lanka
Earth
##lb
Tokyo
Nicole
Illustrationen
Beratungs
##icher
##aba
schuldig
##kind
Industries
Hauptschule
Aquitaine
DF
Apotheke
##teams
##ovice
Demonstrationen
Source
Kieler
geplündert
Gesetzgebung
Ableitung
Platon
Glaube
Fro
Balthasar
##annschaft
##periode
Pur
Hai
Eli
##ießen
neugegründeten
dünne
Proto
Fahnen
##bes
verbrannt
Aufständischen
##etzen
Vorgängerbau
Springs
EF
##ähnlichen
überprüft
Sternwarte
Kel
##kation
zulässig
mobile
##yt
erzählen
Nominierungen
##chemie
tauchte
nötigen
Vilnius
Haas
Edwards
Nie
Battle
minder
Grazer
##trecke
##lut
##komplex
Würde
##ßer
1747
historiques
einnehmen
finanzieren
1732
iranischen
Satire
Pete
Extra
Lago
Het
tri
Kanten
##tür
##opfer
Poesie
Lane
##ske
##tochter
##stet
sichergestellt
rumänische
illegalen
SN
Min
Grammatik
Schalke
Gal
verweigert
Spaltung
Oberhof
Kommunalwahlen
Paraguay
Titan
Bed
aufging
Spencer
Killer
helle
##fil
selbstständig
##ρ
##tch
##ev
Manchmal
Mach
Frei
##fang
Sci
Prozesses
##nahen
Italienisch
122
##zirk
##wka
TC
Stoß
Sammel
Freundes
amp
Stadtviertel
Schnittstelle
Cockpit
versprach
erfunden
Pauline
Fürstenberg
Dolmen
##konstruktion
einbrachte
Branche
##PA
Todesstrafe
Sach
Gläubiger
##urf
##uni
verfiel
Quarz
Detmold
gespeichert
Leningrad
Intervention
Bekanntschaft
Angehöriger
##quartier
Reaktor
Kot
Gewichtsklasse
separate
Lehn
Dana
mangels
hinnehmen
Säure
Dor
##ägt
Bundeskanzler
480
##präsident
##lanung
##energie
erarbeitet
Unteren
##sbe
stießen
ke
PI
Jüdischen
420
García
Alfa
##lor
Strömungen
Gis
##andes
hervorgehoben
Blattspreite
##ief
aufgefordert
hergestellte
Atlético
##loge
Lungen
Gartens
##zweig
günstigen
Kie
Cal
Beerdigung
##zenen
##rät
##ders
eindeutige
Sue
Treffpunkt
Staatsdienst
Spaniens
##herrschaft
Vernichtung
Trauben
Jamaika
##sor
automatische
Stadtzentrums
MM
dauerhafte
Steel
Cali
##zügen
Herzogin
Abschnitten
##ulo
##lings
Offizieren
potok
erbauen
Chirurgie
Calgary
Vertrauens
##gate
bestraft
Zugangs
##oot
##mission
schwache
prägen
Darwin
1746
##denkmal
Zen
RC
##gene
Komitat
##bschnitt
Stö
Jam
##rade
stärken
langfristig
What
Pflanzenarten
IR
Adenauer
zurückziehen
Kraftwerks
##tzung
Wilde
380
Nahrungs
getrieben
gelagert
Favoriten
Füße
gedient
Ky
Gelenk
##ο
Rabbiner
Mittelmeerraum
Epitaph
Edith
##asi
Strahl
Jenny
##rist
##eler
überlegen
co
Tala
Schulze
zweigeschossige
Mei
Kleider
##ichi
ereignete
Hybrid
film
Ratten
Jähriger
Geschwistern
##palast
##steuer
unterlagen
##lemente
Sklaverei
bewaldet
Brun
Annäherung
Alf
##wiese
schlugen
Braunschweiger
##ør
##ziert
##scht
aufgebracht
Hörfunk
Weihnachts
Tuch
Semi
Harn
Cap
##uche
Westdeutschland
Ermittlung
##rta
prä
Häufigkeit
individuell
Yoshi
Az
##itter
sobald
körperliche
kurzem
Sitzplätze
Hundert
##ism
dasselbe
Mona
Rams
Missionen
Absturz
gewachsen
Three
Tetra
Luke
##uppen
##arzt
1736
##ngo
##lov
verschwindet
##py
##ová
##fried
Hofe
laufende
Lehrauftrag
##xt
##tner
##bericht
Richmond
Mitter
1620
steigenden
##asch
Igor
amerikanisches
Gruppierungen
Armenien
Netze
Munitions
Lieb
Ghetto
Buchholz
##möglichkeit
##ean
markierte
Letzteres
Que
1735
##ähnliche
cu
Helligkeit
Göttinger
##ndes
##enburg
Überarbeitung
hervorragende
Jas
out
beschriebene
Reed
Goethes
Hope
##sco
##portal
Schale
##õ
##cat
Töne
Rag
Gasse
##bereiche
##öfe
Stammsitz
Gedenkstein
Studiengang
Still
Elberfeld
##uil
Verschwörung
Margarethe
Erfassung
##nstein
Schlösser
wohin
binnen
Symphony
Shaw
Sommersemester
118
##ndet
pre
menschlicher
Winzer
Irish
Universum
##universität
Amtmann
Alain
elften
Größere
verwehrt
Meso
Bewerber
Analog
##sfeld
Mon
DT
Bé
Blütenstand
theoretisch
Magic
Stempel
Revolutions
Erreger
po
nächstgelegene
Tra
Justizminister
Hus
Abgabe
##ologische
Tourneen
Puppen
1630
Solothurn
Falk
aufgewachsen
Rohstoff
Minsk
##water
##bahnen
Schöpfer
Abb
##sens
##sekretär
##cla
##chts
Étienne
lo
ineinander
Synchronisation
Stimm
Artist
Abspaltung
202
##keits
vorliegt
##treten
Tang
Burgruine
##hut
##frau
außerordentlichen
Telekom
Session
Oberbayern
KA
##wissenschaft
Haupteingang
kor
Mana
Entgegen
Territoriums
Kreta
Familiennamen
Zurzeit
Romantik
Israels
künstlichen
##tempel
##busch
1714
Saul
transportieren
##ttung
Oberschlesien
##nner
vergibt
Schwan
Dü
##vić
##bundes
Saturn
besichtigt
Schülerinnen
Reb
Funktions
Pascal
Konsequenzen
relative
Trilogie
Handlungs
Niederlassungen
Dela
1743
##wegung
Walt
##ees
Brühl
##weit
Transit
Shuttle
Montag
##lder
tro
Aufstiegs
##hop
sicheren
Infektion
Hunt
Winterpause
Tur
Af
127
##ör
##sol
Jetzt
Bala
Bade
symbolisiert
irische
Komödien
##ň
##ð
##vier
Schallplatte
Laurentius
##äne
Volkswagen
Ram
##omo
baden
jährig
Pracht
##jekt
Turmes
Alexandre
vierzig
bewahrt
Tscha
##ösen
##äl
Vorgängers
##usa
##bschluss
Ungarns
Tragen
Wasserfläche
Vorstandsvorsitzender
Kabarett
##AP
##tab
Stummfilm
Propstei
Festungs
##evi
##ido
Baubeginn
1530
gemein
Skala
Methyl
Ele
##lement
uni
maximalen
anzusehen
Sequenz
Shan
Adelsfamilie
##ierende
Verantwortlichen
##pha
lieben
definieren
Bundesbahn
kürzere
Volksabstimmung
Versuchen
Nachfahren
festgelegten
benutzten
Greg
Fließ
quadratische
fremde
Got
##irk
Tauf
Mor
Grundsteinlegung
WS
Stoffwechsel
That
Straf
Realismus
FBI
Währung
Progressive
##sow
Pie
##recke
Léon
verschwinden
gemeinsamer
Ling
bemerkte
Rolls
1749
##regiment
Schleuse
Ihnen
Brenner
1713
Op
angelehnt
Gör
##rift
##latte
öfter
Whit
Ra
Kompromiss
Els
##irtschaft
liebt
mathematische
interessant
Justus
Steyr
Schock
Proteine
Gartenbau
##rche
Rennens
Bibliotheks
Tsu
Teufels
1737
##US
##tanz
Say
##rä
Standes
Rathauses
Grabstein
decken
Volksbank
Anger
##ridge
zurückzu
firmierte
Wallis
Flach
Bestes
##issen
spanisch
Plattenvertrag
Parteitag
Bestands
mg
Kastilien
Abteilungsleiter
##lern
bekämpfen
Yang
155
##schluss
##leute
verkörpert
Put
##unt
verwandte
touristische
Chinesen
Letztlich
Christiane
Abweichungen
Gai
##back
##kten
Trail
Maxim
##child
Duett
nationalsozialistische
Regisseurin
Aaron
##rp
Gelsenkirchen
steinerne
Röntgen
Hetero
##motoren
Aller
Sardinien
Gotthard
OH
##vereinigung
Neugründung
Hügelland
Commune
Span
Bö
Aufkommen
##gras
überleben
teilten
Langzeit
Banner
1738
Tänzerin
Schwangerschaft
Bulle
119
erfüllte
Lin
Krönung
Fernsehproduktionen
Toyota
Gru
Calcium
Galli
##ndo
##gefahr
wiesen
begründeten
Wetzlar
##té
Morde
Ableger
Laa
Gesandter
physikalischen
##ress
Miliz
Geschütz
Gefallenen
gerichtete
germanischen
Hörer
Dachverband
Schrein
Dir
Rast
##ław
Mis
##iya
Wirkungs
dazugehörigen
Staatspräsident
Arkansas
weitesten
Jugendstil
Eid
Bur
scheiden
Marienkirche
ICE
Pick
Athletic
##kapazität
##hill
Ritual
Parkplatz
##vá
##knochen
Höfen
Wels
Kolonial
auffällig
Lo
Constantin
##bol
Einwohnerzahlen
##rma
lokaler
landesweit
christlich
Rennwagen
Auskunft
##hri
verkündet
vergleichbare
Leu
Bene
##ł
##BA
##pus
##flugzeug
##day
zweieinhalb
Cri
erwarben
Genauigkeit
Lew
Hauptfigur
Guillaume
unser
Erhard
Anzeigen
Tals
80er
##aire
Pine
Ever
##noten
Renten
Wimbledon
Reh
Neuburg
##insatz
##graphie
##aga
betraf
##nts
##kam
##gürtel
Wasserscheide
##srecht
überrascht
Tü
##ér
Techno
Seelsorge
##lieder
##haften
Olivier
Landgrafen
Chrom
Betrachter
##ichkeit
Spitz
M1
##odell
LI
Grat
1540
verstärkten
##vice
##ohl
##inheit
non
##rr
teilnehmenden
ausgemustert
Ultra
Schutzgebiet
Flughäfen
##manager
##eitig
##baus
geheim
Gelder
Behinderung
Basalt
Prior
Bourgogne
grossen
Seven
Mitgliedstaaten
Bundesverdienstkreuz
##siert
Allgäu
##aster
Stor
Wohnplatz
Essays
##stor
spiegelt
Torre
CT
##frage
##sum
##küste
Vergleichs
Nachts
Lost
##dd
##ative
prinzipiell
Transformation
Mao
Botanik
Lucius
vorgesehene
V8
Soccer
Hydro
Bedingt
Verona
Seh
Rotten
Rajons
##gens
Zunahme
##erer
Saiten
Advisory
##ücher
geborgen
Type
Titularbischof
1618
##regeln
##ographie
Gemeindegrenze
Formulierung
Machine
##pannung
##gle
##archiv
Schuster
Roe
Johns
1670
wählt
Kom
##text
verteidigt
Pot
Kronblätter
Genossenschaft
##ís
Märkte
Kempten
Eisenerz
##ə
##olge
ehrenamtlich
vielfältigen
erarbeitete
Fahrgast
1690
##llung
##nationalmannschaft
Renn
132
riesigen
näheren
gestützt
Mura
Besatzungsmacht
trainer
Montréal
Anspielung
##ausschusses
Hauts
maß
indes
erforderliche
Krause
KF
India
persischen
dicken
Kam
Wänden
Pr
Pfarrgemeinde
Universidad
##jen
##cos
Hinterland
1733
126
Gesetzen
GR
fiktive
eingelassen
Stadtrand
##ssel
##ländischen
##kh
verhalf
dominierte
Karst
Gemeindegebiets
##ühren
##ordens
berührt
##abel
Wars
Fr
Schor
Landgerichts
Einkaufszentrum
1724
##kai
Kala
biologischen
Schmerzen
Pu
Maske
##abbau
berechtigt
Rechtsform
Ligaspiele
Biber
##echsel
unterirdischen
Zeremonie
##plätzen
gleichmäßig
TT
Füßen
Bun
Osttimor
Lancaster
Koran
Prägung
datieren
Petit
Lai
Jab
Boss
Sohle
Maximal
Ahl
organische
lanzettlich
Lenz
Finn
##verletzung
bestreiten
PT
Nan
Nachteile
Holmes
folglich
##ical
einstellen
Wiederaufnahme
##reiheit
##programme
herausragenden
Dub
Daran
Behandlungs
##onds
Unterbringung
Schutt
Hobby
Hafenstadt
Schu
Beth
Absch
##nah
orientieren
fressen
Rossi
Oak
Kriminal
Baches
Advanced
1721
Ere
Armin
##hügel
Tro
Stockwerk
Lehrbuch
Kob
1701
##tic
##röm
Pavillon
Affen
##andel
Reaktions
Jazzmusiker
1520
za
you
nennenswerte
eingereicht
angesprochen
anbieten
CN
Boxen
##pie
regelt
Sou
Gangster
Süddeutschland
Pla
Gegnern
##meier
Char
Administrator
##jahren
vorsah
Beseitigung
gezielte
Währenddessen
##profil
##grube
Stichwahl
Nachschub
Ehrendoktorwürde
Auslöser
##helm
##ader
feindlichen
##asa
unterstanden
neo
belgischer
Zusammenhänge
Vollendung
Ingrid
Dimensionen
1718
##ngi
il
##ägen
##pal
Fragment
123
Kis
CEO
Passagen
Officer
##wart
herrschenden
Genfer
Fre
Flash
##vollen
Redner
Klingen
Curt
Ähnlichkeiten
verzeichnete
gefundenen
eineinhalb
Rus
Pere
##ahmen
##asis
Rai
Indi
Halbzeit
##ε
ten
##emann
geheime
Südlichen
Gu
erlosch
Leid
Kulturdenkmal
Kuhn
Judentum
##völkerung
##oz
##hou
hinunter
1725
##λ
##sitzer
verstärken
besiedelten
Zo
1640
##hallen
##elf
bu
ausdauernde
Kha
##NA
##ünstler
übrige
Ser
Geb
##professor
##giebel
ri
Sean
Buchs
kontrollierte
##ì
sechzehn
erleichtern
##itzer
##heide
left
Serben
Mix
Met
Lions
Entführung
8000
##ieben
belastet
ausbilden
Staubblätter
Ries
Psycho
##ktor
dominierten
angeblichen
Monopol
Krankheits
His
##mut
##flege
west
verbliebene
Spalt
Seiden
Moss
Bundesligisten
##streifen
sam
begegnen
Plasma
##weite
##fie
kommentierte
Fer
typisches
steigerte
Schifffahrt
Mängel
LS
Gegebenheiten
Zement
Monika
Vita
Kolleg
##liches
##inhalt
##hm
Ia
##ory
durchgängig
Television
Erika
Editor
##yk
Initiativen
Dornen
Beschlüsse
##oben
Rupert
Zweitliga
Durchsetzung
##olf
##erfolg
Pul
Eisenbahnen
##sing
Ironman
Fruchtknoten
##dge
Senatoren
Gewehr
Claire
zeitgenössischer
##ugen
##deutsche
Behauptung
Frühlings
Et
Austritt
##erei
feine
Preises
##aufnahmen
Wittgenstein
Strauß
Pädagogischen
Plattenfirma
Heid
Haltestellen
Gabe
FIA
Burgstall
Pädagoge
Luca
Amalie
trennten
Zwillings
Mata
Legenden
Aargau
Spalten
Guard
##rti
Armeekorps
beantragte
##kö
Zusammenlegung
Raumes
Pendel
##anden
Vorwort
Untersuchungs
Spielerinnen
Ritters
Grass
##ño
Verstorbenen
UV
Fußballmeisterschaft
##orts
440
##öse
##szene
##eiden
Fürstentums
Denkmals
verweisen
Thesen
Quedlinburg
Bedenken
1723
##hoch
tätige
gest
Waldemar
##rch
länglich
Make
Kapellmeister
##nummern
öffnete
erinnerte
Zwangsarbeiter
Fra
erleben
Weltmeisterin
Palazzo
Eu
klassisch
Kirchenmusik
##app
weiblicher
Sozialisten
Py
Kein
##esellschaft
How
Ber
##ς
Graubünden
inszeniert
Luftangriff
Fle
##oche
##ndel
##käfer
Zweier
Buche
längerer
einstimmig
beschafft
behandelte
Mä
Finalrunde
Bour
124
##staat
historisches
einstige
1688
##betreiber
gebeten
Ponte
Bode
##udium
Alliance
Bassisten
##SS
##önig
zweithöchsten
Profikarriere
##sicht
##bezirk
verhalten
platzierte
Freiheits
Behälter
Lesen
##pot
Workshops
Signatur
Hilfsmittel
lose
Münz
zeitliche
IL
Facebook
##owitsch
##fell
Parish
Kan
Griffel
##nehmen
gebräuchliche
Tropen
ökonomische
Sitten
Gli
Dynamik
Murphy
Kri
Brügge
##variante
investiert
ernährt
Oro
Fries
dienst
DL
Bildes
häufige
Argument
Cai
Bundesgesetz
Tagebau
Mendelssohn
##abschnitt
ga
Katze
Zweibrücken
VA
Mafia
##lly
Gers
Friedensvertrag
##ält
Spurweite
Honig
Halberstadt
Eisenbahnlinie
##ikon
staats
elektro
Homosexualität
##neu
Unterwasser
Stell
Bat
Außenministerium
geweihte
betreffen
beliebte
Pohl
Maro
Mag
##iu
weltlichen
fehlender
Tuberkulose
Transkription
Gremium
Fass
ergänzen
besichtigen
Scher
Konstruktions
Kirchhof
schriftlichen
Buck
Auszug
FE
Bag
unver
amtierende
Konservativen
Einkünfte
greifen
Faser
Faden
##bögen
##ří
konstruierte
Tauben
Playoff
ji
Sanitäts
##oxid
Siedlungsgebiet
Neuauflage
Nepal
Movie
Kriegen
Gemälden
Freundschaftsspiel
165
1634
##xo
vermerkt
Rhin
Auer
Hei
##grenzen
beides
Voss
1683
Forschungsschwerpunkte
Dou
##ect
Sak
Höhenzug
Capital
##ministerium
gemalt
beschädigte
Herausforderung
Gehör
##nei
##ipfel
geologischen
Partido
Unterdrückung
Ridge
Kenn
1739
herunter
Ry
Dreiecks
##AM
##werfer
Ta
Roß
Reichswehr
Gefälle
Patron
Mittelschule
Ureinwohnern
Erb
##ebäude
Stadtkirche
Poly
Kal
##elin
Cut
##setzung
passieren
Stärkung
##ær
##ntin
##chluss
Geschwader
##tätte
##ming
Oh
Durchschnittsalter
getan
Holt
Dominikaner
##ögen
Gabriele
##ltung
Universitätsbibliothek
##pat
##ngst
wesentlicher
fortsetzen
Stör
370
##wy
wert
Fé
Stevens
Stabs
Ibn
Bele
Zi
Flaggen
Erlebnisse
starkes
letzteren
Oberhalb
##burger
##altar
Trägerschaft
Giorgio
1678
Anlauf
fürs
zufrieden
angeregt
Wis
Gewerkschafts
Cro
##betriebe
illegale
Nazis
Fremd
Anhang
##over
gewährte
Urlaub
##ović
Rita
1734
121
##elb
urteilte
##ext
Verne
Empfangs
##lum
diplomatische
##bewegungen
verfügbaren
Piet
Aktivisten
##weiß
Trommel
Mons
Erzgebirge
Erbfolgekrieg
##zahlungen
##apa
##funde
Willem
Novelle
Jun
Cars
##lles
geboten
Chester
strategischen
schafften
kräftig
Esch
Gesamtheit
1727
##atus
ausgerichtete
Stadtgrenze
##meer
gegebenen
Vorher
Stämmen
Magistrat
Zeppelin
Gig
1722
##probleme
##echen
Zivilisation
Mongolei
Mentor
Landesverband
##Ma
##stift
Ze
Trieb
gi
entstehende
lieferten
bauliche
##systemen
vorkommenden
Wächter
Kirchberg
Georgs
shi
##pause
exportiert
Ruta
Gesichts
Blake
intensiven
funktioniert
Langhauses
Churchill
Stiftskirche
Einbeziehung
Century
##tour
legendären
Orchesters
Landeshauptmann
##ël
ganzjährig
Schwarzenberg
##pers
Brems
##uter
brasilianische
Bäche
##star
grosse
gefragt
Zeitweise
Wüstung
Work
##gers
überaus
ko
bewiesen
Spe
Pächter
Gallery
Einkommens
##rief
##fle
verdankt
beging
Haken
##tsu
##rain
##nek
islamische
berichteten
##objekt
Katastrophen
Diözesan
Pink
Nebenrollen
##phi
##etti
##bringen
Vorgesetzten
Starr
Lis
##tige
entstammen
Feststellung
##ngton
künftige
Moser
Jose
Gauliga
Bent
Arbeitslosigkeit
##zieren
##album
empfunden
Jüngere
Bergfried
prüfen
Leonardo
Bruderschaft
kümmern
Einmal
Britisch
Adjutant
wiedergegeben
Wach
Grace
Eden
realisieren
##konzert
VV
Geschwindigkeiten
##ellung
Train
##mini
##ef
statistischen
Sullivan
Neuss
Hannes
Columbus
1712
Zentralbank
Orgelbau
Lar
Filmkomödie
Alarm
##filter
werfen
aufbauen
Sig
Einstein
Armeen
Drehmoment
administrative
Uri
Perl
Hoe
Dog
australischer
Metropolregion
##ń
Partnern
Höhere
##rieg
##mitteln
fach
Prüfungen
Guinea
1632
herausge
dominieren
Spät
NT
Kreuzzug
##isierte
allzu
Ehr
Ding
##amin
Völkern
Fluor
Mauritius
Massa
Eg
Chores
Zeitz
Vogelarten
Schleusen
Parallelen
Lagerung
Essener
##historiker
gemischt
can
Orlando
##yon
##sorgung
##dium
überzeugte
Allo
##kis
Pforzheim
schönsten
Zan
Tötung
Mani
Madame
Lan
Trump
Sensor
Provinzial
Mechanismus
Emp
Sä
Kreislauf
Delhi
##ison
Rachel
Annexion
Aborigines
##war
nordrhein
Luftstreitkräfte
##arme
bulgarische
Zer
Well
Jen
ordnet
gelobt
Sto
Siebenbürgen
After
##ulen
gewürdigt
Eure
Belange
selbstständigen
kennenlernte
Respekt
Miet
Mahl
Lindau
Konzils
Ravensburg
##jn
##fan
Basen
##arriere
südamerikanischen
##uerung
##ausgabe
bewaldeten
Kanadas
fünfzig
Steppen
Elternhaus
Sozialwissenschaften
Kramer
##architektur
enthielten
Gewerbegebiet
Dahl
Cr
Cornwall
Borg
Provinzhauptstadt
Lay
##produkt
##bat
stadt
hergestellten
Senegal
Pkw
Orléans
Levi
Fehde
Cran
Abwehrspieler
1719
Podest
Leucht
##teich
Mol
Ly
abgezogen
Maier
##ál
Raimund
Propeller
Newcastle
##terial
pH
Standpunkt
Ot
Geistliche
Anwender
beraten
fliegt
Lippen
AfD
Ästhetik
Phosphor
Aki
1689
mechanisch
lauten
Reiche
Filmdrama
Briefen
klaren
Körner
Gremien
Evangelisten
Türmen
Sponsoren
Inspektor
Ins
##rans
##kop
##eute
gewünschten
Hughes
wirkende
moderiert
NRHP
überlieferten
erwartete
Rie
Gla
##ausstellung
Lieblings
Abzweig
lösten
enteignet
Komplexität
##ologischen
##iguren
überwiegende
gemäßigten
Zy
##wände
Mühl
Zwangsarbeit
Insassen
##iftung
untersuchten
nachweislich
Krems
Blo
Ant
Staatsminister
Mannheimer
Grenadier
##iki
gefährlich
einflussreichen
Maritime
Guild
##vent
Cemetery
Airways
##ekretär
form
entdecken
gastierte
Kombi
##bon
lu
Full
##led
Tora
Kehle
##rra
begrenzten
Weichen
Afroamerikanern
letzterer
beherrschte
Nes
Gemisch
Chin
##haut
ausgegraben
Südostasien
Marian
Beschreibungen
##wing
##less
##hall
##dischen
Gänse
Freud
137
##ierter
verdienen
Hochfläche
Geisel
Erwerbs
##TV
Albrechts
##yne
##esch
null
Industrial
Cha
##τ
##assung
reichten
Geliebten
Selbstverwaltung
Pollen
flüchtete
Schweizerische
Priesterseminar
Pack
Inkrafttreten
Einordnung
Building
##aub
Cincinnati
Bari
##iana
Mordes
Fraktionen
überstanden
keltischen
Unge
Schweiß
César
berechnen
##iko
##hals
Vorsteher
##schiffe
##ligen
Pal
Gregory
Ful
1716
##hes
##ace
Wirt
##user
Kulturgut
Einheimischen
Ara
überspannt
dritt
Textes
Support
Rosenheim
Diskriminierung
Betriebswirtschaftslehre
Strauch
Fußballverband
christlicher
Nennung
Kickers
1880er
reist
unterzogen
tut
fertiggestellte
Swa
Seu
Pfand
Klassifikation
Gram
Fuji
zweithöchste
Abe
Harmonie
eingegangen
Stadtwerke
Beschwerde
Außenstelle
Übersch
dra
Gö
Deich
auftretenden
Palace
Weichsel
1672
vermittelte
reden
kultur
einzurichten
Amy
##rainer
Rex
Ket
340
1450
##eht
jünger
Fertig
1570
##reu
Libretto
##ša
##nahe
##herr
##ep
Korrespondenz
Außenpolitik
woraus
Vermeidung
Mind
Abgas
ta
gesteigert
Peri
Jar
Ehrendoktor
1705
Leistungsfähigkeit
Cis
##log
##jähriger
##dens
Pacht
Leone
##schnitt
vollendete
geltende
NP
Halbleiter
Anwalts
1728
##vre
illegal
Verkäufer
1350
Pölten
durchzogen
Ion
Bath
Etagen
Holm
Info
##mit
##lta
realisierte
angetreten
Tannen
Sauerland
Rekorde
Gebrauchs
##kins
erschwert
Rechen
Einflüssen
Bot
entsandte
WE
Volksmusik
Democratic
##partie
##amo
autonomen
Sandra
Sande
Fakultäten
verlagerte
biologische
Schlamm
Claudius
Judith
##SI
##pper
##pflanze
Konto
Bergmann
Asa
##kauf
##ful
Fleet
##äste
Savoyen
Ausgestaltung
Arbeitern
Bae
dir
##nski
Triebwerk
regionaler
getrennten
UNO
Kleist
Abgesehen
##urz
trockene
Gebäudekomplex
DEL
Haaren
Fly
##ersdorf
Rüstungs
Richtungs
Ocean
Nischen
##wang
Preußens
Liberal
Lebensmitteln
Homer
##ttbewerb
Sh
Fitness
Fal
schnellste
Queens
Federn
Vorbilder
Variationen
Cen
##farbe
VD
Maschinenfabrik
verbot
sinkt
Sil
Pearl
Nebraska
Kho
##ünden
landesweiten
Pool
##rose
gegnerischen
biblischen
Wasserkraft
Dortmunder
##hälfte
weißlich
republikanischen
nachhaltige
erfassen
Lebenswerk
Eingabe
tu
regiert
Ostafrika
Niederschlagung
Edel
##dam
##anen
religiöser
Anleitung
##papier
reale
##zzo
##vers
Nora
Cola
Angeklagten
##ngebot
formulierte
Thematik
fehlten
dieselben
Versailles
Richt
##yle
##pokal
Tafeln
Kou
Dramatiker
##äder
Flügeln
kahl
denken
Wangen
Lenin
Lebenszeit
##durchmesser
geschafft
Radebeul
Ostasien
Hochhaus
Experte
Chaussee
Boo
Bartholomäus
##preise
Vis
Taufstein
President
##logen
Gei
##law
##jas
##frequenz
vereinigte
Wurm
Timor
Sepp
Pfingst
Ani
Weinberg
Dialekte
beträchtliche
Akteure
1711
##uben
##alz
vorgeschrieben
##ritt
##holm
außergewöhnliche
##xy
##gewölbe
Zuchthaus
Mönchs
schwierige
ausländischer
##ák
##inrichtungen
Untere
Sed
Gutshof
EHC
Rings
Einbruch
290
##zogen
initiiert
aufgefasst
Heiz
70er
1709
##nse
##hie
##bibliothek
Zusammenstellung
Sämtliche
Merkel
Lock
Ela
##tock
##chul
einher
FSV
##ergebnisse
zwingend
Psychotherapie
##leitungen
warb
Taxi
Rüdiger
Pokals
Doris
KB
Geis
Decks
1729
##orientierte
zusammengestellt
Stadien
##maler
litauischen
##spiegel
ti
neunte
Spionage
Hosen
Vorrang
Dingen
ausgegliedert
Unver
Straßenrennen
Entscheidungs
##uka
schwieriger
Intendant
Erholungs
Kostüme
##künstler
SpVgg
Relation
Musicals
Inspiration
Bagdad
riesige
Ke
Inland
Stammplatz
Ek
##äler
##vorgang
##immt
##heater
Pfarreien
optimale
gewünschte
Trinidad
SBB
Memphis
repräsentative
Stätte
Imperial
##sla
leidet
Ace
Abbey
##inkel
eigenständiges
Wanderwege
Va
Anfänge
##eß
Freiherren
Eins
Sitzungen
##rdi
aufwändig
Winkler
Sk
Henrik
##own
operative
Kartell
hebt
Sy
##une
##lmann
##hörden
Ausgleichs
##ą
##mp
Gefieder
äußerlich
Veranstaltungs
Bergs
##chichte
Spielzeug
Devon
##lina
weißem
alleinige
Suco
Ahnen
Ähnliche
erschließen
HE
##ingt
Seiner
Gebets
Emporen
niedrigere
Toledo
Fürstbischof
zuge
Mallorca
aufgezeichnet
Neuerungen
Holger
Cle
Akte
##tts
##inister
Verpflichtungen
Sen
Sad
Gastronomie
Bäcker
1685
kräftigen
##uld
##far
Nashville
Mason
Kronprinz
Arti
##SE
##fallen
gegenseitige
externe
Sonder
Depression
Ach
##dre
erstrecken
Vikariat
##rren
##egung
##eger
Treib
Ple
Messing
##jon
Tours
Präsidium
KI
##oku
dauernden
Initiator
münden
##äule
kontinuierliche
erwähnen
ruhen
ausgedrückt
Schirm
Optik
geo
dringend
Kas
Arztes
##fälle
befassen
Rätsel
Lieferung
Leeds
1580
##cup
Schwein
Wörtern
Herford
Cru
##she
konventionellen
Spielfeld
Pö
Nat
Tumor
Schafe
1560
Weich
Qualifikations
Phillips
Convention
Abi
kaufmännische
Schlosser
Eng
##sp
toten
Prüfungs
Perser
Landgraf
Hohenlohe
Gol
##werbe
##ement
Kenneth
Harvey
1704
gesteht
Pres
Bombe
Fieber
##waffe
verwaltete
that
tauchen
hinab
herausgegebenen
Unterhalt
Fo
##jahre
Massiv
Hasel
BG
##cin
möglicher
eröffnen
Streitkräften
Schifffahrts
Lack
Deh
Bie
art
Ig
##ih
Teamkollegen
Schmelz
Lärm
Weite
Variablen
Tamil
##ystemen
Oppeln
Middle
Melodien
##reiten
##eti
grund
Kin
Germany
Stockwerke
Realgymnasium
##gemeinden
ausgeprägten
Jos
Hebel
##kurse
abweichende
Verwaltungsgebäude
Cameron
##tens
offizielles
Zufall
Th
Jenseits
Gnaden
Bandbreite
##artner
erd
Stella
Friedberg
1731
##rge
Than
Notfall
Gin
##flo
##dio
Markennamen
Urteils
Para
Brom
Alberta
##ča
einheimische
Beiträgen
Abhandlung
##sicherung
##ahrer
Č
Oberlausitz
##rtschaft
plan
Vakuum
Inselgruppe
##eifen
Lauenburg
Ester
Bankier
##lehr
##gler
Vel
Denver
##DE
##rou
ausgewählten
abgestellt
Wells
##kreises
Generalstab
Freiheitsstrafe
##öden
amtliche
ernst
Seitenschiff
##zeitschrift
künftigen
Teleskop
Hue
LE
Galizien
Frosch
Übungen
##stock
##itis
##alo
übereinander
Sti
Ker
##éra
##fre
still
##м
##yra
##lam
traditioneller
Viola
Strich
Rinde
##ziele
protestantische
DV
##physik
verringern
##machen
##ging
Sheriff
##messung
##ake
Sterbe
Sommers
Marino
Hochzeits
Geheim
Foster
Fachschule
Heimatort
Anfrage
##DS
jo
günstige
Wahlkreises
strategisch
gehaltenen
brasilianischer
Herrschaften
##räder
##rojekt
verschaffen
bediente
Ros
131
##triebe
Tourenwagen
Luftaufnahmen
Erk
1697
##pläne
stärkeren
Sekundär
Domain
##itten
##dingungen
schi
geflohen
Chau
##üd
##chein
überein
ergänzte
Prime
Becher
##sinn
##rote
##furt
zurückgehen
dicke
Tigers
Walmdach
Tech
Schaffhausen
Gerüchte
sen
##erke
Buchenwald
##wat
##nern
meiste
Mira
Hieronymus
Gasthof
Cul
Cob
1635
richteten
festes
befestigten
Zeugnisse
Distrikte
7000
erzogen
##šov
erscheinenden
Bruck
Ao
##gott
##ellschaft
räumliche
versah
stattfindende
definierten
Komiker
Erstaufführung
Basketballspieler
##schichten
##erf
Sc
Casino
##urn
mo
Raumschiff
FH
310
##reiter
morgens
Werra
Satellit
Profimannschaft
Kiss
Hauptver
Beschaffung
überregionale
verlagert
Sportart
FV
Böhm
##nick
vorherige
gewisser
Arbeitskreis
physikalische
Wirkungen
Sakrament
Remis
Refrain
Jährlich
gem
Federal
Auslieferung
Owen
Dora
Aspekten
##icherung
Pokalwettbewerb
Pfeffer
Konstitution
##uo
##alp
fertigen
Martini
##inien
Drum
Bahnhöfen
##bauweise
verspricht
Medici
Kos
##ürme
##wälder
vorläufig
Nepomuk
Amor
##top
zusammenhängende
##ish
##cci
Hurrikan
Dragon
Calcio
##rede
Kennzeichnung
##zsch
Roter
Avi
weitem
Eleonore
##kirch
##indung
est
bewohnten
Hol
##sso
gesprengt
Vergessenheit
Lektor
Kruzifix
Heilbronner
##latten
Reiner
##par
Jungtiere
Inflation
überholt
Maximum
Bloch
##stung
##gewebe
kra
##sre
##kie
Wing
Vorhalle
Faschismus
Titelgewinn
Blockade
Alp
1702
Römern
Reduzierung
Mass
Festspielen
Roms
Drau
Demonstranten
entsprachen
beliebig
##yna
##usbildung
architektonische
Würfel
Piemont
Oberhaupt
##äßig
norwegischer
Spielstätte
##unternehmer
##uel
Übereinstimmung
indonesischen
Case
Bischofssitz
##či
##ssistent
Missionare
Makro
Ranch
Bergsteiger
Daily
Adaption
##rekord
##rakt
Lutherischen
##qu
##geschlecht
##but
ökologischen
populäre
bereitgestellt
Teilhaber
##kat
Weißenburg
Töchtern
Chors
Cara
##uchten
With
überregional
Öz
aktiviert
Kleinbahn
Hilde
verteilte
unwahrscheinlich
##tall
##sey
##angaben
sodann
##tei
##liegenden
##kka
Ungarischen
Ostfront
##gast
kreuzt
flohen
Steuermann
Routen
gliederte
Simone
Schleife
Fossil
strenge
hu
Ty
Jennifer
Spandau
Glücks
Brock
1726
1707
##alk
stürzt
Police
##bou
verzögerte
ausgeprägte
Sé
Literaturwissenschaft
Hauptgürtels
##ilen
##dustrie
öffentliches
elektrischer
Zehen
Deli
schieden
normal
Sho
Göring
Eb
Burger
##urkunde
##eon
mangelnde
Wesel
Opernhaus
Guide
Epochen
Arche
##set
sendete
Phi
arm
Tierarten
Münch
Fremde
##filme
Kün
nächstgelegenen
körperlichen
gestellte
außerordentlich
absolut
Einschränkung
Bela
##darstellung
vielfältig
unterschrieben
Obmann
##west
##malerei
zi
umgehen
Zealand
1708
##ypen
##mutter
real
gefallenen
Fahrplan
Ego
Anhand
Ellis
Ausprägung
globale
Funktionär
##rechtlichen
flüchten
abgeschnitten
Fortschritte
##oso
zwölften
eingesch
badischen
Tischler
Reisende
Geschwindigkeits
Gebühren
Arte
Adelsstand
##onne
##lith
Terrasse
Norfolk
Glenn
##fikation
Urlaubs
Soli
Report
PL
Mas
##ckte
Bundesgerichtshof
##arkeit
##aa
Córdoba
Chassis
##felden
##ech
##begriff
Ura
DH
antwortete
Unabhängig
Japanischen
Erbauer
##objekte
Schlaganfall
Hr
Gesamtweltcup
##ketten
##grat
Jou
Fülle
##auern
zuweilen
zeitlichen
Rea
Jod
Flugzeugträger
geschriebene
fordern
Tragflächen
Petersen
unsicher
aufgehängt
TI
Stru
Hierarchie
Bauwerks
##risiko
mbH
jetzige
Untersch
Unterbau
Rocky
Rhode
Doll
bo
Like
Langer
Verknüpfung
Illustrator
Grundfläche
Früchten
Canyon
eingerichteten
beliebige
Weltcuprennen
##uit
angegebenen
Untertitel
Unser
Saug
##erbe
ökologische
Töpfer
Olaf
##lität
##aß
verwies
beidseitig
Ming
Dong
##lier
ägyptische
beeinträchtigt
Naumburg
Care
Norda
Borough
umstrittenen
entziehen
OM
Frequenzen
138
##sohn
##chie
binden
angebliche
Unbe
Remix
##ô
##sge
##ario
Neunkirchen
Cra
Commons
##bend
höchster
Stadtrechte
Deal
##undes
##rieb
##quer
Zuflüsse
Mitgründer
##techniken
##rop
repräsentativen
Bodens
##üssen
##eschichte
Vorarlberger
Siena
##lem
Rim
Kwa
203
##ören
Sortiment
Rookie
Kirchdorf
Isabel
##adi
kostenlose
Centro
##ebel
##rian
##erge
fla
Schöneberg
Gepäck
Disc
Arc
##sien
fließend
Kraftstoff
Kirchgemeinde
Katar
Castell
1622
##hne
Ger
Bildenden
##vat
dreier
doppelten
Schlange
Rin
Kau
Edmonton
##uan
Sem
Partikel
Künstlernamen
##ssystem
Secretary
Kranz
##äusern
amtlich
Absolventen
experimentelle
beeindruckt
Portugals
##abend
verankert
erleichtert
NPD
Kei
Astro
1699
##rater
##ierungen
Stellenwert
Archäologischen
##messe
##vu
##ssch
teuer
letztmals
Milli
Startplatz
Indianern
Schwimmer
erlag
abgedeckt
Patient
Kometen
Diakon
weihte
Straubing
Integrations
Hofer
##mangel
ausgestorben
Unterbrechungen
Konsolen
##instrument
Verhandlungs
Streich
Gui
##steine
##ransport
ländliche
Salem
Her
##kra
umfangreiches
gefertigte
dos
Luthers
Leih
Andre
##ène
##stes
##afel
Querhaus
Batman
Anthropologie
verwüstet
Xu
TB
Grönland
##gründen
Pfadfinder
Core
Ausweisung
##bit
Stendal
IB
dunkelbraun
Cash
##mina
überstand
Liefer
ul
Warburg
Gutenberg
##ästen
modern
Verbrecher
Vatikan
Stress
Print
Kleinasien
Eugène
Enterprise
##ituation
Motivation
##uda
Teiche
Goslar
Filmproduzent
##ence
mancher
Thorn
Reutlingen
Mou
Manöver
##lp
##helfer
Reisenden
Kollektiv
Gütersloh
Amateure
informieren
Konferenzen
Associate
kalte
Trinity
Security
##run
Gmina
Buchhändler
##schin
##gis
Wahlkreise
Vorburg
Portugiesen
Generalversammlung
Dampflokomotiven
Artepitheton
##pter
Schö
Ethnisch
Alessandro
##gliederung
##edo
Wasserfall
Antriebs
Resten
Säge
Dani
tötete
Teu
Tea
ER
##ewa
ausgeschrieben
Teppich
Saum
Aqua
##zio
##tücke
Verschwinden
Orgeln
Mk
##stel
verbesserten
Ural
Schotter
Fußballspielen
##ütze
zukünftig
Versicherung
Pyramiden
Porte
Enkelin
##walt
sogenanntes
entgehen
Tam
Voigt
Vienna
Organismen
##hor
pädagogische
exakte
Innovation
ve
brandenburgischen
Wester
Schöpfung
Nass
Lä
Techniker
Highschool
##pfen
zweitklassigen
lebens
charakteristisch
Turbine
FL
##usi
##big
mitwirkte
Small
Delegierten
Dale
Wolle
Westfront
SWR
##tit
##rü
Sollte
Fundamente
Airbus
Adelheid
schmaler
veranlasst
NI
Kum
Helga
##alm
ablegte
Zubehör
3500
##rag
Synchronsprecher
Qa
##opo
markante
Territorial
Böse
Antenne
##mast
untergliedert
Wai
Tales
Severin
Palma
##geb
Zuflucht
Sr
Mieter
Farmer
Emmanuel
##zid
##pos
##dienstes
##agazin
Works
OR
##wohner
Thu
Steck
Jahrtausend
##utsch
##duktion
Gate
Este
Astronom
##varianten
##ssion
##rück
unerwartet
entworfene
Befürworter
Altarraum
beurteilt
Chelsea
##phon
gu
Tränen
Dachs
Clay
Kno
Kemp
Jesse
Onkels
Ewald
musikalischer
gezahlt
Ou
##runnen
Montgomery
Infanterieregiment
Wel
Nicola
Cho
sin
konsequent
führender
Yorkshire
Sportplatz
Obama
##ista
##hua
häufigen
Konsequenz
Karen
DOS
##IN
we
Frist
##moto
WWE
erbracht
Plata
##abkommen
enormen
Zeitgleich
HR
Empfehlungen
Bedeutungs
##hum
Krug
Grun
Fisher
Besatzungsmitglieder
Sopran
Aman
Adelaide
##hit
##get
Seminare
Esslingen
##mine
##het
##stücke
Gottlob
jur
Politikern
Kompositions
##nio
##eiche
Schaum
##phe
anlegen
Kelchblätter
GC
bekrönt
Oberland
Edo
##nke
##erne
##ause
Wissenschaftlicher
Staatsrat
##ides
##hos
##sts
Duc
Brau
##oj
vorge
Parma
Jade
Grade
##uti
##treifen
Ō
analysiert
Lebensdauer
Kreuzgang
Hygiene
verstreut
kalten
Deportation
Autobahnen
Gesprächs
Dampfer
##oor
##nam
Bundespräsidenten
Nikola
VT
Testaments
Souveränität
Grundherrschaft
##störungen
che
Cir
Jahrgang
Harbor
Dementsprechend
##türme
##familien
weltliche
Wallfahrtskirche
Eil
Angewandte
kristallisiert
##ört
##union
radikalen
##OR
##pfer
synonym
Ingenieurs
##logische
lateinamerikanischer
Hay
Gong
Flüchtlingen
kommandierte
Wagens
Thal
Saarlandes
Blum
##zeuge
Verteidigungs
Nuntius
##spro
##festival
überdies
natürlicher
Milwaukee
Ingenieure
Grove
Fundort
Anfängen
##joch
freiwilligen
Spätmittelalter
##geben
##enha
Stromversorgung
BT
##nisse
nötige
Staatspräsidenten
Nachbarort
Hos
430
204
##â
vertreiben
Vu
Uk
Lucy
Harburg
##handwerk
Wiki
Weisen
VE
Abschnitts
hand
Viren
Verlages
Raben
152
##ř
##gewinn
vorletzten
Westminster
Swan
Rode
Mandel
##tius
##tafeln
##mens
geladen
Tann
##ray
schlichte
einfaches
Mariens
klinischen
erz
Urheber
Rundbogen
AFC
angesehenen
Vale
Ligaspielen
Fraktions
Vent
Schwäbischen
Schaffens
Osaka
Medikamente
Cello
Arne
Adligen
Manifest
Hildegard
##rechtlich
##char
Wettkämpfen
Expeditions
Naka
Mina
Hod
Forces
Buslinie
##beit
pe
Stadtbefestigung
Tama
Spaß
aneinander
genehmigte
Rassismus
Both
##ziehung
##inski
##abschluss
farbige
Fliegen
##upp
##artei
Speer
##geln
##tle
##lius
##aufgaben
revolutionären
Filmpreis
Angels
##AR
geschossen
cor
Nationalliga
Kunstwerk
Annie
ausübte
Zehnt
Warm
Bänder
Pisa
Sweet
Regent
Bere
Badischen
Anzeichen
##alu
verlegen
landes
Plattformen
Gmünd
Aurich
Amadeus
##sierte
##paare
begeben
Zuges
Scotland
Scar
Nutzlast
Katz
Fabian
##usse
zehnte
Jaguar
sogleich
krank
heimische
gehaltene
Store
Kane
Clarke
gegnerische
Reichsmark
##я
##geh
Vorderflügel
Naturparks
##weig
werdenden
reichlich
bedarf
Steigung
Has
Dion
##ní
##indi
Zufalls
Hoff
##rius
schickt
bräunlich
Araber
##ländische
Wick
Tauber
Skiweltmeisterschaften
Schiffbau
Ned
Keil
Hendrik
Verlassen
Kriegsgefangene
Großbritanniens
Abfolge
gerichteten
##ündung
##enheim
Juri
Geboren
136
Typisch
Rome
Grundmauern
Boom
Bahnsteige
Mythen
Markenzeichen
Indianapolis
Charakters
Us
Städtische
BL
1703
##nol
##folgen
thüringischen
junior
Seilbahn
Lyriker
Krankenhauses
Ausweitung
##sstelle
vornehmen
repräsentieren
Unternehmensgruppe
Tambon
Singen
##î
##ume
Sokrates
vollzog
materielle
hochge
##lbe
##enst
schnellsten
geraden
anzu
Kristalle
Fertigungs
Bandmitglieder
##rda
romantische
meinen
integrierten
bewirken
Productions
##nver
ho
Fachzeitschriften
jähriger
Türk
##riff
João
Aufforderung
##ngel
erwachsene
Tres
Kostüm
Kirchengemeinden
##nä
sportlich
Klerus
Kit
Fernmelde
##nbau
Überraschung
beachtet
Fahrwerk
##с
Sum
Hort
Gambia
bearbeitete
1590
##rik
Schaft
Radius
Lokalbahn
ISS
Bestseller
Aufarbeitung
feindliche
Starts
Gefährdung
Auferstehung
Verrat
Fähr
##bedarf
entfiel
beige
Viscount
Drittligisten
##verkehrs
begibt
Hopkins
Amateurliga
beliebter
Vul
Amtsinhaber
##core
stützen
schicken
kreisfreien
##bia
##behandlung
niedergebrannt
Stier
Novo
begonnene
Girls
lutherischer
Westpreußen
Schur
Lehramt
Glass
Gladbach
Aufschrift
##np
##bas
isolierte
Round
##ntwicklung
sendet
abgesagt
Richters
Oi
##rug
Älteren
129
##ün
beschuldigt
1706
##lima
überlebten
Vermarktung
Ili
Dau
##veranstaltung
##rka
externen
dargestellten
beendeten
Mosambik
Kl
##marsch
##zität
##tö
##leis
##erson
TG
Schal
##kla
##hold
Bourbon
##kowski
##aud
##aria
problematisch
Wiktor
Ner
Ess
60er
##ows
##arbe
stilistisch
Neuro
Military
Factor
Direktorin
Anal
Garmisch
Eisenbahngesellschaft
##ummer
Schwarzer
PO
Leichtathlet
Kliniken
scharfe
Maud
Gali
wiederaufgebaut
feuchte
Investor
Cohen
Beckens
##trasse
##mid
Zustands
Vizekönig
PlayStation
Kaufhaus
Gua
##überwachung
dürfe
VC
##mischen
verarbeitete
regen
Vitamin
Kalt
Falkenstein
##ME
äußert
Fran
Beschuss
Abends
##iese
wenden
Rah
Hase
Geltung
##sur
Verlierer
Boll
bebaut
Tragödie
Ler
Willens
Powell
From
Altars
Überwachungs
Väter
##zia
##liegende
Beobachtungs
215
##verbund
##rö
##endi
bürgerlich
Eisenbahnnetz
semi
Zaun
133
##EC
##setz
grenzen
Skr
Pho
Gleit
Flat
Bestellung
144
##höfe
begünstigt
Pers
Kunsthalle
Stadions
Schulabschluss
erb
Chart
##oko
stabile
Europastraße
DK
niedrigeren
gebürtige
Kamen
Ausflugs
##uis
##erien
Teufe
Ans
verraten
grenzte
Soziales
Slawen
Happy
##time
braunen
Zhang
Staatsarchiv
Bod
##kasten
Dscha
steile
regierenden
fra
Studierende
eignen
Thessaloniki
Bausubstanz
##ulin
##rtig
Steig
185
##isation
erläutert
Ruhestätte
Lid
Kolonisten
gestoppt
Vormarsch
Verwandte
Besatzungs
ff
Wikinger
##IC
##zki
##fung
umfangreich
sechsmal
Selen
Netto
vierter
Oscarverleihung
Niederschläge
Abnahme
##eistung
göttliche
Sterns
Sojus
nu
beobachtete
Unterstützungs
##olin
##krone
##immen
verschaffte
leitender
Verschiebung
Substrat
Leicht
Dmitri
##pital
mitzu
Mus
##dle
religiös
notiert
Ordensgemeinschaft
Kahl
Gesandten
gestohlen
UA
Snow
Metzger
Hein
Champagne
Brigadegeneral
##technische
Laboratory
Ahmad
diverser
Geological
Erliegen
Wanderer
Schlesischen
Immun
Grö
##xid
inhaltliche
geäußert
dauern
Stolz
Kurfürstentum
Japanische
Gottheit
vereinfacht
Fragestellungen
stimmt
Sund
##uy
##tiefe
verbannt
fremd
denkmalgeschütztes
Westerwald
WI
Rost
OK
Ernährungs
Engelbert
##mmt
##ines
Tir
Curtis
Cloud
##ämpfer
reiner
Wet
Toskana
Südtiroler
Landebahn
##CO
##smittel
##äulen
Vo
Montpellier
unterschiedlichsten
Staatssicherheit
Erfurter
Direktion
AW
ausgestattete
Aufbauten
pol
bewältigen
Blas
##rektor
##jahres
markanten
Kontinental
Card
##erl
Sheffield
Profifußball
Greif
##ubi
Tot
Rivalen
Halbbruder
Dual
##zis
gestört
ganzes
Wolga
Inhalts
##cor
abends
Kart
Enzym
##lü
##bekämpfung
Versprechen
Katalonien
Baumaterial
##reuth
##requenz
##echte
unterquert
Teenager
Milan
Andrei
derjenigen
Schwäche
Penn
warme
verfolgten
VO
Sey
Industriellen
205
1654
Expeditionen
##uts
##tagen
englischsprachige
ausgerufen
Vorgehensweise
Referendum
Meißner
Jacobs
Concert
Berufe
##že
Winde
Generalgouverneur
see
##av
Rhetorik
##termin
beabsichtigte
Produktionsfirma
Kro
Dry
DO
Bek
##ssi
##moos
##iva
Schreiner
Rotation
Letzter
90er
##taler
##logy
heirateten
gestellten
Lilien
Honorarprofessor
##р
drittgrößte
Spielers
Hofrat
1610
halber
Torschütze
Sarajevo
CL
Bahnhofsgebäude
##höhen
Unschuld
Belo
##shof
beschäftigten
Snooker
Renate
##vertreter
Weingut
Kraftwerke
Jemen
Gerard
##rtige
##mberg
PKW
Friesen
Bf
Versand
Nachbargemeinde
Geest
Berechnungen
##ple
Trink
Jungsteinzeit
Gur
Exponate
##uhl
Staatsgebiet
Naturdenkmal
Gabel
##ło
Einerseits
landen
Ren
Patriarchen
NR
GD
Class
##ühne
##gna
professioneller
afrikanische
1675
##uert
bedeutsam
Melde
Avantgarde
##üren
##scheid
Relegation
Vietnamkrieg
umgerechnet
Uganda
Nobelpreis
Arbeiterpartei
##éri
##schar
sorgfältig
Timo
Staatsangehörigkeit
Poll
Clans
Abmessungen
##regel
stationierten
Stadtarchiv
SW
PE
Ghost
verursachten
Kartoffel
Gat
Did
Chorraum
1631
aufrechterhalten
VG
Civil
Buss
veraltet
Enz
##ento
##ams
ausgerichteten
ausgehen
Niederländischen
##GA
Senke
Längs
##IT
##äche
durchlaufen
##yth
##loster
##dert
Heeresgruppe
Pieter
Diamanten
##ogel
Kni
##zza
##ringer
bewirtschaftet
Hochebene
1625
##aterial
sk
nachempfunden
beliebtesten
Sang
Freigabe
mexikanische
Herstellern
Dienstleistungs
Touren
Namensgebung
Lautsprecher
Benny
##ami
späte
feinen
Wochenzeitung
Lib
Fed
Peace
Ilm
Baureihen
##üler
einsetzt
Okzitanien
Körpergröße
Bara
##vision
##ritik
freigesprochen
Mia
Begeisterung
männlich
Cousine
Serra
Schmalspurbahn
Gail
##nic
##einigung
verringerte
nordischen
böse
brachen
Geschäften
##yang
Taxon
Staff
Ox
Archäologe
Richards
Eigenständigkeit
1661
vereinigen
Vermessungs
Rü
Leb
Innenseite
Festlegung
Bundesverband
##umfang
Witz
##uhe
##sat
##prop
geltend
Pfad
Palme
Nou
Gelege
Gebr
Eheschließung
##artikel
Prost
LC
Haftstrafe
A4
1603
aufwendig
Grundsätze
Besten
134
##blo
kümmert
Underground
Sos
##če
##geräten
##cit
Westafrika
Kü
Wirk
Straßenbau
Mittlere
Köpfe
##chy
Leslie
Dozenten
Abo
##cle
festzustellen
Standardwerk
Loge
Gou
Gloria
##ğ
##ahnen
Lesungen
Slo
Kon
Deutz
1480
##ndig
##atur
Tansania
Oberkommando
##lins
##stufe
aufgestellten
VB
Pel
##ldung
##cer
wiegt
Vice
Rheine
Offenbarung
Apfel
##sender
##dai
wegge
Weges
Rangier
Herne
Hab
##ego
Trost
Merz
Gräberfeld
Psychiater
Nico
Hardy
Assistenz
##sphäre
korrespondierendes
Schott
Mühe
Hack
Champ
##tragen
##leck
verbreiten
ständiger
Wohlfahrts
Tribut
Dominanz
##versch
##mig
##hler
ungeklärt
ukrainische
Organismus
Nordwand
Koffer
Dru
Ah
##federn
Trient
Hauptteil
Gris
Eber
Baumwoll
Wasserturm
Mang
Kolo
Drive
##opi
##elde
Jungvögel
Gibson
Bauhaus
##rett
##logisch
##fassade
riss
Herd
Gegenstück
Datenschutz
##übergang
##unnel
geologische
are
Schwedens
Malo
Kühn
Grabstätte
##lokomotiven
Zukunfts
Pt
Pon
wanderten
interessante
Woods
Tou
Third
Mino
Jährigen
##aufbau
vereinbarten
Sektionen
Fasern
##fri
Schauspielern
Lab
##verlag
Verwaltungsrat
##sit
##gat
##olis
##agt
umstrittene
bedrohte
##hra
Zusammenfassung
Wellington
Sponsor
Schulte
##iale
Vorliebe
Talk
Journalismus
Jong
Funden
intensiver
günstig
Haiti
##RO
breiteren
Meinungs
##suche
##gef
mitge
Mahler
Lebensräume
Eisenzeit
indigenen
beeinflussten
Saxophon
Rotor
Hausen
Befehle
Bayerns
##nae
##enne
lineare
kommunistische
Gor
Gisela
##ül
##sle
##nergie
Dienstes
Auffällig
Auen
##ery
vorkommende
mu
Religions
##thi
seitliche
Haube
FU
lit
Trag
Jal
Hufen
herausgebracht
abgeschlossene
Ricardo
Rivers
Linné
Electro
##EN
Gruft
originalen
neugotische
ka
Lei
Klinge
Hindernis
##kä
ewige
armen
Verdienstorden
Jacobi
Check
Vic
Stadtbild
Riff
Endstation
Ausstieg
##tod
##rap
durchgeführte
Ono
MR
Dramen
1684
##handlungen
Lö
Anwendungs
##offe
Teilnehmerfeld
Arminia
treiben
fälschlicherweise
abstieg
Wintersport
Kür
Jana
Hauptdarstellerin
Arbeitskräfte
räumlich
Ye
##tests
bloß
Newport
Nero
Mittelschiff
MAN
Kunde
Bona
##urger
margin
Here
Gleichstrom
1698
##gr
beiderseits
allgemeiner
Weltmeisterschafts
Lux
Know
235
##wn
vorzubereiten
Mama
nm
beschleunigt
Emigration
##aj
mut
Warte
##deckel
NW
Koh
Guss
##RS
##11
##älder
##box
praktiziert
Wechselwirkung
Sigmaringen
Hecken
Ehen
##ttel
##annung
##anal
unzureichend
Verdienst
Soloalbum
Pyro
Brei
Bezahlung
gesenkt
beseitigen
Det
##rog
##nth
Twin
Kna
deckt
beschränken
Bryan
##pes
Umfrage
##icke
##erklärung
Zweikampf
Lichten
Beni
Arndt
##ützen
##staaten
##aine
überdeckt
Thurn
Puccinia
Cox
##gebung
moralische
Sekretärin
Rust
Hesse
1572
außerordentliche
alternativ
Schuldner
DEFA
serbische
heim
gefällt
Neubrandenburg
eingebettet
Mate
##euerung
umzusetzen
Sulzbach
Pumpen
BSC
##oman
Koordination
Ante
##berge
Townships
Cyclo
##ket
Kamin
Julien
##ção
##zins
Charter
##gehäuse
repariert
extremen
erfand
Tendenzen
Zweigen
Trompete
Schrauben
Alli
##act
Hank
Gesetzgeber
Unterkiefer
Government
Fjord
##projekte
##partien
é
präzise
UD
##regionen
Bennett
Augenblick
1656
##side
##pis
##lotte
Triebe
Privileg
Fließgewässer
##orp
##nell
dichte
Tem
Emily
Bundespräsident
1628
verlangen
Innenausstattung
Elsa
Cari
Agency
950
##FA
##nsch
##lick
schottischer
Gesteine
##kawa
erwachsenen
aufgetreten
Emilia
Betty
Batterien
Schaumburg
Moderatorin
Kantonen
Ino
Hera
##uhren
##kinder
##ffekt
##eae
effektiv
Schülerin
Mausoleum
Kubikmeter
Herschel
Vá
Stoffen
Neugestaltung
Flügels
Cy
##pet
##informationen
Kita
Kahn
Amberg
syrischen
kombinierte
bedeutendes
aufzugeben
Schwe
Damaskus
1870er
##ünde
geometrische
RNA
Molekül
LG
Forts
##praxis
##pflichtig
##chin
Sternberg
Kriterium
Amtsantritt
abzweigt
Youth
Dud
212
##ith
verdeckt
Strophen
##phen
##nsis
##fraktion
zentrales
tagsüber
rückgängig
##sprozess
##brik
Enteignung
##ignal
##darf
stimmen
kunst
elektrifiziert
Studienzeit
Schleif
Bram
Algen
##gangen
Sprengstoff
Heils
Einblick
##wissenschaftlichen
Trümmer
SGB
Elektrifizierung
Amazonas
##revier
##anische
wog
unterdessen
Verlusten
Partnerin
Hed
1693
Urin
Sanskrit
Kirsch
Erinnerungs
Dänen
Arrondissements
##änner
##vater
##dampf
aufgesetzt
Rochester
Neugliederung
Ell
Chirurg
Balkon
1629
Effizienz
Bambus
##üller
##ù
Drake
Bri
Sieb
XV
Str
Program
##ār
##zione
aufhalten
Wirkstoff
Wesentliche
Tatsachen
Shell
Scheune
Altmark
Zittau
Ortsvorsteher
MV
Langstrecken
Hz
Bamberger
##stä
##rmann
schätzte
fungieren
Sparte
ProSieben
Plattenlabel
Koma
Hintergründe
##ändige
Melchior
Marin
Justice
gescheiterten
Gy
##RI
##bb
##angs
fragte
Sis
Gaius
Fol
anderthalb
Konstruktionen
Banks
langsamer
kriegs
Soest
Ortsbürgermeister
Harp
Finanzierungs
##amp
Dh
##warte
Superintendent
Rohstoffe
Nektar
Eingriff
Crawford
überlieferte
Uli
zusammenarbeitete
con
##hasen
##ehl
warmen
Streicher
Spanische
Rangliste
Endung
##bachtal
durchsetzte
Individuum
Em
##staltung
Ulrike
Hexe
Dieselmotoren
##problemen
##ione
Lur
Kunstgewerbeschule
Bevölkerungswachstum
Bergleute
##stan
##pro
unregelmäßigen
Kugeln
Gestalten
Fünfte
Bre
##ordnete
NC
Begabung
##mbe
Sidney
Flottille
Blank
##lant
Sediment
Saba
Horse
Divisions
##heits
slowenischen
Pen
Kurier
Fakten
Bedienung
Arrangeur
Amtsgerichts
275
##dri
dreischiffige
Too
Reichen
Dock
##ulus
##rechen
##had
gebogen
angehoben
Hä
Dunkelheit
Paarung
Kleiner
Kabinen
Cluster
Castel
##cheid
auszu
akzeptieren
Wirtschaftsgebäude
Jahrbuch
Gefäße
Erasmus
##verzeichnis
kräftige
analoge
Versteck
Mitternacht
Körpergewicht
Einsatzes
##emeinde
Lex
Electronic
##haber
##gesch
Vere
Ligue
Verwaltungszentrum
Bereichs
##iar
Feuchtigkeit
Eugene
Venture
Android
Öffentlichkeitsarbeit
kontrollierten
Zunft
Schna
Mobilfunk
anbietet
Sle
##sung
##linik
transferiert
Lauter
##firmen
beliefen
Vampir
Regimenter
Förderverein
Betonung
##route
nutzbar
Württembergischen
Ritterkreuz
Militärregierung
##problem
##afeln
Vin
Schmitz
Akzeptanz
Seel
Kontrabass
Gro
Campe
Beeren
Alexei
enttäuscht
Sü
Stop
Sanders
Joy
Inszenierungen
##smo
kontrovers
gewonnene
Volkshochschule
Sommermonaten
Schwedischen
Fremden
Alban
sicherten
mitgewirkt
bekanntes
Tausende
Mob
Hinrunde
Hertz
##ehre
stehe
Trö
Mö
##list
##enti
schlichten
Linsen
Horrorfilm
Archäologische
1623
grauen
erwarteten
Hessische
##rage
##glia
erlangten
Operetten
Kampfes
Geldern
Begräbnis
starkem
erzeugten
Sel
Novi
Leinen
Dae
Bata
##ortal
##bri
Musikwissenschaft
Delaware
Nuklear
Joel
1686
##hältnis
##bilanz
Rezension
Phänomene
Blöcke
verschwanden
Theatern
Pak
NCAA
Lead
Brandenburger
##üll
dokumentieren
Tageszeitungen
Partners
Gad
##äte
##mia
##kk
unge
psychischen
Trierer
Mos
Gegenständen
Essex
Ert
##jk
arbeits
Begriffen
##umpf
unabhängiger
Kasernen
Hari
Flusslauf
Feldmarschall
##Ra
strebte
passt
Tracks
Spruch
Missbrauch
Anweisungen
Also
Nachnamen
Giacomo
Fus
Abspann
206
##fal
verfallen
sa
Habitat
tschechisch
ausgebaute
Zähl
Niko
Fühler
Ec
Auflistung
##erde
zusätzlicher
schwanger
ordentliches
kn
Eye
##utter
##pil
##pas
##oga
##bie
denkbar
LT
Einw
Weisheit
##ochen
Schlosspark
Motion
Henderson
Giu
1621
##ental
##н
neuesten
Soft
Fußboden
Fun
welt
formale
bemerkbar
Stils
Rha
Pérez
Pegel
Dämonen
Ökonom
einflussreichsten
Täler
Gutachter
Doc
Bal
##sä
##lou
##gleis
oblag
Philharmonie
Loh
CBS
##tudium
##hältnisse
erzählte
Fix
Bereitschaft
1652
##zwecke
stehend
flieht
López
BF
Wiedergabe
Haager
Enten
Weltweit
Price
Brooks
verschleppt
rettete
fortsetzte
Dünen
##his
##dische
1664
##ipe
Pf
Klinikum
##jet
##gor
profitierte
Mandats
Jak
Eingriffe
Charta
Registern
Lori
Gegenspieler
wohingegen
radikal
naturwissenschaftlichen
Edi
1667
1526
##lian
aufwies
Sechster
Katholizismus
leistet
Zuschlag
Wünsche
Speck
Rotations
Hummel
antiker
angestrebt
Theodore
Polizist
Gill
##format
ostantarktischen
heiratet
Rollstuhl
Lys
Half
González
Gewinne
Events
Bever
##sein
##enda
##bezogene
Verde
Studiengänge
gängigen
erloschen
Erhalten
Bl
##št
##modus
##erre
Zisterzienser
Wikipedia
Triple
Sprecherin
Schieß
Ces
gedrängt
aufgestiegen
Ziegler
Regelfall
Korrespondent
Freedom
Erwärmung
##ämpfen
##cop
erschaffen
Rohrbach
Qi
Milieu
Kanon
Gruppensieger
vermeintliche
Römische
Canterbury
##landes
##chtig
gesteckt
alphabetisch
Merkmalen
Manila
Jakobus
Hersfeld
Asian
neuro
Wandmalereien
Persien
HI
Freguesia
Entschluss
Beutel
integrieren
Wen
##lub
überragt
Cold
Zahlungen
NH
Aussichtsturm
Anstelle
1529
##eits
Skizzen
Marl
Gleichheit
Assistentin
141
##й
verschrottet
jugoslawischen
Hou
Children
Alternativen
kalt
betrachteten
Warn
Gelehrte
##wappen
##tischer
Süddeutschen
##rds
##ldi
abgetreten
Freiwilliger
Bin
überprüfen
Vatikanischen
Smart
Investment
Boi
##br
Wiederholung
Neuf
Filmfestival
##eto
Wide
Ulmer
Beschleunigung
Pioniere
Ireland
Australier
##ture
##handels
##for
akzeptierte
Korallen
Konföderation
Gruppierung
##kante
##jat
bevorzugten
Großgemeinde
Carri
##kit
Masch
feierliche
detaillierte
ausgebildete
Schuhe
Panther
Nantes
Lithium
Io
Gibraltar
##trukturen
##arn
1679
##bern
Yacht
Impact
##effekt
Patente
Lem
Client
##hol
##ange
wartet
Nebengebäude
Kameraden
Ae
##pfad
##chulen
überwunden
empfiehlt
Tessin
Pou
Drehzahl
Domingo
Pani
Kleinst
Kapuziner
Eiern
C1
Bezugs
##cka
Hartmut
##ward
##klinik
formell
Magnet
Jugendabteilung
##datum
Umlaufbahn
##ip
##iefer
geleiteten
Sichtweise
Puppe
142
Fü
##ommission
##gin
irischer
ch
Puch
Kosaken
Barbarossa
##racht
liess
Shō
Kaiserreichs
Erm
par
Welterbe
##osi
wechselnde
separaten
angeordnete
Omnibus
Nordrand
Gutsbesitzer
Feierlichkeiten
1692
##ütz
##ucci
##feldern
Raab
Milton
Baumann
##elm
##aku
Überlieferungen
göttlichen
##wei
##pon
##gegner
##arischen
gelernt
Sch
Anjou
Anderen
Amerikanische
##röße
##idi
Memoiren
Hunsrück
dazugehörige
Metropole
Afroamerikaner
Taxis
Oberschicht
Hameln
ausgedehnt
auftretende
Michaelis
1536
posthum
Streben
Nicaragua
Muschel
Lehens
Step
Hecht
##nteil
warm
Stä
##zentrums
##verfassung
Öko
eingehalten
abgeschlossenen
Amphibien
##lation
neutrale
durchge
Zin
Aktiv
1694
bedacht
Genom
Bauteil
Wied
Kenny
Hürden
Goldberg
Geruch
Eigentums
Burke
##lge
perfekt
linearen
Jensen
modifizierte
Ue
Maut
que
einmalige
Solist
Etage
Drehbücher
Cuxhaven
Bali
##lberg
tra
Vorhandensein
Supreme
Penis
Konsortium
Grabungs
Flöte
Britische
##ovi
Ziegelei
Tas
Eintragung
blass
Haber
Gutsbezirk
Baustil
##eform
reicher
bedingte
Add
##stad
verfehlte
li
Mack
Glied
Eller
Ausarbeitung
##enbe
zweijährige
drückt
dichter
basierende
Steinh
Kambodscha
Grundgesetz
Betätigung
Architekturbüro
AU
1555
multi
abgewickelt
Waisenhaus
Landesf
Bol
##lee
##gem
Tatra
Neptun
Judo
Ballon
##rtung
##nnt
Zwillinge
Body
Pendant
Kron
Buchstabe
Anstrengungen
Wessel
Furcht
##rest
##hur
Telekommunikations
Sobald
Schmied
Ahmed
211
##rauch
visuelle
genetische
Gesandtschaft
Felle
vereinen
ausgeglichen
Postamt
##40
##cas
verborgen
konkret
intra
Zir
Linzer
HF
Freiherrn
Exposition
Boro
Verabschiedung
Thomson
Schütz
Monroe
##verarbeitung
aufgeführten
Zielgruppe
Einfahrt
##stre
##kro
##assade
chi
abzusch
Sängers
Lina
Landgemeinden
##ots
zugehörig
resultierenden
Dialoge
##verkauf
##reite
##münster
##leit
überfallen
Nü
Moto
Endo
Dil
Chromosomen
Beg
Ano
222
##rey
Wertheim
Veranlassung
Monde
Lynn
Computerspiel
Bereitstellung
##inga
Trompeter
Hindenburg
Feststoff
##ümer
##behörden
ungewöhnlichen
Reuter
Kingston
Kasan
Anselm
##trieben
##endungen
##dig
vergleichen
konzipierte
steuern
problemlos
Og
##mani
vermeintlich
gegenwärtigen
erfolglosen
Sensoren
Heimatmuseum
Erzähl
Coverversion
Com
##yj
##oux
##liegen
verarbeiten
NK
Lucia
Landesgrenze
sukzessive
freischaffender
Friede
Dauerausstellung
String
Schlu
Luna
Jets
Andenken
##udien
##hofs
musik
Moro
Kus
Krypta
##kraftwerk
##jugend
##ilt
separat
materiellen
Prie
Beiwagen
##rün
##fern
angemessene
Kehr
Jü
Groningen
DD
Recherche
Nash
Hae
Cham
Bregenz
Bildnis
195
##jow
sicherzustellen
heimisch
Siebenjährigen
Roz
Robertson
Medizinische
Karriereende
##ider
iur
Unions
Sec
Reinigung
1676
1633
1626
##sack
dachte
Degen
Bauform
##hnt
gewöhnlichen
Iserlohn
Dinosaurier
Barre
experimentellen
erworbenen
Verlage
Hen
Bourg
Stabilisierung
Napoléon
Kreisreform
Bezirksgericht
1547
##haftigkeit
##anne
Süßwasser
Natal
Kirchheim
Hara
##gend
##darstellungen
Sperre
Res
Abschieds
geistig
Mie
Forschungsinstitut
Olympic
Horizont
Ax
umfassten
modifiziert
Universitätsprofessor
Lehrbeauftragter
Einstellungen
Duncan
Deswegen
Chuck
##sig
##oti
##nha
eingerichtete
Mazedonien
Kunstf
Gans
##zek
##kranz
##ize
relevanten
knüpfte
Schadens
KM
Drew
Debatten
##onal
##azi
verhält
kämpft
Musée
1890er
##opa
sm
143
Moers
McLaren
Generator
##pitz
Vizemeisterschaft
Havanna
##long
orts
bloße
Bundesverfassungsgericht
Atari
kraj
##öcke
##gewinnung
entnehmen
Schanze
Pistole
Fish
##pfe
pa
Buchhandlung
vormaligen
Volkswirtschaftslehre
Symmetrie
Ankündigung
##iac
Wohnhäusern
Samp
Renner
Adressen
##presse
##nari
##isa
##ads
Verkündigung
Spezies
Rhythm
Municipal
Blocks
Bitter
Angelegenheit
##röhren
##aid
postum
Therese
Radfahrer
Präsidentschaftswahlen
Murr
Kriegsgefangenen
Eschen
Erstflug
Argumentation
Grimme
Eingangsbereich
1695
1668
##übung
##nähe
vereinigten
Myo
##peri
##lätze
Zoologie
Verstärker
Neiße
Historisch
Anfangszeit
##öffnungen
Voraus
Pola
Entsprechung
Bac
Baba
Wasserk
Schra
glänzend
Schwankungen
Mayr
Bez
wild
1681
##metrie
wilden
dramatischen
Kehl
Fußballliga
##vn
##lok
##austausch
Öffnungen
sozialdemokratischen
Tagung
ETH
##unterschiede
##ull
##anisch
Freundeskreis
Erkenntnissen
460
warnte
vermisst
pal
Ventil
Träume
Phantasie
Lip
##xte
##smaßnahmen
bio
Norweger
Grabhügel
Chim
Aufge
betreffend
Liszt
Blaue
##ej
Verfassungsschutz
Polit
Nietzsche
Hierdurch
Gä
##urch
##efe
abgegebenen
Strafrecht
Stachel
Nordhausen
Malereien
Granat
Flu
weitgehende
sporadisch
q
betätigt
Süß
Schalter
Nos
Mod
Minneapolis
Akustik
##lä
Zentralen
Wilfried
Uppsala
##rac
##oral
Zauberer
GPS
Bildende
##NE
##ór
##tzte
Reid
Gleisen
Erdoberfläche
##wehr
großteils
ausgewählte
Höhenunterschied
Formationen
Davos
##yd
Suite
Strassen
Lipp
durchweg
Zentrala
Naturraum
Dubai
Dietmar
##50
##arf
freiwillige
##uga
##olizei
vermeintlichen
Terre
Latin
Hoppe
##yen
##bli
andauernden
Hor
Anlässen
147
##ments
##lai
Zunge
Oz
1687
1682
Überleben
Martina
##uge
eintrat
bspw
Wonder
Sporthalle
Nissan
Belohnung
##rai
anschließen
Verwaltungsgebiet
Strategien
Helmstedt
kulturell
dynamische
Mithilfe
Crystal
##scu
##ils
##gui
##gro
Polnische
Mills
Erneut
Dino
vorläufigen
View
Malmö
Lombardei
LB
GI
Bia
##nanz
##kor
##boote
Grades
##kur
##atten
geschütztes
Percy
Rodríguez
Rate
Gio
Gerber
Geiseln
Fahren
Ablagerungen
##gesetze
##gelt
hi
ermordeten
Linear
Diamant
Breslauer
Apo
1696
einflussreiche
digital
befürchtete
Hubertus
##lö
überflüssig
horizontale
Wasserstand
Tiflis
##tuch
##sthe
ragen
klären
Untergeschoss
Stahlbeton
Katastralgemeinde
Collegium
Schlauch
Ref
Lama
Fußballs
1665
##jak
passende
Verdun
RP
Karnevals
##chloss
Kanu
Gesamtrang
Burton
Banda
ungültig
Todd
Rothenburg
Partenkirchen
Nottingham
##ův
##musiker
##braun
vorangetrieben
1642
##aker
instand
Interpretationen
Friedrichshafen
##alde
verlorene
Sahara
Reichstagswahl
Goldmedaillen
Gatten
Aktions
heil
dell
Zirkel
Glatt
1666
##änen
##wicklung
##vorstellungen
systematischen
Migration
Lop
LV
Brutto
##mé
Traun
KK
##æ
pflegt
ethnische
##ringe
##inus
demontiert
Städtchen
Reparaturen
Reglement
Steam
Rasch
Now
Mäzen
Terrassen
MIT
Jugendarbeit
Freimaurer
Zigeuner
América
##ON
Zeus
Schulleiter
Gos
Essay
wi
Vasallen
Oy
Ori
Gue
##taat
##lsdorf
##blättern
durchflossen
Physiologie
Gründungsmitgliedern
Bülow
Bedarfs
##gia
väterlichen
Wuppertaler
RI
##thor
##tek
##rina
beschließen
Patriarch
##tica
essen
Wa
Nist
Interaktion
Clo
##rieren
wiederkehrende
Vereinigungen
Taucher
Mü
Detektiv
##arth
Mitspieler
Kronprinzen
Hess
Grae
##ži
##marken
##imi
##gesang
Irr
Heilung
Circle
meiner
Theaterstücke
Porno
##ßig
##itung
Tree
Straßenverkehr
Sozialistische
Raja
Hannah
Geheimer
Babylon
1624
Schnitz
Satzes
Lé
Arie
##zhou
##abf
maßgeblichen
Kommentare
Echtzeit
##hebel
verstorbene
Muschelkalk
GL
Dekor
##mbi
wirkenden
Ethnie
Come
Chrysler
##rá
überbaut
ruhig
niederge
Nic
Falsch
Bora
##tru
##swi
##klima
##aco
intern
horizontal
Dienstzeit
Brasiliens
##laufen
weich
Staatsprüfung
Somalia
Furt
##sm
##sition
Vorstoß
Verdi
Terroristen
Knut
Conte
Bergischen
##igh
##alls
steuer
scharfen
##wirt
##iw
##ennen
##dow
1645
##SC
##srate
niedergeschlagen
armenischen
Zit
Welche
Waadt
1598
##seitig
##mmission
Swe
Melk
Etablierung
Eichel
bed
Seitenschiffe
##TI
kosten
Untergruppe
##üro
##hauser
verbündeten
Schnauze
Kurzform
Briefwechsel
##ši
##nthe
##nbe
Ú
Kernkraftwerk
Geschichtsschreibung
##polizei
##ghe
##bur
Mühlhausen
##oba
##aue
involviert
Syr
Rosenthal
Goebbels
##hein
##autor
sal
abschließenden
Nitro
Masken
Gotik
##pti
##mak
renommierte
Wartung
Lim
Kredite
Food
##01
##tzsch
erkrankt
Kirchengeschichte
Karpaten
Kantor
##raf
une
irre
##80
steckt
aufgerufen
Vorherrschaft
Vogtland
Krankenhäuser
Kleinb
Gedenktag
Einzelheiten
Bischofskonferenz
Absetzung
##pitzen
hy
glatte
Stipendiat
Mittelteil
Marquis
Lara
Augustinus
##tera
gefundene
Nem
Deckel
1655
##tationen
##isierten
##flüge
##beschluss
gleichem
cum
Wes
Vai
Miniatur
##deutsch
ehrenamtliche
Rechtsver
Ping
Museo
Flanke
##reh
##nja
##feldzug
Voice
Potter
Pianistin
Frédéric
1644
##motiv
derjenige
Grob
##clubs
bemerkenswert
Zigaretten
Legislaturperioden
Glan
##tschen
##chle
statistische
Mitt
Malcolm
Lamm
##show
##gela
Kleins
Entscheidungsspiel
##türen
##ehn
##burn
versehene
erweist
Lufthansa
##ense
alias
Ausmaße
##issenschaft
##formation
Ministers
Güte
Bundestags
##tse
##politisch
sozialistische
Kapitalismus
Atlantis
##säule
##stätten
##situation
Ça
Schauspielschule
Perlen
Eno
156
geometrischen
Neutralität
Moleküle
Compagnie
##ear
stoßen
Nahverkehrs
Moe
##kom
##ieder
liegend
distanzierte
Tons
Säugetiere
Steffen
Oranien
Musikvideos
Astra
##ppt
##armen
locker
Wiens
Una
MK
##aufnahme
Ranking
Look
Kelten
Wohnraum
Treppenhaus
Gar
Erker
##nker
Mittelrhein
Kain
Gunter
##ission
##bos
Ordinarius
Herzens
Fischfang
##okal
##card
psychische
Wohnungsbau
Oberhaus
Finals
Emissions
Atoll
##verbrauch
##stisch
##mere
##locke
ununterbrochen
symbolische
Zak
Schriftzug
Restauration
Geschäftsstelle
Berufsausbildung
##ektion
Odessa
Mailänder
Kapstadt
Autounfall
##ombe
##ká
beleuchtet
aufhielt
auffällige
Rundschau
Plymouth
Operette
Corre
1637
1559
##pfel
vorherrschenden
Zentralasien
Tschechischen
Spinnen
Händel
Ahorn
##adel
pazifischen
Trenn
Pyrenäen
Krei
Haven
##rsa
##gha
##ersonen
emotionale
Auswärtsspiel
##mechanismus
mol
Sure
Pet
Ode
Chia
Assembly
##rüfung
Rothschild
Heidegger
Differenzierung
##12
##zeile
##rla
##ox
Achim
##hier
Weltcups
Pfaffen
Behinderten
Zieh
Heiligtum
Bear
stellenweise
Glashütte
Amazon
##rba
##eminar
##ande
ze
bewaldete
Vä
Verden
Keyboarder
Gag
##eres
ungeeignet
prominente
Mohr
Außenseite
rau
Windsor
Repräsentanten
Alexanders
##äts
##ues
##tscha
schützt
koordiniert
Spätantike
Lü
Klu
Gewand
520
##zismus
##onis
schwäbischen
Woman
Rip
##alon
verdeutlicht
romantischen
Scherz
Löcher
##ällen
##tun
##jö
##ega
##bio
##aca
verbuchen
außergewöhnlich
Unabhängigkeitskrieg
Netzes
Möller
GW
Chefs
Bruns
##stadion
Schwa
Klassizismus
Heiliger
Geologe
Alonso
##äer
##prung
herauszu
dokumentierte
Perioden
Oberbau
Filmes
Badmintonmeisterschaft
1612
Sit
Porter
Antikörper
1651
##mara
graduierte
einzuführen
demo
Patricia
Gegenwärtig
neuseeländischen
Verweis
Staatsgrenze
Eri
Aufstandes
##ächer
##shan
##ebe
Tastatur
Quartal
Poi
Mozarts
Aul
Arbeiterbewegung
Jugendf
Corpus
beworben
Sulz
Sander
Kreide
Browser
##vy
##milch
beliebigen
Westturm
##precher
##chsel
voraussichtlich
Ver
Ortszentrum
ausgezeichnete
abgestimmt
Sik
Secret
Rechtsstreit
Nag
Grenoble
Doo
##rechtliche
sinn
enthüllt
Reptilien
Codes
CG
Ble
##ime
Öffentliche
pan
gegebene
Sprachwissenschaft
Spezialisten
Christa
ableiten
FT
##radio
Š
verwirklichen
ki
jeher
gestiegen
##т
auftraten
Gesch
Entwurfs
verka
Sechste
Puls
Face
##äuse
wertvollen
vorläufige
Eduardo
Dier
##uke
##rama
##ewegung
##chlorid
ausbauen
Popmusik
Mick
Gospel
Bd
Altäre
Émile
vermachte
kalk
Poli
Pfleger
Hama
Gü
##ifel
##dingen
primäre
Rechteck
Puy
Frances
##20
##sischen
Len
Firmensitz
##iebel
pflegen
Wohngebiet
ITF
Aberdeen
##widerstand
##kessel
verschmolzen
verpasst
verlängern
Mille
##summe
goldener
aufgestellte
Tei
TSG
Erscheinungs
Aloe
##otte
steinernen
gemischte
angeschlossenen
Dow
Dol
Bertha
##ähe
##ych
##fjord
##eist
planen
bestimmtes
IOC
Diskurs
umschlossen
Sende
Räte
Nische
Bedeutungen
Ausgehend
grobe
Unrecht
Feldes
Aktivierung
Če
verliefen
ehren
Thrash
##sab
##roda
##rieben
##iums
mobilen
klassizistische
Königreiches
Besiedelung
##üder
geschildert
autonome
Erlen
Diabetes
1609
##technischen
namhafte
geschickte
Neutronen
Jungs
##yst
##owe
genießen
Gleichungen
Donnerstag
zurückgegeben
Militärakademie
1636
##mpfe
ermittelten
Xavier
Rheinische
Hinspiel
Domherr
Antworten
uner
Strat
Spo
##such
##rter
##aktionen
marschierte
Regisseure
Palmen
Hügels
1643
##prozesse
##kle
provisorische
prop
naturwissenschaftliche
Vierzylinder
Spitzname
LPG
Bäder
##polis
rührt
Vest
UTC
Quadratmetern
Oe
McCa
Kaunas
##ucher
Romano
Lugano
Jag
Clare
Arn
##tags
##rungen
Simpson
Objektiv
Konfrontation
##hem
##gri
##barer
##ahrzeuge
geradezu
disqualifiziert
Schlitz
Gebhard
Colle
##inheiten
symbolisieren
befehligte
Erprobung
Burgh
##lba
##irkung
##ipp
##erste
Nester
Lor
Heirats
Einkaufs
##ätten
##ssin
##bul
versteigert
spezieller
europaweit
Zitadelle
Zapfen
Philologe
##nalyse
##mad
##hme
flu
drang
auszubauen
Kne
Kana
Heidi
256
Überlebende
unterrichten
kraft
Silben
Scan
Großherzogtums
1653
##sgrad
slawische
Wasserkraftwerk
Fürsorge
umzu
provisorischen
Oo
Korrektur
Gunst
##30
##ós
##formel
Moselle
Kling
##saison
profitieren
gemäss
Transporte
Penta
Juniorenweltmeisterschaften
##gten
##ecker
##zing
eigenständiger
begründen
Titularbistum
Reg
lebenslange
fe
Jessica
Connor
Cecil
1490
Zählung
Tribus
Tasten
Rush
Nowgorod
Kriegerdenkmal
Kreiss
Ausstattungs
1662
1521
##RE
##nant
diagnostiziert
damaliger
bewaffnete
Privatleben
##nest
Revolver
##spi
einführte
Synthesizer
Eben
1663
##wende
##sische
ausführliche
Verleih
Konsumenten
Gase
##zier
##geschäfte
festgelegte
chilenischen
anzubieten
UKW
Har
Einzelf
##roi
Mart
Geschäftsbereich
Geldstrafe
Esther
Merkur
Kulturzentrum
Krankenversicherung
Fry
##verbänden
Passion
##sic
##inae
##anti
Olympique
Leh
Italienische
Gus
Festungen
Emigranten
Vaterland
Referendar
Parkanlage
Konsens
##triebs
hinweisen
Tiergarten
Escher
Beinen
Agri
Abdul
virtuelle
Stellungnahme
Harper
Dampfschiff
##medaille
Steh
Arbeitszeit
##uc
##erren
gestürzt
Pitt
Margaretha
BW
##schlacht
portugiesischer
ewigen
Rückenflosse
Landwirte
Dylan
##nab
##lav
Patrizier
Mechanismen
Ira
Domänen
##äus
##orne
##befehl
veräußerte
fühlen
finnischer
Johnston
EK
##assi
Stadtentwicklung
Scholz
solch
innovative
Reu
##dere
umliegende
Spann
Pana
Kanone
Collection
##éa
Argumente
gespalten
durchführte
Wirtschaftskrise
Westa
Sorbonne
Rahmenbedingungen
Credit
Amerikanern
einjährige
SSV
Rating
Hermes
Exchange
DW
410
##heil
##denken
##annt
anfänglichen
Tälern
##lak
##bataillon
strikt
poly
Zero
Fruchtkörper
##js
span
Talente
Papua
Nationalmannschaften
Berry
Assistenztrainer
eigen
Kad
Enrico
1638
##perre
##hing
##bergen
sofortige
originale
moralischen
Veteranen
Release
Opfers
NVA
Medizinstudium
218
##EL
buddhistischen
##fik
steigende
Zeiss
Rezensionen
Made
Hauslehrer
Diamond
##ę
##plattform
##anteile
regeln
neugotischen
gewähren
denjenigen
absichtlich
Pyr
Herrenmannschaft
Calais
##ehe
variabel
kurzes
geschriebenen
Wann
Optimierung
##apo
zwangsläufig
schwarzem
Bli
##äfte
##kap
Konsulat
Chinesischen
Buddha
Bark
##imo
linear
Zubereitung
ON
##eiler
Ökologie
Nicolai
##lah
##kamm
Rheins
Loks
Kriegsbeginn
Hali
Einge
Domenico
##zierung
##yll
##eibe
überging
nachzuweisen
jähriges
Tina
Mercury
1528
Mündungs
Azur
1535
Unterstützt
Omar
Einzelfall
1542
preis
Unterzeichnung
Schir
Potenz
##halb
vorgegebenen
UP
Skilanglauf
Pour
Gegners
##sprecher
modernes
Aga
##ents
angefahren
##rak
geflogen
befreundeten
Vie
DVB
##MS
##ämpfe
##dat
Schönau
Nachs
Mittelfranken
Johannesburg
##schinen
wu
anerkannter
Common
1556
##rste
##ký
system
Mongolen
Flachs
Björn
##üt
##endes
wilde
Werkstoff
Tonk
Nachwahl
Enzyme
Berufsschule
Aristo
##½
##dynamik
knappen
Wä
Triebwerke
Plaza
Mom
geschnitten
Währungs
Patrozinium
Elena
##ά
Sold
Registrierung
Pha
Kreuzweg
Berga
sprachliche
bekleidet
Tango
Picasso
1674
##emi
räumlichen
alleiniger
Springfield
Schulausbildung
Remscheid
##ichs
sicherlich
anonym
Pun
Keim
1619
##nre
##beg
pour
Ro
Hauptt
Fraser
Brent
Bildhauerei
##unfall
##räu
##oco
##bilität
wiederentdeckt
Wrack
Wig
Kog
##duo
lieh
Publikations
Motte
Entstehungszeit
viert
Cyr
##urteil
##schäft
##lappen
Vorspann
Ols
Leicester
Avignon
Abhandlungen
##vs
zugängliche
Torpedos
Had
Gren
##rach
##loh
reines
identische
errungen
Wirren
Hülle
Frauenfußball
##nac
##atoren
Winston
Schutzpatron
Mys
Migranten
Letzte
Beyer
Arta
##tn
##oster
Loc
Karoline
##isse
##deck
gre
Schula
Fin
Carnegie
##üsten
##oldaten
schwankt
liberal
Brunner
##vic
##ual
##rle
##mil
##erungen
##enau
Albumcharts
1627
##iba
##erb
revolutionäre
Panamerikanischen
Pali
Jordanien
Fried
Vinyl
Thunder
Sitzplätzen
Magie
Eisenbahnbrücke
##feiler
monumentale
Verben
Gezeiten
Eagle
Ärzten
namhaften
Stei
namensgebenden
Wanderungen
Sexualität
Schritten
Mangan
Belgier
Baumaßnahmen
stra
ersichtlich
Spätere
Kawa
Gemeindehaus
rufen
Taktik
Tac
Rezeptor
Lebensende
Aarau
##personal
##omen
##lab
Michels
Cos
##zie
##eigenen
Fränkischen
##б
rer
psychologische
gleicht
behindert
Study
Können
Kombinationen
Bindungs
##ratung
##fahr
Superman
Reggae
Erosion
Chinesische
1649
##önen
##hauptstadt
##darsteller
Shop
Mies
Manualen
Lynch
Korridor
Capitol
Ausläufern
AO
##kehrs
fruchtbaren
Halbfinal
Diesmal
##sio
spärlich
Pag
Mater
Magnesium
##tori
##lion
hei
Rö
Montfort
anzuschließen
Knopf
Gespielt
Dinamo
##tho
Perg
Narren
Festspiele
##schine
##orth
##altet
nominierte
ermittelte
aufgekauft
Nordamerikas
Bonifatius
Albin
##tf
##holt
Legislative
Ambo
##ła
##osch
##faktoren
##erna
tor
hing
Tempelhof
Rouen
Lebensstil
Indie
Era
Bezüge
Aldo
prominenten
gelöscht
Wag
Textilien
Schel
Priorität
Nicolaus
Leng
Laute
##örmig
##schel
##fähige
relevante
fu
Bog
1605
boden
antisemitische
##ufs
##mol
versammelten
Montan
Landess
##swert
zurückzog
Vorgeschichte
Unterw
146
##zierte
##wissen
chemisch
Turnhalle
Portugiesisch
Archivar
208
##nhof
UC
Traditionell
Sö
Kurzgeschichte
Kip
##mera
##esten
schufen
Strafen
Neuenburg
Bors
Annette
Abweichung
##ieh
##gge
Tul
Meisterschafts
Großa
Grie
##erein
Wid
Ris
Lampen
Karate
Homepage
Bundesstaats
Aug
Recklinghausen
IAU
##röhre
inspirierte
gefährliche
Versammlungs
Quick
Mittags
Kinn
Josh
Gerlach
Aufstands
Andrews
##örmige
##runden
##nsi
Pipeline
korrekte
Wit
Strömungs
Musikproduzent
Davies
Schlagzeilen
Nara
Minerale
##sho
##glocke
Südliche
Höhenmeter
Brat
##aci
angreifen
Junkers
Ibrahim
##şa
##leich
prägten
elliptisch
Trin
Straftaten
Nowo
Croix
Assessor
Aden
##û
hoffte
hochwertige
gezüchtet
flussabwärts
erneuerte
ana
Singh
Schätzung
Rostocker
Chol
Aura
entfällt
Tong
Sergio
regelte
Grundfarbe
Fahrtrichtung
Direct
Benno
##leb
potentielle
Länderspielen
Jünger
Imam
Cur
berühren
Prozessoren
Gesprächen
Genuss
##rid
eingeschätzt
Verfügbarkeit
Shen
Room
ISBN
Gleichwohl
##át
##ober
##mühlen
Quecksilber
##ysi
resultiert
erforschte
em
Familiengröße
zuteil
geographischer
gefährlichen
Brennstoff
214
1669
HSV
Friends
Folgesaison
BO
Shakespeares
Lagern
Drag
1691
weitergegeben
Yar
Läden
Kurpfalz
Guardian
##mot
##icz
Vorsaison
Perm
Norwegens
Nano
Motorräder
##čka
##rb
##dro
##benen
langfristige
Mächte
Catharina
##ladung
##inspektor
zahlte
Cave
1552
##operation
##lew
gele
Patrimonialherrschaften
Dodge
##chl
zweijährigen
bezwang
Mönchen
Maru
Fortan
Feuerstein
erforderte
Tip
Gérard
Großeltern
Anzeiger
##then
##rier
überreicht
Edge
##schein
zeitlebens
stecken
spaltete
Wim
Sorgen
Ostteil
Kante
##inter
Schräg
Naturschutzgebiete
MF
Devisen
Bislang
##ösung
##status
##illo
versteckte
mündete
Konfiguration
Generalvikar
Einöde
##iele
Wirtschaftss
Klassifizierung
JA
Dramaturg
##EG
Sonstiges
Pfahl
Gries
Auckland
##ritter
##rine
##dorn
Zeichnen
Sana
RO
Oc
MH
Arbeitsmarkt
470
##wahlen
##mbo
gängige
euch
besiegten
Verme
Asphalt
wiedereröffnet
hervorgerufen
einseitig
ausführen
abwärts
Sint
Ri
Epi
Einzelhandels
Doug
##thema
Liv
Kaninchen
Kampagnen
Fußballmannschaft
Bevölkerungs
Pane
Güterwagen
##äle
nebenbei
Pope
Nummerierung
verschlechterte
sä
Raster
Himalaya
##esti
kreuzen
eu
Spannweite
Pig
Neubaustrecke
Familienunternehmen
##probe
##llan
Stipendien
Parlamentarier
Kadetten
Gemeinderats
Baumwolle
Ballade
##torf
##raut
aux
Lucky
Grenzgebiet
1658
##uchi
##rinzip
##regelung
##lige
mexikanischer
franz
ausmachen
Sterben
Steinberg
Roggen
Luftschiff
Ent
Aufsch
Asiens
##edien
##computer
zwingen
investierte
handele
emeritierter
Wilder
Sitzverteilung
Kommunismus
##onat
##kot
##geschichtliche
verpflichteten
Unterabteilung
Todestag
Naturstein
##haltige
Jel
HV
##strecken
Westf
Tartu
Rame
Pill
Gnade
##besch
Rae
Pir
Honduras
1671
##ngt
##chla
stützte
passierte
formalen
Comp
##aris
saßen
Predigten
Fei
##museums
##gleichung
##edi
überregionalen
stützt
Wissenschaftlichen
Weinbaugebiet
Skigebiet
Generell
Fet
Aston
##täts
##eher
##borough
eingetreten
Weltkulturerbe
Schornstein
Neuwied
grundsätzliche
begonnenen
Ratgeber
Colleges
unterzeichneten
dirigierte
alternativen
Vl
Uns
Diagnostik
##iot
Ami
##nium
##andlung
Tran
Ša
geprägtes
Cour
jeglicher
bevorstehenden
Wasseroberfläche
Stütz
Mittelgewicht
Forschungsergebnisse
##schuss
##brücken
##amter
beh
Shah
Rendsburg
Kaiserzeit
Auswanderung
1524
##rgs
gefährdeter
fehl
beruhte
Rind
Hull
Falcon
Domäne
##mor
##dou
Lat
FR
Durchgangs
Animation
Altenberg
##lda
indischer
Speisen
Panik
Fachgebiet
Erholung
##mengen
Tabernakel
Straßennetz
cha
aufwärts
Südstaaten
Himmler
Goe
Deca
Bak
grünlich
Tsche
Pastoral
Franck
Brisbane
Ansch
##männer
Wohnen
Wichtig
Verhandlung
Südrand
Manual
##teine
verzweigt
Tonfilm
Recherchen
Fecht
Befreiungs
##vertretung
##arsch
vergleichbaren
interessieren
frühes
Simbabwe
Pin
Manufaktur
Fernsehens
Bum
britisch
Yas
Vernetzung
Sowjet
Grill
Filip
Demi
Brien
1604
##misch
ra
bereitet
Unabhängigkeits
Maxi
Hydra
1616
##loser
parlamentarischen
evakuiert
akustische
Ship
Salzgitter
Magna
Lateinschule
##tien
##nho
##eso
##balken
einzigartige
Märkten
Kartoffeln
Hügeln
Hur
Garantie
Blog
1657
154
##verschiebung
##rks
##oge
##ault
unterlegt
th
Vermehrung
Südfrankreich
Stille
RD
Protagonist
Offizielle
Obhut
Mem
Mada
1534
##ekt
Une
Statuten
Modelljahr
Galerien
Deckung
gehörigen
Südwand
Nové
Monarchen
Bruchstein
##keller
##gus
Saw
Pfeilern
Ord
Klin
Kill
1585
##η
unternehmen
silberner
besonderem
Reichsstraße
Pow
Dia
Birk
1150
##üre
##wohnung
##ogo
derweil
Lao
Kürzel
Gastauftritte
Finnlands
##üchen
##orium
##kleidung
kroatische
dahingehend
Muslim
Jump
Ella
##Po
##organe
Lauten
Cas
Bangladesch
##mantel
teure
Strahlungs
Praktiken
Gore
##vio
##pri
entspringen
Spielminute
Siedlern
Querschiff
Ehrenzeichen
Calle
Bä
##immer
belehnt
Sozialdemokratischen
Season
Parc
Distribution
1564
Mannschaftskapitän
KE
Griechenlands
325
##trich
##spezifische
##arts
weitreichende
Wagners
Regenwald
Galatasaray
Fichte
##tradition
##lko
gegenseitigen
Hardt
Aya
##bsch
##ahnhof
umgebracht
qualitativ
Tomb
Quest
Pakt
Höheren
##ibo
##dek
##angebote
extreme
Schre
Sas
Kiemen
Jahrtausendwende
Erbin
Byrd
Boten
Bauwesen
Ausdrucks
klinische
durchs
brauchte
Redaktions
Produziert
Nahverkehr
Kapsel
Kak
Höhepunkte
Artikels
##training
##darm
Zuzug
Zag
Wendel
Führers
Erklärungen
##CC
Einwanderung
##Te
##tele
##spektrum
##icus
##fon
##auswahl
erkämpfte
Schwiegervater
Jahreszeit
Ama
##niederlage
##eschäft
sel
restaurierte
baulichen
Seemeilen
Problematik
Negativ
neuerer
Kerk
Hauptge
Hauptb
Besch
##seits
##cur
byzantinische
Winnipeg
Tübinger
Alla
##wsk
##versicherung
##orientierten
##mündung
##gleich
mitgeteilt
angefügt
Toll
Pfeiffer
Gänge
Bergisch
139
vertreibt
berühmtesten
Grundschulen
1527
unterbrach
angestiegen
##RT
##dea
vertretenen
nähere
magische
Roller
1860er
##träge
treibt
gesicherte
Weder
Jä
1677
##sort
##aßnahmen
Sep
Petition
Geschichtswissenschaft
##konzern
uruguayischen
typischer
beitrug
Familienbesitz
Durchschnitts
305
##kandidat
##fache
überwachen
ovale
installierte
Steil
Naga
Kindergärten
Discovery
##angriff
wiederholten
ai
Rivière
Monc
Generalstabs
Cicero
##wissenschaftliche
##tart
##lur
##bä
##brigade
##appen
vorzu
Temp
Rittmeister
Regierungschef
Henne
Aal
##nf
Überschwemmungen
einigten
Kater
Festnahme
##renze
##eut
schwanken
enorm
aufgegangen
Peugeot
Isaak
Hinterachse
Exklave
##bak
oberbayerischen
ergriffen
Teller
Landkreisen
##etter
Ureinwohner
Dornbirn
##gier
lehnten
kürzeren
Diskussions
375
warfen
Kreuznach
Kollision
Gestaltungs
Fallschirm
Diet
Analysis
151
##städt
##ologe
##kant
gedruckte
Rückgabe
Mena
Landesmuseum
Hauptinsel
HIV
Bewusstseins
worin
indi
Personalunion
Enc
Days
Cau
abschließend
Suzuki
Prima
Petr
##nns
grafische
befragt
Sünden
Sham
S1
Kata
Facharzt
Def
Bauabschnitt
540
158
##skop
##chronik
abgesch
Plantagen
1575
##legung
##inis
##ike
häufigste
beanspruchte
Umgekehrt
Silvester
Mano
Hefe
Dell
##was
##rem
PDS
Jahreszeiten
Agen
##parlament
##onnen
##center
zwecks
reifen
arte
Rohre
Minor
##werten
val
Wedel
Bohrung
Autobiografie
##zte
##husen
Verkehrsbetriebe
Henkel
##zahlung
Vorstandes
Gemeindeverwaltung
Flying
Eile
Child
leere
gepflanzt
U1
Paläo
Erzeugnisse
Endstand
Elise
##čice
dec
beachtliche
Cale
Bergstraße
##würde
vorgelagerten
melden
leisteten
kommissarisch
gleichzeitige
frische
Infektionen
Hag
Geläut
Beirut
##gard
herstellte
Untert
Mother
Favorit
162
fortzusetzen
Schie
Moh
Karel
Fernández
##atik
herausgegebene
Save
Samo
RK
Loe
Lap
Geburtstags
Cou
Coleman
##werft
##aufstand
##ail
Überführung
Vorabend
Tugend
Rub
Blume
##bridge
weiche
Wildcard
Tito
Defensive
##wak
##rtner
##rfen
##nheit
##bäume
ter
Watch
Maple
Henneberg
Fronten
Einsicht
Amar
##treffen
momentan
geräumt
Schatzmeister
Peerage
Intensiv
Heath
Handballspieler
Aar
##usschusses
##produkten
heben
Thronfolger
NY
Krist
Dein
365
##rek
vergrößern
klassizistischen
berufs
Urenkel
Limit
Lausitz
LM
##gaard
endemisch
bildende
Saalkirche
Raums
Ortsmitte
Never
Gens
##tere
##nsa
##antrag
Đ
bewies
Rok
Rep
Ges
Dienstleister
##ünder
##krankheit
symmetrisch
Kes
##olgen
##chreiber
##beste
schlafen
indirekte
Sterling
Maxwell
ph
Waldh
Plans
Kott
Hood
168
##orh
tre
offenbart
aktueller
Tschu
Saalfeld
Bauingenieur
##tände
##sprachigen
##lini
geschwächt
Bewerbung
Baier
##äu
##schung
##nale
eingepfarrt
Röhr
Rek
Qua
Landratsamt
Enns
##platzes
##netzes
##dichter
unterirdisch
energie
deutschem
Terz
Pixel
Mose
Legend
Hale
verpflichten
sprachlichen
Sid
Reine
Freiheiten
Sounds
Olpe
Drehung
Christliche
Cel
Laich
Germanen
Einsch
1523
##reiches
behinderte
Mittelf
Mene
Maa
Kerr
selbstverständlich
aufgestockt
Hofmark
Bunt
ausgeweitet
Matti
Lum
Horní
##glo
zahlreich
hetero
Yuan
Schmetterling
Dimitri
Belastungen
##erle
anzutreten
Teltow
Kroaten
##rtigen
bro
Fau
Devils
##leu
##gräber
Startelf
Lücken
##esischen
##arp
albanischen
Stadtbibliothek
Seeschlacht
Perspektiven
Brö
##ead
hierher
fließende
Unterwelt
Studentenverbindung
Regensburger
Cré
Außenseiter
##sorten
inoffizielle
arrangierte
Fledermaus
Befunde
##unterstützung
##chtet
nachfolgend
kirchen
Reck
Methan
Kündigung
##pach
garantiert
Wulf
Waisen
Urteile
Kund
##äufen
##lattform
Wee
Rem
Pradesh
Mittelamerika
Brandschutz
Amtssprache
##eal
pen
Style
Petro
##umme
##iman
##busse
zukommen
stören
nom
effektive
Clermont
##spannung
Reim
Niederländisch
Erzieher
Albany
auszugehen
aufgesch
Infolgedessen
Botanischen
Akku
##ås
##tech
##rni
##iza
Ž
auflöste
Wurst
Ufern
Feldkirch
Bürgers
Bedürfnis
##treter
##hte
##amb
verbringt
hinreichend
gra
Titus
Lastwagen
Europawahl
Cop
##riften
spe
sammelt
andauernde
Untersuchungshaft
Ritus
Körperschaft
1588
1568
mangelnder
Nebenwirkungen
Klarinette
Holländer
Doktorarbeit
##sver
##richtungen
Überwindung
Sami
Market
Kräuter
Gräbern
Dot
Cao
##oduktion
konservativ
Qing
Gall
Anh
##gla
##gehen
unzufrieden
unterstellte
ersch
Wait
Gemeindeteil
Füll
Blütenstände
Anruf
umher
resultierende
lichte
hervorragenden
Stadtrats
Piper
Lug
Lessing
Expo
##roni
qui
Löhne
Kipp
Finanzministerium
1659
tote
gleichgesetzt
gemischten
Abzeichen
##aer
geografischen
Keyboard
Hare
##ship
##onic
wal
logische
Zugs
Opus
Modi
1608
##schild
##gerichte
##elles
konventionelle
Identifizierung
Gipfels
##igenschaften
##ardi
passen
Oberleitung
Burns
##wis
##kollegen
##knoten
##felsen
os
Straßenbahnen
Punktes
Kla
Biennale
##tent
##lc
vernichten
mache
lädt
Aufzeichnung
##ská
##cou
glatten
deutschlandweit
##eyer
VfR
Netzwerke
Erze
Enge
Bekannten
Bailey
1641
##ktivitäten
Pyrénées
Ga
Critics
Brass
Außenlager
1230
Verwaltungsbezirk
Tonnengewölbe
Kontinuität
Haw
Derek
##rar
##erm
pu
Wohnplätze
Größenordnung
Fahrzeit
##rache
##agi
Kreisgebiet
Handy
Flaggschiff
Carls
Bradley
Berlinale
##etall
Tagungs
Scheide
Inspektion
Gee
1673
touristischen
Schell
Hee
Gruber
148
##speicher
##oir
##mouth
##gift
Griechischen
##ädt
##srat
Witte
Toiletten
Reichsrat
Privatisierung
##ři
##offen
##generation
Richardson
Brain
##winnung
##unternehmens
##ogi
stürzen
Versammlungen
Krä
Chase
BIP
1617
##haar
##bow
##anbieter
Wad
Violinist
Tschechen
Peg
Manuskripte
##beruf
##aussch
rettet
bedeutsame
Yes
Xbox
Tyler
Regulierung
Landgrafschaft
Kollege
Bewirtschaftung
##hot
mitbe
Int
Ingo
Hörner
##tlich
beklagte
anzugreifen
Wund
Wegbereiter
Somme
Operator
Italienischen
Cay
##komödie
##haltigen
ton
Zeichens
Streckennetz
Oka
Frühgeschichte
##Ba
##best
dynamischen
Tags
Meldung
163
unentschieden
schleswig
bestehender
Tau
Gastspiel
Forbes
##onie
verhandelte
tropische
fixiert
Worcester
Umstrukturierung
Sicher
IH
Hitparade
argentinische
Rivalität
NL
Module
Achs
1597
1565
unendlich
sämtlicher
pädagogischen
komme
erkannten
Verringerung
Kontroverse
##gattung
regte
Navigation
Geno
##reunde
##poli
tschechoslowakischen
napoleonischen
Schwellen
Lon
Lili
Liberty
Galla
221
##rigen
##denz
##absch
abschließende
Tristan
Senators
Mün
Implementierung
Geräusche
Bezirken
Ackerland
rückten
rege
ausgezeichneten
Gründungsmitglieder
##km
Michal
Korsika
Hauptstrecke
Ave
Abba
##ntel
geeigneter
drittklassigen
dominierende
Thi
Raumstation
Dorfbewohner
Vegetations
Neb
Mainstream
##kult
##eihe
holländischen
dauerten
Task
Parodie
Kyōto
Heraus
##werder
##uber
fließenden
erhoffte
besorgte
ausgesch
Wanne
Personennahverkehr
Literaturpreis
##sleben
##acker
gehobenen
Jamie
unterlegen
Tagungen
Sachsenhausen
va
drohenden
Spezialisierung
Camille
##swa
##ieri
##erd
Suhl
Marines
Laf
Holzsch
Genie
Dominik
Clear
bezahlte
Zusammenspiel
Pirna
Goll
Aviation
##beginn
vo
Sioux
Hem
1583
##lal
##kens
##igten
Vielfach
Stellwerk
Römerzeit
Medikamenten
Kof
##teilnehmer
##lech
vereidigt
gekürt
Anita
##eigenschaften
##anger
Öfteren
breitere
Stephans
1543
##rufen
##rdnung
##lichkeiten
Weltanschauung
Schaltung
PM
Nordufer
Lj
Aminosäuren
##nim
kultureller
kon
Lichts
Konflikts
##inhalte
##biete
his
Nielsen
Intro
Hassan
1611
alliierte
Verbrennung
Stiftes
Lublin
Inhalten
##gerechte
##element
##einen
schlüpfen
Milo
Kissingen
Galen
Egg
##ror
##gam
kubanischen
illustrierte
gebräuchlichen
bewegliche
Wissenschaftliche
Variation
Unterschriften
Staatsoberhaupt
Niederung
ser
Rotenburg
Bow
##werden
permanente
Schwarzburg
Profivertrag
Amerikas
##ansatz
tiefste
früheste
Servi
Kunstschule
Kostengründen
Holy
Belfast
##hoe
konsequente
Pauls
Kasch
Jur
Historismus
Hamburgischen
Ähnliches
Lom
##erkrankungen
informierte
Rec
Litt
LO
Häuptling
##punkten
##jin
##esser
##ckung
versorgte
Kompanien
Eiserne
##oke
zurecht
geachtet
Pli
Industriegebiet
##erungs
##amten
überzogen
darstellende
ausfiel
Sporn
Fanny
##sdorfer
##nhagen
auslösen
Tampa
Hog
##nitten
weißes
Wör
Tos
Graphen
osmanische
Wäsche
Vereinbarungen
Lotte
Funktionalität
Anni
##rant
versehentlich
befördern
Verbrauch
Revolte
Plant
Pfosten
Ostufer
MDR
Hui
Feucht
Belt
Authority
Andersen
##usiker
##udi
##teiligung
##charts
liest
hiervon
Truck
Trek
Sae
Herausforderungen
##yre
##staffel
##gest
verzierte
verkleinert
Banden
##logischen
##lad
Literaturwissenschaftler
Lich
Franc
Trent
Säugetieren
Marius
Banat
216
westdeutschen
elterlichen
Lateinischen
Buk
bäuerlichen
Vergehen
Teresa
Pilze
Philosophischen
Morton
Hefte
Germanist
Gama
residierte
kommentiert
empirische
Stations
Staatsministerium
Sharp
213
anzupassen
Ster
Rik
Darstellerin
Büste
##cot
nordöstlicher
angemeldet
Schwerpunkten
Pl
Meu
Gauß
Fahrern
##ash
spitzen
Reno
Niederschlesien
##fig
namensgebende
OT
Mineralien
Salze
Potenzial
Abstiegs
##ämtern
##rati
##enstein
passive
Zwischenfall
##brett
Premierministers
Nies
Krag
Herrschers
genießt
einzunehmen
denkt
Schwergewicht
Musikwissenschaftler
Esp
##seiten
##lob
##ering
gesunde
feuer
festgesetzt
Reinigungs
Muse
Bui
Bha
1613
157
Tritt
Sucht
Grenzübergang
Bestzeit
##ś
##ähne
##rok
Bürgermeisterin
Brü
ausgekoppelt
Völkerbund
Vorbildern
Nut
Kale
GO
Babelsberg
Addition
##rno
##gni
kHz
Völkermord
Sylvia
Kang
Erdmann
##ols
Świ
Weih
Schneeberg
Scala
Instituto
Hymne
Bäckerei
##irt
mütterlicherseits
Tek
Neukölln
Fortführung
Bachmann
##alla
Übergänge
abgewiesen
Extrem
www
widerlegt
gesetzten
Thoma
Ruß
NBC
Ministerien
Lion
Ganzen
Frankenberg
Franke
Cava
Beu
erschöpft
Verständigung
Stadtverordnetenversammlung
Sinfonieorchester
Pankow
Obstbau
Kommunistische
Hya
Biograph
Antarktischen
begegnete
Schleim
Niederlausitz
Lieber
Kommandos
Droste
Butt
Aktuelle
##ührt
##wohn
zuordnen
Tauern
Tak
M2
Lett
Institutes
Doom
Awa
##kurve
detailliert
Untergattung
Ruderer
Reichskanzler
Memmingen
Maigret
Drängen
##korn
Übung
erging
Wieland
Phosphat
Dänischen
Chapelle
Borsten
Abd
##blau
Łódź
friedliche
Rice
Christentums
##pr
diejenige
Schiene
Metalle
Adventure
##ßler
##tol
##reibung
##rc
##nc
verlegten
Myanmar
##steiner
spontan
freizu
elektronischer
einzustellen
Direktoren
Dieb
##AT
##wegen
##reinigung
einiges
Verschmelzung
Oberstufe
Meran
Hemi
Ausreise
##wurz
##assistent
parallele
erlaubten
betonen
Rei
Kulm
Intervall
Einzige
##Co
Yves
Multimedia
Kö
Gare
Dorothy
Chips
Cer
##sze
##sak
spr
geografische
Oberf
Klöstern
##heri
##falz
##dur
beantragt
Monica
Celtic
Bücherei
Academia
##trop
##ones
##gner
Théâtre
Lut
Fremdsprachen
Beschränkung
001
##urse
##maus
##ivität
##garn
##board
schwedisch
Herstellungs
Gesamtschule
Freiin
Dragoner
560
##ь
##lop
thermische
rumänischer
Platons
Bauf
##tärke
##fla
zusätzliches
liiert
lebendig
Regionale
Brutzeit
##nai
wirkliche
Katja
##AN
Altarbild
##sprachige
390
##oud
##ching
anhaltenden
Saalbau
Leitungen
Enzyklopädie
Chess
Auswärtige
##lts
vernachlässigt
niedergelassen
Nationalmuseum
Klett
##uine
##tio
##ichts
isländischen
Wasserleitung
Id
Blattstiel
##wache
##rauen
erfordern
abgedruckt
Wallfahrt
Segunda
Rosi
Iz
Häftlingen
Cad
1607
##PO
##ärten
##hter
gelehrt
Kunstmuseum
HM
Fussball
Euler
##udio
##feste
##dampfer
ausgewertet
Vulkane
Oxy
Konsonanten
##real
Nim
Bundesvorstand
Bloom
##media
Rights
Gedanke
Dschungel
##läufe
##gk
##gentur
einmalig
Sli
Niem
Mechaniker
Kocher
Jackie
1647
153
##stetten
##gleichen
siegreichen
beschränkten
Sib
Ritterschaft
Hul
Gilles
207
1614
1562
##heizung
##frist
eingew
drängte
Wahrscheinlichkeits
Völkerrecht
Stückes
Rheinprovinz
Noth
Dienststelle
Battista
zurückgewiesen
Willis
Sier
##feder
Überlegenheit
wiederherzustellen
dauerhaften
Tis
Opp
Cool
##llon
hessische
Warwick
Emilie
Alpine
192
##jes
beförderte
abgegangene
Flugbetrieb
tragende
kap
besessen
Rüssel
##sma
##kapital
sämtlichen
fusionierten
erstellten
Professors
Illusion
Halbmarathon
EHF
##IA
##jubiläum
##bf
kommandiert
Thom
Bing
Arrangements
proportional
kur
bitten
auszuschließen
Thurgau
Tay
ND
Landstände
Eignung
##swe
stetige
rasche
erm
Leiters
Kup
##verträge
##hab
Rente
Originals
Irving
Geschenke
Einb
Chai
Altr
##pra
##mts
##bl
##amts
freiem
Luftangriffen
Ljubljana
Kollaboration
Brunswick
Bard
Aza
etlichen
True
Stri
Snowboard
Pari
Musa
Frühzeit
Fluch
Ausbeutung
##syn
verstecken
Spritz
Lennon
176
##ischt
Vermessungen
Umgebungs
Tho
Pran
Blasen
224
##ohe
##böden
##ards
tödlichen
##genossenschaft
Tyr
Stefano
Reflexion
Flöten
Dillingen
Alber
##uns
fertiggestellten
Heritage
Filmfestspielen
217
##Ro
##oly
##drüsen
zurückgegangen
schweizerische
menschen
farbigen
Trem
Orientierungs
Maca
Gemeinsamkeiten
Bananen
209
##villa
Westphalen
Medi
Granada
Daumen
Cry
Befestigungs
##ranche
wenigsten
komplexer
ideale
Weiterbildungs
Spessart
Sehnsucht
Martín
Dah
überschreiten
band
Herzogtümer
Eh
##ffizier
umgebende
sh
graue
Unsere
Pfarrstelle
ausnahmslos
aufgenommene
Sut
Solisten
stumpf
neuartige
fünft
absolvierten
Mok
Financial
Federico
##raub
##potential
zusehends
Verf
Städtebau
architektonischen
Textilindustrie
Röhre
Kosmos
Hitchcock
Enttäuschung
##sund
##ouse
##affe
paarweise
Triumphbogen
Kop
Gir
Darstellungs
Anmerkung
bindet
Santi
Pressekonferenz
Merk
Kulturgeschichte
Kriegsschiffe
Hanf
Erzdiözese
##vé
##finale
wahlweise
deine
Tomas
LED
Grossen
##wurf
##brück
Direktors
Bingen
umwelt
litauischer
ableitet
TM
Ortho
Ehrentitel
Adelstitel
1515
##ores
weilte
dotiert
abgeliefert
Taube
Kanoniker
Ita
Ausfahrt
1599
1510
##toffe
##som
Tanks
Gund
Dus
##rige
unbefestigte
muslimische
abgest
Kul
Hove
Boz
Bistümer
organisatorischen
Stele
Kardinals
Erweiterungsbau
##tom
##stattung
##oide
Ne
Kuratorium
232
1558
##verfahrens
##ormat
verletzten
ignoriert
Schreibweisen
Schilf
Pent
Husaren
Hochgeschwindigkeits
Gesundheitswesen
##zien
ÖPNV
super
leeren
Nap
Hoffnungen
201
1548
##äglich
##niert
##grafie
subsp
psychologischen
Zent
Willie
Wals
Schwartz
Einsturz
Carroll
É
gekürzt
Nationaltheater
Korpus
Brunn
166
##eze
##bler
Vig
Papp
Kalb
Jagdschloss
Gage
##chkeit
##bandes
siebzehn
senden
mar
erstem
ablöste
Ziffer
Sowjets
Gefechten
Fai
Chil
Bab
##ower
##gru
republikanische
Vermittler
Ved
Roi
Kaufpreis
##transfer
zuerkannt
einge
basierten
Zufahrt
Obersch
Abbild
##AD
##še
##sätze
Südufer
Lokomotiv
Fähnrich
##treffer
Transa
Tah
Offenbar
##sg
##sca
gegessen
az
Trakt
Marks
Landestheater
Köpenick
Cath
1601
##σ
##sun
##chä
Familienmitglieder
##orgel
##massen
##bier
verkürzte
neutralen
fahr
Mud
Lamellen
Grabens
Gesamtbevölkerung
Gebeine
BN
##āh
##löcher
Sui
Glieder
Fürstin
Accademia
1615
##PS
##weide
##mse
##graph
##bei
rec
port
implementiert
genügt
Weinstraße
Verst
Programmierung
Matsu
Eink
167
##ml
##kompanie
##irs
manuell
Geschehnisse
Forsthaus
##wu
angemessen
Medicine
Kreuzfahrer
Gleichgewichts
Gemeindevertretung
Cart
1541
##jährig
Quechua
Mitteldeutschland
Flor
Annen
umgesiedelt
gesammelten
beschaffen
Sampler
Rheinufer
Nö
Niki
Jutta
Hegel
1492
##GE
##schulen
##mur
##abrik
Philo
Johanns
Blanche
Befugnisse
1602
##krebs
##bte
Fraunhofer
Entgelt
Ausschreitungen
Archive
##merkmale
##ldo
verglich
süddeutschen
française
doppel
begrüßt
Verkaufszahlen
Schne
Jake
Fuss
Cora
Chap
Abwicklung
##inale
##flugzeuge
angewachsen
Sparten
Meilenstein
Justizministerium
1561
##liedern
vorgegeben
nördlichste
ausgebildeten
Vils
Viadukt
Stroms
Landgut
Flüssig
Bundesminister
Access
UNI
Sher
Mittwoch
Meinungen
Kunstm
Fantasie
Billard
1563
##ym
##empel
landeten
arabisch
Unna
Schmal
Nei
Host
Friedland
##MI
Seefahrer
Altdorf
übertraf
vertrieb
abgegrenzt
Terrorismus
Schwab
Regionalen
Kleinf
Dib
Ammoniak
##sier
##itglieder
wendete
kauften
ill
astronomische
anz
Log
Abrechnung
1460
##äfer
Oratorium
Formate
Burr
##efer
organisatorische
Zentrumspartei
Westens
Rubin
Loyalität
Katalysator
Gha
##unktionen
überquerte
klagte
Sammeln
Politikers
Leonid
Jau
Hinterflügel
Haug
Gog
Laval
Klapp
Kerzen
Honorar
Frederik
Experimental
Arabisch
Analogie
##wel
##moni
##inischen
##angel
ordentliche
hervorzuheben
geschätzten
Repräsentant
Nori
Nis
Michele
Juniors
Dritt
Biberach
##CH
##öpfe
Verkehrsa
Süddeutsche
##programms
körperlich
bekämpft
Minimal
Kriegsminister
Daw
161
1592
##gold
Ši
kriegerischen
Serge
Bitten
reichsten
län
Geologen
Charente
##mph
##hia
verpachtet
Ingeborg
Direktmandat
Archivs
##60
##sprogramm
##rho
##digen
südsüdöstlich
gewaltsam
auto
Ressort
Politischen
Ota
Fernsehsendung
##ventil
gefährden
assoziiert
WP
Vortrags
Verhör
Leihbasis
Forster
Einreise
Dall
Anleger
##lösungen
##ior
##errschaft
ergreifen
beherrschten
Zem
Worth
Weisung
Thiele
Rufe
Gebilde
##bestimmung
einschiffige
Vou
Treu
Tasmanien
Nachweise
Erden
##ppa
permanent
Quintett
Phantom
Choral
Besonderen
Baj
1539
##ärzte
##pta
[...]
