[PAD]
[EOS]
[UNK]
[CLS]
[SEP]
[MASK]
der
die
und
in
von
im
den
des
mit
das
er
wurde
dem
als
ist
##s
zu
ein
##n
auf
für
eine
sich
an
war
nach
am
##en
auch
sie
aus
bei
bis
##e
zum
es
einer
durch
##r
werden
nicht
einem
sind
zur
wird
über
einen
oder
um
wurden
unter
dass
##t
##a
##er
wie
jahr
1
seine
vor
vom
nur
seit
ab
seiner
noch
sowie
sein
hatte
zwei
diese
jahre
aber
dieser
zwischen
hat
so
waren
eines
2
jahren
ersten
gegen
##o
jedoch
##es
zeit
stadt
während
etwa
##m
drei
de
3
##ung
man
später
##i
teil
beim
wieder
ihre
da
##y
dort
of
5
seinen
seinem
mehr
heute
bereits
##l
kann
deutschen
liegt
4
erste
##in
ende
ihm
a
konnte
wo
dann
ihr
gemeinde
kam
##d
mai
haben
dabei
januar
august
märz
damit
ihrer
the
oktober
20
anderen
ihn
alle
m
vier
us
zweiten
september
6
juni
april
juli
weitere
10
können
universität
neben
erhielt
dezember
beiden
diesem
b
dessen
15
kirche
hier
gab
november
000
##k
deutschland
gibt
zusammen
saison
##us
zunächst
berlin
jahrhundert
s
platz
8
7
18
mitglied
zurück
##g
u
##te
19
sehr
februar
deren
16
erst
ihren
ebenfalls
keine
stand
##on
bekannt
dies
dieses
befindet
12
ort
namen
allem
km
14
film
neuen
##ten
begann
nachdem
schon
einige
9
30
selbst
sohn
worden
was
13
2010
deutsche
bzw
17
steht
##z
neue
personen
i
anderem
2011
d
familie
2008
ohne
nahm
2009
st
statt
großen
spielte
deutscher
##u
allerdings
erstmals
denen
gewann
formula
wegen
0
2007
2012
fünf
wenn
##den
ins
##ch
2014
außerdem
bezeichnet
immer
2015
##de
gehörte
aufgrund
2006
11
jahrhunderts
band
2013
25
new
danach
andere
trat
ging
sei
viele
name
titel
art
große
v
sondern
dazu
meter
gehört
rund
z
führte
insgesamt
leben
mehrere
menschen
seines
weiteren
2005
schloss
ii
zudem
##h
diesen
besteht
hatten
##um
arbeitete
weiter
##c
schließlich
2016
fand
nun
friedrich
ihrem
studierte
sollte
gruppe
genannt
mal
2004
geschichte
##ing
tod
2000
soll
21
anfang
letzten
24
gegründet
kurz
neu
kilometer
2017
unternehmen
sechs
erfolgte
c
wobei
1945
gebiet
tätig
doch
##berg
frau
johann
folgenden
22
la
karl
insbesondere
mitte
usa
musste
form
einwohner
liste
##p
meist
blieb
100
gebäude
anschließend
wechselte
##f
2003
land
jeweils
##is
e
straße
region
erreichte
welche
übernahm
vater
2001
lang
23
erhalten
kinder
2002
##an
prozent
darauf
verwendet
bereich
norden
siehe
bau
innerhalb
führt
mannschaft
##ischen
könig
haus
album
and
gewählt
verschiedenen
je
oft
besonders
beide
entstand
fast
davon
28
tochter
alten
amt
26
rahmen
spielen
dorf
wilhelm
wien
2018
gilt
folgender
##ng
daher
erschien
einsatz
münchen
27
damals
millionen
süden
finden
##el
##le
erneut
errichtet
konnten
50
h
also
1999
zweite
##b
gut
university
rolle
verein
ließ
john
jahres
beispiel
stark
##x
eingesetzt
ca
heinrich
##os
weil
sowohl
zahlreiche
arbeit
richtung
partei
##sch
folge
provinz
weltkrieg
hans
##au
bestand
##chen
frankreich
allen
staaten
##schen
gemeinsam
darunter
osten
eigenen
1990
lange
welt
peter
##mann
starb
york
kommt
französischen
beginn
gegenüber
westen
seite
29
1998
gesellschaft
##v
paul
zog
muss
frauen
schule
heutigen
##ner
paris
zuvor
musik
ehemaligen
##w
verschiedene
beispielsweise
##ne
entwicklung
habe
werk
sieben
alter
31
kreis
landkreis
##ler
darüber
regierung
fc
spiel
insel
höhe
betrieb
bevölkerung
findet
ursprünglich
sitz
zwar
folgte
somit
1994
teilweise
##gen
arbeiten
zehn
pro
burg
1996
##keit
acht
1997
deutsch
1992
hin
##ie
team
österreich
bedeutung
##na
##dorf
##ig
##ungen
häufig
sommer
##bach
serie
krieg
lag
ehe
veröffentlicht
kleinen
1995
1991
##3
mann
mutter
40
gemeinden
meisten
##ische
##ia
ihnen
spieler
##2
l
europa
##isch
stellte
amerikanischen
professor
kleine
hinaus
geboren
folgende
armee
##al
lassen
##1
1993
dafür
internationalen
besuchte
geht
setzte
kamen
karriere
ebenso
maria
gehören
gelang
hamburg
direkt
befinden
machte
etwas
franz
1989
london
erster
zeigt
##se
möglich
##4
strecke
liga
kein
schrieb
##lich
hinter
eigene
weiterhin
ziel
t
aller
weg
arten
tag
mitglieder
gleichen
ddr
##6
dadurch
sehen
vertrag
einigen
entstanden

##ach
vereinigten
international
n
obwohl
schweiz
georg
genutzt
stehen
deutlich
buch
vielen
reihe
gründete
wasser
erreicht
bruder
südlich
handelt
grund
national
dritten
##re
chr
saint
##ck
stelle
county
aufgenommen
gleichzeitig
##or
hohen
##5
##sche
##as
##at
nördlich
nähe
1933
veröffentlichte
1972
truppen
politiker
preis
k
letzte
ludwig
bahnhof
ob
lässt
euro
daraufhin
ganz
kloster
studium
kaiser
##ge
bezeichnung
1988
##7
weniger
san
##ra
michael
berliner
liegen
##9
linie
mehreren
##ka
erwähnt
1987
thomas
1980
iii
1970
olympischen
werke
west
kommen
erfolg
60
europäischen
absolvierte
##8
gewesen
mm
raum
stellt
besitz
recht
präsident
entwickelte
1974
system
klasse
ernannt
museum
laut
1939
macht
1986
1938
robert
nachfolger
stammt
wenig
teile
##ter
##0
benannt
dar
##ar
1984
1985
welches
##et
spiele
trotz
1975
##land
bevor
selben
alte
landes
wahl
köln
kehrte
##nen
##sten
league
martin
familienname
schweizer
sprache
bad
größten
einwohnern
lediglich
meister
1944
umfasst
britischen
1968
verheiratet
nahe
verbindung
gebaut
ihres
einmal
1978
fall
1969
kunst
weit
ernst
sogar
bildet
1983
1971
französische
##sen
##ion
1973
begriff
##é
ausbildung
johannes
##haus
bisher
amerikanischer
diente
bahn
ehemalige
##ke
1982
##ta
ag
##ur
heiratete
frankfurt
200
gründung
ortsteil
sieg
1979
spielt
1976
italien
befand
zusätzlich
theater
o
zuge
500
1946
1960
regel
erreichen
tage
g
##rt
##st
see
bald
le
einzige
##zeit
damaligen
größte
ich
england
##and
otto
joseph
carl
rang
park
bischof
city
cm
##ow
1950
1981
nr
sachsen
##burg
entwickelt
hälfte
hohe
länge
besitzt
stil
##ce
politischen
institut
wohl
gruppen
van
viel
grenze
hilfe
general
leiter
reich
1967
1977
neun
stellen
1964
östlich
wenige
##nd
deshalb
fort
dr
fanden
schlacht
späteren
westlich
herrschaft
##ll
zahl
müssen
vermutlich
##da
firma
leitung
frühen
r
leipzig
1965
zentrum
rennen
nord
##straße
al
produktion
verbunden
früher
##rs
finale
heraus
1966
heiligen
division
enthält
jeder
beträgt
1961
entfernt
wiener
##feld
gmbh
du
lage
denn
abschluss
##it
##man
1963
eher
republik
runde
rom
fest
daneben
baden
1956
##heim
1962
literatur
groß
tour
zuletzt
1952
##ei
1940
männer
##la
1949
christian
einzelnen
kanton
1948
aktiv
fläche
machen
##rn
schiff
brachte
80
schüler
projekt
version
##igen
ausgezeichnet
basis
will
künstler
1941
sollten
jungen
akademie
führen
1958
trainer
1943
hauptsächlich
##che
##der
wollte
1942
fluss
bayern
##ns
polen
roman
knapp
verlor
beteiligt
vorsitzender
max
j
würde
1959
david
politische
##ers
ersetzt
##ern
km²
staffel
gegensatz
zahlreichen
langen
funktion
f
mitarbeiter
gattung
1957
soldaten
stadtteil
##tz
william
berg
zeitpunkt
folgen
richard
sollen
1947
internationale
betrug
weltmeisterschaft
weiß
1934
seiten
nächsten
hielt
vertreter
1953
gesamte
verfügung
90
bestehen
1955
dienst
erfolgreich
erzielte
for
1936
belegte
besten
kultur
1954
hof
stieg
70
inzwischen
bilden
alexander
anschluss
keinen
##ation
österreichischen
1920
1919
main
metern
amerikanische
anzahl
meisterschaft
nie
hochschule
1918
eltern
eröffnet
bild
leicht
45
dollar
einfluss
zwölf
college
mark
hermann
position
markt
indem
großer
hauptstadt
mussten
folgten
jean
##ja
wiederum
bürgermeister
namens
anlage
35
katholischen
##tal
1937
kaum
##ger
1951
union
p
schwer
1935
geführt
unterstützung
fußball
james
öffentlichen
lebte
entlang
schutz
verläuft
##stein
##iert
cup
sogenannten
schnell
papst
trägt
gestellt
##hof
darin
überwiegend
china
1930
lebt
dresden
turm
di
george
spielzeit
gehörten
dritte
gefunden
##ien
mindestens
bundesliga
zusammenhang
hoch
beendete
rechts
fiel
lied
erfolgt
wuchs
ausschließlich
river
russischen
übernommen
kopf
vollständig
legte
bietet
##ren
gesamten
jugend
ehemaliger
los
familien
kampf
uhr
historischen
hand
gymnasium
##ca
##ert
programm
verließ
verlag
heißt
galt
##ige
lehrer
graf
schauspieler
heutige
iv
zerstört
dagegen
südlichen
1914
japan
school
##itz
verloren
wahrscheinlich
minuten
hannover
anna
club
verwendung
direktor
erwarb
1928
auftrag
selten
lebten
##ton
tätigkeit
erbaut
regelmäßig
zugleich
kg
##ben
süd
et
herbst
nimmt
ost
1929
alt
1932
zusammenarbeit
englischen
wagen
gerade
##em
american
relativ
1970er
##platz
##lichen
zeitschrift
genommen
größere
welcher
wirkte
##mus
##j
stiftung
world
leitete
stück
wochen
verfahren
monate
durchgeführt
gelände
ländern
1900
russland
##werk
weltweit
300
walter
josef
orte
wert
bank
boden
co
wichtige
tor
##ma
thema
ähnlich
erstes
département
autor
spd
seitdem
juden
##ieren
politik
zeitung
grafen
##gruppe
betrieben
friedhof
gemacht
folgt
verkauft
1980er
neuer
punkte
stuttgart
mannschaften
##tion
organisation
außer
weiterer
kind
gleich
charles
oben
motor
umgebung
##ed
dennoch
seien
stunden
jazz
nichts
w
außerhalb
##th
junge
32
artikel
all
del
modell
##hausen
1925
hinzu
städte
##nt
halle
zeigen
weitgehend
allein
##ts
solche
1960er
brücke
wappen
##ierung
##no
entdeckt
herren
##len
laufe
bildete
##ier
x
anteil
bekam
zürich
dient
schriftsteller
startete
kapelle
gründen
1924
erschienen
nationalmannschaft
bezirk
1910
weise
##ni
teilen
stimmen
anderer
1990er
jährlich
philosophie
##ingen
gold
##son
1927
elf
song
vertreten
sah
verliehen
möglichkeit
rock
verwaltung
italienischen
##urg
mehrfach
nördlichen
freien
##ki
römischen
abteilung
preußischen
single
tv
sogenannte
400
open
wort
65
##bar
größeren
tal
vorhanden
produziert
wald
gehen
beginnt
##bahn
hervor
staat
berufen
polizei
maler
##ort
geprägt
führung
gebracht
sodass
parallel
nordosten
westlichen
breite
größe
entsprechend
per
verfügt
ausgetragen
verband
roten
rhein
neues
daten
##hen
1931
siedlung
1921
weltmeisterschaften
beste
ss
##heit
1923
schwester
regie
kosten
##cht
start
angaben
geworden
medien
spanien
kraft
weltkriegs
gegeben
##erg
1926
albert
##ste
stammen
frage
nacht
grand
jeweiligen
unmittelbar
wolfgang
jede
1912
winter
darstellung
geld
rudolf
frei
großbritannien
eingeführt
opfer
unterstützt
chor
##ich
punkt
südwesten
gingen
krieges
mittels
radio
hingegen
1922
rat
##ey
rot
früheren
eingestellt
bekannte
bekannten
württemberg
endete
schwarz
wir
aufgaben
##schaft
##ker
hessen
rechte
kirchen
bedeutet
verlassen
katholische
setzt
linken
gebildet
geben
sammlung
heimat
##bau
sprachen
zuerst
abschnitt
ergebnis
führten
oberen
gewinnen
##il
##ken
bayerischen
award
##ut
herzog
wäre
technischen
verlauf
nordwesten
tiere
sinne
kategorie
bewegung
##ß
75
genannten
nationalen
##lle
westfalen
trug
louis
air
washington
arbeitet
schweden
her
königreich
quellen
enthalten
höchste
höchsten
südosten
##ein
united
zweiter
mittlerweile
to
##liche
turnier
typ
studien
themen
on
hierbei
ortschaft
anders
eu
tore
##meister
beschrieben
weist
bundesstaat
hätte
##io
bürger
links
adolf
festival
rechten
anfangs
könnte
allgemeinen
bremen
britische
sieht
straßen
breit
wenigen
inseln
bildung
royal
1913
offiziell
gespielt
halten
vaters
##ri
tragen
frank
weißen
entspricht
##ang
person
zählt
fahrzeuge
aufgelöst
##rat
grundlage
##que
##kirche
##ry
text
##ngen
frühjahr
jedes
ungarn
ebene
weiteres
gleichnamigen
dahin
musiker
mittel
teils
druck
vergleich
hergestellt
schulen
kurze
versuchte
standen
punkten
wichtigsten
jüdischen
1911
##am
##tt
aufgabe
##traße
kleiner
##ium
präsidenten
1000
objekte
zentimeter
bach
bonn
bahnstrecke
##li
erweitert
en
architekten
forschung
versucht
1950er
lief
abitur
sur
station
angeboten
fußballspieler
gegründeten
aufstieg
jetzt
ehefrau
##ik
verbreitet
1905
geschlossen
vereins
bestimmt
weltkrieges
aufnahme
teilnehmer
gott
erhielten
umbenannt
düsseldorf
münster
nahmen
##tein
1907
schiffe
1917
villa
standort
kindern
island
vierten
dargestellt
landwirtschaft
bücher
top
gelegenen
sowjetunion
tritt
1908
##ville
cdu
pflanzen
derzeit
erscheint
##art
rückkehr
natur
verantwortlich
prozess
zeigte
silber
##á
orgel
36
körper
einführung
klein
nehmen
beschäftigt
philipp
##ine
kontakt
länder
gesetz
##ling
37
rand
bestritt
##tor
andreas
##ko
eingerichtet
anton
##lt
33
technik
fenster
königs
##schule
##ee
brandenburg
polnischen
autoren
moskau
55
leistung
##nden
##bereich
historische
wm
interesse
fritz
söhne
##recht
erklärt
ps
##men
besondere
erde
films
ortes
paar
##inger
älteste
daran
unterhalb
häuser
##ya
teams
sc
##form
sänger
##ende
englisch
##wagen
64
38
stein
ganze
energie
zählen
werner
reise
1906
besaß
formen
34
live
alles
el
44
nieder
preußen
genau
flughafen
marie
östlichen
ferner
aufbau
sport
zunehmend
marine
liebe
les
durchmesser
wodurch
kritik
früh
records
hamburger
elisabeth
veröffentlichung
niederlage
bestimmten
unteren
north
hotel
unterschiedlichen
48
##ag
kreuz
spanischen
blieben
cd
römisch
##me
gezeigt
zweimal
eigentlich
industrie
debüt
studenten
##ls
##ro
spitze
1909
vertrat
französischer
übertragen
##weg
auswahl
evangelischen
holz
mädchen
39
richter
meer
traf
ausgabe
stets
bringen
unternehmens
sv
1904
treffen
müller
errichtete
belegt
##ve
##eim
nominiert
australien
daraus
gute
verlegt
south
regisseur
hafen
material
kanada
150
wirkung
##ski
##orf
tatsächlich
ha
erzbischof
angelegt
alfred
ebenda
pfalz
besitzen
fuß
hockey
nahezu
##co
##lin
##aus
architektur
möglicherweise
##innen
ferdinand
nürnberg
hektar
öffentliche
1915
gemäß
auflösung
##be
wettbewerb
entweder
nummer
geschaffen
bleibt
bilder
feld
##rg
spätere
lauf
bestimmte
fließt
brüder
freund
##he
japanischen
verfasste
nationale
star
erkennen
hält
zug
y
##to
älteren
hall
filme
##ss
gelegentlich
bezeichnete
bauern
##va
jan
gelten
bewohner
##nde
lager
##ius
henry
revolution
deutschlands
dienen
##wald
##ismus
nordrhein
##age
state
gehalten
kleinere
rest
49
pfarrer
rheinland
probleme
parlament
lebens
modernen
##ga
umgeben
nutzung
plan
daniel
##ley
##raum
##rd
geschrieben
luft
1903
lieder
angeles
##ha
##id
gewonnen
wesentlich
gustav
##ann
##system
inneren
##sse
music
##weise
mio
einzelne
werde
öffentlichkeit
##ld
##los
company
erklärte
erstreckt
schauspielerin
##ze
einheit
##see
##wa
52
zugeordnet
freiburg
42
informationen
schwarzen
formel
##ys
tradition
1916
begonnen
figuren
mittelalter
fernsehen
linien
licht
schrift
medizin
2019
theologie
kongress
parteien
wirtschaft
hintergrund
würden
politisch
leistungen
mittleren
moderne
ritter
abs
christoph
verkaufte
entschied
gebiete
super
gar
sieger
fakultät
house
##arten
völlig
metal
jedem
1902
augen
46
zeiten
bislang
maschinen
tode
übrigen
bleiben
besser
##cher
ufer
##enden
benutzt
regiment
##mer
theorie
griechischen
vorwiegend
europäische
##ster
kommission
post
essen
kalifornien
brand
1848
1901
starken
fahrzeug
gemeinsamen
zuständig
verstarb
erscheinen
geplant
boot
pfarrkirche
stattdessen
schleswig
schied
tagen
##za
allgemein
chemie
ausnahme
ns
wesentlichen
situation
unterschiedliche
ungefähr
high
gegründete
spielten
prag
43
aufgestellt
konzept
einheiten
##ons
##sa
600
vorher
nutzen
120
##nis
tonnen
wissenschaftlichen
1899
ausgestattet
baute
donau
landtag
##zen
##anlage
internet
laufbahn
neubau
##und
städten
chicago
zentrale
zeitweise
guten
aufgeführt
ursprünglichen
millimeter
umfasste
##tte
waffen
zeichen
kurt
##fen
stern
bern
wahlkreis
fuhr
fragen
standard
österreichische
mitgliedern
englische
angriff
qualifikation
##ens
schwerpunkt
zahlen
ergebnisse
begannen
promoviert
status
herstellung
urkundlich
##q
struktur
chef
wechsel
klaus
küste
seither
wissenschaftliche
quelle
dach
##ō
##zentrum
##sdorf
abgeschlossen
##gebiet
gesehen
beziehungen
aufnahmen
online
grab
südwestlich
kiel
ganzen
infolge
ausstellung
kurzen
züge
##hn
sowjetischen
lehre
förderung
südöstlich
1898
grenzt
hersteller
heidelberg
stellung
##ina
verhältnis
infanterie
besuch
##ischer
stadion
minister
sicht
anwendung
teilnahme
47
spricht
besetzt
##ität
grafschaft
eng
eisenbahn
österreichischer
1890
eröffnete
feuer
arbeiter
society
späten
verbrachte
##ba
show
bernhard
erhoben
untersuchungen
erhält
elemente
verschiedener
##ht
54
geb
einfach
erfolge
ältesten
garten
betrachtet
manchmal
##ot
junioren
anlässlich
indien
unten
front
basel
##ierte
mündet
einzigen
beziehungsweise
nordöstlich
versehen
schwedischen
klosters
sankt
nordwestlich
software
hoher
dortigen
##punkt
black
lagen
##eren
staatlichen
figur
mainz
unterscheiden
gegner
bezug
800
santa
außen
kennen
ausland
praxis
charakter
##atz
heinz
##ard
szene
pierre
##reich
entstehen
sprach
werken
flucht
schuf
angegeben
51
##ff
satz
1896
1895
entscheidung
hätten
zustand
gericht
promovierte
don
schweren
it
##ek
##ale
großes
no
netz
beschreibt
starke
1870
weisen
##ad
mexiko
erinnert
universitäten
aufgebaut
bot
unabhängig
##agen
##pe
##ti
53
##ft
russische
klub
##gesellschaft
vorgesehen
fällen
dt
handel
besetzung
fällt
charts
85
1897
getrennt
wollen
arts
amtszeit
herkunft
zählte
klar
studio
gelegene
theodor
flügel
##do
arrondissement
##ber
vereinigung
braunschweig
bistum
##un
1871
komponist
##í
versuch
schreiben
lake
jüdische
bundesrepublik
mehrheit
alben
herz
weder
zeitraum
freie
patienten
kammer
verurteilt
oberhalb
##des
jakob
damalige
video
königin
##amt
grünen
darf
rollen
songs
gesetzt
breiten
00
güter
sofort
krankenhaus
klassischen
miteinander
red
einrichtung
presse
angesehen
250
##ly
gemeinsame
tat
sender
einzel
blüten
##port
nannte
fahrer
wer
56
idee
95
verfassung
grenzen
abgeordneter
strecken
##ae
priester
##uch
##unternehmen
vorbild
großteil
##technik
bronze
##di
41
entlassen
besitzer
##ham
gegend
errichtung
befördert
öffentlich
höheren
verhalten
##les
berichtet
beziehung
##ystem
endgültig
könne
türkei
wissen
##cke
##verfahren
evangelische
##scher
##ol
alpen
label
streit
##ring
##zug
oper
monaten
58
##ay
##dienst
gemeindegebiet
halbfinale
original
regionen
entsteht
##go
traten
wissenschaften
engl
arzt
do
institute
ermöglicht
eigenes
flächen
reicht
best
filmen
##all
bay
schriften
association
kunden
weibchen
nachfolge
beschäftigte
zugang
schwere
blau
weltcup
lernte
##ell
bund
ehren
salzburg
##kreis
zumindest
brief
bestandteil
sozialen
##ny
##dt
technische
ernannte
1850
nennt
zuschauer
fischer
##band
1893
##iger
wahlen
erreichten
##bel
halbinsel
ältere
ring
63
auto
andererseits
anlagen
dänemark
vi
existiert
rote
stellvertretender
handelte
##ssen
57
einschließlich
sendung
jeden
1880
komplett
ruf
1930er
bord
existieren
schützen
kanal
italienische
transport
br
gerhard
verkehr
##witz
verpflichtet
göttingen
rein
inne
oberliga
geborene
kontrolle
kw
vergeben
zumeist
##lage
ergibt
##lo
72
ordnung
##ir
leitet
71
landschaft
angenommen
errichten
gouverneur
ulrich
vereine
farben
simon
texte
verhindern
##ist
ausbau
tom
verbindet
gebieten
auflage
##führer
mehrerer
1892
##nn
auftritt
academy
fertiggestellt
untergebracht
belgien
vorgänger
zentralen
gottes
fach
orden
einwohnerzahl
unterschied
gewalt
##llen
erlangte
altar
benachbarten
schaffen
bibliothek
##hi
denkmal
repräsentantenhaus
problem
museums
kriegsende
66
british
löste
##isten
ausdruck
bestätigt
niederländischen
europameisterschaft
mensch
1885
chinesischen
96
hieß
59
##of
anhand
kölner
##ana
maßnahmen
kleineren
1894
center
bisherigen
generation
mathematik
allgemeine
widerstand
untersuchung
schlug
variante
##gruppen
ursprüngliche
scheint
konrad
wissenschaft
brach
wolf
design
##ug
62
geriet
initiative
funktionen
höhere
holstein
frankfurter
orten
1888
nachbargemeinden
zweck
soziale
einst
hauses
stammte
julius
ortschaften
tief
1889
vorstand
dichter
gipfel
befanden
scheiterte
##tag
offizielle
football
at
61
68
rio
nsdap
benannte
gefängnis
zweier
kern
##wert
##igkeit
überhaupt
gründer
##verein
umwelt
partner
eins
volkszählung
phase
hl
widmete
besucher
##eld
##ý
woche
produzierte
##chule
verwendete
konzert
einrichtungen
joachim
erfolgen
bestehenden
##rk
eduard
##uer
genannte
schmidt
kommando
instituts
ausgeführt
##per
sicherheit
wunsch
israel
runden
gestaltet
getötet
1891
##linie
höher
schaffte
##hl
tiefe
männchen
brasilien
rede
adam
orchester
entsprechenden
fünften
meisterschaften
publikum
fortan
volk
französisch
##one
menge
tempel
##aum
pokal
offiziellen
nächste
1860
##mt
auftreten
britischer
76
weiße
morgen
militär
veranstaltungen
science
historiker
architekt
group
##elle
gekommen
farbe
##im
##tten
erzählt
notwendig
party
hierzu
1874
##lla
##adt
mittlere
##tischen
aktivitäten
##ment
bundes
evangelisch
99
street
ehemals
wege
##ou
mauer
städtischen
eröffnung
bedingungen
##fe
king
treten
entsprechende
1866
##ks
fürsten
versetzt
gemälde
vielzahl
##ln
afrika
verhaftet
##rin
strom
reiches
as
kino
behörden
königlichen
bauten
angebot
karten
arthur
private
verbindungen
##är
##pa
frieden
##ser
master
bester
bereichen
zufolge
vorbei
operation
you
fallen
erich
umgebaut
1875
organisiert
##tes
##betrieb
gewinn
dorfes
monat
behandlung
trifft
firmen
produkte
schwarze
play
##mi
route
letztlich
##leiter
77
bildeten
ausgebaut
modelle
trotzdem
schluss
grad
lehrte
reste
rathaus
weshalb
gelangte
vierte
mühle
##ate
dank
##gs
1867
geweiht
1879
pop
1920er
88
rücken
##je
abend
handlung
autobahn
gemeinschaft
innen
##her
physik
sinn
entwurf
desselben
##ies
##res
wind
tunnel
bestanden
beigesetzt
unterstützte
unterscheidet
1887
toten
grün
herbert
##ul
klavier
mecklenburg
einiger
endet
67
big
dörfer
lee
vergangenheit
offen
is
##erung
unterlag
aktiven
sir
maximal
jährigen
anerkennung
##ai
##halle
militärischen
blick
1872
innere
##zer
hause
##stadt
##ent
münchner
##verkehr
künste
langer
privaten
1886
feierte
distrikt
smith
lösung
dom
bildhauer
nämlich
deutschsprachigen
kader
sturm
klassen
naturschutzgebiet
##ule
##ov
dürfen
eigenschaften
sächsischen
portugal
1884
reichen
##arbeiten
nachgewiesen
altstadt
tages
magdeburg
##end
posten
eingegliedert
##ica
78
demokratischen
holte
würzburg
viertel
98
##raße
##wesen
##preis
##ierten
lokalen
spielklasse
82
states
wein
ex
besonderen
kassel
zogen
1868
jährige
bedeutende
nationalsozialismus
bieten
edward
basiert
kaufte
1873
1500
major
festung
senat
##uf
hundert
sa
##ice
east
schreibt
service
gefahr
braun
mary
ließen
92
wirtschaftliche
verstärkt
me
ben
wichtigen
74
##ón
##ji
un
my
werte
##ds
suche
wirtschaftlichen
liegenden
##ty
81
##mittel
1882
jener
flugzeug
bühne
erhöht
hierfür
1881
träger
herausgeber
solchen
dritter
stahl
tun
sicher
norwegen
behandelt
hill
gestaltung
heer
sängerin
management
josé
beschlossen
pfarrei
unterschieden
francisco
methode
##nitz
##án
abgerissen
sang
##ino
existenz
siegen
mir
staates
jürgen
ermöglichen
zukunft
real
bestehende
aachen
1878
einerseits
anhänger
oscar
uns
verfügte
neustadt
hitler
##wasser
staatliche
ordens
möglichst
debütierte
beispiele
ähnliche
ausgestrahlt
speziell
niederlande
erworben
magazin
##eit
serien
stefan
##ant
beendet
entfernung
##icht
reaktion
engagierte
büro
üblich
110
dauer
schließt
93
bezieht
##brücke
drittel
offenen
diplom
white
##lager
bands
rundfunk
eigener
hören
##ms
entgegen
verbreitung
zusätzliche
eis
frühere
datum
erwähnung
bass
verkauf
organisationen
beruf
wies
fungierte
1883
größer
kämpfen
grundsätzlich
lautet
gesang
stamm
begleitet
corps
konflikt
700
anhalt
franzosen
dänischen
manche
##fabrik
1815
erfahrungen
wehrmacht
womit
##geschichte
kamera
wissenschaftlicher
1876
zentral
##ac
texas
##tät
eisen
thüringen
1861
abstand
krone
04
basketball
brücken
doppel
schließen
töchter
##nger
73
05
computer
ersatz
marke
haut
albrecht
klima
##thal
84
regional
übersetzung
tübingen
niedersachsen
##by
auszeichnung
##ps
86
denkmalschutz
abt
bekanntesten
bühnen
objekt
sagte
kombination
militärische
##buch
pläne
nationen
##stelle
##eite
prinz
definiert
wirken
keller
beschloss
stücke
##piel
übernahme
jagd
begrenzt
fisch
1869
love
ton
anspruch
reisen
ad
##gesetz
reserve
jack
##ordnung
one
gedreht
1864
regionalliga
up
69
amerika
türkischen
##verband
christlichen
fehlen
1865
hugo
mehrmals
87
beeinflusst
##ic
solcher
##fer
anne
register
il
1862
##arbeit
bill
stärker
komponisten
journalist
regeln
diesmal
##eck
führer
entstehung
methoden
08
gelegt
##pen
stimme
abgeordneten
##ichen
solo
interessen
##auer
zieht
niederlanden
herr
zugänglich
falls
verboten
boston
1849
bauen
gewannen
bronzemedaille
##turm
sonst
engagement
ukraine
kantons
offizier
##industrie
übernehmen
europas
athen
durfte
##ue
etc
nachrichten
plätze
angebracht
medaille
sämtliche
leopold
verändert
kandidaten
oberst
09
gleiche
eigenständige
france
assistent
83
wild
spiegel
freunde
traditionellen
jüngeren
amsterdam
produkt
graz
augsburg
wohnung
bericht
inschrift
1877
karlsruhe
wichtiger
gelb
forderte
entwickeln
unabhängigkeit
qualität
benötigt
länger
ergänzt
##irche
erlaubt
##ak
##tum
studie
##ford
unternehmer
ball
##berger
systems
##hr
konzerte
ruhestand
erweiterung
oberfläche
##mühle
hauptrolle
öl
dm
verlust
97
weltmeister
##spiel
##rten
glauben
klassische
sekunden
unterschiedlich
sprechen
ägypten
milliarden
eingeweiht
##rand
erfolgten
veränderungen
herrscher
kabinett
##mar
baum
angeschlossen
##ver
##aten
ziehen
91
griechenland
festgelegt
betreibt
em
kz
beider
##zeichen
franken
##si
darmstadt
fraktion
eingang
expedition
meinung
kupfer
gaben
voll
fahren
leo
freiheit
##jahr
wichtigste
führenden
funde
##ky
umbau
geschäftsführer
wiederholt
polnische
errichteten
erfolgreichen
jena
pflege
mission
ziele
motoren
übersetzt
lübeck
##tische
offenbar
anerkannt
gewicht
leichtathletik
höhen
anti
hügel
goldenen
getragen
##höhe
mord
94
direkte
tier
79
##om
bringt
beteiligte
europameisterschaften
fabrik
vorgestellt
89
tourismus
lizenz
haft
sebastian
##ere
übergang
diverse
reiste
geist
gebäudes
mount
bachelor
##ellen
entwickelten
test
feuerwehr
bereit
löwen
1800
exemplare
blut
minute
beschreibung
pferde
prinzip
schritt
blues
aussage
stellten
gang
western
baureihe
veröffentlichten
1863
fassung
nationalsozialisten
säulen
##erte
überliefert
aktuellen
central
spieltag
mündung
kanadischen
setzen
##stand
drehbuch
italienischer
antike
beiträge
damen
ausgebildet
temperatur
archiv
rumänien
wiesen
nikolaus
dreimal
bergen
kardinal
##gebäude
möglichkeiten
las
fehler
ungarischen
ruhr
südafrika
premierminister
##chaft
columbia
##tisch
##field
malerei
dortmund
herzogtum
verhandlungen
monte
mannheim
botschafter
wissenschaftler
ensemble
min
antonio
fernsehserie
stadtgebiet
bereiche
##orn
ideen
helmut
##anlagen
##zahl
unterricht
kreises
verlängert
konkurrenz
innenstadt
übergeben
personal
lokomotiven
joe
gelangen
vorkommen
sprecher
##tadt
fahrt
pariser
wende
straßenbahn
arnold
höhepunkt
linke
brunnen
geburt
könnten
erhebung
##markt
sand
darstellt
erheblich
beteiligten
eingemeindet
baron
rostock
kommandeur
##ini
maschine
meistens
flotte
gelegen
##ín
dynastie
sonne
##bo
alternative
umfang
dissertation
ansicht
krankheit
geringen
bucht
lokal
japanische
gast
##ven
venedig
geblieben
bob
07
##forschung
rücktritt
handeln
maßgeblich
rosa
unterstützen
bundesstraße
promotion
##liste
änderte
abstieg
madrid
römische
ingenieur
long
##ose
##park
verteilt
val
##ild
heimatstadt
projekte
machten
tanz
verstorbenen
täglich
eigentlichen
virginia
unterteilt
irland
##yn
ereignisse
green
horst
jung
besatzung
wandte
einfachen
verlängerung
##reis
planung
code
1856
griff
karte
via
dieter
1840
artillerie
##holz
russisch
positiv
kilometern
kirchengemeinde
mr
beobachtet
##rte
breslau
einfache
##cken
wand
blue
##film
angeblich
##onen
##gt
01
gezählt
karls
bedeutendsten
rekord
jura
eigentümer
1806
unterstellt
prix
unfall
juan
##ahn
größtenteils
spitzen
##zone
szenen
rose
beschädigt
ortsteile
vertrieben
nhl
##han
aktive
##del
papier
##est
äußeren
##ano
hit
umsetzung
schneider
abgelöst
bekommen
matthias
bergbau
##we
##sk
##smus
indischen
kinos
1859
woiwodschaft
erlebte
line
spezielle
end
force
##kopf
tschechien
##fläche
##ux
##werke
obere
panzer
##titel
mittelpunkt
bundeswehr
##ette
gefördert
williams
spanische
ic
hart
berge
zeitschriften
nennen
reformation
untersucht
nationalpark
umgewandelt
heilige
religion
organisierte
##bild
witwe
aktuelle
gezogen
kauf
unternahm
rechtsanwalt
m²
kriegs
florida
systeme
renaissance
glas
##ßen
partien
möglichen
blatt
lat
lord
mailand
gefangen
langsam
unterschrieb
##ea
abhängig
aufgegeben
ergeben
barbara
erforderlich
geleitet
dvd
ac
entschieden
##eg
preußische
##nder
verteidigung
tür
sed
vermutet
##nte
samen
anwesen
fielen
##alen
seen
geschlagen
rasch
navy
jahrzehnten
##ock
##ian
sichtbar
hinein
siegte
landgemeinde
earl
##häuser
manager
##gang
##familie
koch
gewerbe
nutzte
gebrauch
##ins
kollegen
##nes
gottfried
aufgeteilt
beteiligung
lebensmittel
##lauf
gesprochen
südliche
heide
falle
emil
ursprung
typs
mögliche
db
regionalen
##latz
saisonende
gestalt
##ide
ali
trennung
christen
barcelona
harry
##teil
schnitt
##netz
ford
blätter
##wand
alliierten
viertelfinale
geräte
plänen
gemeinderat
wirkt
symbol
unbekannt
berater
kritisiert
umfangreiche
wohn
vorhandenen
gründeten
tu
fürst
masse
urkunde
christus
albums
demnach
verletzt
männern
korps
ausstellungen
##bare
gitarre
integriert
victoria
aktuell
zimmer
ja
bauwerk
beschrieb
1803
##nk
carolina
brown
##ete
##zi
analyse
oblast
winkel
zoll
##ise
sorgte
geschwindigkeit
antiken
kleines
free
letzter
wollten
kurzer
zusammengefasst
ermittelt
bedarf
bahnhofs
bogen
ausstattung
weiler
##cs
1830
1854
nunmehr
grau
landkreises
##ogen
derselben
##wechsel
glocken
bibel
##mo
forst
unterrichtete
##auf
wärme
maß
schwierigkeiten
heeres
kaisers
jones
aktion
elbe
voneinander
flug
##iel
veröffentlichungen
sun
1857
port
westliche
fleisch
erlangen
entspringt
##lehre
bar
##druck
treffer
1852
1855
usw
reform
zerstörung
06
kapitän
reduziert
spuren
nordamerika
eigentliche
##gg
verdienste
exil
q
##gasse
jüngere
jacob
direkten
keiner
fusion
bedient
##kt
mengen
geändert
reihen
##organisation
felsen
ray
meyer
kräfte
vogel
##gel
stationen
nochmals
fassade
horn
vize
##unde
##lan
zugunsten
1858
potsdam
streitkräfte
opern
dienten
##so
gemarkung
aussagen
verwendeten
saale
gletscher
australischen
phil
lehrstuhl
provinzen
ausgewiesen
gefertigt
messe
leipziger
wagner
auftritte
michel
sk
eingebaut
##sh
##kel
##leitung
historisch
wiederaufbau
bus
jurist
rechtswissenschaften
errang
onkel
##kammer
platten
möchte
##ī
ep
sandstein
##ö
massachusetts
örtlichen
haltung
signal
gewässer
anlass
näher
innsbruck
dicht
##träger
silbermedaille
##off
spät
begriffsklärung
sg
gefahren
kritiker
jäger
arabischen
finanziellen
feste
verzeichnet
gen
##old
obersten
befehl
scott
entdeckte
##nge
trier
ansonsten
erzeugt
charlotte
sog
nördliche
sekretär
engagiert
geringe
datiert
wählte
spätestens
##fa
by
##programm
iran
vielmehr
golf
##ans
ernennung
regensburg
samuel
##fahrt
##vo
or
##ab
##elt
versionen
freier
besucht
umstritten
gezwungen
##ci
bruch
ehemann
##jo
wetter
schwestern
##eln
ausgestellt
zugelassen
##politik
kap
##ät
durchsetzen
ausbruch
erhältlich
instrument
schild
lebenden
oftmals
armen
streifen
verlief
linz
lehnte
englischer
durchschnittliche
bezogen
##oren
elektrische
ermordet
wales
first
ausgaben
verwenden
castle
##fest
##ó
königsberg
parlaments
menschlichen
mond
sechsten
3000
persönlichen
synagoge
ch
varianten
##cal
##bildung
1845
beitrag
regen
umgesetzt
weber
aufmerksamkeit
##musik
anschließenden
##ho
risiko
mac
marburg
ohio
schottland
verbreitungsgebiet
1813
wächst
##baren
##bank
bruno
qualifizierte
##ald
abgelehnt
1851
anbau
zellen
produzent
schacht
usd
siedlungen
stehenden
marx
vielleicht
einstellung
##ola
herausgegeben
flusses
konstruktion
erscheinung
liegende
bedingt
arm
regionale
##sel
gas
mike
engel
änderungen
##lis
tiefen
##horn
zweites
darstellen
jacques
##bewegung
##rung
erbaute
petersburg
sicherte
versorgung
##ück
hauptort
##theorie
ard
research
luxemburg
galerie
##ua
wohnhaus
ed
media
ums
rektor
restlichen
bin
block
1847
##rer
##gi
nachkommen
françois
toren
umfeld
geplante
schuld
argentinien
strukturen
weibliche
premiere
jap
sozial
erfurt
stufen
##plan
erfolgreiche
##aal
bedeutenden
reichs
fdp
katharina
##iden
erstellt
##formen
##cker
bezüglich
felix
vorsitzenden
henri
1846
studiums
##abteilung
besiedelt
tabelle
dietrich
##ula
schauspiel
##ara
brigade
iso
##ura
goldmedaille
mein
##lli
wichtig
hagen
jugendliche
dürfte
##ong
##leistung
##verwaltung
laufen
##uss
verkehrs
road
abkürzung
läuft
halb
foto
##nberg
geschichten
##ě
zwischenzeitlich
metall
getroffen
vieler
anstelle
kämpfte
erbe
mittelalterlichen
kaufmann
versuchen
üblichen
komposition
abtei
auseinandersetzungen
1816
präsentiert
durchbruch
untere
beschränkt
##tin
kaiserlichen
budapest
##eben
eishockey
not
längere
weite
doktor
eingetragen
gestaltete
##ć
christi
verleihung
natürlichen
##nahme
moritz
sound
versuche
aufmerksam
dienste
mich
##kraft
1853
fertigstellung
veranstaltung
1818
##ron
saß
gedichte
beginnen
bekleidete
austausch
liter
gerät
marc
##ore
##yl
##aden
österreichs
##cha
meistertitel
##rad
european
highway
hessischen
spiels
##leben
medizinischen
üblicherweise
andré
##og
geschlecht
ausgeschlossen
young
##museum
##rich
##nie
geplanten
therapie
geeignet
brachten
warschau
03
maximilian
jim
kathedrale
durchaus
betriebe
bestehend
##rei
busch
##ure
himmel
1814
finnland
schwedische
##fall
ec
richtete
council
herum
sprung
praktisch
army
##su
effekt
traditionell
verfolgt
##direktor
natürliche
pass
graben
##unden
gedanken
angeordnet
##aft
festgestellt
persönlichkeiten
##tis
neckar
aufgehoben
erkennbar
sowjetische
##ble
gelingt
goldene
funk
hollywood
##flächen
positionen
betreiben
volksschule
##ille
##chs
haupt
auseinandersetzung
mi
ausgewählt
ten
schwanz
manchen
äußerst
life
geschützt
ermöglichte
##ata
welchem
vorsitzende
kommunikation
werft
vielfach
enkel
seltener
##ria
räume
takt
bezirks
pennsylvania
##ye
berichtete
dreißigjährigen
ans
grüne
abstammung
##bus
ansatz
weimar
griechisch
spielfilm
pc
todes
extrem
inhaber
anforderungen
francis
sitze
vgl
leistete
dur
##urs
old
davis
beauftragt
schäden
lokale
jerusalem
kurzzeitig
jesus
gekennzeichnet
musical
zusammenschluss
loch
##blatt
verbot
stockholm
chile
##sis
##sberg
suchen
##hin
##ani
infrastruktur
##ud
hinten
##produktion
johnson
küsten
##wo
web
dick
kommunistischen
künstlern
urteil
##möglichkeiten
##od
neuseeland
##à
folgezeit
##ah
##erie
##els
##weiler
böhmen
##ā
eg
kapitel
##urm
wall
stephan
vii
eberhard
typische
##asse
glaubens
victor
jahrzehnte
justiz
##nz
eva
erweiterte
darstellungen
botschaft
amerikaner
abgeleitet
sprint
istanbul
##ionen
gt
ausführung
gefärbt
königlich
kindheit
schlossen
##führung
werkstatt
jesu
freundschaft
geringer
##tus
begründete
dresdner
stellvertreter
asien
##ller
erfährt
##up
privat
angesiedelt
hang
frühe
studios
oxford
diversen
betroffen
beinhaltet
giovanni
leisten
heim
spielzeiten
parks
02
manfred
finanzielle
mag
gestorben
vorschlag
reichte
non
kooperation
professur
dauerte
gleis
rosen
internationaler
briten
knochen
kalk
##züge
pseudonym
belagerung
##änge
##mmer
##schutz
beamten
zweig
konferenz
haushalte
##zo
tokio
##haft
##š
##anstalt
##nau
##wirtschaft
900
setzten
goethe
##rie
erklärung
sitzen
sciences
ergab
brüssel
##ums
erhaltenen
episoden
gering
oldenburg
##gau
intensiv
1843
##ges
hängt
windows
leiden
offene
enge
muster
gegenwart
##nten
ämter
entstandenen
luther
hinsichtlich
schicht
stunde
auge
verstehen
trugen
1832
einzug
netzwerk
xi
ü
gerichts
bat
be
häusern
religiösen
bremer
festen
schülern
einsätze
adler
##biet
abbau
brauerei
verbesserung
norwegischen
bisherige
##ane
schlecht
##ite
chris
schlüssel
1844
illinois
lehen
boote
##chi
##kampf
dan
##ez
trafen
1842
entstandene
leute
eindeutig
amts
##jan
stadtrat
vorgenommen
1835
##orm
tot
zdf
##acht
##chten
helfen
##tti
politischer
roger
abgebaut
ski
##bert
law
stock
awards
130
begründet
sees
abschloss
ministerium
##ı
off
genaue
vereinigte
letztere
##äuser
##are
hammer
schottischen
##gut
kontakte
steine
power
arena
gleicher
180
ref
tennis
##kommen
klinik
##ions
entsprach
sucht
buchstaben
beschluss
palast
##lose
##lag
##daten
gewisse
verstanden
vorläufer
bewusst
normal
ngc
becken
last
musikalische
##funktion
freiherr
bayerische
prinzessin
##eten
einsätzen
erhöhte
speicher
prüfung
handels
entscheiden
ph
künstlerische
##cy
##ère
fünfte
verfolgung
starben
ursache
##iv
verfügen
null
partie
##ene
bündnis
kurs
labor
var
stab
höchst
gegliedert
lateinischen
##vertrag
publikationen
##ätze
tirol
berücksichtigt
##halten
handball
committee
kai
interview
##tsch
markus
vorteil
tschechoslowakei
ständig
leser
##ire
institutionen
gesichert
##eis
lesen
stoff
1810
verwandten
nordost
technologie
eroberung
verordnung
jackson
enthielt
hütte
we
steve
abgebrochen
##iche
##öl
ober
erfolglos
übte
journal
1837
insekten
115
time
gebäuden
tournee
flugzeuge
spielern
angst
gesetzes
game
schlosses
##op
kolonie
orchestra
##garten
angesichts
quer
ä
##material
na
geschickt
zahlreicher
hals
bedeckt
if
decken
##insel
games
sam
bier
##kapelle
persönliche
gebiets
zeitungen
inhalt
preise
römer
sagen
ministerpräsident
1838
mode
nahen
##pel
##ain
grundstück
woraufhin
tieren
günther
verwaltungssitz
wilhelms
durchführung
##eur
roth
vermögen
griechische
anderes
##llo
definition
dj
südwest
au
toronto
versteht
fans
##pf
chinesische
beck
amateur
##assen
##trieb
erz
##rechte
##mannschaft
werks
##eil
##ii
kopenhagen
regiments
leer
journalisten
express
golden
erzielt
zeichnete
são
eigentum
barock
teilnehmen
produzenten
besetzten
schlag
formation
##gemeinde
persönlich
101
duo
thron
male
pre
durchschnittlich
##ast
350
glück
grundschule
genf
bit
inc
auffassung
schicksal
zeugen
1841
häufiger
sektion
##namen
california
erschienenen
rad
habilitierte
niederösterreich
fähigkeiten
marathon
knoten
stärke
format
zustimmung
flagge
sydney
##gan
produktionen
betroffenen
schach
samt
motiv
verlieh
point
1839
kündigte
fährt
sp
fortsetzung
krebs
##isierung
schlagzeuger
##baum
eben
##rum
erhaltene
##ührung
##nnen
ausschuss
indianer
jährliche
zeitgleich
nachwuchs
belgischen
helm
ulm
strand
darauffolgenden
beherbergt
jersey
bekannter
niederländische
verwaltungs
geburtstag
haushalts
nationalsozialistischen
junior
änderung
1836
philadelphia
flach
entworfen
##con
jene
präfektur
1834
wilson
##po
weser
rumpf
op
fell
re
zurzeit
genug
##ings
darum
auswirkungen
seitens
##ec
umliegenden
hard
verpasste
hinweis
##rf
psychologie
völker
luftwaffe
heißen
voraus
##nummer
männliche
musikalischen
bauer
gewissen
ärzte
ausgesetzt
ostsee
##sheim
series
männlichen
langhaus
diözese
typischen
freundin
angehörte
go
romane
##erten
with
erinnern
vizepräsident
stattfand
sea
einziger
aufstand
stammten
typisch
cambridge
katholischer
marken
olympische
act
##räume
vorstellung
box
##dach
olympia
##ssa
befasste
profi
fern
lewis
dame
##wahl
night
1821
plattform
##motor
##wood
unklar
gearbeitet
champions
antrag
##well
wesentliche
sichern
jahrhunderte
douglas
bischofs
moor
##ehen
zone
din
speziellen
medizinische
tatsache
##kunst
##losen
eric
piloten
alters
##felder
1200
fund
programme
##chor
erfüllt
bedeutete
legt
kavallerie
1820
künstlerischen
eingestuft
verfasst
million
##don
eier
cm³
nassau
distanz
##nia
behielt
residenz
taylor
kanzel
jänner
portal
regulären
stieß
stars
fuchs
##fs
frankreichs
wachsen
##winkel
##itsch
übernahmen
saal
eindruck
##tand
schwach
geschätzt
traditionelle
mars
##dy
tony
reiter
##ngs
nötig
entwarf
gäste
retten
konzern
besonderheit
##lingen
heirat
##kirchen
spenden
hell
##ittel
zulassung
führende
jugendlichen
forscher
wiesbaden
erneuert
may
volksrepublik
landgericht
islam
trio
schlesien
verantwortung
kohle
##linien
befindlichen
ostpreußen
alkohol
identität
stift
zusatz
oliver
##lar
adel
vermeiden
typen
bewegen
verteidiger
aussehen
##ufen
peking
erinnerung
enden
geteilt
portugiesischen
carlos
bestes
##äume
christliche
wurzeln
125
nordwest
aluminium
unweit
achten
realisiert
element
ausgerichtet
##usen
bevorzugt
##yer
straßburg
##licher
##krieg
##klasse
centre
vereinen
milch
generalmajor
russischer
##anz
soldat
angebaut
ähnlichen
##reihe
##ologie
sagt
##tur
os
dichte
160
günter
##ringen
mischung
fehlt
extra
##ührer
ruhe
steigt
kategorien
grundriss
bernd
merkmale
territorium
orange
bezog
erzählung
deutsches
londoner
solle
verhältnisse
roland
ki
seinerzeit
information
verständnis
erzielen
landwirtschaftliche
##kosten
anwalt
##förmig
westfälischen
unterrichtet
nebenfluss
##nischen
begraben
mont
tel
ken
instrumente
##welt
##ku
veranstaltet
roll
schiffs
wellen
gene
alleine
kulturelle
suchte
redakteur
elektrischen
dunkel
##sammlung
##ju
río
##aren
out
höhlen
unterbrochen
1831
ortsname
mandat
schweizerischen
beziehen
mario
komponierte
angepasst
angehörigen
##mm
marsch
dozent
komödie
##tta
1812
legende
##gas
staats
corporation
hirsch
church
li
gefolgt
kandidat
gefangenen
vorbereitung
holland
com
##viertel
ds
##ru
erlitt
gallen
##fahrer
gefährdet
restaurant
müsse
lieferte
materialien
##kin
##bt
##и
##satz
gran
weiterentwicklung
digital
##länge
antrat
draft
pflicht
town
selber
gesundheit
platte
angelegenheiten
erfahrung
weiten
##ris
##änger
weiblichen
unterschiede
costa
times
bundesstaates
##oli
deswegen
verlegte
diskutiert
##kommission
aufweisen
verwaltet
##aut
mittelmeer
##erin
kim
haar
drama
östliche
country
vorpommern
eishockeyspieler
chance
annahme
##zellen
tschechischen
pommern
gegenstand
edition
day
banken
willen
gewidmet
regierungsbezirk
5000
arbeitgeber
besiegte
eingezogen
verblieb
patrick
drehte
##region
vorstellungen
##dan
kulturellen
gehörenden
inn
chemische
##chte
gebirge
geschäft
erklären
bistums
unterschiedlicher
##lagen
nahrung
##ationen
trocken
1808
1817
ersetzte
anordnung
##ofen
##ów
##name
##ord
zwanzig
erreichbar
alan
##ats
nick
stehende
mannes
jury
restauriert
maße
südamerika
circa
schichten
qualifizieren
helden
gründe
stationiert
##nne
schiffen
identisch
amtes
verlags
bestimmen
brust
duisburg
verbliebenen
mitarbeitern
##ä
weimarer
schön
naturschutz
kugel
autorin
ross
empfing
verbesserte
gabriel
##reise
älter
bezeichneten
universitäts
1833
##lichkeit
seminar
##kow
model
lyon
begleitete
akademischen
heck
gießen
festivals
ausrichtung
bochum
##ous
nu
erhebt
##geschäft
back
täter
wesen
est
religiöse
schatten
erfuhr
ablauf
##ok
##kultur
demokratie
herzogs
primär
ausreichend
lernen
schnee
napoleon
1828
##ände
blei
beruht
##zel
areal
##äure
gewinner
105
##uk
1825
fördern
dokumentiert
##gh
##tra
reine
##rm
versuchten
##wski
##iten
##graben
wahrheit
##erk
##ereich
hochzeit
arbeits
prä
zählten
kranken
verfügbar
marien
##lehrer
mg
schöne
##hren
okres
kv
fernseh
platzierung
beton
vergleichsweise
##ont
besuchen
angrenzenden
verhindert
existierte
à
pflanze
wolle
lutherischen
bezeichnungen
alex
freizeit
##yo
##esen
spur
##latt
schlagzeug
vorübergehend
oh
miss
kreise
spitz
abwehr
bildungs
satelliten
##ida
entsprechen
verbreitete
davor
angehörige
##team
ir
##ade
liberalen
geschlechts
umfassende
kontext
sophie
zuschauern
wohnte
schaden
benjamin
geschehen
letztes
ice
bessere
besiedlung
rückzug
gesellschaften
konservativen
rohr
landwirtschaftlichen
turniers
zusammensetzung
genre
turn
1807
##ios
mineral
ereignis
##spieler
verwandt
sturz
benedikt
finanzierung
sank
hinweise
hot
##dia
ms
anteile
court
mess
gattungen
little
hut
##eister
bestimmung
schwerin
##richtung
carlo
beweis
nation
abgesehen
uraufführung
sorgen
hauptmann
hc
1809
##quelle
##ari
##ost
teilte
mund
championship
nato
unentschieden
##üge
cross
118
dei
abgeordnete
einzugsgebiet
stammende
eugen
##rücke
140
##typ
litt
##phase
##vi
untergrund
sofern
hauptbahnhof
erdgeschoss
statue
sports
belegen
sauerstoff
##rennen
dialekt
historic
gedicht
verleger
mathematiker
wettbewerbs
geschäfte
##zeiten
##sport
##teile
pr
erforschung
sozialistischen
kpd
vorne
vorsprung
nowiki
great
berichten
zugehörigkeit
winterspielen
lautete
nad
##kreuz
betreut
##owski
fellow
##raft
##ick
überreste
##tik
überraschend
verluste
binnen
##stedt
vorderen
1826
trainings
einziges
quadratkilometer
dfb
##inen
getreide
salz
lorenz
sklaven
endspiel
diskussion
maximale
besitzungen
qualifizierten
waffe
koblenz
hospital
auszeichnungen
##ras
erfüllen
zahn
türkische
##prüfung
summe
entdeckung
umgang
finanziert
##keiten
fels
##ett
##änder
schwert
m³
klang
##tel
erkrankung
spanisch
siedler
atelier
hinweg
##tätigkeit
ausgerüstet
##era
mitbegründer
lebensraum
##flug
1798
unmittelbarer
multi
befasst
kämpfe
jugoslawien
bridge
claude
erfahren
##richt
wären
debütalbum
##ruck
##net
triebwagen
rajon
durften
chefredakteur
zufluss
endlich
automobil
früchte
##lug
florenz
betriebs
bernard
##ée
sahen
wahr
vizemeister
jüngste
berufung
worten
vögel
bäume
verbundenen
michigan
neapel
einkommen
##sin
dänische
##barkeit
erfasst
pionier
übernimmt
hielten
erkennt
##fahren
bekanntheit
reihenfolge
antreten
##ausen
zeigten
vereinten
kompositionen
orts
ludwigs
##rau
##nga
entlassung
##mel
südseite
keramik
stufe
1829
grundlagen
großvater
zell
##а
gefeiert
demo
sonntag
schlaf
##punkte
##ären
##fach
gitarrist
zeichnungen
ecke
vollständige
1822
inter
##hafen
statistik
1824
1802
##tier
theologe
ruine
glocke
eingeladen
komplette
##äre
zylinder
ursprungs
han
##fassung
gesetze
107
phasen
fertig
büchern
##owa
technisch
##lz
monats
ny
bauarbeiten
111
höhle
gebirgs
export
siegfried
gesamtwertung
beobachten
abgegeben
abenteuer
hochschullehrer
siebten
##ase
training
natürlich
garde
##ran
##loch
vorerst
102
museen
##bs
touristen
friedrichs
##las
betreiber
sache
##beck
adels
wovon
spanischer
osnabrück
hängen
gefallen
feiern
prince
gesicht
patent
jenseits
##theater
verzichtete
erschossen
ho
saarbrücken
cover
schriftstellerin
zucker
server
##platten
fälle
skulpturen
##sha
yorker
flugplatz
analog
bände
##modell
verbände
hinteren
landtagswahl
positive
rande
erfolgreichsten
singles
valley
##rbeit
theologischen
erkannte
##dae
hände
hamilton
##endorf
planeten
can
uss
beach
##ł
##ruppe
##kon
verkaufen
mitteleuropa
zugeteilt
america
bundesregierung
##tar
gulden
testament
zusätzlichen
mittelalterliche
hochwasser
fotos
vertretern
interpretation
##olitik
ausbildungs
soweit
fahrzeugen
wohnungen
rolf
erben
namentlich
turin
offiziere
aufhebung
gesellschaftlichen
farm
versammlung
vertrags
reis
originaltitel
verlaufen
propaganda
bekommt
verbandes
bestätigte
eigen
töten
aufenthalt
geschlossenen
##uren
aktien
home
##row
brian
##pp
publizierte
gelegenheit
nachfolgenden
marmor
##tern
worauf
streng
1819
erwachsenen
sammelte
eintritt
##bund
gräfin
zurückzuführen
112
##zahlen
bevölkerungsdichte
##stellen
1811
##artigen
##ahl
premier
berühmten
##lu
mini
plötzlich
pfund
##ator
zentimetern
willi
niedersächsischen
schmuck
drehbuchautor
menschliche
fred
verlässt
##turnier
manuel
##angen
##ufe
##ding
##shi
herrn
anwendungen
hoffnung
oberbürgermeister
erhaltung
geöffnet
messen
andrew
verbessern
porträt
frequenz
probe
uk
erziehung
traum
##seite
bauch
fein
##äge
fan
##läche
verbands
index
schuss
dir
##wer
##zin
##tas
vorsitz
##ebene
aufklärung
integration
kreisstadt
gras
sche
##ska
disziplin
bell
bundestag
oberste
lok
tote
andrea
##ack
unesco
beförderung
unterwegs
ole
sonnen
wirklich
salzburger
lebensjahr
##lf
vergleichbar
versicherungs
fiction
##unst
forschungen
##irchen
##werte
kleinstadt
reinhard
produktions
finnischen
denkmalgeschützten
zerstörer
opposition
conrad
becker
niveau
##tter
blumen
landtags
freiwilligen
business
119
flüsse
uefa
reifen
siege
clubs
miller
falsch
schneller
comic
##enberg
räumen
space
id
entstammte
plätzen
kessel
##mmen
feder
##figur
##kan
landrat
slowakei
akt
tausend
damm
##oni
bewohnt
erneute
massen
117
sammeln
sr
104
zwecke
##hal
geistlichen
1805
benachbarte
1827
trieb
polnisch
stillgelegt
##logie
##det
generell
berichte
scharf
komponenten
tim
verbinden
harz
großem
erfolgreichste
bielefeld
##val
head
ausscheiden
##ses
geregelt
trans
##chef
##gemeinschaft
offensichtlich
hoffmann
##ive
bulgarien
##wi
kunststoff
komplex
pferd
leder
bürgerkrieg
1801
tätigkeiten
saar
##kanal
aufnehmen
arbeiteten
drogen
##macher
rief
grande
lissabon
dialog
##mal
jörg
##ndorf
lippe
##isen
nutzt
##ank
109
##shire
pastor
umfangreichen
besaßen
floh
harvard
normalen
geschah
##sta
wider
##hofen
gelangt
ban
##ui
palais
titelverteidiger
mitteln
schlechten
denken
verkehren
teich
##ppen
gleichnamige
##maßnahmen
manchester
##opf
##unterricht
##zy
hauptrollen
##tiv
regime
113
##uck
theaters
guter
innenraum
begriffe
106
##nik
dörfern
gemessen
minnesota
##ühle
##enbach
bildern
##etz
railway
fliegen
gau
nova
malte
rückte
creek
lösen
normalerweise
half
sohnes
konzentrierte
amtsgericht
wirtschafts
1793
114
landwirtschaftlich
bekannteste
gutes
##ufer
äußerte
temperaturen
fer
wissenschafts
befindliche
bedeutender
beschäftigten
negativ
##ney
aufs
badminton
##telle
##sser
##utz
##rate
sat
grube
##tung
##ala
protest
tar
sammlungen
##ă
sterben
prozesse
kritisierte
##lia
johanna
norm
literarischen
junger
fliehen
kreuzer
hubraum
##pieler
stone
##ning
##ira
problemen
städtische
unterscheidung
fa
märchen
landesregierung
##olo
##bene
pest
georgia
sterne
##ela
nordseite
##oa
gespräch
mans
##ichter
königliche
fox
lande
cs
lady
faust
##min
news
750
telefon
humboldt
##ú
dreharbeiten
dinge
##és
entscheidungen
umfassen
übertragung
voraussetzung
codice
hund
##ova
ko
vol
zeche
##manns
1804
affäre
vieh
##ero
sanierung
erzählungen
doppelt
jr
danzig
##ors
##ting
äußere
automatisch
archäologische
frucht
##α
antrieb
katholiken
keinem
powiat
sex
##ile
seitlich
franco
mannschafts
leutnant
gerne
spö
grafik
##frei
##enz
irak
unterhält
endrunde
kommune
erschlossen
##größe
##town
kurfürsten
georges
forschungs
jüdischer
sm
württembergischen
verteidigen
münzen
rené
gemeint
staatsexamen
schwerer
nacional
loire
apostel
nachfrage
weichen
syrien
public
abkommen
vereinzelt
beinahe
unabhängige
reiche
generalsekretär
koalition
1823
vorfeld
##serie
bgb
engen
##ess
flecken
stammenden
fahrrad
##ausbildung
gehäuse
aa
kommandant
heilbronn
oberflächen
hotels
##iff
dna
bestattet
oskar
etablierte
ausgrabungen
tisch
details
verletzung
eichen
##ppe
verteilung
##wertung
raub
mu
talent
genehmigung
##ü
oberösterreich
erwies
begründung
frisch
beenden
##ör
##plätze
erneuten
kapital
##ole
festland
nürnberger
inklusive
##hagen
marco
##fenster
informations
ausgelegt
kriterien
wirtschaftlich
installiert
eigenschaft
umbenennung
bamberg
board
vornehmlich
bein
unterlagen
rainer
##lte
kette
stattfinden
konstanz
berief
103
vorhaben
dance
moment
kirchspiel
urkunden
nordischen
##prozess
entscheidend
nationalversammlung
verletzungen
district
legen
##ef
zweitligisten
fulda
chemischen
islamischen
##lung
##chutz
moll
unabhängigen
ix
##sbach
medaillen
gerufen
könige
##enge
aufstellung
elizabeth
##hersteller
demokratische
tabellen
steuern
senats
allmählich
bestellt
schreibweise
##dauer
aufführung
tiefer
weinbau
oslo
##ial
vorlage
orientierte
mitten
meeres
##spor
veränderung
##vin
erhebliche
deutliche
death
angegriffen
fertigte
bewegt
zugeschrieben
1790
##bro
regelung
einzeln
forderungen
##san
jh
begegnung
col
gründungs
angriffe
##е
bmw
##jew
racing
ozean
benannten
betont
mithilfe
erzbistum
##ahr
1600
##tation
sockel
finanz
##rsdorf
ersetzen
ip
generalleutnant
##pan
hits
abhängigkeit
versorgt
brot
##tzen
##rke
##oi
##chiff
stan
begründer
##prache
spezial
1940er
hop
ara
punk
##nin
geehrt
verhaltens
##ese
wechseln
gebietsreform
##win
##fi
priesterweihe
##ance
nachweis
kabel
grenz
elementen
allianz
osmanischen
dortige
archäologischen
ala
##urt
überführt
vereinigt
rs
königreichs
##fel
bbc
1700
##maschinen
##egen
ankunft
are
ni
##kette
meine
##aben
texten
kandidierte
seele
standards
##ieg
pa
mühlen
deutschsprachige
teilung
##ultur
##handel
dauerhaft
romans
voraussetzungen
fis
erstligisten
##ora
wirklichkeit
erzeugen
kuppel
gent
zeichnet
run
voller
korn
##oy
good
##ros
##gericht
sechste
hamm
welchen
##anten
mw
cro
entwicklungs
ausgangspunkt
stiegen
schall
motive
volks
unbekannten
sd
##grund
forum
vorhandene
gebildeten
wachstum
größter
##orden
##eo
nachts
berufs
##sson
ibn
wittenberg
##ø
##ew
anführer
stipendium
nah
ausdehnung
##ruppen
##ena
zweifel
volumen
kalten
abraham
vordergrund
syndrom
schau
unterzeichnete
he
ev
weiden
tru
kirchlichen
##geschwindigkeit
gefangenschaft
##och
experten
clemens
lehr
musikern
##hütte
gebietes
nor
besonderer
schwierig
antwort
##dor
hauptsitz
benz
vorgehen
steiermark
immobilien
verbund
##mont
howard
schienen
hochschulen
sar
motorrad
##ona
##dra
flora
th
stürmer
##rre
vertrieb
bewaffneten
obergeschoss
überlieferung
durchschnitt
einnahmen
eigens
forderung
einheimischen
1794
bett
heran
etliche
wähler
dokumentation
meldete
tai
haushalten
##chau
plante
##quellen
katholisch
gross
dorn
mer
##litz
anstellung
##uß
briefe
bedroht
tsv
modus
wuppertal
etappe
umsatz
riesen
renovierung
wander
ros
gesundheits
##üsse
geliefert
berger
sol
ser
##ars
stadtbezirk
khan
freunden
auseinander
tafel
anstieg
übertrug
vorrunde
hinsicht
krise
##wettbewerb
##körper
gewöhnlich
##usik
mitunter
vorlesungen
ry
verkauften
ungarische
jon
##att
sicherung
generationen
##rolle
bezeichnen
##nan
övp
##ath
steuer
ontario
gera
kommenden
fahr
arme
ur
gebaute
##ender
##artig
teilt
##platte
erb
beschreiben
bären
116
og
spezialisiert
##com
##ungs
montreal
ma
kraftwerk
##itt
##eich
giebel
108
##lm
##ante
längeren
übergab
episode
daß
leib
sternen
restaurierung
luis
admiral
bauwerke
granit
##echnik
let
harald
voran
aufweist
sky
si
eingeteilt
athleten
zusammengeschlossen
zeitgenössischen
gehabt
umgekehrt
bruders
chemnitz
neuere
modern
soziologie
karosserie
##hs
hd
from
##richter
rauch
strategie
kanadische
##eter
polnischer
minen
gewölbe
##unkt
ae
akten
gestalten
##pur
yu
südkorea
atp
außenminister
mel
verursacht
plus
reichstag
umzug
ff
kroatien
kennt
##mark
warum
größen
gedacht
abbildung
senator
##bra
kennzeichen
boy
felder
beliebt
##ffen
kulturdenkmale
anthony
aspekte
konservatorium
empfangen
##car
feier
einflüsse
studieren
##ub
luzern
blauen
insolvenz
##dung
dokumente
##gung
selbständige
schulden
partnerschaft
thüringer
ter
ju
synonym
net
gestartet
marketing
dekan
ressourcen
rasse
fame
autos
aufeinander
neo
schnabel
redaktion
pedro
schar
place
registriert
##cus
umständen
verliebt
wood
buenos
sitzt
republikanischen
##hy
##landschaft
paderborn
missouri
atmosphäre
verließen
foundation
##ations
erwerb
##lter
vorjahr
italienisch
special
##dorfer
ansehen
pilot
enger
marcus
planungen
##ws
down
aires
shin
##iner
##ätzen
##bruch
##low
dünn
##nische
eingenommen
neuzeit
verbrechen
alice
krieger
besseren
marcel
strafe
prinzen
##rus
ehepaar
bel
roy
##hilfe
betätigte
ron
flachen
inner
leichter
studioalbum
##mauer
della
leichten
friedens
besetzte
metro
ei
vorder
stephen
kriminal
periode
##illa
fremden
stanley
renoviert
heller
ana
südost
flüchtlinge
philosophischen
handlungs
achse
##ada
publiziert
halben
##stellung
güterverkehr
mp
siegel
duke
geheimen
bio
pseudo
julia
metz
##ès
bataillon
##cia
kompanie
##karriere
##stoff
letztendlich
asteroid
sub
##osa
gebunden
flur
##sky
überall
faktoren
europe
austria
verteidigungs
kredit
wettbewerbe
set
gehandelt
burgen
press
##voll
kolonien
prototyp
erkannt
##rom
township
get
ausrüstung
dreh
verzichtet
##fo
##gewicht
##nu
ul
##ters
helsinki
##idae
befreiung
##ücke
##ball
##waren
hilfs
reden
human
##tig
kurfürst
viermal
transportiert
nachbarorte
##bu
senioren
götter
offs
haltepunkt
bürgerlichen
konflikten
liebes
nationaler
exemplaren
ruder
autonomen
kritisch
##länder
##partner
lothringen
schädel
alternativ
sommerspielen
##ister
faktor
angriffs
gesamt
lexikon
darsteller
erdbeben
fähigkeit
##ão
erlernte
adams
##systeme
##stätte
beendigung
physiker
départements
glasgow
louise
##uri
riga
##tau
soul
kult
institution
##ktion
lud
##ban
orf
##rit
kurzfilm
ansässig
unmöglich
jüngerer
##projekt
##iter
ia
vergangenen
trasse
spar
mythologie
matt
wahlbezirk
##hai
stammes
achter
absatz
##gon
lech
mangel
1789
peru
orientiert
1792
lou
geschäfts
senior
hip
ar
vorname
brüdern
mauern
achtelfinale
schließung
juristischen
##über
##nus
zerstörte
brut
nachlass
fe
wissenschaftlich
ungewöhnlich
umfassenden
450
##lus
##amen
lokomotive
düsseldorfer
taucht
fürstentum
colorado
bande
##о
##ita
münz
beat
projekten
teilnahm
ger
thailand
markiert
aufzunehmen
germanistik
ferrari
##runde
pi
längs
ak
erwin
peters
hunde
##lein
länderspiel
hr
##ima
vermehrt
kommunalwahl
##säure
knie
willy
##uen
csu
einladung
schen
abgehalten
befestigt
staatssekretär
global
##rien
galten
##ž
order
gegenstände
orthodoxen
bürgerschaft
entschloss
##nlage
su
motors
laden
kuba
stuttgarter
wohnsitz
gegeneinander
dark
niemals
##now
westseite
##eichen
ähnelt
uraufgeführt
kampagne
##din
mitgliedschaft
innehatte
herrenhaus
##urf
behörde
johnny
schmal
##ucht
welle
arbeitnehmer
richtet
organ
website
ku
far
küche
laufenden
ig
##kar
wilden
erstausstrahlung
##line
vorstandsmitglied
jane
erhöhen
leichte
janeiro
##artige
freiwillige
these
schmalen
##use
gleise
geistlicher
geheim
gruben
feldzug
relief
##van
##aner
mari
qualifiziert
##förmigen
##ella
mut
##ark
belgrad
tageszeitung
communauté
##ş
##nter
warf
einzig
##ele
militärdienst
##gelände
erwartet
zürcher
auflagen
##ilm
verarbeitet
urkundliche
zwerg
##achsen
##ū
formal
disziplinen
jimmy
auguste
austragung
gesperrt
dos
mainzer
beute
wählen
se
händler
wehr
bemühungen
##reichen
sächsische
##folge
sen
lieben
inhalte
entwicklungen
zoo
finanziell
##gue
ukrainischen
elite
bewegungen
niedrigen
gerichtsbezirk
##bi
##eno
sizilien
gotha
##cki
##sellschaft
##tre
einzelner
tatort
steil
elektronen
pt
mobile
gordon
baudenkmäler
schwarzer
benutzer
kindes
kaserne
po
gottesdienst
delegation
öffnen
vincent
gekauft
lkw
litauen
##örper
##oden
##ori
camp
älterer
weihnachts
bart
##rkt
serbien
aktionen
ya
##har
beauftragte
stämme
pri
##ves
nominierung
manga
ems
dre
ville
ortsteilen
ebenen
comics
##nas
anlehnung
weiss
##lock
linden
treu
gregor
##version
##mpf
böden
rob
##iga
chu
ruth
abermals
textil
geprägten
christ
tests
länderspiele
gärten
sim
airport
philippinen
individuen
nikolai
still
##sal
vietnam
mc
udssr
gelbe
fk
nutzer
##nda
genauer
##dar
wettkampf
abgesetzt
dementsprechend
sportler
chemiker
maschinenbau
vierter
personenverkehr
präsentierte
barocke
bomben
kenntnisse
pius
negative
##kos
landesstraße
bro
universal
baumeister
acker
atom
##vereins
untereinander
ermordung
hahn
detroit
ausdrücklich
nrw
liefert
irischen
gr
kapazität
##zt
bond
grunde
##nce
hinterließ
dampf
##isches
##gy
##echt
vfl
mercedes
jeweilige
##kademie
bedeutendste
mikro
raf
lebende
lp
fu
keinerlei
erbte
nachricht
kulturen
stetig
siemens
kleidung
rück
##let
bestritten
##ott
verschoben
##schaften
##förmige
##kas
dorthin
balkan
##ahrt
betreute
rats
entwickler
##asser
laien
befreit
eigenständigen
##aro
heil
borussia
##aka
rue
fische
##nung
sperr
##eri
standorte
eck
final
queen
konzipiert
geraten
zerstörten
med
angekündigt
##nbach
charlie
ansiedlung
schul
action
spendete
werbe
##way
##rock
vorort
volle
petrus
##jäger
massiv
bischöfe
##ommen
ji
vorn
gastgeber
verbessert
mayer
continental
genauso
##oll
pod
latein
beobachter
schiller
##rode
##fähigkeit
luftfahrt
leit
preußischer
hanau
havel
greifswald
glatt
bon
dokumentarfilm
paulo
absicht
hölzerne
vertritt
fußballnationalmannschaft
##sie
##ente
stadtteile
meeresspiegel
australian
gemeinschafts
jährlichen
erlaubnis
##sko
pilger
inhaftiert
kenntnis
##strecke
wolfs
maurice
##oe
geschwister
##lau
ausgeliefert
türken
absolute
theatre
ann
nba
abgebildet
##rot
##nach
##č
folk
##hnen
bos
terror
konstantinopel
erfolgreicher
deck
##eau
bebauung
regierungs
wälder
zugrunde
terra
gern
erkenntnis
stirbt
obst
ausgesprochen
##dem
cheftrainer
##ș
##als
erhöhung
over
##entwicklung
##club
ltd
wisconsin
archäologie
kärnten
##wil
dieselbe
entertainment
aktiengesellschaft
zustande
brett
profil
##llt
kreisen
anwesenheit
##chtung
werbung
fächer
adelsgeschlecht
##zene
##bad
haag
##verbandes
hydro
hohem
angewendet
dc
roh
tr
blütezeit
abriss
passagiere
salon
kreuzung
pe
##sz
zeichnen
prager
eigenem
dal
zeichner
programms
staffeln
unterseite
nest
monarchie
verpflichtete
christopher
reederei
paulus
bildenden
##uhr
übergangs
verfasser
121
range
nachbarschaft
händen
geschieht
folgejahr
jordan
##schicht
käfer
dirigent
##eder
vorteile
sud
##maschine
1799
billy
literarische
industriellen
regelmäßige
jo
jar
konstantin
social
zwangs
##geräte
wunder
haute
finger
philologie
##xi
diego
kalkstein
vfb
##karten
sternbild
heiraten
##tive
sage
##inden
dahinter
häufigsten
spannung
##tan
vorzeitig
##lers
##kehr
angestellt
zar
##reiche
viii
palm
verteidigte
elektronische
##ary
nummern
##pi
spielbetrieb
##arm
gil
verwundet
##station
größerer
raketen
gesammelt
ausländische
rückseite
päpstlichen
abu
zeitweilig
reichweite
german
diesel
polizisten
##minister
##eu
fair
annähernd
höfe
##du
rumänischen
homo
hauptstraße
##zell
beheimatet
##pass
leichen
ostseite
renn
semi
lüneburg
beine
##gl
digitale
geschlossene
##acher
benötigte
##grenze
wasserstoff
philip
##ammer
verglichen
##hon
diplomat
audio
##nig
klage
##gewächse
vancouver
québec
##liga
vulkan
schweine
vergrößert
##olz
##grad
mail
wissens
stifts
förderte
florian
anklage
singen
1797
taiwan
konsul
gymnasiums
##geld
denis
##ame
francesco
entfernten
kontroll
##mie
abschnitte
mittelfeld
leistungs
##reform
handlungen
##zeichnung
ve
women
mississippi
ministerpräsidenten
##licht
##eus
bewohnern
kongo
campus
##fels
moore
gänzlich
##aison
donald
##tellen
begab
##uppen
santiago
kunstgeschichte
hochschul
urban
ran
listen
schaffung
pra
##kes
roma
##sierung
##eiten
juristische
moschee
wiedervereinigung
volkes
sarah
##einheit
rap
meta
überzeugen
niemand
verfahrens
übliche
wendet
teilchen
bou
##the
##karte
##enen
ash
municipio
lateinische
magnus
zehnten
abteilungen
##menge
projekts
opera
anzutreffen
##ato
einbau
##dern
##schiff
gor
führungs
erfinder
##äumen
notwendige
grob
abstimmung
epoche
eingeschränkt
ländlichen
bestimmungen
clark
anstatt
who
##welle
##neu
friedhofs
light
adresse
##af
##trag
belle
bd
nebel
warten
seltene
##paar
kindergarten
zentrums
abgrenzung
##uth
spa
werkes
##tions
##ár
##uppe
mol
##rde
##chan
internationales
flieger
stausee
afrikanischen
rum
vorfahren
hubert
ansbach
produzierten
fachwerk
fischerei
memorial
##farben
luise
verkehrt
mountains
con
valentin
leonhard
zeitgenössische
populär
geistliche
wandel
kansas
##sion
##elli
apple
normale
ol
wahren
vr
gitter
bewertet
forest
##lied
buches
erhalt
##versorgung
gelungen
atlantik
guy
##ex
360
##offizier
cr
ideal
bo
edmund
##sburg
ohr
erkenntnisse
staub
##alten
mexikanischen
##zeitung
gehörende
erschienene
meinte
produzieren
frey
story
##gramm
schnelle
rau
erteilt
##anteil
walther
te
konflikte
##è
135
gegenzug
##amm
por
rassen
melodie
##not
pur
ausgehend
hy
hingerichtet
verfolgte
pacific
lar
sultan
mast
école
historischer
kronen
angreifer
afghanistan
kaffee
aufbewahrt
langjährigen
hildesheim
##rath
gewählten
cruz
bull
stettin
landete
1795
tank
##uchs
verstärkte
bs
vermittlung
amp
##ckt
aufschwung
wertung
melbourne
grundlegende
tee
berühmte
unterstand
schönen
shi
schoss
##tu
##cho
verliert
1300
verkaufs
bodensee
mara
vermittelt
budget
##chter
sul
##stil
stadium
aufgelistet
speyer
pflanzenart
porto
poem
anfänglich
rechtswissenschaft
notwendigen
angetrieben
##ildung
hor
erwähnte
möbel
kolonial
ausstellungs
ansässigen
##red
1780
lösungen
kara
##wn
scher
##sches
##aba
theologische
bundesstaaten
geschaffenen
##ener
ketten
jesuiten
arbeitsgemeinschaft
##oro
dauert
ändern
##walde
wladimir
behauptet
##bteilung
##ieb
auslands
kanadischer
gelben
reinen
moskauer
gesellschaftliche
##wein
untersuchte
170
phänomen
uran
playoffs
funktions
##wan
lothar
peri
edinburgh
##osen
wahrscheinlichkeit
hms
##älle
aufsteiger
##eien
mehrheitlich
##nst
##ändler
tau
dich
##vor
cf
lot
##räger
eingesetzten
##ram
geklärt
dunkle
sf
rugby
dun
turnieren
thor
brasilianischen
veränderte
bug
hauptquartier
ragt
wichtiges
##nos
unverändert
trauer
minder
##bal
gelehrten
invasion
rates
vis
holding
ergaben
verabschiedet
eventuell
berechnung
weißer
identifiziert
##heimer
praktische
spektrum
fo
liedern
bischofsweihe
handwerker
letzterer
italiener
kehrt
ethnischen
strahlen
gesellschafter
zurückkehren
schien
baut
zuständigen
iwan
gewerkschaft
##ν
château
##scha
magazine
drachen
rade
ai
wahrnehmung
3d
##ohr
##uten
cc
stadtmauer
af
##bauten
##figuren
wolff
beginnend
einfacher
hob
##igung
gesellschafts
##born
mais
abseits
absolviert
##iges
kontinuierlich
kohlen
##pflicht
##house
##waltung
##ied
dave
biologie
ausländer
baby
westlicher
ruinen
steuerung
gebe
124
ehrenmitglied
hk
##tro
uruguay
richtig
boots
##ral
##ía
kiew
gewebe
##hart
microsoft
dai
##verbände
maine
gemeldet
boris
rtl
##sam
pol
kirchliche
jer
schuppen
handwerk
ek
schatz
versorgungs
katzen
breisgau
##basis
kron
anderson
schräg
technology
tha
porsche
##wege
bru
##ika
silbernen
##kov
win
##istischen
wann
reichsbahn
bewertung
##sco
palästina
gon
fuhren
weihbischof
schulter
morgan
öffnung
##hauses
stoffe
schlägt
angeführt
123
mönchengladbach
pan
mega
##struktur
bäumen
a1
liefern
lausanne
##cks
halt
trainierte
gu
1796
##ico
##cz
pfeiler
##nien
getriebe
schmid
conference
tabak
ras
schwedischer
copa
realität
##prinzip
australische
##fisch
kamm
dublin
emma
übersetzer
hu
##gio
indiana
hongkong
gefecht
inschriften
erwachsene
##eti
schiedsrichter
höchstgeschwindigkeit
##zimmer
posen
##iet
four
mönche
zugewiesen
hochaltar
siedlungs
lehm
##mas
fett
christine
##por
zwang
water
schwaben
wonach
schnellen
erwerben
##sitz
verbündeten
roter
##ères
kleinste
your
##cio
heinrichs
stollen
schmiede
standorten
##hase
zivil
umgestaltet
ea
vorherigen
neunten
para
entwässert
men
balken
##iere
mid
künstlers
saniert
kirchturm
bayer
sendungen
bukarest
gestapo
##pitze
##verbindung
lu
derer
ständigen
kilogramm
##kal
bundesautobahn
synthese
que
israelischen
aktivität
122
quartier
tennessee
meilen
minderheit
hi
rittergut
äußersten
kent
##ça
interessiert
4000
körpers
römischer
nordsee
chi
zweit
laubblätter
bauzeit
antarctic
jahrhunderten
chief
##last
systemen
##sung
schlagen
bakterien
kre
europäischer
auswärtigen
erlaubte
vollkommen
bauart
künstlerin
##usch
pakistan
kulturdenkmäler
turner
##orschung
uwe
mine
abbruch
##oc
gedächtnis
sakristei
mor
interpretiert
niederländischer
##eh
gebauten
220
stadtzentrum
pedal
##nta
tus
politikerin
entscheidende
##nburg
perspektive
ära
vermögens
##ré
gründungsmitglied
wurzel
allee
normandie
verfilmung
##verteilung
pont
pilz
kalt
##lten
staatsanwaltschaft
gerettet
verstand
bsg
##ute
##rechts
absolvieren
##euer
nachbar
kritische
stru
geh
vera
##our
##itung
slalom
dicke
unserer
aufzeichnungen
videos
bm
bekamen
japanischer
gegenwärtig
mantel
uni
filter
europameister
robin
##dien
kulturgüter
heutzutage
fußballverein
his
##achse
anschließende
ram
fr
##nken
giuseppe
##lon
kn
ahl
larven
ba
fränkischen
syn
dienstleistungen
behaart
1791
konzerten
regelungen
beschäftigung
##ali
auftrat
anbieter
##pin
lübecker
lig
##chu
denkmalliste
gegangen
blaue
bismarck
gerd
##verhältnisse
meint
##hoff
nahrungs
pier
lloyd
zucht
##tia
most
freiwillig
breiter
tausch
bär
##wort
angel
kanzler
ablehnung
##verhalten
##esch
##bezeichnung
kommend
vs
kan
österreicher
sicherheits
##ügel
##yi
titeln
1750
##strom
gesangs
liverpool
verschwunden
gliedert
1784
niederlagen
performance
gb
zurückgezogen
sportverein
motto
protein
held
reformen
lese
hawaii
communes
orient
##alter
##ult
fassaden
alb
##ziehen
oberstleutnant
rasen
ermittlungen
planungs
##enst
naturpark
erheblichen
berechnet
##ota
erneuerung
vers
ra
worte
merkmal
landschafts
##arbeiter
vil
philippe
professoren
bruce
airlines
transfer
mar
café
##muster
vertretung
philosophen
sh
passiert
namensgeber
stich
disney
nm
ausländischen
##verhältnis
yo
theorien
schenkte
##meisterschaft
etabliert
sb
konzentration
gesendet
gramm
##non
kalender
gehirn
hohes
organisierten
techniken
verweist
aba
starker
kolumbien
gebraucht
ce
##behörde
stade
kanonen
##pflanzen
benutzte
wahrgenommen
mühl
jens
bahnsteig
generals
erd
car
tempo
java
1400
mediziner
ausnahmen
sz
##aar
tropischen
lac
norbert
steinen
schickte
puerto
##gebiete
zurückkehrte
gi
vorschriften
##ama
connecticut
iowa
heilig
department
kriege
sainte
##ax
fotografie
sierra
##ode
bud
derartige
bürgern
spanier
dh
viktor
schriftliche
habilitation
##kräfte
verkörperte
sou
mrd
schmerz
##typen
basilika
sara
masters
fortgesetzt
skulptur
marokko
##händler
detail
moderner
kot
hinblick
##ić
axel
erdöl
mis
angewiesen
türen
aufnahm
##ña
##nheim
that
ballett
vorgeschlagen
cottbus
bomber
##bury
lea
pas
##fin
sal
ursachen
wachsenden
student
johan
leon
##firma
diejenigen
besonderes
asa
##uft
area
##ind
##hard
ot
wohnhäuser
häftlinge
wach
tut
##inseln
división
müll
bekämpfung
pit
##rio
verpflichtung
##unter
##oss
ägyptischen
pau
erfolgs
##pielen
ziemlich
wahre
elektronischen
##brunnen
##ellung
nördlicher
etablieren
agnes
total
stall
wohnen
##iers
bla
##nal
##dale
##mon
nouvelle
pole
erhob
böhmischen
128
nelson
umwandlung
##ift
indonesien
maximilians
pianist
dominiert
apostolischen
##gers
hütten
mb
ves
charakteristisch
chal
stammspieler
fordert
motorsport
inszenierung
festgenommen
erzähler
alma
##eitung
plateau
hyper
##ängen
leber
julian
##wen
##aa
arizona
lit
hallen
##gar
durchquert
wit
deli
feind
av
bosnien
bemerkenswert
versuchs
ausstrahlung
olympiasieger
tower
nicolas
more
##dis
zeitungs
schiffes
nachweisen
legislaturperiode
franklin
wol
operationen
gp
eintracht
##bedingungen
lob
glaubt
lern
himmels
gitarren
reh
russen
luftlinie
eingewechselt
captain
##å
wäldern
##organisationen
vielfalt
logo
schmale
stimmung
gefallenen
katalog
offensive
coast
regelmäßigen
dorfkirche
ansichten
wüsten
spannungen
pfälzischen
maus
abfahrt
überblick
modellen
trag
ti
##tet
##altung
nachweisbar
realschule
nachkriegszeit
##ado
boten
teilnehmern
##kie
laura
kunstakademie
##xa
landwirtschafts
braut
unser
dam
wachstums
##eta
schwefel
claus
befreien
##üter
##meter
norwegische
##auen
philosoph
##ße
##debüt
einweihung
aufsehen
popularität
jähriger
##rohr
##erf
datenbank
porträts
verschwinden
söhnen
staatlich
liechtenstein
angabe
bayreuth
##tze
cole
##ais
zuständige
mare
zusammenbruch
##maß
harris
entscheidenden
##rund
genutzte
##haltung
chronik
berühmt
##oh
ful
##mp
job
gattin
boxer
##einrichtungen
mountain
vermitteln
zelle
gestiftet
edgar
##affen
verbindungs
trennte
hinzugefügt
##gehalt
##einheiten
lösch
verbreiteten
margaret
##ugh
piano
##sbe
monument
begegnungen
##bahnhof
schäfer
magister
zugesprochen
neueren
fernsehserien
1785
überlassen
##gne
hauptrunde
theo
kevin
##nds
agrar
volleyball
##borg
torhüter
unterarten
grundstein
##ndi
pause
derart
departamento
gehe
mechanische
passagier
god
bauweise
ausgedehnte
normen
koe
##ç
staatsbürgerschaft
nerven
reformierten
technischer
kaufmanns
trainiert
brenn
gemüse
gift
notwendigkeit
ehrenbürger
abfluss
pazifik
lahn
kriegsgefangenschaft
nichte
coburg
caspar
pokalsieger
rettungs
##ob
##ias
##ois
sprachraum
repertoire
mörder
fat
worms
schwarzwald
wu
kohl
krankheiten
ik
ausgelöst
##ried
##bes
betrachten
bade
##hel
talsperre
flache
mul
angewandte
inspiriert
korea
nationalspieler
##ecken
springen
eingemeindung
gräber
##ysteme
##dichte
rache
betragen
kandidatur
wüste
##ap
casa
referenz
##zustand
##schrift
zeichnung
fokus
färbung
bey
oster
umland
truppe
1770
konkurrenten
gestrichen
stör
##pt
quartett
substanz
nar
history
ru
mun
lincoln
##artei
wiederherstellung
##orte
zumal
kritiken
##tedt
##sst
grant
auffällig
nn
atem
1787
vormals
gerichtsbarkeit
südtirol
interessierte
##dal
ö
##aße
##ech
aw
ecken
amtierte
par
fang
holocaust
solange
informatik
uhrzeigersinn
dynamo
##ej
kapellen
qui
inmitten
verwandte
abb
##out
ing
stewart
mosel
##xe
bre
##dom
network
##inie
eiförmig
##therapie
antonius
atlanta
übrig
##worth
gui
ausschied
##rahmen
mt
aufwand
vorgang
bittet
rotterdam
apsis
##nat
shanghai
stiftete
belegten
antwerpen
##gabe
##fuß
rechtlichen
duell
überlegungen
warm
bock
bois
lade
erobert
dor
##esi
überzeugt
stifter
##saal
unbe
match
stau
ansprüche
comedy
##ager
liberal
##andel
zähne
##sti
##nier
nordöstlichen
countys
style
konzentriert
ähnliches
dunklen
hills
##sverfahren
pia
##partei
##iedlung
poli
farb
##becken
##arkt
virus
level
fantasy
##hm
##ands
krakau
hs
nachbarn
selbstmord
##itze
treue
marktplatz
##aw
##ė
unterrichts
arabische
starten
neumann
bor
erfindung
dol
bahnen
##org
##ity
stürzte
broadway
tan
##ress
nutzten
bundesland
erweiterten
miami
fur
rapper
gotische
endgültige
erik
radar
pfarr
gültigen
positiven
christentum
##verbindungen
haushalt
clara
##adi
instrumenten
base
türme
fernsehfilm
übersicht
##versammlung
##ttung
taten
##ceae
veröffentlichen
störungen
##ziel
##bor
befahren
##inn
laser
mae
mot
##vel
##kus
seelen
humor
genügend
fehl
unsere
hubschrauber
##schlag
##gerät
woll
schriftlich
singapur
geschlechter
ursula
##én
bela
guts
fuße
anerkannte
kennedy
lust
##mäßig
##lei
##chicht
southern
railroad
sammel
platin
beau
wen
mani
fernsehsender
kristall
amtsbezirk
nil
solches
##tellung
ok
kiefer
##ás
sitzung
komitee
empfänger
altenburg
ky
aussicht
ernte
kur
##systems
##iat
vision
konfession
##sy
elb
##decke
rückspiel
parlamentswahlen
hass
offiziers
##head
stadtverwaltung
heu
vogt
che
##una
##pu
zueinander
prägte
kaiserliche
seil
##rift
schulzeit
lars
südwestlichen
##ampf
berner
##enburg
sparkasse
sobald
##iro
##ragen
veranlasste
ländereien
zügen
siedelte
franziskaner
##tl
beobachtung
##korps
wände
ordnete
kämpfer
australia
##rl
schwerpunkte
bassist
##mu
mönch
##ński
##etzung
geo
##mitglied
weiters
dub
hartmann
betreuung
##til
berufliche
greift
decke
##rücken
##nna
zurückzu
##äufer
zufällig
malers
bedingung
jay
echte
preisträger
landesliga
##achen
##bre
rheinischen
##oto
übergabe
kings
innern
##quote
offenbach
rou
kirchengebäude
missions
verfassungs
650
benennung
sack
angelegte
##verbot
vertrauen
südöstlichen
militärs
reb
kost
eröffneten
ble
winde
dekanat
pen
wahlkampf
umlauf
##par
geister
verlangt
verlegung
born
bearbeitung
##kern
##bauer
zauber
sportlichen
matrix
kühl
örtliche
schein
bra
##zentren
pfarrhaus
genehmigt
niedriger
erstbeschreibung
1786
zo
erkrankungen
arte
##dit
tetra
##its
verdacht
##vit
produkten
office
ws
russell
bewegungs
##ct
##ques
urs
protokoll
##trainer
erwarten
busse
bedrohung
onlyinclude
abgetragen
##block
##ander
dessau
germania
she
italiens
informiert
zunehmenden
gerichtshof
verziert
alaska
kaiserreich
bologna
insofern
double
ari
##tem
elsass
stücken
##nacht
moderator
##ichtung
##werks
verschieden
lebensweise
##bogen
vollendet
massaker
flensburg
elektro
##ass
südlicher
lukas
gesungen
renault
volkspartei
bemühte
sattel
sala
ferien
tiroler
denk
heimspiele
##vater
##bilder
1788
##flügel
auschwitz
platzierungen
begangen
##ners
engels
effekte
ausgang
soundtrack
cis
graham
aufgebot
wassers
##schluss
slowenien
ple
klöster
kommende
kanzlei
estland
baus
quasi
##ede
gotteshaus
##vogel
konsum
gefordert
turniere
kaiserin
kelch
stadtbahn
##bezirk
weltraum
##hardt
##eins
fire
##bäude
mehl
demselben
lateinisch
vorbereitet
toni
##itel
ast
hunt
rebellen
pkw
nationalrat
darstellte
ausgleich
sommerspiele
astronomen
anker
abends
nordwestlichen
linker
##tage
stirn
vergeblich
wohnt
messer
ordentlicher
gottesdienste
kommissar
dokument
##hu
meißen
datei
skandal
reaktionen
vollzogen
romanische
kurse
##sgesetz
erstellte
##ote
swa
spezifische
zugehörigen
gedruckt
berücksichtigung
aussterben
adi
ständige
zimmermann
rechtliche
##ān
low
lisa
cra
greifen
gala
##öhe
##zogen
lohn
sumpf
russlands
stiel
protagonisten
##schichte
zypern
regierungszeit
kritischen
leu
##ño
hai
canada
indische
cv
##ness
operations
achsen
sofia
heine
##lände
ernährung
reife
erhöhten
engländer
kentucky
segment
lawrence
bowl
steinbruch
landstraße
xvi
charaktere
richtungen
stuhl
termin
kairo
prinzipien
kahl
geschaffene
konzession
##boden
wy
##zu
echten
bundestagswahl
aka
zunehmende
kirchenschiff
büros
bestände
##istische
##ckel
##armee
##more
##ders
wörter
gesetzlichen
zitiert
hub
hirn
stimm
frederick
ll
fremde
antoine
##das
##ämter
##jer
##eisen
nfl
marseille
##pro
vergabe
werkzeug
orleans
klubs
instanz
##ill
verhältnissen
ay
landschaften
logik
wohnungs
##brief
##alle
##odi
##leistungen
wahlperiode
kies
erwähnten
gefühl
betreten
barth
##uma
halbe
ata
##linger
##lands
##glas
brems
##xt
pu
moral
##wall
240
spezialisierte
harten
glo
unruhen
prediger
ionen
##gymnasium
sri
sorgt
gärtner
challenger
publikums
helle
##lasse
##die
hunger
##ache
lyrik
poly
nachträglich
aufzubauen
nau
ale
##rsch
unver
rinder
inszenierte
hal
selbständig
1783
jemand
boys
##uchen
übersetzte
##ι
scho
lucas
iss
##kte
##air
massive
##awa
gotischen
##ader
systematische
hauptwerk
##zan
independent
valle
startet
abgeschafft
2020
iucn
ausgespielt
verlaufenden
verbundene
bush
under
metropolitan
laufzeit
individuelle
gehalt
alp
variiert
erteilte
malta
za
schallplatten
emanuel
genres
badischen
girl
erwiesen
##laden
##tzer
dio
commonwealth
verlieren
ib
gliederung
##gal
alpes
noten
statthalter
beachten
##kloster
ereignissen
bun
mundart
schröder
places
lungen
tin
##oo
##häusern
entkommen
fen
##orum
137
side
niedergang
vorträge
stuck
beobachtungen
isa
gedenk
neffe
gewinnt
track
mono
##ther
##arte
##fu
##blätter
lehren
folgejahren
##luft
titan
fürth
basierend
grimm
##rogramm
venezuela
triumph
##hmen
verwaltungsgemeinschaft
clo
zeitlich
second
folter
beeinflussen
riesenslalom
erziehungs
bk
##osten
wiederhergestellt
reiner
##temperatur
designer
zinn
caroline
##rz
menschheit
massiven
wirbel
konvention
schuh
einbezogen
##kum
##zig
ernest
##pflege
herangezogen
rekonstruktion
muskel
lieber
##elo
gewählte
ähnlichkeit
silberne
teilstück
chlor
##qua
verändern
bürgermeisters
##mes
dazwischen
schub
persönlichkeit
ortsgemeinde
leiche
unterhalten
landeshauptstadt
##ington
gitarristen
##uta
besiegt
vorrangig
minden
avancierte
##onne
bilanz
##ret
cal
##nit
agent
unterfamilie
philosophische
falsche
überquert
##rollen
menschenrechte
##halt
tarif
benutzen
klagenfurt
char
konzentrationslager
buchen
##boot
ant
##uz
##teri
##eise
rost
rain
bang
##mme
##hus
flugzeugen
##ood
magdalena
bergwerk
##ila
behauptete
pl
tele
##bek
emeritierung
##keits
begriffs
echo
##kra
kaiserslautern
alois
##roman
##kunde
ziegel
versteckt
##kau
##gu
wdr
geschmack
türkischer
gilbert
##meinschaft
einnahme
diensten
klassiker
fi
##magazin
hörte
sant
aufsicht
studiert
piraten
550
beachtung
ihrerseits
eroberte
untergang
tschechische
rallye
gelöst
mitkonsekratoren
##fahrten
wan
schreib
##chel
natrium
längen
halbes
stärksten
integrierte
##förderung
einsetzen
darm
portugiesische
erzielten
basierte
pulver
haltestelle
dead
cap
unbekannte
revier
sn
segel
biathlon
bestimmter
til
##eier
trennt
norddeutschen
rhône
beschränkte
##achs
kommunalen
andy
##raben
ue
##piele
dg
walker
oberlauf
kontrast
streich
aufgeben
fresken
µm
vierer
##transport
stärkere
sta
ivan
bremerhaven
markgrafen
paare
##eiter
zier
norman
forstwirtschaft
sekundär
berges
##management
pet
##ektor
übersiedelte
bewusstsein
##ibliothek
son
blättern
kommunisten
##ssel
##ish
bé
##stück
gedenkstätte
estnischen
debatte
##stab
oberseite
naturwissenschaften
entfernte
##cen
nat
herrschafts
springer
freistil
plo
list
break
##saison
romanischen
##tätte
##verlauf
empire
schönheit
cu
satteldach
brom
##nti
vollständigen
##imo
##ruf
genutzten
bas
resultat
qualitäts
qa
kantone
böse
##nar
##bein
übersetzungen
mon
##eb
uci
kurzfristig
##zucht
ried
großstadt
weide
endgültigen
evans
##tv
##mmt
moon
einheits
auftritten
angebote
erstreckte
stoß
stattfindet
##een
minderheiten
stellvertretenden
scheitern
blind
ausgangs
kong
charakteristische
##ehr
rechter
demokraten
##meisters
ks
befehlshaber
traditionen
lichtenberg
witt
ela
passau
quanten
gelangten
meisterschafts
griechen
diplomatischen
veb
sorten
schalt
bindung
klassischer
tagebuch
maryland
##äu
##iste
stimmte
putz
##mund
umstand
herausragende
##rts
plant
spannungs
##twicklung
mittelalters
komplexe
app
gewertet
##iz
##eid
kostete
spring
garnison
akademische
europapokal
rod
##rischen
wiederwahl
angestellten
rechnung
direkter
##sar
göttin
blüte
anbindung
##gte
##ruch
musikvideo
gedenktafel
rosenberg
rechen
diskussionen
lü
tiger
baptist
homburg
##ches
sportliche
1775
##fort
wenzel
röhren
einteilung
kirch
getauft
##bücher
ermitteln
##scht
##eer
va
sha
edel
zen
wofür
mohammed
besuchern
vorkommt
schlangen
hel
##geben
mk
##reuz
##anbau
vw
delta
verarbeitung
modul
jüngsten
verstorben
audi
##änderung
verheiratete
festgehalten
geschichts
ah
##vis
trennen
planet
##tab
##hafte
photo
chancen
begleitung
how
durchschnittseinkommen
durchgesetzt
##ügen
fifa
##etrieb
way
vernichtet
stra
##chie
erwerbs
lauter
drehen
fehlende
##ssung
verkündete
treppen
kreuzes
innenminister
fra
buck
altes
fm
besatzungszone
samstag
cat
##orchester
parker
xii
##ktor
##etten
liu
##olle
fünfzehn
kor
einstigen
planck
salvador
##ici
mangels
##rick
vorgeworfen
##chow
##anal
bf
chen
1772
scheidung
deutet
##chts
theoretische
kuh
dichtung
development
##erz
alpha
hypo
wilde
sui
gerechtigkeit
pack
fro
überlebenden
digitalen
stadtteils
erstellung
##zow
fertigung
##dl
hanse
charlottenburg
##rren
##brand
ehr
dro
dy
stroh
houston
gürtel
schlechter
belgische
ehre
stuart
durchgehend
grossen
münden
avenue
##ema
##aceae
anstalt
aufführungen
turms
konkurs
helene
dra
empfohlen
har
inhaltlich
bir
bi
polens
##hor
tuch
bevölkerungszahl
utrecht
nordafrika
barocken
##yp
å
schlicht
kie
##schi
##oka
vorwärts
pädagogischen
##yan
sonstige
kelly
##essen
zyklus
durchzuführen
bienen
##rium
sammler
vetter
teilnahmen
##kamp
##truppen
##ystems
mil
##marke
neuro
messung
abfall
##bin
pädagogik
benzin
gleichung
bundesländern
##losigkeit
seltenen
carter
##ormen
##ecke
##rea
britisch
konkrete
beruflichen
verbraucher
intensive
lutherische
sec
tarn
experiment
##iegen
herrscht
immerhin
##lern
schle
pauli
aufträge
##ähnliche
ringer
cum
care
mas
##hrer
stapel
##fre
kle
mos
bahnlinie
##fluss
zuordnung
montiert
##mba
solar
230
cooper
limburg
kel
##räumen
widerstands
batterie
une
133
gerichtet
eisenbahnstrecke
anime
##rna
##ox
##dos
##lls
strategische
##kor
reparatur
föderation
##sau
stängel
begleiter
streitigkeiten
sprech
hp
erlassen
jonathan
evangelischer
jünger
gewährt
deuten
##ege
##motoren
überwachung
verträge
##front
##bergs
automobilen
##este
lima
##werken
ortsnamen
led
ralph
klare
geistes
freigegeben
##haupt
geführten
brannte
reporter
##sing
wahlgang
prof
herab
ap
##wellen
mah
schwimmen
lauten
##cu
nit
wörtlich
kastell
##owitsch
ortskern
komplexen
westküste
stralsund
gei
verse
gewässern
landung
genua
schwimm
letzteres
ryan
glanz
dé
aufenthalts
##ingenieur
gos
##arzt
fotograf
schwager
orientierung
nigeria
##00
sus
statuen
gerechnet
konzepte
jeff
wettbewerben
achte
engagements
vordere
mittig
##tür
beweisen
besuchten
ausgegeben
spalte
ian
ham
religions
##zeitschrift
öffentlicher
##enten
schulz
schu
engineering
lebzeiten
##zeug
untersuchen
quell
##oma
volker
klosterkirche
##rst
provinzial
abgekürzt
##jn
##ati
juristen
##wig
ohren
bulgarischen
zeilen
saisons
dorothea
turbo
studies
##ght
shu
rückstand
lehrerin
chan
scheinen
scheinbar
##gestaltung
präsentation
sexual
proben
gesagt
festungs
mozart
##truktur
##ets
überleben
orthodoxe
##tos
kohlenstoff
1776
##rates
##my
##ater
kosovo
bolivien
speise
1782
stiftungs
##get
##oß
##hain
weitergeführt
vermuten
musikalisch
##rr
##bat
mad
linux
##rden
##nko
##dorff
##bon
slowakischen
reguläre
verhältnismäßig
hitlers
mindest
erstellen
kp
cher
##ienst
book
##bacher
vorliegen
herstellers
dreizehn
##erei
wiederaufstieg
interne
pension
ernähren
electric
wechselten
fracht
ey
rick
eisernen
##ib
straf
gesucht
##eide
zink
vin
challenge
gel
canadian
##ösen
##eigen
raupen
verwachsen
doc
##verlust
##dler
##ront
küchen
container
verwickelt
nachge
gewichts
az
##produkte
##leute
sicherungs
##linge
klassenerhalt
einsetzte
castro
geometrie
cie
hinterlassen
raymond
##oten
wohnten
tra
alba
bb
##bol
gerichte
geographische
entwürfe
hauptdarsteller
administration
pink
freitag
verletzte
heutiger
cp
this
##ono
abwesenheit
##rang
läufer
class
restaurants
protestantischen
##lio
oberbefehlshaber
ars
##lassen
##ix
##ito
interviews
gal
louisiana
##halter
zins
publikation
mora
abzug
peak
erlass
##ude
##uli
medium
boeing
##stan
veranstalter
wag
contest
pensionierung
##yt
##verordnung
wertvolle
verfolgen
geprägte
dreier
##abe
koordinaten
wirkungs
ausschusses
ud
##volle
##fonds
margarete
##т
vorarlberg
spree
moderierte
hur
kamp
fehlenden
jur
##rne
tur
kom
##fragen
##nka
landau
nannten
vermarktet
gegenseitig
harn
##alt
kro
vertriebs
wich
ty
gummi
logistik
bewarb
##erer
##via
ui
santo
modernisierung
burgund
alm
fachhochschule
unterzeichnet
##tat
##eller
repräsentiert
cape
kos
df
marshall
cl
angefertigt
lai
bai
##uh
##tri
kr
##в
##heorie
##udium
##oje
verbracht
sue
monster
kurve
asyl
filmmusik
börse
regierte
ethik
weich
selbständigen
natural
dp
beratung
misst
gewährleisten
augsburger
cia
1777
##wissenschaften
sach
flog
heimlich
##handlung
##gesellschaften
gun
zusammenge
##toff
weltrangliste
schwäbischen
autonomie
##literatur
##hrt
madonna
race
petri
gelblich
survey
industrialisierung
republikaner
nebeneinander
##upt
finanzen
schrittweise
baker
autors
austin
##posten
zentren
nam
magen
kommunikations
kis
wiedergewählt
beamte
##gänge
täufer
##isiert
##ütte
billboard
sau
cour
adolph
unterhaltungs
morris
fernando
##court
umso
om
bros
untersuchungs
sieges
freistaat
take
gör
gs
alabama
algerien
##wiesen
mitglieds
tibet
rechtsprechung
127
dachau
österreichisch
##dell
##hit
gestanden
eisenach
##hat
teilgenommen
maßnahme
membran
##charakter
##konzept
regisseurs
gutachten
##küste
##feuer
erweitern
wachsende
treppe
grundlegend
##institut
##bot
sil
regierungen
##qui
unterart
##lea
oregon
industrielle
##nf
##llung
sonder
byzantinischen
##ï
##ochen
##edi
gary
weltrekord
uhren
erkrankte
erbauten
a3
##nehmer
japaner
##ssi
stickstoff
verlaufende
siedelten
mächtigen
scheiterten
northern
kombiniert
bundesministerium
eingebunden
dimension
weiterbildung
bunker
##has
field
referent
hetero
auswertung
kürzer
ach
gewährleistet
##tionen
##rig
##ücher
##wissenschaft
bohr
abschied
##ware
tochtergesellschaft
##var
steins
saudi
niedrig
franchise
erinnerungen
bergland
luxus
##osition
##niveau
verstärkung
empfangsgebäude
kriegsdienst
kaufen
vereint
fing
lau
bil
wai
sinfonie
gottlieb
gezielt
tante
##gkeit
mahl
##dol
##tums
sonntags
##unkte
ou
##unt
wa
sas
##mos
##ierende
zagreb
link
##eng
unbedingt
pfarre
jenen
hab
sten
crew
beibehalten
fusionierte
##szeit
gefasst
brünn
legion
command
##oberfläche
vertreibung
herzustellen
erschließung
bordeaux
arc
##wirkung
drittes
##akt
fleck
##ê
immun
##ühren
vereinbarung
drohte
##studium
kabinetts
##tic
kunsthistoriker
ada
vorge
ts
##itzer
petra
niederlassung
##ink
##ido
##frequenz
aspekt
##rä
rückgang
backstein
angelegten
##volumen
längst
exemplar
##sia
α
rö
privatdozent
räumlichkeiten
##regiment
flut
##ław
1760
##ą
##quet
aufrecht
widmet
praktischen
salt
gewerkschaften
harte
kapitulation
synchron
behandeln
##irektor
kha
bv
pad
##ücken
dallas
glockenturm
umbauten
sogn
lands
gedenken
geologie
erringen
##sl
kil
sl
gali
ehemaliges
stile
import
oswald
##gebieten
##useum
zukünftige
geeigneten
aufgewachsen
hinrichtung
##ensis
pp
gelassen
cook
##top
entscheidet
##siedlung
##qualität
längste
has
wintersemester
krim
serbischen
niederländer
neffen
##uro
diener
##war
hae
hervorgegangen
lobte
geographischen
elektronik
ackerbau
zweitgrößte
langjährige
year
kirchenbau
##ρ
aufsatz
short
joan
nachfolgende
##staat
thompson
1100
territorial
staatsbürger
offener
eingeleitet
##stra
agenten
##oz
nachkriegs
beschäftigen
##ndel
verehrt
dirk
##physik
##luss
unterbrechung
röntgen
##rzt
slam
schilling
jugendlicher
##ös
##bestand
einander
behaupten
bricht
##burger
coach
parameter
sor
zaren
thematisiert
oe
millimetern
geschoss
schlechte
hohl
meier
liberale
betrag
baudenkmal
##ögen
gesichts
terminal
##höhle
1778
fünfter
eddie
##maler
zurückgekehrt
habsburger
##srecht
##stalt
elster
torpedo
sauer
weitestgehend
pietro
angewandt
agentur
cla
bemerkt
komponiert
psycho
yi
betonte
berkeley
sachs
kreisstraße
jam
##ichten
mei
vorgaben
heft
cousin
##listen
##aler
helfer
kb
jedenfalls
braune
##örderung
##analyse
stre
henne
##hle
leiten
fonds
bänden
betrifft
##kind
##stung
##gro
cricket
empfehlung
sin
stellvertretende
schlachten
bu
stände
##abend
make
##wind
than
initiierte
campbell
anpassung
pho
kant
aue
augusta
##mers
miguel
malaysia
##het
roche
emigrierte
kommunen
gescheitert
zi
prinzipiell
weitaus
##zonen
beta
brooklyn
befreundet
mütter
kit
hauptgebäude
laub
steigen
vorwerk
osteuropa
labour
behalten
verdient
stärken
journalistin
zweigt
ze
este
korb
hasen
schiefer
optische
##aufnahmen
thriller
professionelle
gru
antriebs
prosa
gm
filiale
dv
mes
anzunehmen
##imi
islands
anwesend
sowjetischer
pul
vokal
oberschule
herausgabe
heart
vd
swiss
nazi
fortschritt
##rop
weltweiten
ultra
cent
##king
schafft
##opfer
verwechseln
konservative
##uda
##streifen
##reihen
steiner
mixed
##10
anliegen
umgestaltung
quadrat
grosse
senkrecht
hau
1763
militärisch
betten
##bung
##asen
##rats
##antrieb
stadttheater
gesundheitlichen
ausgeliehen
revision
els
lus
folgend
fasste
dream
boll
sum
kra
nieren
mod
##gie
##dreh
verzichten
##sver
stalin
einzu
clan
caesar
silver
image
benötigten
##lde
##egg
meli
pays
stattgefunden
##friedhof
ansätze
neuordnung
stattfindenden
birken
richtlinie
fri
##grün
##enster
##ausschuss
rü
##avi
ähnlicher
zan
käse
ain
##panzer
maha
herrschte
##mans
gros
ensembles
attentat
##qa
##ip
##etzen
reformierte
rechtzeitig
kompetenz
herzen
gouverneurs
zonen
taschen
bernstein
gefangene
dekret
gur
era
währenddessen
semester
hör
##dd
##amp
nutz
augustus
aufgegriffen
##abrik
saarland
##freie
pal
nationalparks
##can
##stoffe
rb
anhöhe
##uel
futter
beseitigt
zivilen
muslime
überfall
##tiere
##ping
bab
moos
ama
##steuer
käufer
belastung
1740
empore
bann
ausgegangen
##ärke
##bis
schriftstellers
##walt
renommierten
2000er
1774
mtv
betriebene
##sä
##aki
stadtgemeinde
bonner
lind
ida
rötlich
münchener
##fahrzeug
##alis
##öfen
services
wochenende
diagnose
betraut
bella
mauerwerk
leidenschaft
angegliedert
##rp
bitte
##ringer
ward
mill
rechteckige
hexen
classic
ao
oberhausen
nacheinander
erwartungen
kir
angebunden
rückrunde
say
##laufbahn
##güter
reg
lernt
diktatur
rhythmus
erscheinungsbild
härte
freigelegt
einstieg
karibik
geführte
vorwurf
kälte
rüstungs
eingangs
vergessen
erheben
spitznamen
siebte
schreiber
anschlag
##nza
überarbeitet
lambert
exakt
cleveland
nd
erzählen
eli
grundsatz
werten
hinauf
##bachs
peer
##ühne
anhängern
##test
forderten
##chrift
wars
brothers
trinkwasser
verschwand
grammatik
##owo
korrekt
reit
##cin
zentraler
michail
ändert
sätzen
einheitliche
angehören
frost
##meyer
augustin
ingolstadt
vegetation
panama
event
project
engeren
beschriebenen
frühling
berlins
fassen
düren
vila
konvent
zahlung
u20
lund
flu
gla
##könig
inbetriebnahme
kameramann
trockenen
parallelen
aussprache
künstliche
mach
durchführen
##dro
radikal
manhattan
etappen
russ
professorin
häfen
atlas
umstände
fungiert
verknüpft
folgendermaßen
##farbe
statistischen
kostenlos
nasa
##stern
verhaftung
winterthur
schaf
ochsen
munition
126
adrian
##kh
elektrisch
##ward
verwandtschaft
ideologie
fun
entfernen
nachzu
cha
##zar
listet
reinhold
gemahlin
namibia
geheiratet
##herrschaft
barry
abe
verbandsgemeinde
canal
nagel
epi
abwechselnd
pot
verlangte
1773
robinson
unmittelbaren
flüssen
sig
nadel
oro
##л
hardware
cur
wil
ott
##ming
##iven
physikalische
leg
kasten
sportarten
##ohn
hä
organe
grundstücks
data
meisters
kanadier
fahrten
alltag
abc
zugriff
ged
##gger
verfügten
systematik
lem
did
armut
##nsch
##ärts
ronald
reagiert
leinwand
herman
commission
##nic
grafiker
widmen
##usi
##auten
bibliotheken
##chse
bag
##haften
treibstoff
territorien
hohenzollern
##tha
##aja
wiederholte
flotten
just
botaniker
wechselnden
umfassend
ziegen
##ierungs
einschätzung
warner
fördert
##bände
jas
brun
##brunn
##yu
mo
staatsstraße
##quartier
gis
kaplan
meso
erdgas
hilft
##pers
matthäus
martha
gültige
geringere
indian
gli
community
##forscher
hintere
anzeige
reduzieren
börsen
übersee
hellen
bal
##rbe
angeklagt
##ský
osmanische
##lor
mur
warschauer
bezirke
lock
alternativen
angela
##bl
lateinamerika
entstammt
arno
##rbeiten
konstruiert
1781
##insatz
##freiheit
sozialer
rem
joch
gesamtfläche
##loge
verantwortlichen
individuellen
celle
##inde
massa
fremd
##ebiet
potential
##kirch
feststellen
bp
wayne
unterstützten
jason
anerkannten
note
##ühl
deportiert
##aktion
##ph
zivile
reduzierte
legten
eich
##ttel
kate
isle
pay
murray
denkmalpflege
ältester
cho
kal
schubert
sekunde
denselben
späterer
##teilen
sportwagen
richtlinien
blitz
ori
##bit
sap
trend
##chung
vorlagen
taunus
kanals
doppelte
unterhielt
schlesischen
verb
rama
prädikat
umge
organist
vu
bonus
##ppel
res
joint
theologen
leitungs
abzu
montana
##ierenden
jahn
plastik
md
sorge
rings
rechtlich
oc
luigi
boss
jonas
arzneimittel
##stock
sonstigen
ina
##ndet
ls
##nor
village
negativen
nancy
marianne
viktoria
##öse
cds
##wart
ordnungs
cb
mitarbeit
##vier
##phon
##lik
jülich
handschrift
krisen
gartens
platt
auftrags
marschall
kasachstan
gedeckt
folglich
tommy
gips
säule
lie
tatsächliche
merk
instrumental
io
wrestling
filmregisseur
abschaffung
stereo
py
flankiert
google
einwanderer
argentinischen
##indung
nations
hörspiel
weswegen
werder
aki
vollen
boulevard
ethnien
##shausen
ordentlichen
aufteilung
sto
lieutenant
bürgermeisterei
flandern
##rod
bc
##ritz
lords
wöchentlich
mata
bobby
blasonierung
chip
burgenland
leih
fehlte
suizid
seoul
dutzend
##rb
klassifiziert
jochen
früherer
langem
fahrbahn
##ffer
rus
alfons
akzeptiert
großherzogtum
##fahrzeuge
mathematischen
schweizerische
schuljahr
hindurch
handwerks
guido
aufzu
leichnam
bemüht
1730
##fan
weltweite
folgendes
abgetrennt
birmingham
reichstags
2500
studierenden
hansestadt
watt
stützen
phoenix
##para
##organ
sudan
freud
liedes
grat
intelligenz
beurteilung
##usse
verbringen
sozialdemokratischen
##zentrale
durchgeführten
denkmäler
##reiben
##inge
##ativ
papa
wi
kaliningrad
##uhl
gewerkschafts
expansion
eifel
##eifen
##ava
thai
jubiläum
tals
sven
gütern
##lé
seinerseits
wiese
niedrige
richtige
gg
bari
##felde
geeignete
branchen
##mond
##feier
mittelfeldspieler
gray
eth
einheitlich
magnet
##sto
teufels
##ffe
ghana
alberto
##lien
vorwürfe
##ltung
##lügel
neuf
maritime
1779
##eth
übersch
kō
herzogtums
alta
##yk
##bedarf
##chl
schumacher
cn
##bereiche
glen
entscheidungs
aachener
vierzehn
scheiben
##gin
venus
tobias
kommunistische
steck
carol
##äusern
gesamtlänge
arabien
##teilung
##konferenz
kei
ostküste
##ießen
##hang
austragungsort
##hip
zwickau
##ilder
kay
bildende
##asa
geraden
sch
##rc
tet
kommunale
glaube
repräsentative
italia
erstliga
brandt
wahlbeteiligung
vornamen
verlängerte
chinas
schumann
kä
kirk
lava
dell
##eum
kontrolliert
gest
einzusetzen
##ík
##enko
wehrdienst
catherine
but
##ło
walk
bul
sy
rundfunks
reaktions
orientierten
##milie
##usschuss
##gebirge
jungfrau
werkstätten
trip
schwan
pour
download
##griff
##gor
heiz
##sre
konzil
bed
projektes
xiv
kommerziellen
machtergreifung
##kraut
bahnhöfe
210
spreng
erzherzog
zerstören
holen
ani
1648
handschriften
gebildete
puls
ef
zensus
landschaftsschutzgebiet
betrugen
had
call
##division
schulgebäude
östlicher
masa
fal
verringert
auswärts
symptome
kau
kaspar
gruppenphase
gemeindeverband
##gott
seattle
valencia
teufel
sony
cala
##oth
situationen
oberf
julie
bezeugt
##meinde
jenem
##pannung
##able
pfand
mali
##ór
##masse
uniform
explizit
##gia
druckerei
##iegel
sexuelle
versenkt
kegel
gemein
pflegte
##ßt
##inheit
vereinbart
konstant
amphoe
##verg
ses
portland
erleben
meisterin
haare
gre
##ο
existierten
newton
helen
kol
gegebenenfalls
theaterstück
ries
villen
vel
gegenüberliegenden
deutung
heftigen
gram
##ebäude
mitwirkung
kinderlos
gemeinsames
dato
##fle
geliebte
##äger
sektor
getränke
lach
gelesen
vereinsgeschichte
tourte
dl
datierung
begrenzte
##ted
##rge
our
großmutter
##aux
tü
abgaben
##andes
wei
lep
##veranstaltungen
##eine
youtube
liefen
sichere
names
lein
süddeutschen
control
##rius
abd
##zie
sole
experimente
bristol
unterhaltung
micro
schauspielhaus
sak
entnommen
##vereinigung
##rier
##nlagen
überw
stützpunkt
lichte
kl
##æ
##rze
wright
lom
löwe
##kai
erzeugung
##sit
##altar
two
bl
##undes
##gesetzes
rah
claudia
##dienste
typischerweise
bevorzugte
praktizierte
garden
age
##herstellung
kroatischen
##ief
##gens
regierungsrat
holt
ante
##uti
rangers
chat
belief
##regierung
sozialistische
nt
vergleichbare
süß
##obi
märtyrer
automobile
verteilen
sali
gesetzlich
##stre
mura
getestet
gertrud
trophy
künstlerisch
bezahlt
ye
fla
##ales
vegas
##lho
persischen
apotheker
porzellan
dul
burschenschaft
vas
geschütze
##nah
violine
sä
förderer
##how
ct
ungarisch
uh
torwart
booten
anden
galli
erfordert
hansa
##olt
widerspruch
wang
umgangssprachlich
##amin
finnische
chur
rica
überzeugung
saug
erlauben
tell
such
geburtsort
blanc
brod
aufständischen
african
##ober
gy
rico
nahegelegenen
eh
##uert
##zon
##inhaber
ralf
mira
staatsoper
investitionen
henning
erlitten
##äne
organisieren
lew
justin
männlicher
leonard
136
##ym
##spe
tausende
förder
cou
aserbaidschan
##usa
##num
##gny
##bas
sichtbare
konzentrieren
cara
##igt
singer
radsport
bedeutend
anzeigen
##day
##piegel
untergeordnete
skelett
baudenkmale
##rweise
falter
##öffnung
traditions
rath
##planung
##aria
kus
tödlich
rippen
erregte
adligen
##tals
##kontrolle
überließ
angesetzt
gegenteil
wohlstand
verfilmt
tol
bildschirm
markgraf
ganzes
elefanten
wachs
lo
leverkusen
getrieben
beamter
göteborg
auftraggeber
##ð
##räte
vorbehalten
islamische
yan
bene
##rger
ware
differenzen
##hammer
umgebenden
tätigen
fundament
kopie
alexandria
##rian
##mis
armutsgrenze
##örmig
christlich
verzeichnen
hitze
190
materials
geländes
gebräuchlich
eb
klingen
gespräche
maas
ke
##nell
überlebte
jerry
##tochter
weihe
seitlichen
notar
grundstücke
gerecht
evolution
##sprache
proto
bearbeitet
##iftung
gay
ō
theresia
flammen
fester
ohnehin
fenstern
beirat
libanon
dennis
##smo
##rak
##leu
##ammlung
wenngleich
umstellung
bataillons
hervorging
##ummer
stabs
seiden
besagt
##krise
görlitz
channel
##tunnel
neuguinea
endpunkt
sö
klammern
asch
##roth
260
##rische
zwischenzeit
verdrängt
mitarbeiterin
landeskirche
niederrhein
angriffen
##spiele
##cum
substanzen
dateien
bestätigung
sinnvoll
linear
edi
##setz
hudson
cir
harold
globe
heimatland
dokumenten
binden
aufge
tram
gol
frühzeitig
elo
##lanung
##gua
well
##lust
wohnort
rettung
georgi
ellen
##inder
##back
vermutung
summer
krater
generaldirektor
ert
zielen
primera
##ften
lehmann
brau
##ätte
part
org
abi
##jagd
philipps
eingespielt
kannte
hansen
misch
astronomie
##raf
ted
##uan
##allee
soziales
gunsten
##rme
professionellen
hunter
stu
methyl
##streit
##lat
##err
##niederlage
maßstab
landwehr
cali
tagebau
ladung
flak
##ester
zeile
##öfe
wenden
dritt
reiz
fpö
##xen
##unk
##une
eigentums
##asten
arbeitsplätze
allgemeiner
##gre
##allen
konkreten
dag
störung
jules
hun
##teuer
##pal
wat
kongregation
lettland
lehnt
##ř
brü
stro
selbstständige
hou
verfall
griffen
nass
geschäftsführung
kata
##lation
polar
lon
ligen
indirekt
befunden
##bett
##chnik
gus
##gle
##flotte
tro
medal
zugehörige
umgehend
lib
erfüllung
##rken
##yama
lüttich
susanne
mitge
jemals
coupé
sabine
zeitgenossen
stätten
##ò
seh
biel
##ción
##ğ
verzicht
mori
medical
griechischer
erholungs
##trecke
##fehler
festes
schwäbisch
mons
gert
##position
ut
ostfriesland
zuges
lt
##ome
swing
people
##scheid
helena
entzogen
tenor
ermland
begriffen
habsburg
angestellte
##ior
##assung
augustiner
associate
##spitze
##kinder
##tzt
lichten
gewordenen
einträge
bronzezeit
agierte
##nha
palmer
kamerun
sti
fortuna
trommel
steven
##künstler
betrachtung
amor
##spielen
##emann
ausgeprägt
2n
review
putsch
ostern
##ür
##wick
rechnungs
##zügen
##ministerium
##ield
wechselt
gelenk
bewahren
##kasse
##decken
bekanntgegeben
uv
hirten
auszug
1720
##tho
landkreise
pädagogische
angrenzende
herausge
fernstraße
dean
freiheits
##heater
investment
unterlauf
ausgeübt
nickel
einmündung
miles
asiatischen
ska
pfeil
blo
##ë
##nbe
grammy
angeordneten
eroberten
##uni
##sso
##iss
pere
aktiver
##ʿ
##ül
bert
##tafel
hey
bundesamt
marian
kath
alljährlich
##chein
paradies
##tone
##ön
baseball
##aya
pai
ausgetragenen
doll
##reste
##far
rm
##medizin
lutz
##reifen
harmonie
kri
kla
veranstaltete
##äter
##star
täglichen
wirft
weiterentwickelt
vorjahres
bekenntnis
begeistert
ausgehenden
künftig
span
kontinental
kinofilm
stärkste
##wy
##mut
1768
präsenz
maría
lebensunterhalt
indi
ausgesch
6000
modernisiert
kommerzielle
häufige
##if
##erbe
rakete
haller
beinhaltete
wasserversorgung
ludwigshafen
bezirksamt
steigern
##sla
##yr
##universität
##hol
thun
dreißig
##talbahn
weis
vorgänge
gefühle
angehört
gelistet
wiederholen
sonn
franziskus
##ngton
##jen
ähneln
page
angezeigt
##itglied
emden
bö
querschnitt
blood
tit
##kommando
hain
zeuge
unternommen
schwierigen
muhammad
##trom
wolfsburg
unterdessen
duc
##chlag
gelebt
leid
asche
api
##akademie
##ust
deutlichen
##ple
reale
staatsrat
fußballer
fuji
dk
##truppe
singt
font
##liches
romanen
geschieden
amtierenden
##igkeiten
##gent
yama
##register
lieb
eurovision
mehrzahl
triest
rheins
proteste
heimischen
ebert
##mitte
strahlung
gefüllt
hul
dahl
steilen
ortsrand
bub
biologische
schmitt
denkmalgeschützte
flüssigkeit
##bahnen
reichtum
puppen
##ates
reagieren
##elemente
erforscht
hörfunk
##reit
kill
1765
qu
japans
intra
##precher
kne
##τ
finanzminister
cer
##rück
##lder
draht
roberto
##flege
krefeld
##eli
heavy
magdeburger
##lach
hugh
gefährlich
scham
hua
##chul
vermont
oklahoma
##ô
##klassen
gewonnenen
beinamen
aufkommen
freising
##ogramm
landtages
germanischen
##methoden
feldern
##lächen
benötigen
steinerne
objekten
det
berichterstattung
##wälder
huber
techno
finanzieller
##waffen
##eihe
core
buslinien
##toren
jahreszahl
fortgeführt
zugerechnet
gro
##frau
hybrid
##bericht
präsidentin
bretagne
##nutzung
ringen
galaxien
##nice
versorgen
flaschen
##yla
monta
kommentar
##tto
toulouse
resonanz
abgelegt
##nationalmannschaft
##ekt
examen
nonnen
lab
##portal
##konzert
rip
limes
cad
##cer
schah
profis
anschlussstelle
##üste
überwinden
petro
dw
vermieden
sé
quadratkilometern
hölzernen
vir
dänischer
verkehrten
ta
wirkten
gläubigen
##ohl
isoliert
fossilien
##schein
taler
resolution
rechner
gin
here
tumor
taufe
##anischen
kunstwerke
hessische
dakota
anregung
##hte
wanderte
ghetto
##tow
benutzung
verdiente
prüfungs
lid
masuren
laufende
impuls
grey
geographie
##sein
vortrag
typus
ausläufer
march
gebrüder
auslegung
##hne
280
def
leuchtturm
lin
großherzog
anschloss
pazifischen
beruhen
ano
š
zorn
waldeck
systematisch
sommers
kut
gestein
row
eingeordnet
deich
##lösung
zeitalter
rechnen
##wesens
##law
##ersch
steinkohle
buddhismus
##meisterschaften
überdies
zugeschlagen
pat
dreht
baltimore
beer
hort
explosion
320
aristoteles
rub
platzes
##ahme
maut
##kation
##direktion
##bibliothek
##aat
ludwigsburg
gesetzliche
empfang
dreieck
##zität
jin
abständen
modells
marktanteil
jegliche
##opa
weigerte
zukunfts
ent
##kis
zivilisten
desto
abgeordnetenhaus
paket
##grab
bee
opfern
horror
erstere
##у
ub
parade
paaren
labels
##ém
schildert
religionen
kun
##stücke
##höfe
jubiläums
##uin
übertragungs
verurteilte
schönberg
geiger
bewirkt
zer
tri
landsberg
kraftstoff
##fte
politikwissenschaft
grauen
gläubiger
atlantic
##cat
##branche
sos
β
fließ
##läufer
##frage
titels
knight
ökonomie
1753
orgelbauer
manifest
##ond
á
synonyme
ortslage
fachzeitschrift
bur
tabellenplatz
lor
tallinn
##mit
vernunft
330
##isi
sad
falschen
tsu
geschützten
1771
tänzer
castell
##macht
sporen
doping
##vereine
##ieder
filmproduzent
##lot
löst
bevölkerungs
rechteckigen
liege
1756
landshut
beides
verhinderte
unit
##isation
dasselbe
cy
##nke
pittsburgh
beeinflusste
pis
ml
##nnt
chin
bath
offizieller
nachteil
##ndo
freude
auftakt
##rbeiter
##child
ele
steg
geste
gou
##inister
##mb
##finale
##av
vernichtung
schulze
geheimnis
##versuch
##oper
vorm
sai
ima
altona
vertrauens
rügen
spital
fühlt
##ør
##amtes
schlucht
ner
geschossen
fahnen
koran
muttersprache
jahrestag
sachen
ritters
einmarsch
annehmen
##any
storm
rud
plural
geheime
beschließt
##mir
speed
provence
fünfmal
brechen
materie
brad
arbeitsgruppe
aut
kongresswahlen
##issen
zweigeschossige
option
##rine
dee
kurzgeschichten
card
behinderten
künstlerischer
drucker
##teich
filialkirche
##messer
##chin
pö
einheitlichen
torre
lenk
anger
##räu
signale
interessant
grabmal
abgeben
zuzuordnen
motiven
fs
beigetragen
rt
rich
eingesetzte
betriebssystem
##ffel
wurf
teilzunehmen
erforderlichen
söldner
geringeren
ankara
anhieb
verursachte
leiterin
treb
##zzo
##rik
##apelle
spätgotische
nebenbei
##met
##änden
##giebel
tt
geworfen
1715
persönlicher
gd
einberufen
##int
##bet
geborgen
empfahl
##hire
menschenrechts
##graphie
##lb
wester
sing
treib
realen
kali
christina
organischen
rundfahrt
definierte
##ogel
kru
überprüfung
schweinfurt
schritte
notre
##dle
respekt
neigung
hue
##ə
##vas
aga
##rmann
spe
hora
ft
bestands
trade
preisen
ausführlich
analysen
##mangel
bestandteile
vorstadt
symbole
shakespeare
gleit
##pokal
geräten
verlangen
ask
##rda
##nitt
udo
##büro
farmteam
rog
gasthaus
gale
##osi
raw
ausdrucks
##hand
sterbe
rep
kana
trink
nasen
ka
hierdurch
##breite
mitherausgeber
theoretischen
chrom
bestrebungen
ausmaß
quadratmeter
genauen
ereignete
anscheinend
grabungen
ausgedehnten
##reisen
benediktiner
175
songwriter
lichtjahre
jupiter
##fähig
##baus
##tudium
wolken
pd
hochge
radstand
sprachgebrauch
pfarrers
got
1650
##schau
vorfall
odenwald
nachhaltige
##rache
dichten
gefäß
rotem
kirchenkreis
hes
##einrichtung
schätzungsweise
ringe
fl
amtlichen
1769
sag
linde
ere
##zelle
nachfolgend
maul
intervention
tang
fasst
##less
riet
kd
jugendstil
schuldig
##tori
schnecken
dis
zukünftigen
schema
höherer
hauptf
cru
annäherung
##rmen
##iker
##ldi
##hoch
öffnet
germain
six
politisches
##tens
bara
meg
##fische
richtigen
maurer
höchstens
##orten
tötet
brandenburgischen
##lbe
kammern
##funktionen
währung
verwaltungsreform
rast
jetzigen
geburtsstadt
yale
verkehrte
ndr
kammermusik
hintereinander
feinde
##eile
messungen
heftig
hauptartikel
scheiden
henriette
zusammengelegt
fauna
pater
landsmann
herzegowina
wille
ste
population
jurastudium
cut
##nov
überregionale
tendenz
obert
aufgelegt
tochterunternehmen
left
##peicher
##lab
wandelte
boi
##nch
physikalischen
eiszeit
##mani
##hro
progressive
monopol
##wal
xiii
brt
##vermögen
äthiopien
monuments
mariä
hervorgehoben
ansässige
reno
lena
ergebnissen
eger
##ordens
geschäftsmann
##ögel
kfz
israelische
basalt
karst
walt
ng
blech
ortsteils
niederschlag
ree
basler
##uder
##erger
stabilität
##rta
##nze
weiher
rea
pick
sarg
nebst
internen
##kapazität
##tine
cups
zensur
gleichfalls
anglo
wolfenbüttel
wis
sigismund
verkürzt
##produkt
pana
entstehenden
außerordentlicher
##orst
##hes
verschluss
unterhaus
##vers
imperial
autorität
hochland
erzähl
##hos
##sab
pelz
hen
bulle
beliebtheit
##komplex
ukrainische
kritikern
##gene
burganlage
##werkstatt
##rag
##oid
verzeichnis
gewichtsklasse
erlebt
##uba
bitten
##dert
mala
inventar
kanten
liefer
höhenlagen
##chle
ausgenommen
##größen
mob
eder
cre
##lätter
##erst
säkularisation
taka
##20
##legung
##jährigen
##cc
umkreis
staatstheater
mand
fehde
##itter
verfiel
mähren
fia
rudi
faktisch
##nel
veränderten
blu
##äder
geschmückt
erweiterungen
##vorkommen
kurven
treffern
gian
cas
vergrößerte
hofmann
biographie
##sicht
##kle
mechanischen
leine
cornelius
arti
iron
beitritt
heiden
director
bala
aufsichtsrat
850
schottische
regimes
monatlich
statistische
hon
brauch
wusste
pitt
##nisse
##tei
nachhaltig
##quin
##ces
waldgebiet
momentan
faser
apollo
angekommen
1680
zulässig
steigerung
hedwig
##rup
##ná
##sat
winters
zwecken
kletter
ris
##ń
movie
like
landen
##ative
##ake
besonderheiten
schlepp
sw
präzise
bae
##ägen
##zzi
##sohn
wahlrecht
od
arabisch
torf
grä
gerald
132
##flo
##arn
vorgängerbau
betreffenden
variieren
relative
bereitete
##bschnitt
rail
innenhof
durchs
thur
oi
ecuador
braunkohle
befestigte
##urkunde
eastern
beil
##pit
manuskript
five
intel
##weisen
knaben
##sol
##echen
terry
stgb
komitees
hack
##spiegel
##ev
veranstaltungs
kast
freigelassen
bautzen
##hall
perm
begleiten
dill
##eitig
kaliber
gl
##begriff
überschritten
zuständigkeit
bundesweit
bisweilen
##ual
schrein
kommandanten
cun
abel
##lä
schweiß
beratungs
##oso
tatsächlichen
hochzeits
fließen
##ssystem
zement
unge
saga
elberfeld
allesamt
##orts
raumfahrt
verh
battle
sevilla
karlsruher
##mitglieder
durchfließt
betracht
quadratischen
privilegien
heiße
nsg
herstellen
##indi
abo
##az
##arben
solothurn
platzieren
nl
wuchshöhen
greg
dü
##ckung
bh
##knochen
charakterisiert
stachel
keil
cran
##zier
slawischen
##design
bron
bewerber
##ao
sorte
nutzungs
mäßig
##tner
vergab
privater
latin
ster
starr
sergei
##oda
##jar
waldes
riss
beerdigt
##rakt
##ngel
##ines
wett
franziska
hampshire
ua
observatorium
köhler
angelo
##oga
gegossen
salm
abg
bezirksliga
##präsident
merseburg
konzeption
heiß
dob
schmerzen
investoren
eichstätt
giro
entschlossen
mau
angestellter
##reiten
porta
bureau
##ij
##uern
##nisch
leuten
gleichgewicht
burn
laurent
gö
##istik
amtliche
einw
##stri
wor
berthold
##pert
##kers
##horst
##bie
ergänzung
##edo
##dens
wohngebäude
ausgetauscht
##fra
prominente
fluggesellschaft
emp
realisierung
angesprochen
sprang
##lehr
##д
##herr
wid
kenia
luke
himmelfahrt
gastprofessor
fries
weine
championships
1766
##gion
##uge
suite
freiburger
##önig
##pot
ruft
##sma
what
neuem
durchlief
comeback
##yc
plat
durchgangs
albanien
##schild
aufstiegs
##rchiv
##olf
bürgerliche
##iu
hobby
verlorenen
202
gnaden
gestalteten
1525
##denz
geistigen
##tieren
zurückgeführt
pyramiden
naval
konfrontiert
würfel
hus
dauerhafte
##erl
geformt
chang
sci
götz
wirtschaftlicher
warren
strahl
##busch
unregelmäßig
protestantische
elm
bedenken
entdeckten
bezahlen
wave
entry
bia
anknüpfen
aca
##olen
##fil
beethoven
absteigen
mythos
grass
billig
jenes
##nica
mitter
fine
##aj
erlebnis
##isk
nationalstraße
gesteins
falken
##eda
zelt
mexico
lorenzo
springs
geologischen
##uc
ungewöhnliche
triathlon
oberlandesgericht
##geber
divisionen
##unktion
marktgemeinde
kleve
##orth
pla
##kurs
tie
saturn
polo
parlamentarischen
luc
weihnachten
forschte
sexuellen
jun
##ement
privatbesitz
globale
egon
ausführungen
##olge
##gat
kran
constantin
tänzerin
pfeifen
1755
##atus
titelrolle
stummfilm
klinge
infolgedessen
##ugen
mhz
katastrophe
frist
270
ssr
irre
geistige
##oj
heimspiel
bem
zurückzukehren
paraguay
galaxie
marion
hag
eingliederung
fertigungs
##zahn
##ntin
##bindung
##artikel
silva
betrachtete
krankheits
berücksichtigen
ang
radrennfahrer
mülheim
wirksam
klinische
fußgänger
großraum
french
ehrenamtlichen
samtgemeinde
##professor
##dr
mathilde
kompromiss
hay
geschenk
##schuss
##for
ökologische
vorschläge
dog
##versicherung
ibm
##besitzer
einheimische
case
nai
cod
1758
südafrikanischen
entwürfen
asp
##gate
überprüft
winterspiele
tscha
xaver
wolfram
spin
auvergne
mä
eingelassen
bek
trikot
stellungen
kaukasus
verwiesen
verwalter
versprach
streik
lehrers
basieren
##wu
##eimer
erarbeitete
bibliothekar
skandinavien
1764
##dri
vollständiger
roosevelt
##orientierte
##inus
verwirklicht
gewordene
staatsanwalt
aschaffenburg
madison
braucht
##text
pisa
zurückge
gewinnung
biber
##ep
ver
individual
fahrgäste
bundesrat
vorgelegt
säure
kf
aargau
wilhelmshaven
moses
laa
##time
##recke
maya
##tück
##aud
##hörde
wenigstens
langes
##konstruktion
witten
nahrungsmittel
##post
##mai
future
diözesan
bedienen
malerin
cin
filialen
durchgang
enzym
##pol
subjekt
seat
martins
untertanen
kommunal
##hlen
viehzucht
kongresses
geringfügig
##eni
##hler
ermittler
tou
mix
##chtig
sparkassen
timor
mind
basse
ausfall
schalke
gio
psychiatrie
mitchell
lä
##lg
schä
lux
exportiert
befestigung
statistisch
seven
organisations
##ees
verwechselt
spalten
lenz
hein
gefolge
##rma
ira
geburts
ausbreitung
torschützenkönig
starteten
##mei
transformation
colonel
beherrscht
##rth
##modelle
##angaben
yoshi
defensive
aufsch
##einsatz
steuerte
karin
##rey
ruhrgebiet
bundeskanzler
nina
ci
1767
##ösung
rag
apostolische
mächtige
landgerichts
gaststätte
schenkung
kabarett
##rechnung
##enn
##bundes
zitat
wissenschaftlern
morgens
bachs
armenien
dicken
weiblich
hero
##wegung
tropische
hom
ever
calcium
##ausgabe
blütenstand
île
zustände
vikar
geheimdienst
stütz
filmemacher
census
##schar
stilllegung
existierenden
##uto
##rou
wallace
bird
organische
montevideo
lehns
disc
rut
stilistisch
propst
passage
administrative
##ewa
harrison
gemeindebezirk
##eht
##wei
weißrussland
tb
kolleg
##vik
profit
neuauflage
marktes
##ube
##erge
##aga
tak
library
finn
scottish
elektrotechnik
##ře
bac
##eru
fotografien
lasten
herzöge
doctor
380
zk
##ő
key
##lge
##jin
##chens
zeitliche
sehenswürdigkeiten
münch
längsten
bewohnte
rabbiner
geri
vita
kö
kin
##gis
kolben
hanns
deep
##flugzeug
symbolisiert
saiten
niederländisch
makro
m1
niger
mitzu
boe
matthew
beraten
##stor
##historiker
whit
wey
jahrhundertwende
mak
behandlungs
##ndes
richten
landesver
geliebten
franche
energien
##ân
monaco
iris
guss
##angebot
nut
honig
##hältnisse
münze
kry
besichtigt
nackt
bä
auskunft
##rtschaft
reliefs
minor
lei
isar
erlebnisse
einbrachte
##stärke
umweltschutz
##abbau
zünd
ministeriums
##ruktur
##quer
##ē
paz
hügelland
forts
asteroiden
1762
##tch
##paare
ungleich
trockene
kart
gestattet
jahrzehnt
##izi
vielfältige
pascha
andre
formuliert
dscha
schwiegersohn
kennengelernt
##iri
sis
regio
kontinent
##fell
saul
tischtennis
eingeb
##wie
wirtschaftswissenschaften
begegnet
äußerlich
kommerziell
größeres
lan
entfielen
##ija
lärm
levi
langjähriger
ernährt
bürgerkriegs
##ime
rumänische
ee
##oor
##jahren
##witsch
gremium
bibliotheks
artikeln
##möglichkeit
gebrochen
belange
##gründen
ow
##drama
wilhelmine
universidad
rudolph
revolutionären
hänge
bea
parteitag
139
##türme
##ope
susan
energy
boh
ohl
weiterzu
gemeinnützige
gabel
anlegen
##teams
fle
##archiv
vektor
ukrainisch
nationalsozialistische
kehrten
umgestellt
##rise
##enze
freiberg
bw
utah
übers
##tö
##pon
split
sous
landesliste
champ
##mol
kirchenprovinz
gedenkstein
abbildungen
##ünde
ländliche
##sfe
pflichten
antarktischen
##ieben
medi
abwasser
stor
gezeichnet
##lbach
gleichermaßen
elias
vertrages
mandate
exe
entfallen
eiserne
alarm
geltenden
beobachtungs
süds
meiningen
stell
##pper
tora
sla
lod
diana
vau
##rige
rebellion
dd
verurteilung
liebhaber
blog
militärischer
ggf
ausschluss
isaac
handbuch
grundbesitz
geschenkt
gedeutet
bundesländer
##py
##ς
volt
vermerkt
anno
platon
langfristig
hubble
homer
##rsi
delegierter
##austausch
volksmund
verehrung
reduktion
dürften
##ace
##rab
##aris
unterworfen
palma
variablen
lc
chinesischer
romantik
vorgesehenen
stö
##ingt
##achte
sel
fischen
räuber
zeugnis
gai
deutlicher
lagers
gebet
europäer
##gemäß
afrikanische
wurm
##zien
##gras
plasma
##lden
antennen
gleichwohl
##palast
wozu
sko
##ngi
norddeutschland
gewährte
##tischer
vermittelte
napoleons
engine
##roi
verzeichnete
flossen
##heiten
##stift
##ibt
##hauptstadt
sj
weithin
senders
reliquien
künstlich
##mini
aufruf
stadtgrenze
krimi
##erfolg
shō
bode
zentrala
##olizei
öffentliches
äbtissin
luk
##kop
##icherheit
##hem
##etta
tempels
körperlänge
baptiste
auszu
##periode
##ossen
uc
sund
cinema
##gewölbe
sophia
realisierte
marne
mao
dienstgrad
##dh
verfassten
saa
gül
bran
sortiert
landesamt
##zentrums
##lay
stadtteilen
endeten
##einigung
gespeist
urlaub
beherbergte
##ε
vorangegangenen
stumpf
federation
mia
nebenrolle
mathematische
kassen
##kha
vertraut
##λ
theoretisch
landwirt
##methode
tauchen
präsent
cle
aviv
##hau
verschwörung
unterliegen
tunesien
##omi
gesteuert
eingabe
unrecht
jahrelang
installation
erbfolgekrieg
circuit
belege
qua
entsprechender
wappens
revolutions
jet
erklärten
erinnerte
eisenbahnlinie
lehrern
nächstgelegene
hört
cannes
buffalo
##tio
gan
wahrzeichen
beliebtes
vl
##cas
schauplatz
else
##ams
furcht
beitragen
wacker
verhalf
eure
sechzehn
napoleonischen
erobern
öko
##ällen
scharfe
lehrtätigkeit
bunt
put
kirchhof
weltausstellung
anzu
##zylinder
##sper
einschränkungen
##tour
wörterbuch
wee
gat
fiktiven
europacup
landesmeister
irische
##ags
unions
butter
##lly
untersagt
selig
##chnitt
wohlhabenden
wegge
lagern
ausgeschieden
fühlte
jefferson
hb
dum
princeton
maro
erscheinende
##aterial
bulgarische
1742
##ako
wacht
##uff
##uche
ion
genoss
sorgten
bott
sowjet
chaos
##malerei
sma
gebühren
emmy
##iana
kiss
##irtschaft
##ahrer
kameras
panorama
olga
##rac
hörer
gewechselt
frz
##anda
depot
##ntwicklung
veit
preisgeld
mole
erw
##vollen
##verzeichnis
##betriebe
u18
pokals
gelsenkirchen
##sinn
##nstein
zweige
glaubte
##äche
einkünfte
differenz
##sow
glücks
betrachter
académie
##led
konzerns
family
fachbereich
vierzig
müsste
distrikts
##ssch
##sei
##moor
##bitz
problematisch
lazarett
finanzierte
beweise
arnsberg
rie
platziert
letzteren
prüf
##hill
untertitel
bosch
strauß
africa
##egel
revolutionäre
erzbischofs
grabsteine
##alm
square
lenin
kraus
ungarischer
erhard
##rra
wests
butler
beschlüsse
enteignet
armin
zá
ansch
##с
##übertragung
öffnete
schwachen
propheten
ausgegraben
athletic
a2
mant
halber
gua
wilder
rausch
nase
impulse
hanna
deine
angeregt
##leit
schla
potok
ill
health
bestellte
##gast
erlangt
ablösung
ruhm
kale
hofes
##nahmen
schalen
mat
##ähnlichen
##rri
glad
ofen
freilassung
##vu
herzinfarkt
gelder
einigung
biografien
gepflegt
herauszu
##tritt
werkzeuge
##verarbeitung
##lotte
##lina
trust
überzeugte
prospekt
guatemala
tc
fre
angola
##ürme
zirka
verbleib
matura
überlebt
strauss
handelskammer
blum
##ith
##arme
süda
jod
hale
algorithmus
verblieben
nan
kleinerer
einsch
fügte
##cre
sogenannter
add
absoluten
##50
vogtei
strenge
staubblätter
pfarrgemeinde
assistant
##itu
##enti
verkleidet
sozialdemokraten
sieb
ausüben
risiken
präsidentschaftswahl
petr
##üd
armstrong
oberpfalz
drum
alto
ganzjährig
##wor
##sens
ökonomischen
waffenstillstand
##code
beantragte
##ngt
ligakonkurrenten
überarbeitete
weizen
stiftungen
krautige
ler
predigt
ley
kid
geologische
comté
##esa
vo
viva
müssten
betroffene
##feldzug
##entrum
mick
fluor
bet
außenstelle
##sees
roberts
historisches
westdeutschen
uno
nords
krupp
gw
erf
bergwerks
##äler
salomon
rey
société
edwin
##vögel
##nehmen
##burn
populationen
##erne
saw
daimler
##zyklus
1759
spruch
adjutant
tem
bodens
##klub
verleiht
mosaik
lex
georgen
cham
##owitz
##ric
##ili
lehrt
entsandte
madagaskar
collins
hö
##ätigkeit
made
##bia
satzung
rhe
nordamerikanischen
kompetenzen
##ligen
hing
flanken
optisch
beschaffung
##jährige
unterk
##nei
##ition
paula
mrs
hoo
quo
##rep
zirkus
stolz
montage
englands
apo
verabschiedete
linda
schi
naturdenkmale
kou
zahlungs
wirksamkeit
scar
eingeführte
departement
yacht
u23
##ugel
welten
perfekt
hardcore
##nick
spielstätte
locker
ruht
kollektiv
gom
ess
erzgebirge
ernährungs
einleitung
##ła
##zwecken
##stet
entdecker
aufgezeichnet
aero
##kä
industrial
##rungen
mud
hara
gymnasien
##geschlecht
zwangsarbeiter
##bühne
widerstandskämpfer
romeo
breites
asse
parti
kleinsten
machtübernahme
lieblings
geborenen
jau
topo
ker
##side
irene
globalen
##keller
##eher
roe
hurrikan
fürstbischof
three
gültig
##hör
einstein
alf
tonträger
feucht
##ction
schock
schlei
wählten
sichtbaren
protestanten
gem
education
kämpften
türkisch
teatro
##lles
zwingend
geholt
##yne
##app
dunkler
liturgie
het
heidelberger
gle
keith
hü
adalbert
##qi
kraj
##mid
moto
cor
bars
##iums
äußerungen
##oba
prime
jose
##zza
##umme
##aß
radikalen
aufsätze
##ave
lia
indes
geschützte
##iehen
##iva
stri
honda
zy
pech
jorge
##nto
sigmund
gerüchte
aktiviert
zufrieden
champion
bestätigen
identifizieren
##reiter
##immen
töpfer
sms
##uga
separat
president
hoff
mechanik
konstruktions
iz
dav
1757
##rem
facto
beu
##trakt
sanitäts
marina
beinhalten
##wka
##sho
##roduktion
neubauten
jüngster
angehörten
138
stipendiat
lal
##ues
gerieten
##geb
verbaut
tanzen
populären
brigitte
##ziele
##ckte
wirts
ocean
deb
bt
##shof
##eiden
##lme
durchzusetzen
eingriff
##gur
neuss
##ilen
staatsbahn
gefechts
freige
baukosten
##ographie
späte
sic
sibirien
pictures
eri
##kranz
werfen
smi
##pos
##mpel
thu
##chal
hauptfeld
gebäudekomplex
unterge
unmittelbare
nk
##ilo
durchschnittlichen
##nam
##lings
trenn
shows
pir
mathias
hochfläche
getrennte
aktions
##äte
wüstung
shan
ez
##zeichnungen
zisterzienser
wasserburg
bewegte
perry
marg
##log
ga
transkription
iranischen
convention
freiherren
feuchte
##omo
freiwilliger
prize
jos
##stin
hei
indiens
herford
##dus
gräben
##lov
##lem
ria
##rose
##aub
dö
beginnenden
hong
feierlich
pü
hem
##hallen
rex
höchster
geschwindigkeits
edo
nec
##steine
orgelbau
nano
jude
jeanne
grundwasser
earth
hunderte
geringem
dit
bauteile
ausge
einkaufs
##rade
##enne
starter
begräbnis
##rtig
##kur
rafael
##bringen
vorherige
##sender
pool
hochstift
eingreifen
mys
##woche
synode
rolling
##hra
##riff
prozessor
##mat
##istisch
ämtern
klee
hol
##partie
##jk
passieren
avi
strengen
mano
unterirdische
stadtrecht
##tok
warb
elfmeterschießen
##vice
##programme
##onia
unterkunft
##lig
##ign
lotus
willem
verzögerte
##rede
##alo
georgs
autonome
überwacht
wut
geordnet
##logen
##damm
##abschnitt
litauischen
gemischt
fragmente
1745
vizepräsidenten
kalium
johannis
arkaden
##änderungen
##ike
##andi
pres
hil
eingeführten
priesterseminar
meiner
##liegenden
weltmeistertitel
schwedisch
flughafens
zor
verne
verbandsliga
prototypen
kompletten
jahresende
frische
fichten
##н
##vić
##uo
zerstörungen
biografie
arsenal
reichenbach
reagierte
noir
investitions
neunte
fähre
##ändige
##zis
##bk
spirit
larry
##jas
geleistet
fressen
eid
##tm
##oge
##lü
ursprünge
teleskop
lut
##verbrauch
##risch
schra
neumarkt
##metrie
blas
ank
fiat
programmen
charakteristischen
1752
eingebracht
bergischen
alltags
1754
muslimischen
kub
kriegsmarine
##fä
geschosse
##ächte
nachfolgerin
##opi
##iki
##ericht
tauf
rekonstruiert
absteiger
pferden
kernstadt
##kten
trump
tauch
sodann
oberlausitz
ers
einhaltung
##sge
vork
martini
iu
##né
mittelschule
reinhardt
glücklich
disposition
algebra
##rol
fä
etablierten
##plätzen
strömung
solingen
bourbon
annahm
speer
kon
dela
reichswehr
radiosender
nicholas
mass
magazins
gegenden
dünne
##ürfe
##alität
weltliche
##besitz
klassifikation
commander
schulbesuch
missionare
kenn
ax
aufklärungs
##etzt
wör
eintreten
bestehens
mus
kür
grundlegenden
allan
vorsch
qualifikationsrunde
##št
pracht
geprüft
deportation
wta
hed
eigenständig
deu
automatische
##üche
eintrag
danny
##käfer
type
too
ré
beleuchtung
##anti
rös
jungtiere
hochhaus
bürgerkrieges
##zsch
##cheid
toleranz
erhebungen
buchs
tägliche
##lub
##ünstler
stabil
kostüme
anweisung
##jahre
mez
besch
##xy
unglück
##faktor
seel
rockband
rim
mou
ingenieure
drang
kü
chromosomenzahl
##äg
##ák
verschont
strauch
grie
##krone
streckenabschnitt
##ence
tala
##bschluss
sediment
pil
milchstraße
vie
drive
eiche
##wiese
titelgewinn
revue
prima
lebewesen
verbänden
räder
papstes
neuhaus
gekrönt
bundestages
1660
riesige
verbleiben
tiefland
prop
optischen
##vs
##ová
sende
lak
fabriken
borg
oberamt
beatles
verdanken
##versuche
nepal
betriebenen
staatlicher
schlamm
sab
##ston
##nse
enorme
gegenseitige
##ppi
spezifischen
rhön
fotografen
dein
roboter
basen
##kü
##arbeitung
wanderweg
ura
strich
león
graue
##verletzung
##umfang
##rone
##instrument
yards
##gler
kirchenmusik
durchgehende
##äus
##ändern
übungs
drucks
bösen
restliche
raumschiff
tennisturnier
schifffahrts
resultate
perl
kärntner
eingebettet
##latte
webseite
archäologen
stößt
georgien
##konzern
verschiedensten
##itis
##biete
tschechischer
naturforscher
hühner
##pä
##anne
poker
wasch
stolberg
##rekord
ortho
kanu
streben
steinbach
ritual
reichsver
source
regina
kristalle
hep
##ßer
darzustellen
allo
##gegenstände
muse
klo
kaufleute
##rsa
##ration
1748
pyro
lose
krems
##hier
rezeption
pei
tob
##wände
##pat
fin
ahnen
##ründung
campo
kreuzt
##nstalt
mé
mona
disco
verursachen
beteiligen
miet
##ffi
partisanen
musikhochschule
moss
english
##ehl
tara
##sleben
vorlauf
mig
markenname
##tzung
eingegangen
ablehnte
abgenommen
übereinstimmung
suk
nes
##oul
verwandelt
professional
lichts
kümmerte
ehrendoktor
regentschaft
jen
assistenten
##box
paolo
opel
obs
internat
wirt
vizegouverneur
limousine
##hop
aeg
##gb
süßwasser
gouvernement
erzeugte
entsandt
zusammengesetzt
ignaz
gastronomie
##tart
##lungen
malen
dichters
##rochen
raj
herrmann
anatomie
abzweig
limited
zerfall
würzburger
freimaurer
codex
340
č
streu
report
brecht
biologischen
fitz
eröffnungs
côte
player
##digen
##zs
kama
euch
adaption
moh
mn
cop
klassik
heftige
##fleisch
selbstver
nintendo
droht
##müller
sätze
alexandra
verweigerte
hak
elementar
##union
##ebi
lack
kurzem
hannoverschen
bratislava
##aschinen
publizist
botanischen
hypothese
volkswirtschaft
plauen
##zes
##lüsse
lineare
##vorgang
##szene
champagne
nils
mey
lsg
##р
besetzen
##hofer
wortes
kollision
##ect
rado
klu
doms
concert
##gelenk
##akti
##agi
stattfanden
lemberg
##hörden
vögeln
hölle
darstellende
##stone
ausschreibung
##ske
##schwindigkeit
##odell
nizza
##wehr
grünland
fahrgestell
fürs
frühesten
bedeuten
##chern
##loster
hydroxy
domkapitel
temple
tam
libyen
petit
gesprengt
nicola
##nek
magic
erfunden
1717
##wat
rechteck
juri
fragt
durchlaufen
lun
bere
bedarfs
reims
erstrecken
strophe
englischsprachigen
wohin
musikschule
isabella
haken
schulhaus
feuchten
versprechen
fähr
poe
##zid
ide
##ierungen
##alk
inge
darwin
wesentlicher
weltwirtschaftskrise
pou
1751
tas
ie
denkbar
besiegen
fru
bewerbung
schlager
##äufe
leitender
brock
scheitel
originale
krüger
dora
##ique
gris
antarktis
##uns
##fassade
schü
rapid
ava
hingewiesen
friederike
##cor
tre
intensität
##nom
schrieben
kar
executive
##duktion
schwache
cai
brit
##esta
wangen
cand
alfa
##eon
##brett
scharfen
ruprecht
portugiesisch
alpine
##vent
##inghausen
##behörden
verschiebung
tres
treiben
queensland
aufgelösten
##ovice
kräften
rechtsver
gestützt
sparta
padua
ottawa
baku
vorbereitungen
stolpersteine
separate
fü
bereitgestellt
kipp
palermo
brook
rangier
tib
schlichte
nowo
##jet
westeuropa
stadtwerke
pep
illegal
entführt
1550
einstellen
cen
##urnier
australiens
##stu
nevada
bedacht
##alde
verbleibenden
turbinen
sandte
reichsstadt
bol
hochk
abgabe
##sr
teilnehmenden
mühe
grönland
bildhauers
##ihe
ziffern
##sle
sportf
##raten
##gewinn
wal
sco
enterprise
bha
anst
verleihen
congress
##lk
##systemen
enthaltenen
aqua
ens
##freien
verteilten
gemeindeb
direktion
brest
##haut
roa
gebeten
##pet
räumliche
beliebten
ameisen
##lum
eindeutige
dachreiter
clinton
##sil
##nc
prozessen
oberleutnant
##sste
##männer
günstig
diakon
bestseller
##stad
vorstands
rc
förster
##ichi
vorderseite
sher
bli
ven
##aer
innenministerium
##nsk
zurückgeht
vorzu
zuf
ri
keineswegs
##scho
poll
neil
##urne
##sfeld
experimentelle
##tle
##rek
##geo
verge
töne
großmeister
##bst
relation
potsdamer
##initiative
tunnels
sportart
fahrwerk
bezugs
beschwerden
arbeitsplatz
##üssen
rams
purpur
krö
jakobs
fé
teu
parlamentswahl
liber
körperliche
gletschers
##ís
##dig
quarz
interstate
129
thi
stanford
rokoko
leopoldina
kreistag
lago
##ärzte
diplomaten
1761
##ène
##vertreter
##ism
225
##zent
##rba
verteidigungsminister
pianisten
esch
laute
rücksicht
aufgefunden
detaillierte
##hing
übrige
partikel
nü
mör
##rle
##gern
sá
substrat
mile
fürstenberg
##milch
##erle
step
schätzungen
bür
##gos
verworfen
präsentieren
##pri
schotten
erzählte
eingefügt
##deutschen
tschechoslowakischen
dynamische
dab
ami
##bri
seu
nathan
bäcker
angelehnt
pendel
luna
##kreises
vermarktung
pauls
demonstration
##rektor
##ento
luftangriffe
komponente
##wohner
##lav
wettkämpfe
snow
geboten
ungeklärt
gestaltungs
fahrgast
bahnstation
##schulen
stattfindende
nacken
cana
balz
scheide
warn
saba
fahrplan
ber
standardwerk
keim
archipel
##šov
##swert
##lee
##atten
unterstützer
landhaus
casino
##sthe
hertha
fahrzeugs
bauernhof
##urch
optik
klaren
ehrenamtlich
##xo
##ello
##chem
##stes
##roni
phosphor
1710
zunahme
vergrößerung
unterliegt
lektor
kno
anc
##õ
verwaltungseinheit
perth
geäußert
afrikas
thorn
schaum
pel
ethnisch
zeugnisse
einnehmen
145
##taler
simulation
berührung
ermöglichten
boxen
##atur
zusammenfluss
wings
carmen
porte
kriegsgefangene
christlicher
##aufen
zunehmender
trauben
##tod
##best
einkommens
bereiste
befahl
##sand
##hou
##fahr
vorkommende
##zeuge
##té
verletzten
sitten
campe
bundesverband
##down
ew
bestellung
patron
kat
gemeinschaften
entschädigung
craig
briefmarken
argument
hope
nachmittag
künstlichen
##irs
##gner
rena
ne
##helm
mitsamt
industries
##iesen
##filme
privileg
motivation
##bee
nea
grave
##tanz
verborgen
spielfeld
##she
pyramide
ffh
extreme
beschlagnahmt
außerordentlichen
abschnitten
kontrollieren
ausübte
##verkehrs
##swe
##ologe
werra
versetzung
info
##som
präsidentschaft
##wel
wählt
existierende
##sio
stü
protesten
interpreten
gedichten
flüchtlings
middle
gästen
##eton
schnellste
rohstoff
pern
##fallen
verknüpfung
verhandlungs
auslieferung
technologien
dieselmotor
bögen
stimmten
korruption
ausstieg
steinmetz
saône
hank
pablo
neb
lücken
ineinander
##run
##projekte
nature
kiefern
wiederauf
vermutete
ust
machine
dauern
adria
##mbi
ame
##anus
suchten
camb
lücke
zurückziehen
nennenswerte
##mente
##kompanie
oka
endo
dae
lane
kopien
##jugend
radweg
now
##boote
osmanen
killer
fau
##ierter
lille
moderiert
##schl
##nation
illustrator
##lur
watson
dana
body
curtis
colin
ausreichende
##pter
kampfhandlungen
austritt
aufstiegsrunde
überlegen
bewaffnung
##jat
##dustrie
verbesserungen
langzeit
drängen
arsen
134
##meier
schö
rogers
kreuzberg
herrschenden
ane
##ilde
heimatverein
genehmigte
1741
##cle
lès
devi
zweieinhalb
rundbogen
##uis
##denkmal
prägen
mulde
eignet
dünnen
št
gebirges
befehls
1744
##bru
stempel
maxim
fächern
##unft
##rben
montenegro
sozialismus
leibniz
eindringen
santos
poesie
hervorragende
fed
abtr
nordirland
jederzeit
fünft
überregional
niko
mü
scheibe
branche
##wache
interniert
anwendungs
anlauf
bona
bestraft
zugeführt
herkömmlichen
##nts
scheu
##alp
pete
kanäle
flüge
##hälfte
amerikanisches
redaktions
gmina
auswärtige
wismar
oz
##iko
rennfahrer
mitt
geleit
touristische
literaturwissenschaft
leichtathlet
illegalen
gefäße
##ündung
vitamin
ly
lis
begrenzung
ausübung
##fähige
gelagert
edwards
bangkok
kick
bozen
tech
nächst
bedürfnisse
vic
una
tauchte
ilse
##stischen
##phe
##lit
dirigenten
historiques
gültigkeit
##ormat
intro
bruck
kompositions
after
petition
merz
erzbistums
##sim
##icke
verfolgten
sechster
individuell
##egi
tokyo
legenden
nötigen
verweigert
##versch
lanka
##treten
##münde
##ausschusses
##besch
##arz
##yse
##lement
teheran
geheimer
bonaparte
feine
emeritiert
##heide
verdun
verbrannt
fol
##reiheit
##azi
anni
1250
##zung
##nkt
gra
finanzieren
antisemitismus
rookie
##ün
patri
kranke
holo
beleg
gemeinsamer
nationaltrainer
luthers
erließ
##wing
##störungen
##iso
talk
kurator
haas
ausgeschrieben
##kolonie
##bur
apfel
##tts
asiaten
apotheke
##dium
prüfen
fahne
##chaften
mittelschiff
illustrationen
ewige
ableitung
gebürtige
besessen
##ull
##andlung
ratten
geplündert
##sor
steel
schmalspurbahn
krug
gelobt
nicole
##tit
wechselnde
satire
plata
ling
gespeichert
##set
##aca
vorbe
demonstrationen
naumburg
kieler
hauptschule
##roda
##ree
spalt
sichergestellt
selbstständig
rec
psychologische
grazer
empor
eisenzeit
chap
aquitaine
##bb
parish
dolmen
nordkorea
neugegründeten
lost
gesetzgebung
##federn
farmer
##funde
balthasar
slo
naka
geno
ausgewählte
vorgesetzten
landesweit
##esischen
überlebende
psychische
ökonomische
sternwarte
chirurgie
nominierungen
kj
ausw
wikinger
##regel
schleif
zugangs
regimenter
prominenten
reaktor
hofe
erarbeitet
boo
##grube
vilnius
##oche
##abf
kraut
desi
##personal
kultura
##ypen
spencer
kum
gewehr
##veranstaltung
##rans
schrauben
kleinbahn
1747
##mor
erinnerungs
ceo
tragödie
remis
angehöriger
1732
##werfer
schöpfer
elften
strat
spaltung
fam
##sur
##anden
tors
##wende
##rti
work
republikanische
prozesses
dock
bak
cockpit
oberhof
mog
milieu
kommunalwahlen
trau
befürworter
##rasse
##pre
##anische
warte
stadtzentrums
gad
mana
aufging
##regeln
treffpunkt
schnittstelle
schiffbau
schlaganfall
hauptbe
albi
kriegen
sklaverei
hinnehmen
freundes
stießen
aufgefordert
##xte
##ilfe
stadtviertel
pauline
erbauen
carri
ace
starts
sendet
ges
todesstrafe
hergestellte
berga
sem
militära
masken
bekanntschaft
##beit
detmold
ethnische
balkon
##erat
neuburg
leningrad
crow
absturz
##helfer
thüringischen
peg
never
geis
strömungen
##že
##alz
transportieren
kh
480
brasilianische
reichlich
kraftwerks
garcía
420
##inhalt
##deck
eisenbahngesellschaft
günstigen
blattspreite
ave
##nh
ständiger
genossenschaft
eulen
atlético
aufl
##formel
tos
staatsdienst
beerdigung
142
##äten
##kro
##ista
molekül
mh
epitaph
##weite
spaniens
##moto
verz
##sca
##gürtel
##fried
gartenbau
facha
piet
##pra
##elen
##atin
reed
offizieren
herzogin
hasel
gepäck
schülerinnen
komitat
chant
calgary
##idi
session
schale
netze
morde
milli
bata
asia
##ikon
weih
stea
pharma
gedient
1746
quadratische
prae
pflanzenarten
koh
bewaldet
adenauer
##polis
##ngo
##bataillon
##joch
trail
gleichmäßig
##deutsche
wiederzu
tä
mate
legend
beliebte
füße
fraktions
##zew
kleider
jenny
favoriten
edith
kürzere
auss
##rdi
##ichte
mittelmeerraum
##ós
##reuth
vierst
braunschweiger
bitter
ausgebildete
##inter
klassisch
ita
cz
##ovi
##äl
##rü
verschwindet
##üt
häufigkeit
geschwistern
##rät
##hung
##fälle
telekom
erreger
##ols
##ahmen
wiederholung
nap
##rch
##eiben
##weis
hoe
##marsch
fossil
beschriebene
kleinb
##tragen
##lam
tauber
schlugen
expeditions
diktator
##abs
menschlicher
genetische
aux
##tsche
##elder
untert
munitions
markierte
##misch
##lie
##durchmesser
ermittlung
uri
stoffwechsel
lys
lett
gewachsen
bürgerrecht
##verträge
westdeutschland
ungesch
lyriker
horizontal
ding
##ören
##plattform
##ielen
gasse
sopran
richmond
originals
einstimmig
bend
missionen
eineinhalb
bandmitglieder
formale
##hä
sitzplätze
##taat
buchholz
##fache
überarbeitung
ägyptische
thermo
##xid
eber
bekämpfen
##sekretär
##gleise
##öt
##ahlen
sportlich
ro
kreta
gruppierungen
goethes
flottille
1736
studiengang
gutsbesitzer
##opp
shaw
pascal
igor
ideale
lehrauftrag
steigenden
beha
vorbereitungs
tō
1620
##sien
symphony
##sum
verbrecher
fie
falk
ballon
##halb
volksb
full
##tf
universum
205
helligkeit
##verluste
##thi
##sman
göttinger
durchsetzung
anbieten
1735
##lba
alts
sho
cac
##pause
##echte
spätantike
fbi
##nfa
##ensch
till
schlösser
##zweig
verschlossen
irish
heid
renten
moralische
flo
einjährige
##mitteln
é
stammsitz
nh
belgischer
##ments
winzer
weiche
margarethe
fou
141
##holm
zentrales
rai
pers
komödien
beth
alain
##variante
##hals
yang
prior
definieren
##ži
##rain
jährig
chart
##sek
sommersemester
letztmals
amtmann
##med
verwehrt
landebahn
##autor
##architektur
persi
liebt
##chsen
wünschen
##mö
dmitri
##folg
tourneen
minus
brö
studiengänge
typisches
justizminister
becher
##hil
synchronisation
mahn
##30
##zins
##yra
##dre
schütz
schür
nora
montag
jamaika
durchgängig
##pie
verlegen
1630
##vet
shuttle
pine
echter
abspaltung
verweisen
minsk
train
mang
commune
##tom
##apo
stehe
lé
konkret
étienne
währungs
ved
operative
count
##bers
vorliegt
superior
sicheren
regisseurin
oberbayern
burgruine
bog
##tad
##llon
langsamer
haupteingang
##lemente
israels
##ymnasium
##isa
territoriums
gn
familiennamen
##ziert
##bürger
vergibt
koma
gé
1714
provisorische
fünfzig
dornen
bewaffnete
##agentur
spiegelt
civil
öfter
volkswagen
transit
oberschlesien
konsequenzen
##loh
##hügel
##ario
stella
rotten
maximalen
oak
nerv
gue
niederlassungen
horse
##pflanze
snooker
##metall
trilogie
rolls
flash
1743
wog
officer
brühl
absolut
fieber
cool
bewahrt
infektion
##40
##iar
dou
##regionen
##hre
jab
##kom
##kol
mom
##tsu
##abschluss
zuweilen
maj
##verbund
winterpause
oval
schallplatte
nachfahren
laurentius
indo
alexandre
ungarns
brat
stier
nico
##teg
##lka
##inst
propstei
gee
ausgezeichnete
ritt
überrascht
diplomatische
turmes
ned
krause
fiktive
kob
vorgängers
wasserfläche
vorstandsvorsitzender
verkörpert
soft
beige
verwe
sme
göttliche
aaron
##örder
##wirt
lokaler
bundesbahn
##olis
##cla
##aufstand
baubeginn
1530
hv
##chnung
steyr
nachweislich
anzusehen
##bewegungen
westfälische
adelsfamilie
eintrat
##ahren
festgelegten
brenner
benutzten
##lc
##erh
wanderer
volksabstimmung
jemen
gemischte
cri
##linik
##arsch
wallis
banner
##isierte
##asch
léon
landesp
konstitution
strategischen
realismus
grundsteinlegung
##iguren
nou
honorar
faden
##ved
versand
pfi
metropole
hoppe
##lah
rd
bemerkte
143
##mandat
angeklagten
##wang
tauben
kok
conne
verarbeitete
schleuse
eintragung
##stau
##rns
##oxid
proteine
1749
##ufnahme
##tw
##probleme
justus
pavillon
herstellungs
1713
transferiert
slawische
herb
adeligen
vorliebe
##kla
postum
miliz
exo
duett
unterlegen
auffallend
volksbank
sot
belo
##isto
pac
hindernis
grabstein
erfüllte
##praxis
rossi
rennens
np
##rist
1737
mitspieler
intensiver
gerichtete
vv
rathauses
knick
dreischiffige
##messung
venture
plattenvertrag
firmierte
curt
abteilungsleiter
##musiker
##ging
meinungs
kastilien
defa
capital
advanced
erfassen
bestreiten
berührt
155
objektiv
lüt
gesandter
christiane
##vat
##pelle
##brigade
unterkiefer
tea
chinesen
behinderung
abweichungen
##zte
ug
##mara
variable
zeremonie
gries
##röhre
verteidigt
leucht
gotthard
sardinien
dominikaner
ausgemustert
##uil
##core
##reien
verstärkten
pani
krönung
affen
##öße
moni
##tru
schwangerschaft
##él
##ält
weicht
toyota
neugründung
hj
ausbilden
anspielung
teilten
tep
##tius
1738
tis
rotor
pes
guan
festlegung
fernsehproduktionen
dachverband
ableger
weitesten
supers
seeb
begründeten
wetzlar
verringerte
südamerikanischen
moe
geschütz
##renze
##borough
geschäftsstelle
soccer
##mission
zweitliga
verkündet
schloß
##oca
##üro
nazis
lucius
felle
afd
arche
##ürger
##kowski
vorgesehene
sek
erforderliche
##tiven
unterirdischen
hochwertige
fly
corre
lüb
dazugehörigen
höfen
française
augenblick
jacobs
arkansas
##vá
##runn
twin
staatspräsident
referendum
parkplatz
wirtschaftsgebäude
minimal
##hua
nietzsche
marienkirche
erm
derby
subs
schutt
rajons
intern
genauigkeit
##usion
##dez
korrespondent
einwohnerzahlen
##vol
rennwagen
hf
hauts
##etti
verschaffte
begleit
advisory
##eß
sporadisch
reu
##pus
steinb
phänomene
guillaume
dig
##anen
##sda
verschleppt
scha
gezielte
fus
essays
erwarben
##smaßnahmen
##ketten
##cet
olivier
kubikmeter
kalte
hauptfigur
betraf
allgäu
##vsk
##sv
zuhause
television
lm
hap
anf
sera
regelt
norda
ht
flügels
80er
##spannung
seelsorge
wasserscheide
redner
ell
botanik
wimbledon
##phor
tätige
##dge
kaufmännische
##then
tana
landgrafen
gig
##schiffe
##dingen
support
ment
geiseln
##tube
##kund
##igur
##zahlungen
bourgogne
eisenerz
dat
v8
reisende
1540
schuster
mosambik
bid
##setzung
schutzgebiet
hee
sprengstoff
obersch
flughäfen
mitgliedstaaten
##й
##profil
gebräuchliche
bundesverdienstkreuz
berechtigt
joy
verstärken
dreiecks
wohnplatz
federn
rif
fränkische
astra
##ār
##olin
##errschaft
##srate
ausdauernde
##gend
zehnte
hinweisen
dominierte
##mbe
rer
prie
ode
gag
buss
##ume
wad
verona
regierenden
##anteile
platzierte
stockwerk
ponti
neutrale
märkte
kontrollierte
formulierung
##werbe
zusammenhänge
näheren
gemeindegrenze
##м
##chlorid
titularbischof
fit
1618
holsteinischen
lehrbuch
india
bele
bauliche
johns
funktionär
1670
glatte
freies
secret
orientieren
förderverein
##verlag
##rank
wänden
weitem
mills
kronblätter
##ommission
##lta
ruhen
männlich
mino
##yle
wart
vielfältigen
montréal
kempten
cic
castel
ausser
schott
auffällige
##ivi
nenn
dienstleistungs
arie
##zol
##tors
1690
rechtsform
weisung
riesigen
gallery
datieren
abk
verbliebene
hinterland
cars
bluts
##yz
##ulus
kes
bod
besatzungsmacht
architekturbüro
##problem
##läu
zeitgenössischer
externe
claire
abge
gesetzen
him
##ewe
##ebe
glashütte
##ih
keltischen
century
administrator
stadtrand
##elin
maske
göttlichen
1733
##kins
##energie
##ebo
magistrat
##ì
passagen
hinunter
fließgewässer
bess
umschlag
timo
gemeindegebiets
bn
##tock
tropen
löcher
gangster
einkaufszentrum
##fang
instand
1724
##tb
##bögen
steink
füßen
australischer
##nähe
unterbringung
prägung
standes
lancaster
herausragenden
##tärke
ligaspiele
goldener
##tse
sohle
##gesetze
fide
bali
##erklärung
holmes
bedeutsam
##ngebot
##icher
wiederaufnahme
illegale
begegnen
##cro
haiti
gegnern
frühlings
rh
beseitigung
##ichtig
sze
sbb
nachteile
initiiert
cob
boom
##egt
kami
glan
feindlichen
fache
allzu
mängel
divisions
vorsah
netto
denkmals
##vn
vergleiche
osttimor
konstante
##ulo
##berge
thesen
belastet
baches
##preise
voice
jazzmusiker
hafenstadt
kommentierte
forschungsinstitut
weltlichen
lions
alphabet
1721
violin
streicher
unna
pie
initiativen
hui
1701
##mina
vend
lb
hefte
feldmarschall
begünstigt
schätzte
ingrid
chie
1520
##še
##iza
mobilfunk
konföderation
auslöser
dominierten
##tigen
##cci
süddeutschland
##rob
##pläne
##gewinnung
vorst
bour
bip
##enes
steppen
schuhe
nachschub
empfangs
##hrung
##erna
tek
ponte
kuhn
genfer
dimensionen
##reife
stichwahl
moldau
ehrendoktorwürde
##stische
unterstanden
pädagoge
cow
vorab
vollendung
gefundenen
durchweg
degen
constan
1718
##format
fai
erleichtern
building
abf
sean
saxophon
alla
##leitungen
luca
alban
##vre
##ayer
swe
pm
lebe
ähnlichkeiten
strebte
halbzeit
senatoren
gefragt
bayerischer
##gst
##ching
##abel
erlosch
##roh
##lut
dot
entdecken
##ket
serben
mies
kontroverse
aul
##vorstand
##kurve
wittgenstein
vet
mandats
##räfte
kulturdenkmal
judentum
landesgrenze
großf
besiedelten
aneinander
1725
tschechisch
medici
isi
1640
##nth
heilung
weltmeisterschafts
kräftig
cassi
alliance
##80
##tell
##bf
lehens
strömungs
kee
inszeniert
bundesgesetz
weiblicher
roms
enc
##ägt
verf
opi
entführung
schifffahrt
dominieren
8000
##auswahl
tir
horrorfilm
gabe
cold
##iß
##chsel
##aufgaben
rhythm
intellektuellen
entre
angeblichen
##aun
muk
mafia
##ndustrie
tuberkulose
arp
indie
erika
##zugehörigkeit
##pitz
gemalt
palazzo
falcon
bundesligisten
##graf
##rste
tagsüber
roi
proc
monika
aufgetreten
steigerte
mok
kümmern
##ská
##nl
verstorbene
small
rupert
repariert
gegebenheiten
erneuerte
##aufbau
grace
angef
##uber
shop
ironman
badische
##hold
##aire
facebook
eisenbahnen
drehbücher
##enha
mehrheits
amtierende
##gk
außergewöhnliche
##tige
spielerinnen
sey
##ritt
preises
gestürzt
beschafft
##verb
##ular
##apa
haltestellen
colle
burgstall
tribut
fruchtknoten
behauptung
##ielt
zin
unterwasser
gemäßigten
behandelte
##slav
##phi
##imm
##edien
##chwa
zivilisation
workshops
schleusen
monti
coo
buche
reisenden
##siert
##eger
prozession
plattenfirma
hert
##stätten
starkes
obern
dieselben
amalie
trennten
leere
investiert
flüchten
zusammenlegung
kasernen
ark
vergleichen
einstige
cus
wandern
waldemar
lap
ili
bedienung
##treue
##ense
raumes
##zyten
trinidad
armeekorps
##opo
##gü
##elf
vorwort
gefälle
ergänzen
##mbo
##gn
länglich
gewöhnliche
geweihte
##lp
zufall
tort
stille
drehzahl
steinh
quedlinburg
lyn
aro
montan
luftwaffen
koz
fußballmeisterschaft
dampfschiff
cul
##lö
verdi
beschädigte
##arg
tac
kamin
fürstentums
440
##inski
längerer
kapellmeister
besichtigen
schenk
dynamik
1723
##uat
##cou
hatt
weltmeisterin
sozialisten
##inte
##enstein
oo
luftk
lasse
braunen
behinderte
##ork
pv
gesamtheit
bios
##uhe
##lugzeug
##inisterium
##ersdorf
nachs
ket
dong
daw
behälter
##jekt
melo
kredite
##ović
partners
naturwissenschaftlichen
knappen
graubünden
##erni
verschollen
schönsten
maz
kartell
##iw
hafens
flaggen
##ól
teuer
selbstständigen
rechtsstreit
marquis
luftangriff
friedensvertrag
##usschusses
kup
aufhielt
##lens
griffel
##ignal
voss
schriftlichen
know
haid
gewürdigt
finalrunde
wim
fehlender
cant
biz
1688
radi
konventionelle
jal
bg
bassisten
argumente
altr
##otte
lay
hilfsmittel
devon
derweil
##zenen
##sg
zweithöchsten
##liegende
profikarriere
##trich
rott
fortsetzen
brügge
bildes
##mand
##dat
türk
trig
murphy
##card
ridge
pacht
loi
##gräber
zä
osta
überaus
thal
katze
chau
rhin
kad
guinea
bent
pohl
lub
betreffen
sca
emi
einf
cari
##oko
mendelssohn
gegebenen
##ér
##yas
##iens
rita
playstation
lö
konstruierte
kho
eden
aufgestiegen
auer
##sf
verlage
vergleichs
kala
erschwert
##knoten
syrischen
lead
gep
caro
zweibrücken
künftige
##ausstellung
vaterland
passende
hast
##grade
spurweite
pav
homosexualität
gans
enthüllt
##user
##eto
mechanisch
##tim
ži
playoff
halberstadt
##fal
partido
ž
ziels
patente
lippen
diskriminierung
außenministerium
amy
##yna
inhalts
##rtigen
som
##triebe
verg
propeller
aufbauen
##onder
##dea
wasserk
serbische
langstrecken
hauptt
##situation
hervorgerufen
sakrament
reist
getan
food
dau
anwesenden
##pha
##klinik
##betreiber
regionaler
diet
beschwerde
kapsel
gestiegen
gemälden
soest
##nsi
siedlungsgebiet
marko
gastro
##chiffe
schmi
lucia
knut
freundschaftsspiel
abzusch
165
1634
astro
##llus
##iya
vielfältig
kapuziner
höhenzug
eingeschlossen
tomb
met
1683
landa
forschungsschwerpunkte
untersch
stoßen
reim
herausforderung
##lige
##asis
unterdrückung
mitbe
chores
berechnen
unabhängiger
ruta
pollen
lj
cora
bewiesen
##partien
##ifen
##furt
##char
1739
##eze
großa
##stel
plattenlabel
kirsch
interaktion
##hara
türmen
loh
katastrophen
geschwader
entstehende
##owe
##arde
ureinwohnern
stadtkirche
sichtweise
wre
##kam
##dent
##behandlung
stärkung
steuers
anhang
roden
krank
sinkt
pris
niedere
gabriele
##ful
passe
durchschnittsalter
bow
##zki
##waffe
##iler
zeppelin
leone
drehmoment
wr
mexikanische
mentor
whi
universitätsbibliothek
rheinische
animation
##landes
stevens
servi
novelle
##manager
taxi
hare
gens
370
rode
geltend
kreislauf
kirchberg
auff
##än
##papier
##cis
mcg
##ransport
##phen
viola
annexion
aktivisten
verfügbaren
trägerschaft
persönlichkeits
minerale
late
intensiven
giorgio
##vig
##mens
1678
##acker
württembergische
hochs
durchflossen
##iale
zweigen
##ury
zehnt
tessin
pfingst
genauere
##äden
##grenzen
##dä
urteilte
##schn
##probe
vla
strafrecht
chester
bergfried
##mouth
schwarzenberg
inflation
fh
blake
##assi
verp
gela
aso
1734
tach
rückwärts
rundb
antworten
##elände
stämmen
polizist
##js
##enp
realisieren
mündete
bäche
##stell
schafften
funktioniert
##anto
fühler
bruderschaft
anwender
phantasie
musikf
missionar
editor
wächter
weichsel
ausgerichtete
1727
##yd
wü
wiedergegeben
##tröm
vy
restauration
landesverband
kantor
##water
##swa
##nummern
##emi
lagerung
1722
##unnel
penta
mongolei
legendären
##lang
pala
lieferten
vorkommenden
passa
mancher
hüte
bourg
##rni
roß
heiliger
alli
##würde
##laub
sans
print
orchesters
gelehrte
bergst
##haltige
##dingungen
##dienstes
tsche
provisorischen
##yon
moser
landeshauptmann
churchill
berichteten
balla
##itzt
langhauses
einbeziehung
##ël
stiftskirche
schwieriger
persische
heiligtum
beging
tasten
ramb
artist
##ichs
##aster
vul
umschlossen
pächter
klinikum
vari
recherche
podest
ordnet
##eih
##artner
zam
untersuchten
nebenrollen
überging
geschwindigkeiten
##či
##kurse
verdankt
leb
entstammen
##lr
##hers
##lieder
tm
columbus
##ginn
konto
blank
ett
auswanderung
##mr
leonardo
lama
feststellung
arbeitslosigkeit
##akte
kt
##gesch
##nzi
##lha
gauliga
empfunden
biblischen
anal
abwärts
##ær
##yri
##tscha
ox
zentralbank
u1
schwierige
kari
brennstoff
##ssion
##rojekt
xu
sullivan
einsicht
bark
##ütz
spvgg
pak
hannes
##lmann
##geist
genie
bergm
##lken
##hochschule
lae
##straßen
##jon
##fla
optimale
notfall
eil
cau
##â
traditioneller
prüfungen
neube
fliegt
blütenstände
1712
##runnen
filmkomödie
armeen
round
partnern
mauritius
madame
##fon
##nahen
##lew
referat
metropolregion
##festival
strassen
hebräischen
##brücken
sendete
kreuzzug
intellektuelle
domain
ausstattungs
kleist
halte
abgas
ziegelei
völkern
nachh
child
beb
1632
##meri
##erb
mechanismus
forte
save
##gaben
mall
##wäldern
##roy
tötung
sign
komplexität
##ähig
##mot
zukünftig
vogelarten
siebenbürgen
rachel
nis
gase
essener
tren
klö
##ekretär
orlando
kambodscha
fichte
##äste
##ewegung
pforzheim
kramer
koo
##nre
och
##vorstellungen
##ndlung
##jahres
zurückzog
willens
tama
musikwissenschaft
gf
abstell
ung
sprachliche
sande
delhi
armenischen
aborigines
##lop
vice
buddha
kleinf
gänse
demgegenüber
##vorschriften
wohnungsbau
tschu
nash
luftstreitkräfte
beidseitig
##hut
seb
nischen
getreten
##sprachigen
lindau
ästhetik
temp
shen
ragen
konzils
heli
gerber
bam
auslösen
##uy
sponsoren
ravensburg
offizielles
gri
ge
##geräten
körner
kennenlernte
jag
erwartete
wirkende
weltcups
malt
abgezogen
##ohe
schmelz
phi
aufsteigen
zahlte
kernkraftwerk
integrierten
enthielten
##rav
walds
unterste
standpunkt
schna
kanadas
inspektor
cemetery
##führt
grundge
bewaldeten
beeindruckt
##poli
verdienen
etagen
elternhaus
##lokomotiven
sozialwissenschaften
mv
maier
fußballs
conte
clare
##rar
##ilis
weltkulturerbe
weißlich
orléans
gewerbegebiet
cornwall
raimund
provinzhauptstadt
##holt
obgleich
hergestellten
abwehrspieler
1719
##hauser
überwiegende
überlieferten
tannen
newcastle
filmdrama
briefen
bedeutungs
hitparade
gremien
eps
beherrschte
zwangsarbeit
sell
guild
grenadier
##11
##zing
##mag
witz
textes
tad
##liegen
wessel
cos
##orti
pig
module
maximum
maxi
lauenburg
gewünschten
barra
##wurf
volksmusik
schre
lösten
verfehlte
drag
1689
papp
fixiert
abweichende
rin
leider
kinn
hughes
evangelisten
überspannt
einflussreichen
distribution
##pool
##erien
kombi
deal
##reunde
wicke
federal
nrhp
eugeni
mannheimer
##udien
##oku
warme
holm
gemisch
dargestellten
beliebig
begrenzten
##designer
passion
mauri
landesmuseum
evakuiert
cola
apa
anwalts
##rö
messing
beschreibungen
##zka
##rai
woraus
parallele
ostro
insassen
raben
kehle
##punkten
##etter
ökologischen
steigende
staatsminister
fee
cot
##irk
fris
eink
anruf
airways
##mia
waadt
stärkeren
pearl
kontinuierliche
général
##fei
geisel
durchzogen
reichten
oa
abschieds
##ingh
zweithöchste
gastierte
cae
zusammenk
religiöser
inkrafttreten
erforderte
aufbauten
##eden
vorgeschrieben
democratic
coul
##tration
##mung
wiederver
arg
afroamerikanern
##tani
##messe
stress
populäre
fraktionen
##pflichtig
südostasien
pli
##älfte
##inga
vorsteher
vollendete
versorgte
früheste
##älder
kulturgut
fv
erschließen
albrechts
odo
kort
deg
##ändig
##amilie
yar
vä
einordnung
##treffen
palace
gesteigert
##η
##tagen
##nba
##board
selbstverwaltung
flüchtete
fleet
eschen
##cos
intendant
fertiggestellte
vé
schmier
mordes
cincinnati
césar
##unternehmer
überstanden
verkäufer
vatikan
erba
auftretenden
##ndung
##abtei
vorstoß
trinken
vermeidung
compa
zet
reut
kund
kickers
hiervon
gregory
1716
nennung
amar
tup
rosenheim
regiert
hindenburg
geltende
##uka
##gewebe
halbleiter
cam
betriebswirtschaftslehre
##meer
unwahrscheinlich
fußballverband
##recken
wasserkraft
bergs
1880er
##egion
pfahl
kostüm
angetreten
##jun
##heri
unterzogen
touren
korrespondenz
##ın
##chemie
überein
pag
geruch
fitness
alleinige
weißem
hörs
grade
bri
##mpfe
##kapitän
pun
jou
centro
##pti
##assade
##chrom
##alls
libretto
##eistung
##eam
toll
klosterg
gere
1672
##ż
##technologie
##ollen
smart
psychotherapie
oberhaus
einzurichten
pott
originalen
höhenunterschied
brauchte
1450
##noten
##bla
spon
richt
1570
##nteil
##inhalte
##haufen
sno
guide
doris
##ots
##haar
##ennen
außenpolitik
tafeln
indigenen
hos
esta
quin
corn
chinesisch
##ctor
zusammengestellt
verle
einbruch
barri
1705
ship
leistungsfähigkeit
##ň
##rtige
##gemeinden
tul
sprachwissenschaft
rank
pölten
##lfe
schwe
queens
1728
sandra
beträchtliche
alias
1350
verwaltungsbezirk
großteils
getrennten
rekorde
lichtb
abgesch
indonesischen
einflüssen
##ři
##hofs
vorläufig
karoline
fakultäten
inspiration
##äd
sauerland
optimierung
güte
##äm
##steiner
säu
rema
haaren
bergmann
##nai
##gebung
verlagerte
trost
oberp
arbeitern
##wich
##rgen
##gten
stick
judith
datens
claudius
bediente
##ssistent
##objekte
##eler
##afen
räumlich
cart
antikörper
##ßler
##ifi
diamond
ausländischer
##weit
vakuum
ausgestaltung
##oph
unerwartet
savoyen
triebwerk
sepp
hülle
füll
effektiv
contra
ausgleichs
übereinander
westp
lip
befreiungs
##sc
witte
wilm
nahverkehrs
architektonische
##ril
ural
trom
thom
soli
moi
hebt
aufwändig
##zit
##lätze
##itte
niedrigere
klinischen
führender
abba
##briefe
variationen
norwegischer
##tp
lebensmitteln
landesweiten
chaussee
bezüge
gewünschte
exklusiv
##schichten
oph
mager
##öcke
thrash
strategisch
preußens
police
experte
dn
##skirche
##isse
zwie
wallfahrt
radebeul
hosen
gegnerischen
##staaten
vorbilder
pari
nc
hama
eingetreten
barc
ase
##stahl
zs
schießen
maschinenfabrik
urteils
lebenswerk
hebel
eintreffen
##elm
rechtsf
depression
##oly
##echer
tran
nebraska
kompilation
beitrug
##sart
fehlten
dingen
##ochschule
##eiche
##diert
##album
dortmunder
##ged
anleitung
##play
##mc
nutzbar
formulierte
niederschlagung
meiste
mangelnde
thematik
stadien
##folgen
plate
flügeln
erfassung
bors
##leich
selbstbe
##teils
##hie
remix
mönchs
musikalischer
lebenszeit
dramatiker
zurückgehen
versailles
senken
hinab
geschafft
dialekte
baltischen
##ize
pros
ostasien
eigenständiges
с
weinberg
##ativen
taufstein
ehc
dah
##ätten
##ubi
steffen
mcca
fac
donat
bartholomäus
tah
stop
rufen
##я
wing
radikale
naga
chai
##mutter
##mou
stahlbeton
einschlag
ming
greif
akteure
đ
ausgegliedert
aufgefasst
1711
##ča
##real
##mé
##alla
zuchthaus
tg
##ähigkeit
farbige
decks
##darf
zwölften
spionage
musicals
merkel
gutshof
erlernen
##cup
tränen
##pod
##gattung
##dam
##arbeitet
thie
günstige
gebets
eröffnen
##üm
##ergie
hauptan
erwähnenswert
dringend
cem
290
fsv
dil
aufwärts
70er
1709
##disch
zusammenstellung
spaß
burger
abschließend
##bridge
winkler
umgehen
fron
##uktur
##kante
wet
stätte
rüdiger
mason
leidet
##tech
inland
ausgewählten
unterb
fran
1729
##ucher
germany
außenseite
ausgedrückt
altäre
##ängt
einher
bergsteiger
##polizei
ermordeten
##wärts
sip
schwab
parodie
kemp
kasch
emporen
##nni
öz
straßenrennen
spielzeug
face
acha
##ähne
##zze
##mber
kronprinz
isabel
##sem
uhl
markante
mache
bagdad
tours
schwein
##staffel
##inheiten
##familien
akte
##leb
tons
ore
hohenlohe
daily
stammplatz
priorität
pfarreien
geschriebene
gehör
##emperatur
aman
##pl
memphis
factor
##endi
phillips
nas
abbey
quad
##ßig
tanzs
stimmt
sitzungen
krü
initiator
anfänge
##orge
##list
wanne
wanderwege
gong
posthum
möglicher
manuskripte
jungs
erwähnen
erk
##act
wendel
suco
henrik
##schin
schad
neuenburg
anthropo
##tafeln
##ows
##loser
brasilianischer
##termin
reflexion
mün
lili
kwa
gc
bombe
##kalk
gegners
bruns
verringern
popo
pakt
lad
haj
##kö
##gard
##ahm
elektrischer
##rla
verpflichtungen
rätsel
mallorca
besatzungs
##ů
##db
##bauweise
##anns
toledo
perser
kräftigen
kontra
gate
##dim
holger
##merkmale
hervorzuheben
grundherrschaft
##tn
##edt
doppelten
demi
##ingung
frosch
##speicher
##gru
verbündete
neuerungen
##pul
##gest
schwächen
works
verteilte
lieferung
conn
##wicht
##uchi
südb
pull
konventionellen
homosexuelle
cash
1685
verweis
regulierung
nashville
hausen
dauernden
bear
##öffnungen
##trau
##sm
##reif
visuelle
harvey
erzogen
wiki
befassen
bandbreite
##hild
vikariat
vb
sulz
seelsorger
präsidium
komm
##stufe
##beste
schlosser
prost
olaf
beni
##stände
##sty
##mier
unsicher
qualifikations
missbrauch
leeds
goe
##mati
##lick
##eriode
##afel
talente
pha
galla
cameron
##feldt
westm
straßens
pin
chamb
bedeutsame
arztes
abstiegs
abgestellt
##kauf
##dha
unger
schafe
mist
kunstf
katalysator
rind
wörtern
schnur
lyc
gog
bekrönt
1580
seitenschiff
schirm
melodien
##zwi
##eilen
welts
epochen
abgef
##jak
weh
verwaltete
speisen
landgraf
gesteht
##mak
##alon
chors
achs
1560
##ungsf
##smittel
manufaktur
auswärtsspiel
neid
kaa
##rov
violett
befragt
pf
kenneth
geschw
1704
##bestände
jugoslawischen
##utt
##bande
romantische
novo
herausgegebenen
brachen
##lti
##sts
##mä
streitkräften
##rati
security
lanzettlich
dip
##bul
teamkollegen
ren
myr
foster
alpin
##usf
wells
rg
realgymnasium
herkunfts
##quit
oppeln
landwirte
ausgeprägten
alberta
##zän
##ray
wirtschaftsf
verschaffen
rk
pfeffer
hz
beruhte
##was
##stationen
##sey
stockwerke
kreuzen
fem
both
vereinfacht
slowenischen
friedberg
verwaltungsgebäude
rak
##ridge
##parlament
wwe
pale
##hys
##aue
uner
marino
kompakt
heils
doe
1731
##rein
zeige
netzwerke
markennamen
fontaine
beiträgen
##pas
unterhalt
motte
künftigen
ego
sogleich
fertigen
dani
abhandlung
##verwalter
##vertretung
##rbo
##lius
übungen
urnen
rinde
integrations
erc
dri
croc
##oldaten
senden
kühn
##gleich
wes
sheriff
sequenz
inselgruppe
geldstrafe
galizien
eigenbe
bankier
##moos
soo
gaul
denver
charter
##lokal
stam
##feldern
refrain
prod
freiheitsstrafe
##ädt
##rche
##aufnahme
generalstab
erleichtert
dragon
zusammenhängende
siebenjährigen
cere
##chichten
vorges
mbh
isolation
##к
##ieß
walmdach
senegal
banat
##oot
##jewitsch
##suche
##iac
nep
mest
gema
erlen
##sicherung
##prozesse
##gli
pare
cze
carls
##lsa
zehen
fass
ewigen
anfrage
##irch
gehaltenen
filip
##tationen
mö
kreuzweg
befestigten
##ifft
wünsche
fachschule
canyon
tigers
pn
kennzeichnung
int
dys
##rter
##ometer
##instrumente
heimatort
eingest
dual
##had
wahlkreises
herrschaften
dieb
cecil
##offe
##gangen
amtlich
##zio
ranch
fordern
chel
131
##umi
vec
vale
tourenwagen
luftaufnahmen
kalb
herunter
gier
ghi
1697
körperlichen
konsequent
jes
feldkirch
mere
ergänzte
andri
##oßen
##kine
##gge
ostg
marin
erscheinenden
durchführte
böhm
borough
##lins
neutral
##gefahr
buchenwald
##organe
##grafie
materielle
distrikte
##ezirk
##cul
wrack
schaffhausen
konsolen
ausgeprägte
aufgebracht
wels
weiterver
vc
mika
lauren
anw
##rauch
##leis
vid
richteten
vergehen
owen
hieronymus
dachte
##gesang
rubin
gasthof
enttäuscht
calcio
taktik
satellit
angebliche
1635
vt
mandel
außerordentlich
7000
überholt
wirkungen
vrch
versah
verlagert
passiv
mehrst
definierten
##vic
##maus
##arin
vorletzten
verschlechterte
routen
komiker
arbeitskreis
albin
##sba
##rauen
##cti
kranz
korrespondierendes
kometen
klapp
gewisser
erstaufführung
blockade
##felden
niedergelassen
lagune
kräuter
blattstiel
basketballspieler
schulte
pb
festspielen
##nitten
string
filmk
dreis
delegierten
bloch
310
##udi
renommierte
profimannschaft
flüssige
##link
überstand
mih
hierarchie
##rina
##mul
##gliederung
##erste
nepomuk
aspekten
abgeschnitten
##stetten
##datum
sporn
prat
arn
sle
unterschrieben
pokalwettbewerb
ital
faschismus
verspricht
kühne
erliegen
map
gefieder
bech
##rgi
stopp
exakte
bone
bahnhöfen
aug
##übung
##äule
dramatische
##mic
##agazin
##abi
säge
steigung
infrarot
siede
inhaltliche
reduzierung
ono
bewohnten
beliebige
##risiko
ols
beg
mab
kruzifix
##ext
skala
heilbronner
getr
eleonore
vergessenheit
handy
##filter
##anth
vorhalle
vatikanischen
sli
einzigartige
angli
##finger
zem
schleife
jetzige
entsprachen
dunkelbraun
sug
secretary
hoffte
gha
##open
flexible
##chuss
sechsmal
reicher
cay
##heil
patient
jel
##enre
anderthalb
1702
##kli
römern
oberhaupt
##ní
stürzt
muslimische
gloria
##áz
weißenburg
unterbau
mena
demonstranten
aal
urlaubs
sweet
kostenlose
awa
richtungs
psa
matti
hilde
uli
schin
##äng
##atik
korrekte
illustrierte
einschl
buchhändler
bischofssitz
##varianten
schwergewicht
have
gie
##ál
ret
grun
gesetzgeber
ces
schieden
pus
gestellte
bom
##treffer
##flüge
töchtern
teilhaber
brem
##chtet
commons
aich
gä
##tg
zurückgeb
zeitlichen
bok
##nsen
##fikation
pixel
ellis
barn
##handwerk
forces
archive
##bte
ostfront
hegel
spandau
meinen
flohen
##kollegen
tischler
steuermann
simone
hörner
gliederte
verst
nei
log
gepa
fortschritte
entziehen
##rner
##enf
verkehrsverbund
querhaus
nikola
jennifer
einschränkung
##hir
teppich
1726
1707
warmen
nächstgelegenen
hauptgürtels
fut
departements
wesel
store
brien
##nak
wc
landesf
inf
göring
##onal
##lith
##fries
veranlasst
pom
helme
##tron
##quen
zealand
tierarten
opernhaus
geschm
documenta
##sme
melde
eco
dry
beeinträchtigt
vorarlberger
tragflächen
stendal
siena
mittags
koni
ausprägung
terrasse
planen
ferro
ausschlaggebend
aufgehängt
obmann
##ibi
westg
tamil
aufzus
1708
rf
plans
chassis
biblische
##ladung
##agt
rocky
glenn
deh
schilf
pumpen
gewi
flugzeugträger
bsc
schotter
saum
repräsentativen
abnahme
abgedeckt
tschi
perg
norfolk
meteor
adelsstand
dale
beruflich
belt
bundesgerichtshof
córdoba
bauwerks
antwortete
philo
oxid
erbauer
##tran
swr
pos
niederösterreichischen
mf
vorr
früchten
vorgetragen
sparte
petersen
kang
gesamtweltcup
ż
stabile
neg
frequenzen
rhode
neuesten
legal
indiz
beiderseits
##pag
multiple
abz
##lech
rocks
##rá
##esse
kurier
versammlungs
selbstverständlich
angegebenen
##wohnung
##unterstützung
urin
lotte
konfiguration
iur
isolierte
informieren
grundfläche
erforschte
bic
##tea
##höhen
##balken
##alin
sortiment
pfadfinder
gewöhnlichen
fließend
dec
auslös
##onic
weltcuprennen
tales
innovation
grenzgebiet
erzeugnisse
eingerichteten
zh
flat
ausgestorben
##samt
##nho
##fli
ó
verwies
tyr
swan
lachen
hod
schweigen
cale
verbrennung
regi
jor
fragment
##anzeige
umfangreiches
##ison
umstrittenen
retro
neunkirchen
loe
##sition
##getriebe
sint
rohe
past
natal
huf
fad
dragoner
##shan
##itischen
##cr
schwing
ror
peace
##ég
##brück
hauss
fälschlicherweise
friede
edmonton
zuflüsse
stadtrechte
##qu
##iba
sanierungs
mitgründer
##his
saalfeld
assessor
##räder
zeugt
verankert
mie
##mast
##braun
kirchdorf
jong
industriegebiet
duran
anthropologie
203
##wegen
##nä
sac
happy
frö
##sstelle
spann
schwimmer
schlange
celtic
schöneberg
erlag
a4
##mach
glass
absolventen
kirchgemeinde
gesprächs
farn
carr
##ogi
##lima
##fern
nicaragua
1622
##br
hofer
arms
##nay
##itteln
koll
donnerstag
aha
##öne
schulf
salem
künstlernamen
##kriege
##nol
westafrika
karen
##tufe
##tera
##plin
stellenwert
schenken
nos
hardt
filmt
##srat
##rdt
##cam
tags
portugals
npd
len
##sation
schmaler
gek
1699
##ogie
vienna
startplatz
manöver
##12
##ehe
zag
untergliedert
kleinst
gutenberg
gebrauchs
apache
##sig
##lier
##kali
##efe
zubehör
resten
gefertigte
armenische
##ektion
weihte
unterbrechungen
indianern
batman
##marken
vertreiben
masch
jade
##ape
government
##ituation
##führers
##fü
virtuelle
straubing
cord
lf
nuss
gerichtss
##sgrad
winds
verwüstet
versa
municipal
erze
erfahrungs
ausweisung
##barer
##ault
zwillings
schlafen
novi
monde
clay
arbeitsa
##platzes
##bn
trinity
preußisch
himmler
##annt
warburg
nim
tap
serra
nötige
milo
bres
blinden
holzt
wasserfall
kik
fußballspielen
##digung
turbine
teiche
kul
gesandten
beurteilt
##otor
techniker
schal
externen
##stik
geladen
bib
##urger
vereinfachte
umstrukturierung
kleinasien
eugène
check
goslar
analysiert
wartungs
sogenanntes
konferenzen
hiv
amateure
##ries
überschreiten
vorburg
reutlingen
irr
ingenieurs
favorit
cloud
##pfad
##informationen
ruh
plantagen
natürlicher
gütersloh
angemeldet
##bandes
##bachtal
überzogen
kunstst
abstrakte
##lic
verdienst
verbesserten
orgeln
samb
residierte
helga
##tempel
##darstellung
versicherung
ufa
tötete
schächte
portugiesen
norder
datenschutz
##ifte
wahlkreise
ilm
hoy
generalversammlung
dampflokomotiven
astronom
artepitheton
alessandro
##ôme
##olm
vertikale
organismen
myo
gund
bürgerlich
##ielle
wüst
voigt
viren
beh
##schnitt
##ony
wertvoll
umliegende
selbstge
lessing
##toffe
perfekte
lamp
jahrtausend
enkelin
schaft
antenne
thronfolger
studierende
stadtbild
sae
bewirkte
##apital
nic
kadetten
esp
einfaches
##itäts
##erke
trib
highschool
entgehen
blass
atlantis
##route
##lini
zweitklassigen
schöpfung
hygiene
freisch
festgesetzt
dachs
##onu
vasen
fisher
##ipfel
##but
exklave
vornehmen
serienmäßig
primäre
fundamente
airbus
##perre
rads
mitwirkte
heimische
gezahlt
aids
agg
##spektrum
##fri
westfront
inspektion
aren
##tatt
##lade
zustands
vg
radius
lies
jä
scorerpunkte
mieter
aj
adelheid
##enl
grae
##tuch
voi
productions
##szi
stoll
skr
koi
girls
geest
extremen
entworfene
ablegte
3500
synchronsprecher
obama
##kka
wea
versteck
severin
##stall
##chtern
jaw
bemerkenswerte
##vg
##nest
##lack
look
emmanuel
##inspektor
spätmittelalter
schaffens
kreisa
abgek
vorf
parma
##prop
überz
schnellsten
konsequenz
gottlob
cel
##ša
dreifach
mater
ewald
electro
chelsea
beachtet
aufzug
assoziation
altarraum
##zweck
##toni
##tele
##funk
zuzug
niedersächsische
milan
jesse
cicero
##ulde
viert
grove
erbracht
empfehlungen
##osch
##herren
##dere
onkels
military
bräunlich
seminare
infanterieregiment
enormen
##erungen
montgomery
häufigen
harp
franc
beur
stecken
stations
landesbe
yorkshire
vertikal
sportplatz
lup
lateinamerikanischer
##kw
spontan
sozialdemokratische
oberland
fab
##sicherheit
tj
schicken
dorfs
charakters
beschuss
aza
arbeitsf
##ulle
überwachungs
wulf
schor
maa
kreuzgang
aim
##σ
##olitische
##cheibe
kontrovers
fei
ernste
##rüfung
schol
regens
politikern
morav
lebensdauer
feuchtigkeit
esslingen
besatzungsmitglieder
##objekt
steile
feindliche
adelaide
##deutsch
regenwald
fli
bezirksver
avr
##egung
herstellte
bilds
##kat
rome
cello
bänder
bergk
##ych
##gui
pilze
mythen
##euz
verbreiten
testaments
seeh
gir
bing
##urteil
vá
kelchblätter
implementierung
gegnerische
afc
##trop
emer
wund
trent
oss
nw
entl
dampfer
beklagte
##ästen
harbor
##oben
##revier
##reu
##legen
##ider
verde
teufe
souveränität
maud
autobahnen
##zeile
##hari
verlorene
unges
riff
##phil
unterta
kreisfreien
cyclo
cox
come
byzantinische
sandb
brig
süddeutsche
problems
kommandierte
bundespräsidenten
sup
roo
kristallisiert
dekor
arne
wagens
nuntius
jahrgang
bewertete
##ländischen
stech
##lieger
überquerte
eingereicht
##ande
nationalmuseum
##übergang
wallfahrtskirche
pré
mic
kane
heben
##gem
##ents
##eidung
wiederein
lucy
##ndt
vö
bloß
##dé
überm
kroatische
harburg
##mäßige
##gewässer
zwingen
touch
qing
fundort
##utzung
##ebiete
ute
syr
nö
legislative
flüchtlingen
saarlandes
lao
belie
##vie
##machen
##befehl
bergf
anfängen
##rap
regent
milwaukee
beförderte
##mn
##dnung
steinernen
leise
stromversorgung
lehramt
##tests
##fg
staatspräsidenten
noth
nachbarort
hauptaufgabe
golds
430
204
##richtungen
zwi
verlages
tl
ora
meth
medikamente
hildegard
angesehenen
##lberg
##hö
zeh
seitena
kolo
##erm
##dio
werdenden
sale
kunstwerk
gambia
152
##alb
westminster
schickt
rid
religiös
mariens
clarke
##mobil
##gra
rassismus
kombinierte
kirchenb
gemeine
boa
##zb
##ucci
##ops
##nfeld
##kult
##chka
verraten
tes
pfleger
einzels
abfolge
sep
osaka
katz
gehaltene
eintr
##nac
##amo
zugs
wettkämpfen
ligaspielen
formell
diamanten
plattformen
##ption
##gha
bah
##sze
##mberg
umkehr
prote
program
##eschichte
wel
terrassen
schütte
repräsentieren
rei
buslinie
stadtbefestigung
ordentliches
literaturpreis
hün
##umf
##orgel
div
amadeus
##elb
waisen
bewirken
salze
rover
##bischof
wals
scheinbare
nachgeb
lutherischer
annie
##zirk
jaguar
ester
##äft
##xie
##ufgaben
##endung
überführung
justice
fabian
##beruf
seilbahn
pk
margin
katar
gmünd
filmpreis
außerordentliche
aurich
##bele
rezept
nationalliga
##ünn
##show
##ovsk
##abkommen
vertiefung
rheine
nutzlast
##röhren
##amten
englischsprachige
anzeichen
##yen
iba
gren
begeben
scotland
oliven
michaels
##galerie
##fk
##bio
unange
orbit
vertriebenen
haber
gerichteten
aufrechterhalten
##rbi
zir
wolga
experimental
enns
baha
araber
##kung
zv
vorläufigen
sehenswert
reichsmark
naturparks
kaiserlich
hendrik
handb
##lak
vorderflügel
hauptg
angestrebt
abgesagt
##tchen
##gründung
##geh
##eux
##ensi
bearbeitete
##slo
schwäche
##üre
tab
ši
überbaut
sokrates
objektive
kommandos
kni
electronic
beliebter
befragung
skiweltmeisterschaften
seege
screen
verbreitert
swi
kas
großbritanniens
arb
geometrische
##trasse
##rfen
markenzeichen
chim
bahnsteige
indianapolis
grundmauern
grenzte
gehr
entspr
ausweitung
##konzerte
##kongress
zus
unternehmensgruppe
tambon
rhy
nero
krankenhauses
1703
##ystemen
hra
diskurs
##kleidung
weinberge
gesamtk
##lou
##genieur
##anu
vollzog
##sprozess
phantom
gladbach
auszus
##ktionen
third
schöner
zweigstelle
klerus
##sprogramm
fachzeitschriften
##yya
wils
umfangreich
joão
färöer
begibt
kirchengemeinden
karo
gemäss
begonnene
aufforderung
##lad
verteidigungsministerium
hopkins
holl
gefährdung
bebaut
aufarbeitung
goll
##mill
überraschung
wiederaufgebaut
vorläufige
verrat
skil
lur
zeichens
podium
kör
hars
bundesminister
beobachtete
##werten
##rka
vizekönig
verwi
verka
beschuldigt
##dow
menhir
cyr
1590
viscount
spindel
lokalbahn
fried
eye
bloom
abschnitts
##pes
vegetations
schauspielern
nab
hase
entfiel
dürfe
ungeachtet
neueste
mündungs
durchschnitts
drittligisten
nem
##omen
niedergebrannt
amateurliga
##zähne
##summe
##nern
umgerechnet
skizzen
amtsinhaber
##éri
##setzen
##nsis
verunglückte
##ourt
siegreich
investor
hud
##swi
##revolution
##onis
wiss
westpreußen
macha
aufschrift
##winnung
richters
macro
kliniken
kita
bewältigen
##korb
##cheiben
überlebten
staff
liest
jugenda
buc
kunsthalle
##sort
##eug
##darm
##amb
gestört
gespalten
beendeten
##kolleg
hav
falkenstein
1706
##gere
vormarsch
unterstützungs
##vir
zaun
direktorin
##fertig
spo
notiert
korne
gesunken
gefährliche
beckens
##usbildung
äußert
sut
kontinentalen
cohen
capri
rna
expo
##journalist
##ierbar
zhang
wiktor
ghost
60er
sept
powell
dru
garmisch
entw
##effekt
##büchern
unendlich
sorgfältig
chemisch
##brü
pali
muschel
kaufhaus
fir
##ändigen
##werden
slawen
mama
laboratory
children
capo
##ziehung
nuklear
adjektiv
##asi
fussball
zai
verlierer
doh
altars
wohlfahrts
stadions
permanent
##uit
unters
kreisgebiet
##tudio
sensor
##uar
##np
wed
rotations
rotation
egal
computers
anhaltende
##90
##sdi
sonnenb
konstrukteur
guard
fara
##rsche
tugend
südtiroler
send
grobe
gesundheitswesen
erläutert
215
mada
eit
eisenbahnnetz
ausgehen
##fußball
versprochen
gestoppt
germanische
##sischen
##engen
niederschläge
niedrigeren
flacher
faul
berufe
144
schulabschluss
schn
kinderbuch
##60
vocal
eno
botanische
##tschen
##light
##itäten
phra
handge
familienmitglieder
europastraße
##verkauf
##priester
lilien
genom
dorfbewohner
ausflugs
alti
##eiz
albu
##weiß
##ulf
##rganisation
##nera
##bilanz
sojus
gers
##rho
##eig
##dm
äquivalent
signatur
gutachter
bausubstanz
##ь
zach
sterns
staatsarchiv
matsu
##esk
thessaloniki
snowboard
eintritts
bewirtschaftet
##rufen
horizontale
eignen
xx
piemont
carbon
bereichs
pio
gestohlen
geological
brutto
185
##xis
verbannt
todesopfer
teilb
ruhestätte
kolonisten
grüner
freigabe
##problemen
zuschlag
vermessungs
rüt
feinen
enter
umg
odi
filmf
catal
bez
##sprachige
oscarverleihung
anschliessend
analoge
##spruch
##aschine
querf
mug
adlige
synagogen
aussen
##rote
rup
peta
mik
metzger
bien
##ulin
##ologen
umk
ordensgemeinschaft
##reie
##radio
westerwald
kriminalität
chirurg
brigadegeneral
ams
amin
##peri
zweikampf
wyn
shim
landess
kartoffel
diverser
andrei
ahmad
##schung
##iser
##ides
polymer
naturwissenschaftliche
holzk
gottheit
beantwortet
##zwecke
##track
##igh
shell
kurfürstentum
##überwachung
##reichs
##esh
##bw
teenager
fragestellungen
engelbert
drittgrößte
auftauchen
aktueller
##wässer
##urus
##signal
##nais
veraltet
geistig
denkmalgeschütztes
##cover
##alan
toskana
spinnen
professioneller
ná
ausgestattete
alpinen
veran
trä
straßenk
staatssicherheit
gestellten
gerard
ausgew
ausgerufen
unterschiedlichsten
howe
bewusste
##sus
##ppt
##orschungs
unp
spitzenkandidat
phosphat
belegschaft
##yang
underground
montpellier
holzsch
##bäume
sozio
koro
ine
erfurter
beabsichtigte
##eits
vereinbarten
markanten
gesellen
senke
pfad
afro
##ütze
##eute
##agung
sheffield
schlitz
rhetorik
profifußball
plasti
mea
bedeutendes
##racht
yen
entlastung
einm
beseitigen
##bef
schreiner
rivalen
meißner
begeisterung
halbbruder
gelds
derjenigen
unterquert
gün
##üll
kümmert
bies
abgegangene
ärger
katalonien
expeditionen
dors
baumaterial
##verbänden
##uster
##glocke
reichskanzler
freigesprochen
##örmige
##gr
##dampf
zon
torschütze
sanskrit
kupplung
avantgarde
vorgehensweise
stellenweise
sami
begegnete
1654
##ansk
husaren
ferri
enz
bü
agn
##kenn
##kul
bahr
##nner
##loo
##hein
spielers
palme
korrigiert
generalgouverneur
aufwendig
##sieg
##phäre
##ommissar
wassermühle
schlüpfen
produktionsfirma
herstellern
##ę
##hk
schiebe
herd
heirateten
##oris
hämo
##ähl
##stete
##logi
stahls
hecken
90er
##ezeichnung
##esellschaft
zulassungs
rückzugs
honorarprofessor
##ringe
##nstraße
tödliche
loge
interessierten
hofrat
fjord
beständig
arbeiters
1610
##pig
##mee
sarajevo
sammelt
renate
kraftwerke
demzufolge
cluster
bahnhofsgebäude
asiatische
##nca
##kasten
##ange
ih
friesen
berechnungen
##over
schaumburg
lösungs
weingut
väter
festzustellen
altarbild
##münster
##ages
seitliche
crus
beratende
woods
uganda
naturdenkmal
nachbargemeinde
exponate
beeren
überwa
nobelpreis
clans
bedrohte
##zn
##geln
zwecks
verursachten
straßenbau
staatsgebiet
##epi
mathe
staatsangehörigkeit
relegation
patriarchen
##sak
##kraftwerk
##gert
vereinigen
streif
sele
beliebtesten
##ssy
##hasen
stationierten
1675
##kno
##bbe
nektar
hm
##oria
vietnamkrieg
trif
hochf
abmessungen
abbe
##late
wassera
trophäe
geschehnisse
fronts
ergo
##parteien
rate
elsa
bauhaus
arbeiterpartei
##orr
##geschäfte
stadtarchiv
roz
laich
kahn
belg
abgeschlossene
##ört
##fnahme
niederen
motion
löslich
bauphase
##widrig
##oze
##orsch
##orientierten
##gegner
schlichten
grill
feuers
chorraum
1631
##ulen
gewinne
fish
esc
cousine
##irat
nachempfunden
kop
fühlen
ausgerichteten
##tk
##organis
##hten
sne
oberrhein
derjenige
erschaffen
schwa
mittelamerika
dic
baureihen
##utor
köpfe
hochebene
##scheibe
##gren
pieter
miniatur
machthaber
heeresgruppe
fet
evangelium
befehle
##dischen
wochenzeitung
umstrittene
sponsor
rückgängig
rollstuhl
##spflicht
##rief
nominierte
gefällt
##ähe
##rim
deckt
1625
##urn
##lant
##kanäle
lautsprecher
##angriff
rela
lg
cine
auen
namensgebung
benny
usb
offenbarung
molekulare
liess
körpergröße
geschäften
##upe
view
einsetzt
bischöflichen
richards
froh
altk
zuh
wide
okzitanien
gruppenspiel
abor
##raba
##gier
##felsen
dächer
dup
##verk
##teine
##rechen
##ogene
##ieger
lass
deutz
bekanntes
##führen
emilia
common
##öden
wern
koffer
##pap
walda
teg
hardy
delle
bauherr
atr
archäologe
##nzen
verbrauch
mors
mansfeld
innenseite
eigenständigkeit
1661
##kühl
momente
grundsätze
dozenten
banks
##tzte
zero
youth
schläge
päpstliche
fülle
überlieferte
physische
melk
krankenpflege
bayerns
assistenz
oden
herne
friedhöfe
fasern
eheschließung
zeitz
haftstrafe
gilde
dod
1603
vai
kunde
##hum
##flu
ado
##nius
weges
oberkommando
leslie
europäisches
ehrenamtliche
brauns
##mper
unf
schottischer
organismus
jac
fakten
elt
##sänger
##handels
wiegt
sacr
neuh
nette
lv
diamant
beschleunigt
##ograph
tree
tansania
lesungen
gibson
##nkung
##bestimmung
ökonom
reiten
jungsteinzeit
1480
##lsdorf
##immt
vergewaltigung
ricardo
passen
bim
##tlich
##clubs
vermietet
pg
funden
display
chit
##trukturen
##erra
aufgestellten
##atsch
durchsch
dominanz
##üren
##hom
trient
tabu
psychiater
##arth
versetzte
tian
mobilität
lent
stils
kulturell
evakuierung
##setzt
##omb
banda
##wachsen
öd
zunft
solch
remo
nordwand
jana
barm
hauptteil
gleichstrom
astronomische
weißes
kehr
freedom
dramen
##dur
wasserturm
##pulver
schwedens
jungvögel
erle
agency
##ädagogik
##studien
übera
schütt
path
ostafrika
mittlerer
deca
##ldung
verarbeiten
uma
rha
mahler
kellner
gegenstück
eigenart
##auto
wanderten
rust
rivers
neugotische
journalismus
jacobi
grabstätte
##ehrer
wintersport
grundgesetz
##reti
##genossenschaft
##blo
linné
##änd
##nski
ziffer
stadtr
sektionen
dienstes
diebstahl
vampir
schlauch
rp
landesteil
kooperations
haydn
dür
bram
arminia
##tari
##quel
##achi
wellington
wanderung
verwaltungsrat
praktiziert
pina
flüssig
epo
aura
##oon
zusammenfassung
hufen
hinzuge
beeinflussten
gisela
alliierte
##sang
opa
magna
herausgebracht
flag
breiteren
##training
##eba
wechselwirkung
qi
einse
haube
gruft
##onie
##llier
##gleis
thurn
lebensräume
freis
bec
##ombe
##fit
##chon
wiedergabe
ausgeh
pero
zip
spion
hesse
embryo
durchgeführte
##zierte
##sele
##geschwader
nitro
komme
hinge
baua
algen
##bos
walz
vergleichende
price
mede
##werder
##psis
##gehäuse
wikipedia
rox
ausreise
##če
##west
##ungsa
##auben
unzureichend
nef
glied
bolt
scout
opus
impact
dramatischen
doppelk
altern
##biologie
überdeckt
penis
interims
akzeptieren
##tir
##tere
xv
beschränken
ausgeglichen
überprüfen
nationalf
landesk
events
angewachsen
##tun
verdienstorden
steina
lance
endstation
##mühl
voraussichtlich
enteignung
emissions
emigration
träume
ehen
bunte
bennett
1684
##uropäische
wölfe
mart
keltische
##äle
##than
triple
tip
teilnehmerfeld
schneiden
hauptdarstellerin
durchge
hinrich
heus
arbeitskräfte
##cel
##blättern
lum
gesenkt
errungen
newport
marl
vorzubereiten
umfrage
schuldner
pflegen
kog
knecht
bezahlung
1698
##tore
##nid
sulzbach
magi
kräftige
hé
235
kirchlich
townships
leinen
koordination
kochen
habitat
burgh
boro
##lá
rockmusik
bryan
aufhalten
##usstellung
##ergebnisse
ull
tone
mittwoch
c1
arndt
##zhou
##ländern
bündel
ache
##ewo
sigmaringen
sauber
pars
meh
levin
endung
elektrifiziert
wirkstoff
soloalbum
proportional
nal
##weide
parteif
ld
##stitut
##alu
verdeckt
sekretärin
ruhig
goa
aufgesch
buddhistische
##ürt
##ù
zieh
hippo
breu
##nommen
##lib
##halte
puccinia
jud
eingesch
trompete
thematisch
aver
##ikel
##hülle
##fung
tendenzen
skate
psychischen
neubrandenburg
gleichstellung
emily
effizienz
angesch
1572
##bens
wiederkehrende
verzögerung
kulm
julien
colt
bambus
##stem
##anga
namhafte
feierliche
##heck
##ausch
umzusetzen
staudamm
landesvorstand
gim
##hera
##gehen
strophen
stehend
siebzehn
##ção
##rieden
##ory
wake
annu
##esheim
seeha
passt
hornb
hertz
##utsch
wöl
verdächtigt
unterrichten
sternberg
heiner
nom
erfand
##nea
triebe
there
grundk
every
erasmus
diagramm
antiker
##bergen
schli
nationalteam
hari
##yst
##aktionen
volkst
vere
reservat
nao
muti
germ
exc
batterien
muß
gesteine
##cast
tatsachen
stoffen
operetten
moderatorin
kriterium
beispielhaft
steig
##llan
##annte
zusammenhängen
solide
mausoleum
gekoppelt
enten
1656
##gelung
##abschnitte
stadtkreis
##fund
trümmer
bundespräsident
bieber
1628
##verschiebung
##unds
##reb
##ami
schülerin
neum
innenausstattung
ersch
cg
arrondissements
950
betty
##stie
##hende
##eicht
partnerin
kantonen
jus
##kke
##geri
##dru
##beiträge
milde
##ätig
##teilnehmer
##sons
omnibus
neugestaltung
herschel
gescheiterten
einblick
lef
amberg
##eitige
##cot
ausführen
aufzugeben
##parks
##firmen
##edizin
##aci
wä
umr
stadtm
oy
mitternacht
damaskus
colla
1870er
tracks
außergewöhnlich
abn
##cing
##chr
ungültig
sgb
schur
holzf
bremsen
##nstruktion
skip
geni
aufgesetzt
amtsantritt
zähl
verlusten
trage
hege
dänen
abzweigt
212
##umer
polit
pank
brd
##falls
##beschluss
##atoren
strip
singular
sehe
beutel
##osse
##heizung
##appen
toc
superintendent
studienzeit
drake
coli
wiederer
scheune
pola
pic
andro
##ässe
##querung
resp
lori
kk
finanzierungs
amazonas
##pse
##nü
prosieben
melchior
konstruktionen
fungieren
elektrifizierung
bamberger
ossi
1693
##nci
versp
kugeln
cit
begabung
##esten
überragt
trieben
rochester
neugliederung
ino
haw
dokumentieren
brandenburger
1629
fragte
##ká
zittau
zak
hauptver
##äfte
##czy
twi
rückst
altmark
##storf
##lieb
simple
mitgewirkt
mee
##ffekt
##eas
##bou
woman
ligue
irischer
anbot
##ago
ortsvorsteher
mim
kampfes
hintergründe
elementare
##mine
zusätzlicher
##ktur
##amts
gaius
##nwe
##bremse
japanisch
##put
##lichkeiten
##dne
wied
stadtver
speck
otten
holländischen
hecht
bahngesellschaft
##api
weisheit
rohstoffe
manu
gleichmäßige
crawford
ungel
ortsbürgermeister
individuum
gewonnene
arrangeur
##angs
unregelmäßigen
selb
pegel
krem
##pfe
##mannschaften
##lsch
vit
hands
gia
##ssp
zusammenarbeitete
sino
politi
neus
mittelrhein
fag
böhmische
verfallen
sinnes
rangliste
gret
existent
durchsetzte
##zla
##vision
##chulen
##apparat
ulrike
dieselmotoren
##ί
##gerechte
##enheim
regionalbahn
kabinen
jahrbuch
gewand
##yg
##schwanz
wohingegen
linearen
kunstgewerbeschule
faz
bevölkerungswachstum
bergleute
android
##regelung
pomp
blasen
akzeptanz
##nadel
##liebe
##ecker
sidney
muri
##dampfer
schmitz
dunkelheit
angehoben
zwölfte
sass
riz
liegend
krankenschwester
konsens
erträge
einzigartig
dac
asta
amtsgerichts
275
##augen
schaa
körpergewicht
hexa
gebogen
dämonen
client
##tr
wp
unab
sukzessive
penn
paarung
nichta
krypta
kreative
##pfl
pelle
kontrollierten
gemeindever
einsatzes
##pfeiler
##jährig
novel
mittelb
integrieren
hausm
gü
gira
gibraltar
experimentellen
blöcke
##upp
heirats
##bell
verwaltungszentrum
schmied
sanders
geldern
gamma
betonung
##rno
##presse
##illi
jai
eugene
direct
zitierte
niederung
amphi
##sieger
sib
quartal
neuseeländischen
mecklenburgischen
lebendig
kontrabass
erwarteten
öffentlichkeitsarbeit
historia
hersfeld
##deg
inv
inszenierungen
angedeutet
anbietet
##element
wonder
birgit
beliefen
bedingte
##iller
##deri
verk
terri
spor
ritterkreuz
katrin
anonym
angels
##gänger
militärregierung
gill
stur
mobil
griech
alexei
##otti
##mith
vent
mosch
##plane
theatern
gedrängt
dünen
charta
##sellschaften
volkshochschule
sommermonaten
##zl
##ogy
##ersteller
vorrang
sicherten
iri
hinrunde
erlangten
crystal
##ό
innovative
bemerkbar
amr
leistet
joel
gegenständen
dome
bergh
ausgebaute
ausführliche
1623
##mein
zweijährige
unterst
lithium
handelsb
erzeugten
delaware
conf
papen
maga
##nsp
vermeintliche
starkem
rezension
plei
essex
cbs
##übungen
##usz
##ffa
##erp
skal
nordische
mers
eller
einmalige
bereitschaft
##urse
##ersatz
taxis
parlamentarische
mille
bataillone
1686
##adion
tei
ncaa
##ḫ
##odu
##kot
##glio
weißb
verschwanden
tö
trierer
sonstiges
annahmen
##bilität
überflüssig
tageszeitungen
spu
maru
henderson
##mler
täler
kab
dist
anweisungen
##grundlage
##auern
fors
erp
abspann
##üller
##sitzung
##kampagne
##ient
schadens
naturf
nachnamen
mitges
giacomo
flusslauf
farbf
coch
##rrt
##hov
##ean
##bier
inch
fußboden
freguesia
##nio
into
ads
206
##nens
##bä
hummel
flieht
##tudien
stürzen
lina
einflussreichsten
dea
auflistung
alphabetisch
##nja
##aise
tho
rent
popp
maßgeblichen
albertin
##steuerung
staatss
nf
mild
local
königshof
##oin
oblag
moro
differenzierte
##zieren
spot
gleichheit
filmfestival
##lai
##book
wirksame
schlosspark
pane
drückt
disk
bauf
##ünder
panther
johanniter
doppela
brooks
1621
unc
sprecherin
magische
komplexes
heiratet
bever
auftretende
##ower
utc
philharmonie
woo
pérez
modifizierte
##î
##iffen
zielsetzung
ziegler
vald
sü
dion
chilenischen
##lsen
zapfen
römerzeit
asian
##rae
1652
berühren
##ši
rundbogenfenster
lópez
kriegsgefangenen
eisenb
##mpi
wartet
systematischen
horizont
haager
geme
entschluss
eingriffe
##frist
zugehörig
ringel
rettete
profitierte
generalkonsul
##rtal
überge
fortsetzte
einflussreiche
edge
##uts
##ards
schärfe
katholizismus
1664
##dde
umst
registern
baumann
##át
##rube
yellow
sid
puch
ostantarktischen
##onf
marti
gegenspieler
defensiv
arbeitslosen
##besuch
##pau
zahlungen
erwärmung
1667
1526
mela
guerilla
aufwies
##zal
##thema
##cross
##bag
study
paper
dino
angesehene
##labor
unt
theodore
regelfall
manila
doo
baba
##äuft
perlen
materiellen
kühler
klagen
gängigen
gree
gonzález
##alli
weid
apr
##icus
##atal
##arriere
ša
zweist
selen
paradox
koppel
verschrottet
knüpfte
##kino
tuc
rohrbach
quest
modernes
lati
lamb
einiges
brasiliens
merkmalen
gruppensieger
generator
gelernt
betrachteten
##ω
##ulation
##ufs
##rohre
##pei
pendant
ldp
jakobus
elegante
canterbury
assistentin
##prung
##pringen
##enk
##eicher
übel
gesteckt
geflohen
beschleunigung
anda
##schäden
wandmalereien
persien
freischaffender
akzeptierte
abfl
##schel
##lom
yor
umweltbe
geschichtswissenschaft
##warz
##under
ulmer
tec
spezifikation
sichel
legi
##differenz
verschärfte
musée
aussichtsturm
abgetreten
1529
##sri
zahlenmäßig
kae
##enau
verbraucht
##zuf
##traßen
überwunden
symbolische
schnellstraße
murr
domingo
##träge
##treter
pfennig
mitver
kc
##rell
vad
supreme
pharao
landschaftsschutzgebiete
bare
##hotel
stadtkern
puppe
porter
pioniere
granat
eiern
##sätze
##ritter
##oran
##onzept
leopolds
kleinh
idealen
gele
befahrbar
amphibien
word
sacha
niedergeschlagen
ireland
illusion
gruppierung
garr
bevorzugten
##ukt
zeller
pap
jensen
heimisch
flugb
exposition
bauteil
australier
##anie
europaweit
##sprecher
release
nantes
malo
leuchten
heg
großgemeinde
truppenübungsplatz
tok
scherz
blend
##tib
##oven
versagt
schieß
rosi
reines
neptun
nag
kameraden
gängige
1679
##beratung
zel
brus
##äldern
##hri
##gerichte
##assistent
raab
klettern
empfiehlt
südt
nordb
nebengebäude
generelle
dänisch
hartmut
grabungs
ausgedehnt
angeordnete
gefundene
bum
umlaufbahn
strafen
pec
begeisterte
##ľ
##motiv
##base
##auk
welterbe
jugendabteilung
atti
anschließen
##unternehmens
##röm
##enc
milton
geleiteten
finnischer
corne
##status
##mpe
##beg
thomson
schwanger
nig
kosaken
flöte
dazugehörige
circle
baulich
barbarossa
aufstellen
alber
hunsrück
##mengen
überfallen
separaten
nachbau
memoiren
dsch
baz
##faktoren
##aco
kling
kenny
kaiserreichs
funktional
riefen
feierlichkeiten
##steinen
pach
olo
nordrand
mussolini
gemischten
esca
anjou
1692
urheber
summen
feststoff
eingelegt
danne
angemessene
##kommandos
##eitigen
##ega
##dörfer
##chy
überlieferungen
zungen
spezies
sik
postamt
napoléon
michaelis
kehl
gna
##tica
##hek
steh
sicherlich
burkhard
afroamerikaner
##widerstand
##vern
##strasse
##rigen
luh
kunstsch
##kämpfe
td
oberschicht
hameln
entnehmen
barre
##endes
nin
jets
##zek
##dou
eingehalten
dim
1536
##note
##muskel
tatra
gleicht
gesund
gegenwärtigen
abgeschlossenen
##shu
vei
klon
hauptre
eintraf
##usti
##tot
##draht
lebend
goldberg
burke
##ád
##anken
weiterge
singh
midi
comp
##eff
##arp
zuhörer
spielst
häufigste
baustil
armand
ahr
abgewickelt
1694
zeitlebens
reinigung
nak
hürden
etage
erfordern
apparat
##dichter
geburten
drew
colonia
##örter
cuxhaven
bloße
##rid
##mode
vorhandensein
telekommunikations
oberg
##tla
romano
resultierenden
konsortium
betreffend
##pc
vermeintlich
steam
ethno
betriebsge
attribute
##ürz
##wappen
##volk
##ntal
##mts
##kreisen
##rds
stal
nebenflüsse
linder
gutsbezirk
einseitig
##ranken
##eran
zah
wertheim
sportge
mittag
bereitstellung
ange
##techniken
schöpf
programmier
mäzen
ausarbeitung
##rater
##mst
##inb
sprinter
mobilen
estnische
emotionale
azur
zentralb
basierende
reif
kokos
kah
harm
gesandtschaft
1555
##dsch
waisenhaus
unzufrieden
schwarzem
puffer
problemlos
ass
anstrengungen
##laufen
reuter
miz
linzer
humanistische
buchstabe
aufgeführten
zwillinge
magnetfeld
erker
##lze
##hma
##grat
##enta
spielp
einfahrt
computerspiel
collection
##ungsk
trompeter
sängers
ova
eingefasst
chuck
buddhistischen
ahmed
##verd
##ieler
papiere
bemalte
211
##schlagen
##pfel
ungewöhnlichen
unent
symmetrie
rush
ral
obrigkeit
dik
detektiv
collegium
##eria
weitgehende
verabschiedung
pistole
misserfolg
glänzend
dialoge
bore
staatsver
rettet
freiherrn
ferne
fantasie
chromosomen
blocks
abl
##äulen
##erren
##dorn
sahara
monroe
gebrauchte
einreise
##mische
##ichtet
##atische
zielgruppe
modifiziert
lynn
dinosaurier
##ashi
lega
landgemeinden
corpus
##rks
##nw
##emo
visual
segen
funke
zoologie
yon
sensoren
manne
halter
anwohner
anselm
222
##änen
##gran
veranlassung
tall
kingston
kasan
erfolglosen
bspw
andenken
##wurz
##vár
##onn
##netzes
##abst
parr
lel
konzipierte
atari
##zk
##tatus
##ndar
zuflucht
zee
trö
schab
nac
ancien
##voi
sure
posts
leck
heimatmuseum
erworbenen
aggressive
##winde
##thor
##kens
##hur
##atri
übersetzen
siebter
sail
labi
beiwagen
agi
zuverlässige
coverversion
bildnis
anz
##sive
##seu
##lär
mediale
friends
einstellungen
bora
##nae
stabilisierung
imperium
dauerausstellung
##center
##aussch
robertson
pyr
interpretierte
indischer
grimme
bezirksgericht
arri
argumentation
##wissenschaftler
##tinger
zeus
wichtigster
want
siam
muz
inoffizielle
administrativ
ableiten
##krieges
olympic
judo
geschütztes
anh
##derb
##berichte
sicherzustellen
schritten
oriental
herrschaftsgebiet
groningen
bregenz
##massen
##gow
überflutet
xeno
städtebau
sperre
moers
kämpft
karriereende
duncan
bauform
195
##spro
##eber
##aute
mclaren
bist
américa
##esetz
valen
schaut
oxy
lehrbe
aer
1676
1633
1626
##ahrzeuge
verputzte
leng
iserlohn
havanna
genossen
fundorte
bemühen
##leiden
##hg
éta
sonde
pip
igl
geograph
debatten
trin
schlachtfeld
papua
lint
großk
##pferde
umfassten
relevanten
reichsgr
muslim
kreisreform
kirchheim
kaiserzeit
hirt
chom
brüstung
1547
##rama
##ngestellte
echtzeit
##pec
romantischen
jiang
essay
##ical
rauten
maßwerk
lehrbeauftragter
hauptp
cao
##itzen
##gleichung
verstärker
realistische
mayr
eingerichtete
##tiefe
##beiten
universitätsprofessor
jahrhundertelang
goi
betätigt
bef
##tak
überk
solist
schwankungen
mazedonien
##wahlen
##darstellungen
werben
strategien
leim
dehn
chol
zigeuner
radfahrer
bundesverfassungsgericht
browser
1890er
##igs
vorangetrieben
psychologischen
##gna
wiesent
sitt
paläo
ankündigung
adressen
##unterschiede
##ear
vizemeisterschaft
naturraum
gps
empirische
schanze
pran
lipp
geradezu
##ämpfer
##weltmeisterschaft
##tka
##sn
##mühlen
##krä
##ersonal
##ellschaft
sit
renner
museo
kien
kapitalismus
gef
fette
buchhandlung
arch
##zens
##türen
##bart
therese
migration
luci
ive
falt
calle
beizu
artefakte
##äumt
zb
vormaligen
verstecken
verkündigung
tao
lec
##ungsver
##freund
##ando
wohnhäusern
volkswirtschaftslehre
str
reid
fd
##ād
##yll
monitor
bui
##puren
##hunde
tänze
fel
chöre
angelegenheit
##kap
wool
rosenb
präsidentschaftswahlen
erstflug
entwicklungsz
entsprechung
##stig
##bern
öffnungen
quert
ped
neiße
nein
haften
fachk
eisens
eingangsbereich
achtzehn
1695
1668
anfangszeit
akustik
##wicz
##rieben
##pta
warnte
seri
schalter
liszt
koordiniert
involviert
##entwurf
westw
vest
physiologie
hebräisch
genießen
alo
##schreibung
##erts
zirkel
verfassungsschutz
lara
gome
##ischem
zufalls
tagung
hinz
##ängerin
##upi
wasserst
malereien
klären
fp
1681
##з
isch
herzens
fußballliga
##μ
##öss
##ssin
##gitter
waldh
straff
freundeskreis
erkenntnissen
behr
zulauf
norweger
460
rach
grabhügel
formationen
ausk
##zw
##lane
weiterführende
orb
miya
jug
gallo
erdoberfläche
clair
feu
##ά
##unn
##rgan
##hme
zauberer
strikte
oberli
mathematisch
calv
astronomischen
##mtes
##kit
nordhausen
gleisen
banden
assembly
abgegebenen
veranstaltungsort
steckt
portale
minneapolis
davos
credit
cath
bundesbe
##ologische
wilfried
uppsala
hemi
##rok
##krebs
vega
té
scheinwerfer
##schwa
##onti
##nant
##hund
##anspruch
pä
jedermann
hn
hess
grades
dubai
##uste
##orium
##gründe
##dik
neuerer
lamm
hyde
horne
eint
##zus
##oti
##lfa
##ilität
##evi
zunge
ranking
klassi
##gei
landesh
kürzeren
dietmar
##sp
läute
deckel
ablagerungen
##raut
wasserstand
vermeintlichen
todd
nissan
nachhaltigkeit
martina
knappe
karnevals
alleiniger
##ți
poul
geometrischen
anlässen
andauernden
147
panamerikanischen
belohnung
1687
1682
##sb
verun
sporthalle
room
helmstedt
hash
befürchtete
tic
knö
einsturz
##xx
##riss
verwaltungsgebiet
dobr
burton
aufgerufen
##obmann
##isb
schmutz
beworben
##komödie
##itische
spektral
rae
lug
goo
bede
barber
##wis
##teig
##kamm
traun
ordinarius
ola
má
malmö
lombardei
konföderierten
gesunde
flussabwärts
compagnie
argentinische
##röße
##reib
wahrheits
uro
scu
##uchtung
##holen
suspendiert
schutzgebiete
privats
percy
lemm
anta
##brauch
##absch
untergeschoss
rodríguez
lebenslange
gatten
eus
breslauer
##ärtner
##sic
sana
primären
hubertus
gesammelten
flö
dib
bundesf
beleuchtet
1696
##ery
wins
tiflis
rothenburg
kof
gleichem
deve
##ione
##chirm
vereinigungen
beschließen
wem
sehn
parc
katastralgemeinde
gegebene
cell
abweichend
##oral
troll
spontane
reparaturen
raster
holzst
1665
silben
maur
komi
##günstig
pflegt
interpretationen
haven
gesamtrang
##skr
##regen
stap
rechtsr
partenkirchen
nottingham
dreijährige
abgestimmt
##ův
##iege
##ads
www
taucher
1642
##ír
##brüder
wade
stören
fürsorge
friedrichshafen
##tliche
##flugzeuge
##ertig
tz
reichstagswahl
nähere
herange
goldmedaillen
##nj
ungeeignet
kain
1666
##rasen
##kalender
otter
codes
altm
##nver
##gramme
zutr
demontiert
##llat
##gremium
städtchen
pend
län
leh
basic
amer
##omer
vasallen
ritterschaft
kleid
jugendarbeit
exchange
##rah
##kun
##isierten
pow
olsen
karpaten
albanischen
schnauze
kova
väterlichen
pell
haupta
##äer
##sers
wartung
schulleiter
ioc
hannah
gib
erkrankt
bülow
##orp
sünde
zub
protektorat
hamburgischen
gründungsmitgliedern
geschäftsführender
aco
abgeh
##äs
##tol
##gängen
wuppertaler
straßenverkehr
perioden
nell
erweist
tschechoslowakische
gliedern
baube
##erson
sod
##lj
spezieller
rüstung
mangan
kronprinzen
kommentare
großb
dienstzeit
holten
eichel
aufsp
##uter
##ntar
##enda
wirkenden
grundsätzliche
brüten
##glied
##chla
theaterstücke
quick
muschelkalk
jugendk
flachs
dreigeschossige
colo
analysis
abzus
##äts
##museums
##aaten
tsi
kna
1624
##feiler
selbsts
satzes
record
goldm
##sgesch
##nord
##läufe
treff
reptilien
obers
interc
abschließenden
##kunden
velt
taba
somalia
nog
generala
elend
##illo
prog
organization
linsen
giese
filz
ethnie
erden
chrysler
antib
##buchs
rege
neutralität
neuk
dier
##ragt
##onk
wale
terroristen
psi
neutronen
ausbauen
##nges
ét
staatsprüfung
glau
energieversorgung
alc
##traum
##chreiber
##stufen
##rach
potter
laufs
gospel
etablierung
berk
basti
bangladesch
##mü
##komp
##iber
##elh
vou
optimal
1645
##tücke
##torf
grundst
1598
##uca
##ssu
wiens
rothschild
portugiesischer
monumentale
genuss
geflügel
briefwechsel
verden
seitenschiffe
mäh
flanke
atoll
##nhof
wirren
untergruppe
spartak
kurzform
coi
bestimmtes
##mpa
zent
radios
mühlhausen
lehn
kunsthandwerk
gotik
bodenbe
##löcher
##egment
##camp
übermittelt
odessa
goebbels
geschichtsschreibung
borsten
umsteige
schützt
rosenthal
deutschem
besiegten
aar
##zahlung
##nsdorf
vogtland
pok
pianistin
##rgs
rotes
postb
bret
barna
arbeitsmarkt
##ч
##erende
tribus
palmen
osi
absetzung
##eisterschaft
##dels
reichsst
nordt
nara
kirchengeschichte
historien
explosions
durchfahrt
plu
osts
krankenhäuser
haß
gedenktag
einzelheiten
##interv
überqueren
zigaretten
vorherrschaft
mittelteil
ministers
hali
bischofskonferenz
augustinus
ahorn
##sir
paro
merri
heidegger
carm
##kapital
##eke
##belt
##arlament
velo
schwarzes
lil
kriegsbe
1655
tong
rührt
henneberg
hemm
##г
##stat
##schie
strahlungs
schief
##wasserstoff
##mechanismus
westr
ununterbrochen
surf
saka
melodi
inh
frédéric
differenzierung
akustische
1644
minne
lufthansa
ind
hirs
dokumentierte
##riz
überlebens
versehene
rok
malcolm
legislaturperioden
kawa
iw
##vö
watch
raff
moleküle
kontingent
entscheidungsspiel
abschl
##trie
##stal
##ltur
##abw
langfristige
hofa
frances
dow
distanzierte
chefs
bundestags
ausmaße
##schlacht
##kreise
##ils
##ail
zwangsläufig
verdeutlicht
schliesslich
mend
böck
bewaldete
balt
zusammenspiel
gum
firm
defekte
anschaulich
##zli
##handlungen
wirklichen
staatsge
kampfk
grafische
finster
##ross
##reibung
##hebel
versammelten
strebepfeiler
pump
oranien
oberösterreichischen
bry
vorteilhaft
verzehr
schauspielschule
pflanzens
osteo
noo
kelten
gamb
ej
domänen
156
##onzern
##dk
ungerecht
rundschau
lieh
kiri
händel
dak
##zismus
##mmung
##lund
##köpfe
wohnraum
gesicherte
erwacht
##blut
säugetiere
samp
musikvideos
finals
felsb
einge
##phr
##nster
true
gunter
fischfang
ausgebe
archivar
##uv
verlängern
treppenhaus
magnesium
diabetes
berna
ansa
##ship
##mura
##fert
##dete
##bing
sold
schulb
popmusik
humanistischen
##kämpfen
überla
wassersch
umz
plau
ping
##zia
##sli
unsicherheit
schriftzug
raz
patricia
kollegium
jazzs
damaliger
##klas
##gele
vite
pub
operette
nid
mohr
kontroversen
gös
berufsausbildung
##änner
##stellungen
##rfolg
societ
sander
gemeinnützigen
##shin
##esp
windsor
strikt
plymouth
militärf
mailänder
kurzes
kapstadt
fö
autounfall
aufger
##rant
vorherrschenden
trivial
norde
krasno
korrektur
1637
1559
##swerte
##pielt
##hü
##anke
zentralasien
schutze
pyrenäen
lynch
geschickte
fachbe
duft
dent
befürwortete
##zip
##modul
marines
labe
tastatur
keyboarder
bearbeiten
##pilz
##förder
##bei
ähnelte
simpson
season
klassizistische
##lys
achim
##mh
spieljahr
moralischen
faye
baj
##medaille
##inae
##elde
##aufs
willkommen
ruß
disqualifiziert
##onin
verkehrsmittel
repräsentanten
rating
kip
jagen
##stro
##sperre
##scu
guer
elfenbein
wachen
olympique
oberbau
hille
empfand
##gebnis
kommentator
epidemie
##erze
wiegen
knopf
alexanders
abhi
##rdo
verwirklichen
verbuchen
taf
rituale
möller
imam
dreifaltigkeit
alonso
absch
520
##iele
##arteien
tk
marte
kreiss
klassizismus
##ugt
uz
unabhängigkeitskrieg
rasche
netzes
##vl
worin
geologe
filmes
beliebigen
aktivierung
puy
metalls
großma
gelege
durchf
badmintonmeisterschaft
1612
##ture
##reiches
##mant
##angebote
plani
gezeiten
fasten
entwurfs
einzuführen
1651
##ustausch
wertvollen
begründen
##üllung
##würmer
##ntrum
##esitz
wos
taxon
staatsgrenze
isländischen
inko
aufstandes
arta
umher
mozarts
konservativ
johnston
verpasst
häut
christa
aufgestellte
arbeiterbewegung
##erde
##ause
week
pflanz
klim
experimentier
alca
##sun
spezialisten
salzs
regelte
gattungsname
einmalig
amb
##tall
##rozess
zinnen
westturm
spott
schüsse
fid
bertha
##sorten
schädigung
quader
ortszentrum
koc
##hd
##cai
jani
grenoble
bewusstseins
auffa
##inrichtungen
schel
predigten
baier
##haber
method
kreide
kao
diep
##gad
werkstoff
ukw
profitieren
ocker
itf
auftraten
##übersetzung
##ärten
##sent
##obo
verurteilten
verschmolzen
tex
jeher
fren
##üchern
##ission
zitate
synthesizer
funktionäre
##alg
relevante
militärbe
dekoration
bras
aloe
##ttbewerb
##dchen
galler
eo
eduardo
tsg
tango
nische
entgelt
empfehlen
demokratisch
cerv
bestückt
##mf
émile
vermachte
ufern
treibende
fry
eisf
##zac
wohngebiet
vororte
syrische
sicherheitsrat
potentielle
merkur
krag
inwieweit
##phasen
zal
wahnsinn
verscha
lenne
firmensitz
desert
cet
##ünden
verma
transporte
sent
angeschlossenen
aberdeen
meisterwerk
heidi
giga
fliegende
color
bäder
##ldo
##iti
poc
kombinat
einzelfall
antisemitische
##01
##säule
##kandidat
##bud
ökologie
tf
ministerial
geschriebenen
gebl
feldes
druckluft
diagnostiziert
bedeutungen
kura
graduierte
##kelt
nester
dreifache
##nkel
##gerichts
zurückgegeben
völlige
vitr
verliefen
melden
besiedelung
stützte
piz
gleichungen
denjenigen
birk
##sbehörde
##richte
wendung
versteigert
königreiches
fortbildung
verba
unterse
stroms
staud
perkussion
konsumenten
geflogen
absichtlich
1609
zitadelle
xavier
schulle
regisseure
hinspiel
gae
rä
gegenst
ermittelten
bindungs
besatzer
##70
##yw
revolver
militärakademie
letzterem
gewähren
errechnet
domherr
1636
##vio
##einen
tann
symbolisieren
ov
mite
marschierte
hügels
##chluss
tonne
sprachk
konfrontation
festgelegte
erprobung
##studio
##chia
vierzylinder
spitzname
rückspiele
lpg
fernmelde
ambo
1643
##otter
##omy
##leg
##charts
wirkliche
unk
tina
rega
fals
burs
austral
akku
##wörter
##eurs
##cott
qual
quadratmetern
polye
klemm
kaunas
gunst
gauß
##swerk
verständlich
samo
lugano
ballade
avignon
weltm
schwanken
porno
landungs
krie
kolla
gebhard
befehligte
raus
quecksilber
melli
##hei
yas
wise
vfr
pfaffen
jak
fruchtbaren
deutschlandweit
trog
rame
philologe
lohne
hauptsch
finnlands
altpreußischen
aden
##äfe
##rest
##empf
raba
identische
bekleidet
auszubauen
##zione
##treifen
##runden
some
sava
nowgorod
jul
hug
gesinnung
esther
einzelf
256
##ünfte
##stütz
##produkten
yun
viertels
verhält
tonk
rezeptor
hame
großherzogtums
gam
ernsthaft
elena
cave
1653
##älteste
##ngu
##itten
werl
wasserkraftwerk
eingeh
caus
##häuschen
##guss
zählung
trem
moselle
luftf
lebendige
eigenständiger
ede
##āh
suc
sofortige
lufts
hermes
fraser
denkt
##omm
##ografie
wiederentdeckt
vinyl
uta
silberner
jähriges
juniorenweltmeisterschaften
hierher
flam
days
##oui
##ialis
schwenk
##ikt
titularbistum
stadtentwicklung
schillers
rab
jessica
gail
aufwendige
##logy
zentri
nachbe
magie
connor
1490
##werkes
vieles
rüde
referendar
kriegerdenkmal
indirekte
galgen
escher
eidgenössischen
1662
1521
privatleben
next
krankenversicherung
arbeitszeit
agro
##şa
##onde
##iver
rezensionen
mechanismen
iod
fraglich
anzubieten
##essi
unm
schir
pasch
geschäftsbereich
einführte
drucken
beinen
1663
##gruben
##erkehr
überwachen
versteckte
schreck
großl
##quil
##betrieben
vorsaison
tiergarten
harper
##reinigung
kulturzentrum
dreiz
plaza
chas
aud
margaretha
konstruktive
hydra
gaz
festungen
abdul
##icz
variabel
schicksals
manuelle
emigranten
anfänglichen
wehrpflicht
rapp
ramon
parkanlage
konsequente
enzyme
daf
bá
blinde
##ogo
plot
mint
lebensf
##täts
##chis
stellungnahme
reflex
märkischen
montes
ios
##dot
nachzuweisen
fb
##beh
nva
isländische
const
##bock
posta
ersichtlich
dylan
berry
##ysch
talb
neugotischen
kanone
gaut
fili
dvb
besuche
##ädig
##stoffen
##fraktion
##computer
##busse
wirtschaftskrise
rückenflosse
klebe
gezüchtet
eingepfarrt
##bares
##anat
vorkriegs
veräußerte
oberha
maximi
clear
##uet
##tars
##orff
##hilosophie
zeiss
scholz
patrizier
nebenf
jasper
fruchtkörper
enk
angefahren
##ța
##üllt
##rün
##machung
tälern
registrierung
mother
##tien
##spolitik
##schläge
qualitativ
##yth
##strich
örtlich
veteranen
nicolai
lenn
cli
amerikanern
alu
sku
rahmenbedingungen
pon
pant
logische
ago
zubereitung
ssv
sorbonne
opfers
lanz
jump
gebra
freif
esco
##mse
##euzer
yes
schula
publikations
promo
pakete
einseitige
410
stadtk
sporta
regenbogen
porti
nationalmannschaften
mercury
hauptar
verga
präsidentschaftskandidat
prad
hausa
calder
behindert
##ümer
##werbung
##sius
maßgebliche
hold
fürchtete
enrico
drücken
assistenztrainer
animal
anerkannter
##schuld
##ochs
##böden
querschiff
ovale
jed
beschleunigte
1638
##pilze
##oco
##duo
theatera
obr
medizinstudium
leut
geschnitten
fas
aig
218
μ
außens
##gentur
omar
oet
iau
hauslehrer
##pfer
##fr
vorgegebenen
panik
interessante
herrenmannschaft
herkömmliche
gerüst
calais
aven
##zh
tale
shadow
cort
##räsident
##iefer
##gelder
steinzeit
sob
rufe
maka
loks
gj
##dni
spinn
seeleute
konsulat
gul
björn
achts
##itzung
wehrte
narren
market
letter
eagle
##usb
##mess
unbewohnte
befallen
aufgeklärt
##acu
unterzeichnung
räumlichen
literarisch
kriegsbeginn
domenico
##rev
##ifer
zweis
thale
kurpfalz
anu
1528
##ämtern
schleier
kilian
josh
angere
1535
##owsk
##formation
transports
1542
##vert
##unfall
##feder
spätr
nia
befreundeten
anan
##öste
##urin
##inkel
##ics
verpflichteten
skilanglauf
ors
brent
auri
##üf
##yj
##antwort
vorspann
teller
spärlich
buri
##winn
schönau
pferdes
lam
entstehungszeit
##othe
##nstr
skript
montfort
körperlich
kopiert
aldo
##zha
##bomben
##besetzung
wirtschaftss
mittelfranken
johannesburg
##äum
planmäßige
leitende
krä
gemeinderatswahl
1556
zhu
mongolen
berufsschule
##texte
##kohle
##derm
##ckh
nachwahl
##½
##yb
##osu
triebwerke
patrozinium
mexikanischer
koreanischen
gräberfeld
großzügige
einp
canon
argent
zugängliche
verben
picasso
croix
##inrichtung
holze
brain
ʿa
springfield
remscheid
pé
namensgebenden
migranten
devisen
1674
##filmen
sinken
schulausbildung
potenzielle
meditation
kell
impe
##tzsch
##sler
##bindungen
gec
aya
1619
##hoe
taube
lettischen
geographischer
fix
bildhauerei
baro
##anc
##afeln
sexualität
partielle
due
anatoli
alien
winston
torpedos
pret
olmütz
maca
gelöscht
espa
andrews
##mpfindlich
strick
pek
osa
molo
koba
beyer
abhandlungen
##zet
##xia
##ktive
westend
vorw
schwankt
privatschule
norr
leicester
kombinationen
geologisch
frauenfußball
exotische
dynamischen
cré
zerstreut
brunner
korridor
gand
freundschaftliche
cim
carnegie
##ftig
sounds
schutzpatron
beschaffte
babe
alve
##deckung
pipeline
natura
erosion
baue
abgele
##programms
##inat
##fie
überreicht
verme
typischer
schier
rik
radial
parteig
manual
instandhaltung
gond
ella
capitol
##trahl
##heits
##ehörde
ting
reggae
passte
grundf
freitags
##ällig
##mantel
grünlich
geografische
anstoß
albumcharts
1627
##û
##eat
ärzten
wanderungen
wait
jordanien
chia
##ț
##skla
##sieren
##lyse
weig
uruguayischen
sitzplätzen
namhaften
michels
kubanischen
eisenbahnbrücke
##sna
##eigne
superman
seef
lich
##ος
##éd
##betriebs
loo
baumaßnahmen
aarau
##lko
rel
rech
methan
belgier
##wassers
unix
rouen
pik
gemeindehaus
einschnitt
wod
polynom
lebensende
kerk
hoheit
##uchten
monds
hindernisse
handle
gode
conce
##pr
syl
[...]
