[PAD]
[EOS]
[UNK]
[CLS]
[SEP]
[MASK]
der
die
und
in
von
im
den
des
mit
das
er
wurde
dem
als
ist
zu
ein
auf
für
eine
sich
an
war
nach
##s
am
auch
##n
sie
aus
bei
bis
zum
es
einer
durch
##en
werden
einem
nicht
sind
##e
zur
wird
über
einen
oder
um
wurden
unter
dass
##r
wie
jahr
1
seine
vor
vom
nur
seit
ab
seiner
noch
sowie
sein
hatte
zwei
diese
jahre
aber
dieser
##a
zwischen
##er
hat
so
waren
eines
2
jahren
ersten
gegen
##t
jedoch
zeit
stadt
während
etwa
drei
de
3
man
später
beim
wieder
teil
ihre
da
dort
of
5
seinen
seinem
heute
bereits
mehr
kann
deutschen
liegt
4
erste
ende
ihm
a
konnte
##o
##es
dann
wo
ihr
gemeinde
##m
kam
##i
haben
dabei
mai
januar
august
märz
damit
ihrer
oktober
the
20
anderen
ihn
alle
zweiten
september
juni
6
april
vier
m
us
weitere
10
juli
können
universität
##y
erhielt
dezember
neben
beiden
diesem
dessen
15
kirche
november
hier
000
gab
deutschland
b
gibt
##l
zusammen
zunächst
saison
jahrhundert
berlin
8
18
7
platz
mitglied
s
19
zurück
sehr
##in
februar
u
deren
16
ihren
ebenfalls
keine
erst
stand
bekannt
dieses
befindet
12
dies
namen
ort
allem
14
km
begann
##ung
nachdem
neuen
einige
schon
film
9
30
worden
13
2010
sohn
##d
deutsche
bzw
17
selbst
was
steht
neue
anderem
2011
i
familie
2008
personen
nahm
2009
ohne
statt
spielte
deutscher
großen
st
allerdings
erstmals
denen
gewann
formula
0
wegen
2007
2012
d
##us
wenn
2014
außerdem
fünf
bezeichnet
2015
##k
ins
immer
gehörte
aufgrund
2006
11
jahrhunderts
2013
25
danach
andere
new
trat
ging
band
name
viele
große
sondern
dazu
meter
gehört
##g
titel
art
sei
führte
insgesamt
leben
rund
mehrere
seines
z
weiteren
2005
v
ii
zudem
diesen
menschen
schloss
besteht
hatten
arbeitete
schließlich
2016
fand
friedrich
ihrem
studierte
sollte
gruppe
weiter
genannt
nun
2004
geschichte
2000
21
soll
tod
anfang
letzten
24
gegründet
mal
kilometer
2017
unternehmen
wobei
erfolgte
1945
gebiet
neu
##on
doch
tätig
sechs
folgenden
22
johann
##u
kurz
frau
insbesondere
musste
la
mitte
liste
karl
meist
usa
einwohner
c
blieb
anschließend
wechselte
2003
jeweils
straße
region
erreichte
welche
form
übernahm
2001
vater
gebäude
23
100
2002
erhalten
lang
darauf
e
verwendet
bereich
siehe
innerhalb
land
prozent
##te
norden
führt
kinder
mannschaft
könig
gewählt
verschiedenen
bau
besonders
and
beide
entstand
oft
fast
28
album
##z
davon
26
2018
gilt
haus
wilhelm
wien
tochter
spielen
folgender
daher
erschien
je
münchen
rahmen
amt
27
damals
süden
millionen
finden
erneut
errichtet
konnten
also
1999
alten
##ch
##um
university
##de
zweite
##h
rolle
ließ
verein
50
john
eingesetzt
gut
heinrich
dorf
beispiel
sowohl
zahlreiche
stark
richtung
weil
##den
weltkrieg
einsatz
arbeit
##ten
frankreich
ca
bestand
1990
darunter
eigenen
osten
gemeinsam
staaten
folge
hans
provinz
allen
kommt
französischen
partei
starb
h
lange
westen
seite
29
beginn
1998
gesellschaft
york
peter
gegenüber
zog
jahres
heutigen
paul
ehemaligen
verschiedene
schule
beispielsweise
paris
zuvor
muss
##ing
entwicklung
31
habe
regierung
landkreis
höhe
darüber
bevölkerung
alter
findet
betrieb
musik
welt
ursprünglich
folgte
somit
zwar
1994
frauen
teilweise
arbeiten
1996
spiel
sieben
##c
fc
1997
1992
sitz
insel
bedeutung
zehn
österreich
kreis
krieg
häufig
serie
werk
team
burg
acht
veröffentlicht
kleinen
1995
1991
lag
##is
meisten
ihnen
pro
stellte
amerikanischen
40
gemeinden
professor
kleine
geboren
europa
folgende
lassen
deutsch
1993
dafür
mann
spieler
internationalen
besuchte
geht
setzte
hin
ehe
sommer
hinaus
gehören
mutter
hamburg
##berg
ebenso
gelang
machte
##f
etwas
1989
erster
befinden
karriere
l
zeigt
kamen
london
möglich
kein
direkt
strecke
schrieb
armee
franz
maria
eigene
weiterhin
gleichen
liga
ddr
dadurch
##an
einigen
entstanden
vereinigten
arten
international
obwohl
vertrag
aller
georg
genutzt
mitglieder
stehen
sehen
schweiz
hinter
vielen
reihe
gründete
wasser
erreicht
südlich
handelt
deutlich
tag
bruder
dritten
stelle
aufgenommen
saint
gleichzeitig
county
nördlich
national
1933
weg
1972
politiker
nähe
ludwig
ziel
bahnhof
veröffentlichte
buch
grund
letzte
lässt
##dorf
daraufhin
studium
chr
1988
weniger
michael
bezeichnung
berliner
liegen
linie
mehreren
erwähnt
ganz
1987
1980
hohen
iii
1970
olympischen
werke
ob
kommen
europäischen
t
absolvierte
erfolg
stellt
präsident
thomas
gewesen
1974
klasse
ernannt
museum
truppen
1939
preis
##p
1986
1938
n
recht
entwickelte
wenig
west
benannt
nachfolger
robert
euro
1984
1985
mm
kloster
welches
trotz
1975
kaiser
teile
selben
##b
stammt
besitz
kehrte
k
martin
familienname
alte
##x
san
laut
größten
einwohnern
lediglich
league
1944
köln
umfasst
britischen
1968
sprache
verheiratet
verbindung
gebaut
ihres
##mann
einmal
1978
1969
raum
##ng
60
sogar
system
bevor
bildet
1983
1971
französische
spiele
1973
begriff
ausbildung
bisher
##bach
amerikanischer
diente
nahe
##le
macht
1982
heiratete
##na
200
gründung
ortsteil
schweizer
1979
1976
befand
ehemalige
dar
zusätzlich
ernst
tage
500
1946
1960
##os
frankfurt
johannes
landes
italien
damaligen
meister
england
fall
kunst
erreichen
spielt
bischof
einzige
bad
größte
1950
1981
nr
carl
le
o
city
zuge
##sch
otto
entwickelt
##w
hälfte
länge
##chen
##ischen
politischen
ich
weit
##ia
besitzt
##el
institut
joseph
sieg
wahl
##au
hohe
grenze
cm
1967
hilfe
1977
1964
östlich
##v
wenige
see
##ner
deshalb
fanden
regel
ag
späteren
bald
westlich
sachsen
herrschaft
theater
müssen
leiter
firma
leitung
frühen
stellen
1965
zentrum
rang
produktion
##ler
reich
vermutlich
verbunden
wohl
##keit
bahn
rennen
leipzig
1966
früher
enthält
jeder
beträgt
1961
entfernt
zahl
division
gmbh
finale
1963
eher
stil
daneben
1956
viel
1962
##ne
wiener
zuletzt
1952
1940
groß
1949
lage
einzelnen
republik
kanton
dr
denn
1948
schlacht
fläche
van
general
##al
park
neun
brachte
christian
runde
machen
ausgezeichnet
al
heiligen
##schen
gruppen
will
1941
sollten
akademie
führen
1958
version
baden
1943
hauptsächlich
wollte
1942
g
jungen
du
heraus
bayern
abschluss
verlor
##ka
beteiligt
vorsitzender
nord
würde
1959
politische
fort
ersetzt
km²
gegensatz
aktiv
zahlreichen
tour
gattung
1957
knapp
polen
schiff
##gen
william
rom
funktion
david
mitarbeiter
richard
sollen
stadtteil
1947
männer
internationale
max
betrug
weltmeisterschaft
1934
hielt
##ie
1953
gesamte
bestehen
1955
erfolgreich
schüler
erzielte
1936
zeitpunkt
belegte
1954
verfügung
soldaten
r
nächsten
künstler
folgen
inzwischen
trainer
bilden
alexander
keinen
österreichischen
literatur
berg
1920
1919
##ig
metern
fest
vertreter
stieg
projekt
besten
anzahl
langen
meisterschaft
hochschule
1918
eröffnet
roman
##as
##ach

staffel
80
college
position
amerikanische
hermann
dienst
eltern
indem
großer
dollar
mussten
folgten
leicht
wiederum
kultur
katholischen
fluss
1937
einfluss
kaum
1951
hauptstadt
anschluss
1935
geführt
unterstützung
öffentlichen
lebte
verläuft
hof
nie
weiß
##se
jean
35
##é
sogenannten
entlang
trägt
gestellt
##0
anlage
darin
überwiegend
1930
lebt
##or
bürgermeister
basis
james
george
spielzeit
gehörten
##ra
for
china
##isch
main
gefunden
seiten
mindestens
##straße
##ck
beendete
fiel
erfolgt
union
ausschließlich
dritte
river
russischen
übernommen
dresden
cup
papst
vollständig
legte
bietet
gesamten
ehemaliger
f
zwölf
zusammenhang
historischen
70
gymnasium
verließ
verlag
heißt
galt
uhr
wuchs
bild
heutige
namens
zerstört
graf
markt
dagegen
lied
südlichen
1914
school
90
##and
##ke
schnell
schauspieler
minuten
hannover
verwendung
erwarb
1928
lebten
verloren
tätigkeit
erbaut
zugleich
nimmt
1929
direktor
1932
los
englischen
bundesliga
selten
auftrag
regelmäßig
1970er
fußball
##ta
##ische
japan
mark
zeitschrift
genommen
größere
welcher
wirkte
##re
stiftung
club
leitete
verfahren
relativ
zusammenarbeit
monate
45
american
durchgeführt
ländern
1900
##nen
weltweit
stück
300
walter
hoch
wahrscheinlich
schwer
wichtige
turm
kg
ähnlich
erstes
spd
seitdem
josef
zeitung
rechts
betrieben
friedhof
di
gemacht
folgt
##sten
orte
thema
verkauft
##ge
##ar
1980er
stuttgart
jugend
mannschaften
j
organisation
weiterer
schutz
lehrer
charles
umgebung
dennoch
département
seien
gerade
außerhalb
world
junge
32
politik
russland
artikel
autor
iv
p
herbst
1925
##ow
wochen
gleich
weitgehend
1960er
brücke
kampf
stunden
entdeckt
anna
##sche
bildete
hinzu
bekam
solche
familien
dient
städte
startete
kapelle
1924
erschienen
nationalmannschaft
bezirk
alt
teilen
gelände
zeigen
anderer
zürich
1990er
jährlich
nichts
1927
laufe
vertreten
verliehen
möglichkeit
gründen
programm
verwaltung
italienischen
##la
nördlichen
römischen
abteilung
preußischen
neuer
oben
##ion
sogenannte
400
weise
##haus
1910
co
größeren
vorhanden
produziert
punkte
gehen
beginnt
##heim
außer
wert
freien
juden
schriftsteller
##feld
mehrfach
##rt
philosophie
geprägt
führung
gebracht
##sen
sodass
single
nordosten
westlichen
süd
größe
entsprechend
kind
stimmen
verfügt
ausgetragen
##man
verband
anteil
staat
halle
neues
kopf
1931
modell
siedlung
hand
et
boden
1921
ost
weltmeisterschaften
song
##ungen
1923
breite
##at
tv
##it
##da
angaben
berufen
geworden
spanien
grafen
weltkriegs
gegeben
allein
roten
1926
stammen
wagen
jeweiligen
unmittelbar
jede
regie
1912
wappen
darstellung
tor
frage
rudolf
parallel
großbritannien
eingeführt
unterstützt
motor
südwesten
gingen
krieges
tal
hingegen
sah
open
1922
früheren
eingestellt
bekannte
endete
wolfgang
maler
beste
jazz
bedeutet
verlassen
katholische
setzt
linken
gebildet
gold
sammlung
bekannten
per
sprachen
grand
zuerst
bank
abschnitt
ergebnis
führten
gewinnen
bayerischen
award
##et
elf
wäre
technischen
wort
verlauf
württemberg
nordwesten
hervor
rechte
tiere
##ur
kategorie
bewegung
genannten
nationalen
geben
oberen
trug
louis
##ter
arbeitet
all
königreich
albert
herzog
wir
westfalen
schwester
höchsten
südosten
united
wald
kraft
schweden
w
mittlerweile
herren
hierbei
##1
rock
frei
beschrieben
weist
##hof
hätte
zweiter
enthalten
typ
festival
rechten
könnte
allgemeinen
sieht
opfer
wenigen
her
##st
mittels
hessen
tore
inseln
1913
offiziell
gespielt
halten
daten
ortschaft
aufgaben
schwarz
bundesstaat
entspricht
zählt
fahrzeuge
sinne
grundlage
##tal
bildung
washington
britische
frühjahr
jedes
royal
ungarn
tragen
weiteres
gleichnamigen
kurze
del
bremen
##nd
höchste
vergleich
hergestellt
vaters
##ns
weißen
versuchte
standen
punkten
wichtigsten
jüdischen
polizei
dahin
##der
1911
quellen
##rs
aufgelöst
##zeit
aufgabe
rot
kleiner
themen
##tz
##2
schulen
objekte
zentimeter
bahnstrecke
rat
erweitert
ebene
forschung
winter
##ll
adolf
x
versucht
teils
65
lief
turnier
angeboten
to
fußballspieler
gegründeten
aufstieg
jetzt
ehefrau
1905
1000
weltkrieges
air
erhielten
umbenannt
nahmen
anders
präsidenten
1907
schiffe
mittel
1917
##ern
kindern
##ce
kosten
on
vierten
dargestellt
landwirtschaft
breit
musiker
punkt
gelegenen
sowjetunion
1908
düsseldorf
cdu
heimat
geschlossen
bonn
1950er
bestimmt
ss
derzeit
erscheint
verantwortlich
island
zeigte
person
teilnehmer
anfangs
verbreitet
einführung
geld
station
beschäftigt
##ki
bücher
bestritt
architekten
frank
eingerichtet
33
links
nacht
rhein
studien
polnischen
leistung
nehmen
wm
interesse
andreas
##burg
rückkehr
söhne
gesetz
eu
erklärt
##ni
besondere
ortes
start
abitur
älteste
daran
kirchen
unterhalb
36
##ers
ganze
zählen
moskau
1906
besaß
tritt
erde
radio
##land
preußen
genau
villa
teams
medien
##lich
östlichen
historische
zunehmend
liebe
straßen
formen
wodurch
kritik
75
records
brandenburg
hamburger
veröffentlichung
en
werner
fritz
alles
autoren
niederlage
bestimmten
philipp
englisch
ferner
unterschiedlichen
spanischen
blieben
##erg
römisch
gezeigt
zweimal
text
eigentlich
aufnahme
sänger
1909
vertrat
##itz
standort
französischer
technik
34
klein
evangelischen
bach
ausgabe
stets
flughafen
bringen
orgel
1904
müller
länder
sur
chor
belegt
nominiert
australien
daraus
top
verlegt
regisseur
anton
unteren
kanada
150
wirkung
königs
durchmesser
tatsächlich
erzbischof
angelegt
ebenda
##ma
aufbau
besitzen
paar
nahezu
körper
möglicherweise
druck
elisabeth
south
häuser
gute
1915
fenster
gemäß
wettbewerb
mädchen
entweder
richter
nummer
geschaffen
alfred
münster
bestimmte
fließt
pfalz
freund
films
japanischen
bürger
hält
marie
nürnberg
treffen
stein
sc
älteren
##ca
nieder
gelegentlich
live
gelten
übertragen
errichtete
spitze
bleibt
dienen
##ger
##no
north
nordrhein
hockey
hektar
state
gehalten
nationale
erkennen
verfasste
parlament
traf
rheinland
probleme
öffentliche
modernen
##3
umgeben
nutzung
##traße
el
filme
bewohner
38
kontakt
geschrieben
1903
angeles
henry
gewonnen
vereins
spätere
inneren
ferdinand
mio
einzelne
werde
öffentlichkeit
company
deutschlands
erstreckt
schauspielerin
bezeichnete
##ja
einheit
debüt
zugeordnet
##che
freiburg
informationen
tradition
brüder
1916
begonnen
kleinere
bilder
auflösung
fernsehen
wesentlich
rand
sv
les
meer
2019
würden
politisch
leistungen
mittleren
auswahl
industrie
gott
cd
entschied
gebiete
##j
prozess
natur
völlig
pflanzen
pfarrer
jedem
1902
bislang
gustav
wirtschaft
übrigen
bleiben
medizin
benutzt
ps
holz
christoph
griechischen
vorwiegend
mittelalter
kommission
erklärte
vorher
music
moderne
1848
1901
verkaufte
gemeinsamen
zuständig
##gruppe
##ich
figuren
formel
tode
verstarb
geplant
##ei
stattdessen
##ton
theorie
hotel
revolution
daniel
wesentlichen
theologie
situation
##ed
regiment
gegründete
spielten
zeiten
aufgestellt
baute
silber
##werk
600
starken
##hausen
fakultät
wissenschaftlichen
1899
ausgestattet
##heit
besser
lebens
lieder
europäische
kreuz
ha
erscheinen
sport
house
parteien
unterschiedliche
städten
einheiten
zeitweise
ursprünglichen
millimeter
nutzen
tagen
umfasste
schied
##platz
marine
fragen
mitgliedern
kalifornien
angriff
qualifikation
jan
tonnen
begannen
promoviert
37
herstellung
urkundlich
früh
küste
schwarzen
42
laufbahn
##ut
energie
schleswig
fuhr
##mus
seither
neubau
quelle
ungefähr
zentrale
hafen
abgeschlossen
guten
teilnahme
pfarrkirche
boot
beziehungen
aufnahmen
südwestlich
ganzen
infolge
ausstellung
55
wahlkreis
lauf
kurzen
züge
sowjetischen
prag
lehre
südöstlich
1898
hall
heidelberg
stellung
##bahn
verhältnis
44
besuch
stadion
österreichische
essen
anwendung
status
zeichen
spricht
##igen
besetzt
kongress
österreichischer
1890
landtag
##4
eröffnete
abs
society
reise
späten
wissenschaftliche
ergebnisse
metal
aufgeführt
verbrachte
hersteller
erhoben
bezug
untersuchungen
erhält
elemente
verschiedener
erfolge
##ri
betrachtet
konzept
manchmal
anlässlich
indien
unten
material
studenten
mündet
einzigen
beziehungsweise
nordöstlich
versehen
##rn
schwedischen
nordwestlich
hoher
dortigen
klaus
##5
grafschaft
staatlichen
##ien
linien
800
chicago
##ier
##em
zahlen
ausnahme
ufer
heinz
szene
gesehen
entstehen
werken
64
schwerpunkt
zug
einfach
fuß
grenzt
schuf
angegeben
1896
ältesten
mainz
1895
entscheidung
allgemein
gar
hätten
zustand
gericht
lagen
unterscheiden
englische
schweren
gegner
großes
high
pierre
##ingen
ausland
beschreibt
starke
1870
##ert
mexiko
santa
erinnert
universitäten
aufgebaut
unabhängig
basel
förderung
kennen
vorgesehen
fällen
hintergrund
handel
besetzung
sankt
charts
figur
1897
klosters
wollen
luft
amtszeit
herkunft
zählte
##ste
online
gelegene
arrondissement
promovierte
sieger
bistum
1871
komponist
##li
lake
bundesrepublik
maschinen
alben
ritter
star
lager
weder
##iert
##ey
freie
verurteilt
oberhalb
jakob
russische
kiel
grünen
songs
gesetzt
##th
arts
sofort
idee
architektur
klassischen
miteinander
einrichtung
klub
##urg
fällt
48
250
kurt
jüdische
gemeinsame
weisen
sender
nannte
infanterie
##6
getrennt
##ee
patienten
39
internet
abgeordneter
geb
##ville
großteil
praxis
mehrheit
feld
entlassen
besitzer
gegend
##il
befördert
öffentlich
##ein
unternehmens
chemie
##ren
höheren
darf
berichtet
beziehung
endgültig
wechsel
zeitraum
türkei
theodor
vereinigung
plan
evangelische
außen
##stein
##ort
oper
monaten
no
chef
minister
versuch
bauern
damalige
bern
regionen
entsteht
traten
wissenschaften
engl
institute
errichtung
ermöglicht
eigenes
##ts
filmen
schriften
angesehen
weibchen
beschäftigte
zugang
königin
verhalten
charakter
lernte
braunschweig
zumindest
bestandteil
sozialen
##ation
ernannte
ns
1850
nennt
könne
bernhard
augen
1893
eisenbahn
label
wahlen
wissen
erreichten
##lle
arzt
andererseits
gemeindegebiet
dänemark
##io
existiert
rote
stellvertretender
reicht
halbfinale
einschließlich
show
jeden
schrift
schreiben
##ben
dt
1880
association
existieren
krankenhaus
verfassung
software
grab
post
grenzen
verpflichtet
vorbild
göttingen
halbinsel
struktur
geborene
##ski
kontrolle
zumeist
ergibt
technische
y
ordnung
leitet
satz
landschaft
angenommen
brand
salzburg
ulrich
verhindern
sicht
##ystem
verbindet
gebieten
breiten
mehrerer
1892
##son
eng
##8
waffen
komplett
flucht
auftritt
##ierung
academy
fertiggestellt
##ß
belgien
sendung
zentralen
verkehr
italienische
einwohnerzahl
studio
fahrzeug
erlangte
black
1930er
benachbarten
bibliothek
ältere
repräsentantenhaus
##arten
gerhard
arbeiter
kriegsende
british
löste
52
ausdruck
bestätigt
niederländischen
##á
super
gouverneur
##ya
texte
bund
1885
chinesischen
##sdorf
hieß
it
auflage
anhand
kölner
maßnahmen
kleineren
1894
handelte
center
##cht
bisherigen
licht
41
errichten
widerstand
##to
untersuchung
##art
schlug
rest
zuschauer
variante
scheint
klar
wissenschaft
rollen
##ige
unterschied
geriet
blüten
initiative
120
höhere
frankfurter
ruf
1888
nachbargemeinden
anlagen
hauses
##inger
oberliga
stammte
julius
43
ortschaften
sprach
1889
vorstand
bot
befanden
scheiterte
fischer
ausbau
orden
offizielle
schaffen
nsdap
fahrer
vereine
##7
allgemeine
überhaupt
phase
widmete
woche
einrichtungen
##ko
bestehenden
wolf
genannte
schmidt
ausgeführt
funktionen
vergeben
untergebracht
don
gestaltet
europameisterschaft
##ker
##lichen
1891
##ik
##ang
##bau
schaffte
holstein
schwere
##am
konrad
brasilien
##ken
##tion
farben
entsprechenden
fünften
meisterschaften
joachim
publikum
fortan
generation
französisch
gründer
bay
mathematik
offiziellen
nächste
ursprüngliche
simon
1860
51
tempel
britischer
weiße
47
49
volkszählung
46
veranstaltungen
##kirche
science
historiker
weltcup
##ine
gekommen
problem
israel
farbe
erzählt
notwendig
party
hierzu
1874
mensch
erfolgen
denkmal
aktivitäten
sicherheit
evangelisch
ehemals
städtischen
soziale
benannte
eröffnung
bedingungen
king
eduard
pokal
football
1866
##ngen
priester
getötet
dichter
instituts
versetzt
vielzahl
wer
##weg
reiches
behörden
königlichen
##schaft
bauten
angebot
wunsch
standard
##ss
##ro
zweier
junioren
kanal
orten
verbindungen
produzierte
##tt
red
besucher
bereichen
##bereich
zufolge
güter
ehren
stern
umgebaut
1875
organisiert
verwendete
dorfes
treten
behandlung
trifft
mittlere
netz
produkte
inne
partner
schwarze
##nt
männchen
letztlich
##rat
bildeten
ausgebaut
zweck
trotzdem
reste
##hen
weshalb
street
gelangte
group
mühle
1867
geweiht
1879
do
auftreten
gefängnis
##ann
auto
handlung
##ling
gemeinschaft
kw
video
kunden
arthur
##uch
entwurf
bester
desselben
architekt
dach
flügel
bestanden
beigesetzt
unterstützte
unterscheidet
1887
##aus
einiger
endet
design
entsprechende
dörfer
kommando
unterlag
aktiven
##co
tiefe
private
einzel
jährigen
donau
erich
militärischen
1872
innere
vierte
blau
münchner
dank
strecken
privaten
1886
orchester
front
feierte
smith
lösung
nämlich
deutschsprachigen
kader
frieden
brach
einst
dürfen
volk
verhaftet
eigenschaften
sächsischen
portugal
1884
##verfahren
1920er
höher
nachgewiesen
altstadt
fallen
operation
gemälde
herbert
demokratischen
würzburg
brief
##recht
##wa
lokalen
spielklasse
vi
modelle
states
route
besonderen
kassel
##9
zogen
garten
1868
##raum
jährige
bedeutende
nationalsozialismus
edward
basiert
##len
kaufte
1873
1500
festung
senat
gewinn
distrikt
monat
schreibt
eins
ließen
00
verstärkt
vergangenheit
bronze
wichtigen
menge
85
##ek
physik
presse
suche
wirtschaftlichen
liegenden
1882
##ga
afrika
jener
bühne
erhöht
holte
hierfür
1881
solchen
dritter
sicher
norwegen
behandelt
anerkennung
eingegliedert
posten
gestaltung
vorbei
gipfel
reaktion
lehrte
sängerin
you
gottes
management
beschlossen
pfarrei
unterschieden
francisco
bieten
methode
##me
künste
service
##meister
##system
tat
staates
jürgen
ermöglichen
langer
zukunft
bestehende
original
aachen
1878
einerseits
54
hause
verfügte
vorgänger
neustadt
adam
lee
möglichst
debütierte
beispiele
ähnliche
speziell
niederlande
erworben
magazin
naturschutzgebiet
beendet
entfernung
bord
95
hl
üblich
br
schließt
##ieren
##see
bezieht
##rg
drittel
offenen
tom
eigener
magdeburg
verbreitung
##ag
frühere
datum
erwähnung
verkauf
organisationen
beruf
rio
fungierte
1883
größer
reichen
##ti
grundsätzlich
lautet
begleitet
josé
best
700
maximal
anhänger
anhalt
dänischen
herausgeber
##q
1815
erfahrungen
mecklenburg
kern
wehrmacht
womit
##rd
##ot
##ium
wissenschaftlicher
hitler
1876
##orf
texas
thüringen
1861
abstand
staatliche
krone
##bar
abgerissen
##sa
siegen
runden
##witz
albrecht
rathaus
nachfolge
altar
##anlage
56
offen
übersetzung
tübingen
##ius
niedersachsen
militär
rede
bekanntesten
sagte
kombination
pläne
wege
morgen
prinz
definiert
wirken
ring
##men
beschloss
stücke
viertel
stefan
übernahme
zusätzliche
begrenzt
1869
anspruch
reisen
kämpfen
flächen
##ld
gedreht
1864
##do
türkischen
christlichen
marke
1865
mehrmals
beeinflusst
solcher
1862
hören
journalist
schließen
stärker
regeln
diesmal
oscar
ausgestrahlt
entstehung
methoden
big
gelegt
engagierte
auszeichnung
stimme
wirtschaftliche
zieht
niederlanden
graz
verboten
1849
gewalt
53
gewannen
manche
bronzemedaille
sonst
engagement
ukraine
militärische
gefahr
übernehmen
durfte
##form
transport
grün
grad
mary
karten
plätze
angebracht
sämtliche
##va
verändert
werte
gleiche
eigenständige
france
assistent
##tein
bildhauer
töchter
regionalliga
##chule
traditionellen
jüngeren
augsburg
##liche
wohnung
toten
rücken
1877
karlsruhe
feuer
mauer
forderte
franzosen
unabhängigkeit
komponisten
streit
benötigt
hugo
länger
ergänzt
alpen
erlaubt
museums
tief
##cher
systems
ruhestand
erweiterung
oberfläche
hauptrolle
fahren
ziehen
bands
##que
nationen
glauben
sekunden
unterschiedlich
sprechen
schützen
ägypten
##nde
milliarden
eingeweiht
interessen
offenbar
erfolgten
veränderungen
angeschlossen
master
##he
##un
##of
griechenland
festgelegt
betreibt
corps
etc
05
tun
kz
darmstadt
eingang
meinung
57
zugänglich
blick
kammer
gaben
amsterdam
freiheit
wichtigste
führenden
amerika
offizier
entgegen
fürsten
##innen
wiederholt
studie
gesang
register
errichteten
erfolgreichen
mission
jena
qualität
04
übersetzt
anerkannt
##tor
sinn
falls
konzert
goldenen
hill
getragen
denkmalschutz
##eld
##be
at
08
abgeordneten
bringt
europameisterschaften
bericht
vorgestellt
inschrift
major
##reich
diverse
reiste
gebäudes
umwelt
tunnel
kamera
medaille
entwickelten
kandidaten
boston
play
europas
58
träger
kabinett
weltmeister
1800
herr
exemplare
##ley
prinzip
fraktion
##ba
aussage
09
stellten
##ry
un
baureihe
veröffentlichten
1863
nationalsozialisten
##wald
überliefert
aktuellen
funde
spieltag
kanadischen
setzen
entwickeln
klassische
drehbuch
italienischer
62
computer
beiträge
konzerte
baron
##lt
freunde
ausgebildet
bergen
##ha
abend
##ō
expedition
heer
möglichkeiten
ungarischen
malerei
dortmund
wichtiger
herzogtum
verhandlungen
##lin
mannheim
botschafter
one
ensemble
antonio
fernsehserie
##ys
abt
helmut
diplom
braun
rein
fehlen
konflikt
beteiligte
kreises
##ina
verlängert
hundert
innen
lokomotiven
geschäftsführer
gelangen
bundes
objekt
autobahn
72
##ls
herz
pariser
minute
jack
höhepunkt
beschreibung
##gesetz
##tte
geburt
könnten
mündung
darstellt
erheblich
fassung
##raße
beteiligten
rostock
kommandeur
sa
##wagen
meistens
flotte
existenz
sir
gelegen
sonne
antike
##one
96
krankheit
geringen
japanische
geblieben
bauen
gewicht
uns
maßgeblich
schritt
übergang
bundesstraße
rumänien
stadtgebiet
##age
führer
columbia
59
änderte
is
verteilt
polnische
heimatstadt
mount
projekte
machten
verstorbenen
täglich
innenstadt
eigentlichen
nikolaus
übergeben
unterteilt
irland
ereignisse
##ad
63
besatzung
umbau
unterricht
love
leichtathletik
einfachen
planung
##des
1856
sang
beider
fahrt
1840
east
ex
kilometern
kirchengemeinde
lübeck
##und
beobachtet
##eim
breslau
hügel
dreimal
##ze
angeblich
verlust
66
bedeutendsten
ziele
as
1806
venedig
unterstellt
prix
pop
western
leopold
motoren
größtenteils
eingemeindet
athen
vorkommen
szenen
klassen
##fen
beschädigt
promotion
ball
vertrieben
nhl
ansicht
linke
bachelor
##aum
unternehmer
##mer
##lage
äußeren
erhebung
römische
abgelöst
bekommen
matthias
my
leo
kino
unterstützen
joe
indischen
1859
erlebte
spezielle
force
##agen
südafrika
direkte
premierminister
klavier
bundeswehr
gefördert
sebastian
71
virginia
reformation
untersucht
nationalpark
firmen
bucht
religion
maschine
herrscher
gezogen
unternahm
rechtsanwalt
m²
##schule
systeme
partien
gezählt
bill
möglichen
wandte
mailand
verlängerung
madrid
white
unterschrieb
abhängig
aufgegeben
blues
barbara
erforderlich
geleitet
dvd
entschieden
wies
verteidigung
07
gelb
handeln
tourismus
vermutet
anwesen
rücktritt
fielen
geschlagen
navy
abstieg
jahrzehnten
russisch
siegte
landgemeinde
##lla
##je
ingenieur
##sse
sprecher
flugzeug
kinos
nutzte
renaissance
kollegen
##zentrum
einfache
##ismus
real
mittelpunkt
gottfried
damen
99
beteiligung
fach
gesprochen
dynastie
brown
61
emil
ursprung
regionalen
saisonende
trennung
barcelona
aktive
ersatz
blätter
alliierten
tages
viertelfinale
ortsteile
##nden
wissenschaftler
plänen
gemeinderat
wirkt
williams
unbekannt
kritisiert
umfangreiche
vorhandenen
gründeten
##ov
strom
##ir
bass
urkunde
langsam
positiv
##ende
zeitschriften
67
##id
albums
dom
demnach
verletzt
männern
korps
jura
ausstellungen
gitarre
berge
umfang
integriert
spanische
aktuell
ton
ergeben
bauwerk
beschrieb
1803
juan
##enden
rundfunk
geist
umgewandelt
ben
nennen
analyse
lord
##all
haft
central
sorgte
geschwindigkeit
kleines
heilige
##technik
sturm
letzter
wollten
kurzer
kardinal
ermittelt
68
##za
me
bedarf
arnold
weiler
1830
1854
nunmehr
bereiche
karte
rasch
landkreises
dieter
derselben
aufgeteilt
schwierigkeiten
jones
gang
##atz
voneinander
ideen
veröffentlichungen
woiwodschaft
1857
##ens
erlangen
entspringt
florida
bereit
##lo
1852
1855
usw
harry
reduziert
tschechien
nordamerika
em
gefangen
direkten
gestalt
keiner
##ice
earl
sichtbar
bedient
##band
brunnen
geändert
alternative
wende
horst
dissertation
stationen
nochmals
fassade
##weise
konkurrenz
umsetzung
eigentümer
zugunsten
1858
spiegel
witwe
potsdam
streitkräfte
##ol
franken
dienten
##nger
##ale
aussagen
verwendeten
australischen
glocken
##go
schneider
provinzen
ausgewiesen
##ny
gefertigt
carolina
organisierte
leipziger
wagner
auftritte
reihen
eingebaut
historisch
##gebiet
wiederaufbau
jurist
rechtswissenschaften
las
errang
haut
gebrauch
98
nachrichten
mir
schluss
möchte
massachusetts
typs
fabrik
örtlichen
##llen
falle
##mühle
innsbruck
silbermedaille
ausstattung
begriffsklärung
basketball
südliche
##ve
##ae
ordens
arabischen
finanziellen
verzeichnet
obersten
treffer
zusammengefasst
entdeckte
christus
##elle
antiken
doppel
06
trier
88
serien
76
ansonsten
min
erzeugt
##gesellschaft
engagiert
geringe
##ff
datiert
kantons
büro
wählte
spätestens
##ring
kräfte
##hn
vielmehr
koch
##los
instrument
##om
regensburg
verdienste
mögliche
seen
versionen
oberst
klima
jüngere
besucht
##unternehmen
110
preußische
ford
zugelassen
aktuelle
fürst
durchsetzen
ausbruch
erhältlich
lebenden
##amt
oftmals
##ard
verlief
linz
lehnte
englischer
line
bezogen
unterrichtete
reserve
ermordet
wales
ausgaben
verwenden
castle
königsberg
keller
menschlichen
sechsten
geräte
3000
persönlichen
synagoge
varianten
onkel
1845
beitrag
anschließenden
kapitän
anlass
marburg
ohio
schottland
1813
wächst
bruno
code
1851
näher
zellen
produzent
blut
eigentliche
##dienst
usd
siedlungen
wiesen
stehenden
vielleicht
stahl
herausgegeben
flusses
bob
konstruktion
erscheinung
berater
##nn
bedingt
sog
fehler
scott
mike
änderungen
zweites
darstellen
jacques
aktion
petersburg
sicherte
versorgung
hauptort
research
##ität
rosa
jacob
umstritten
restlichen
1847
françois
toren
##ist
argentinien
ernennung
freier
strukturen
lehrstuhl
premiere
erfurt
erfolgreiche
bedeutenden
fdp
74
erstellt
moritz
##mi
up
bezüglich
felix
vorsitzenden
1846
studiums
besiedelt
spuren
92
gemarkung
tabelle
##scher
dietrich
michel
first
##ly
goldmedaille
zerstörung
meyer
wichtig
gezwungen
jugendliche
dürfte
schwestern
westliche
befehl
christen
anne
dm
##brücke
abkürzung
läuft
feuerwehr
##gruppen
vieler
abgelehnt
aufmerksamkeit
kämpfte
mittelalterlichen
kaufmann
versuchen
üblichen
komposition
auseinandersetzungen
1816
qualifizierte
präsentiert
baum
beschränkt
kaiserlichen
budapest
##í
eingetragen
samen
nördliche
hinein
voll
kaisers
78
natürlichen
weber
griff
versuche
dienste
victoria
blue
mord
regional
1853
fertigstellung
veranstaltung
obere
1818
kritiker
##ock
bar
jagd
saß
tier
temperatur
mengen
beginnen
##ham
liter
gerät
wein
brücken
samuel
77
österreichs
european
highway
green
hessischen
medizinischen
umfeld
üblicherweise
young
geplanten
##les
feste
geeignet
##zen
##hl
brachten
elektrische
straßenbahn
fusion
##zug
durchaus
betriebe
bestehend
73
1814
finnland
jap
richtete
##linie
katharina
ausgestellt
ehemann
via
masse
nachkommen
praktisch
dauer
army
##hi
traditionell
verfolgt
manager
angeordnet
umgesetzt
persönlichkeiten
erkennbar
wind
gelingt
goldene
port
geschichten
##verein
haltung
positionen
##eck
auseinandersetzung
sprint
ausgewählt
##ana
manchen
marx
äußerst
geschützt
dicht
löwen
ermöglichte
welchem
vorsitzende
kommunikation
vielfach
produkt
82
anstelle
räume
abtei
pennsylvania
sekretär
berichtete
einstellung
dreißigjährigen
rose
weimar
aufmerksam
anforderungen
vgl
weibliche
##uer
##ster
gestorben
leistete
93
##zahl
elbe
beauftragt
schäden
jerusalem
kurzzeitig
jesus
gekennzeichnet
luxemburg
##dt
ausgeschlossen
galerie
archiv
verbot
erbaute
hinten
##ischer
andré
kommunistischen
künstlern
urteil
längere
durchschnittliche
neuseeland
folgezeit
saale
rektor
ums
##ell
kapitel
vii
maximilian
typische
getroffen
jahrzehnte
test
gewässer
darstellungen
botschaft
charlotte
abgeleitet
symbol
ausführung
gefärbt
königlich
kindheit
säulen
69
schlossen
jesu
geringer
laufen
warschau
begründete
dresdner
oblast
erfährt
betreiben
wand
studios
unfall
diversen
francis
betroffen
beinhaltet
giovanni
weite
spielzeiten
ruhr
86
manfred
##pe
reichte
gefahren
81
kooperation
dauerte
schwedische
internationaler
briten
bekleidete
84
aufgehoben
##ser
griechisch
liegende
setzten
##preis
streifen
erklärung
sitzen
lokale
sciences
zimmer
ergab
brüssel
erhaltenen
##orm
1843
windows
offene
enge
natürliche
gegenwart
zwischenzeitlich
ämter
phil
sowjetische
entstandenen
##ai
hinsichtlich
exil
sk
stunde
##ay
brigade
trugen
1832
##by
durchbruch
häusern
religiösen
##industrie
schülern
einsätze
kathedrale
pferde
schacht
##ordnung
norwegischen
chris
1844
illinois
lehen
sitze
boote
werft
ali
trafen
1842
##gasse
gedichte
##igkeit
stadtrat
werkstatt
##icht
vorgenommen
1835
zdf
davis
life
politischer
roger
ja
awards
istanbul
130
begründet
abschloss
ministerium
wohnhaus
db
genaue
vereinigte
finanzielle
letztere
schottischen
kontakte
amerikaner
graben
seltener
##ug
road
gleicher
zusammenschluss
verbreitungsgebiet
180
##orn
suchen
klinik
entsprach
97
sucht
volksschule
maß
##cke
stockholm
goethe
##nitz
bewusst
ngc
stamm
becken
haushalte
musikalische
bayerische
frühe
einsätzen
christi
prüfung
sg
asien
entscheiden
festgestellt
regionale
starben
ursache
verfügen
gestaltete
erbe
hollywood
gering
gegliedert
sed
anbau
lateinischen
publikationen
verstehen
berücksichtigt
meistertitel
##ky
gletscher
83
johnson
tschechoslowakei
ständig
institutionen
gesichert
ans
1810
verwandten
##im
eroberung
mein
enthielt
leiden
infrastruktur
##off
900
steve
festen
91
hängt
übte
auge
1837
##stelle
gebäuden
tournee
flugzeuge
spielern
87
schlosses
kolonie
hit
angesichts
konferenz
tokio
geschickt
abstammung
zahlreicher
verleihung
chile
games
94
iran
zeitungen
inhalt
##port
1838
arm
grundstück
woraufhin
professur
tieren
muster
##si
verwaltungssitz
victor
##ssen
eindeutig
oxford
##di
##ic
ray
anderes
böhmen
##verband
definition
toronto
versteht
henri
fans
effekt
oldenburg
geschlecht
##ment
untere
##rk
##tes
val
kopenhagen
erzielt
zeichnete
são
eigentum
89
besetzten
media
eberhard
persönlich
messe
parks
freiherr
mr
durchschnittlich
350
jäger
grundschule
genf
arena
künstlerische
auffassung
##pa
eis
1841
stephan
sektion
california
erschienenen
habilitierte
markus
##adt
verbesserung
fähigkeiten
stärke
bremer
karls
flagge
sydney
produktionen
betroffenen
belagerung
leisten
verlieh
1839
angesiedelt
spielfilm
kündigte
himmel
gast
sound
geplante
##tischen
fortsetzung
tiefen
leute
erhaltene
belgischen
lat
darauffolgenden
flug
vorteil
beherbergt
jersey
geburtstag
grüne
interview
nationalsozialistischen
änderung
1836
philadelphia
entworfen
jene
verordnung
1834
pseudonym
zurzeit
darum
auswirkungen
umliegenden
verpasste
psychologie
angst
##tisch
bedeckt
luftwaffe
heißen
brauerei
committee
musikalischen
spiels
schnitt
nahen
series
engel
personal
adler
männlichen
##höhe
diözese
preise
erfolglos
armen
typischen
freundin
##eit
angehörte
79
musical
erinnern
pflege
vermögen
stattfand
einziger
council
aufstand
stammten
##arbeiten
##tag
typisch
##ons
verstanden
tirol
katholischer
vorstellung
##familie
persönliche
befasste
prinzessin
orchestra
formation
golden
1821
plattform
steine
gearbeitet
eva
champions
golf
antrag
wesentliche
wild
produzenten
sichern
günther
##eren
einzug
zone
abgebrochen
speziellen
rekord
tatsache
artillerie
1200
buchstaben
erfüllt
legt
1820
tür
künstlerischen
zeugen
eingestuft
##rten
verfasst
doktor
fünfte
cm³
behielt
jänner
portal
regulären
stieß
abgebaut
therapie
stars
ausschuss
frankreichs
übernahmen
eindruck
palast
geschätzt
tony
griechische
duo
vorschlag
samt
konzern
besonderheit
stellvertreter
heirat
erweiterte
zulassung
jugendlichen
wiesbaden
erneuert
motiv
extrem
sagen
volksrepublik
##iger
landgericht
ulm
verantwortung
befindlichen
##fabrik
stift
oliver
time
vermeiden
schlagzeuger
bewegen
long
erinnerung
enden
marc
zeitgleich
geteilt
portugiesischen
carlos
bestes
genug
wurzeln
partie
ep
ministerpräsident
lesen
hinweis
unweit
##netz
achten
realisiert
point
element
ausgerichtet
bevorzugt
##auer
straßburg
hart
centre
vereinen
regiments
generalmajor
russischer
junior
angebaut
ähnlichen
zustimmung
lizenz
wilhelms
sagt
verfolgung
##halle
langhaus
horn
160
eisen
fehlt
knoten
03
##ahn
steigt
kategorien
grundriss
merkmale
territorium
zentral
bezog
erzählung
romane
schlecht
deutsches
londoner
solle
verhältnisse
lewis
beschluss
ober
##ak
seinerzeit
information
cambridge
niederländische
erzielen
##jahr
##ty
helfen
inhaber
bekannter
kauf
westfälischen
vizepräsident
unterrichtet
begraben
##reis
chinesische
hütte
dick
pass
din
jackson
veranstaltet
eishockey
bündnis
römer
suchte
jung
bogen
elektrischen
takt
bisherige
##wert
unterbrochen
sees
intensiv
1831
ortsname
schweizerischen
beziehen
##anlagen
mario
komponierte
angepasst
angehörigen
##betrieb
komödie
1812
legende
eier
free
durchführung
##ule
##piel
platten
häufiger
corporation
tanz
anti
gefolgt
kandidat
vorbereitung
männliche
erlitt
##forschung
gefährdet
journalisten
müsse
ard
lieferte
materialien
il
sand
antrat
reform
selber
not
gesundheit
traditionelle
angelegenheiten
trio
blatt
fährt
erfahrung
weiten
weiblichen
block
unterschiede
times
bundesstaates
winkel
mich
teilnehmen
deswegen
verlegte
diskutiert
insekten
hagen
technologie
marathon
aufweisen
wilson
verwaltet
million
parlaments
eishockeyspieler
annahme
kurs
schicht
power
tschechischen
bergbau
gewidmet
regierungsbezirk
netzwerk
5000
freundschaft
besiegte
eingezogen
verblieb
patrick
##berger
drehte
vorstellungen
abbau
kulturellen
gehörenden
gebirge
geschäft
bistums
ansatz
schicksal
##ber
unterschiedlicher
##ose
nahrung
##zer
1808
##ac
##tum
1817
ersetzte
anordnung
bauer
##mt
gewissen
tu
restauriert
episoden
taylor
austausch
circa
##änge
schichten
peking
qualifizieren
gründe
stationiert
schiffen
identisch
gedanken
amtes
ausgesetzt
duisburg
verbliebenen
mitarbeitern
weimarer
##wesen
##isten
ref
##ica
drama
präfektur
wachsen
papier
älter
bezeichneten
##nes
1833
jahrhunderte
piloten
felsen
begleitete
akademischen
verständnis
gießen
festivals
sam
ausrichtung
bochum
günter
##punkt
erhebt
wesen
off
erfuhr
heide
gewisse
kulturelle
rumpf
redakteur
ausreichend
ostpreußen
1828
bischofs
beruht
areal
panzer
by
1825
zoll
dokumentiert
mandat
##bildung
versuchten
hochzeit
distanz
zählten
verfügbar
alleine
##leiter
##ks
restaurant
enkel
##ab
okres
medizinische
luther
express
leser
##ux
vergleichsweise
besuchen
entwarf
angrenzenden
verhindert
existierte
öl
à
lutherischen
bezeichnungen
##ide
douglas
sprung
dozent
sun
vorübergehend
unklar
church
erdgeschoss
willen
solo
entsprechen
davor
angehörige
##turm
reiter
liberalen
umfassende
typen
entstandene
sophie
zuschauern
wohnte
benjamin
indianer
programme
letztes
bessere
neckar
besiedlung
rückzug
gesellschaften
konservativen
landwirtschaftlichen
bibel
christliche
1807
östliche
ereignis
verwandt
finanzierung
soldat
##trieb
sank
hinweise
aussehen
##ent
ac
anteile
führende
gattungen
verteidiger
##bel
little
schild
eric
##nis
format
bus
río
höhen
bestimmung
with
südamerika
jährliche
act
##her
bedeutete
identität
nation
abgesehen
uraufführung
sorgen
hauptmann
heeres
olympische
todes
hc
1809
teilte
championship
stehende
nato
unentschieden
abgeordnete
eugen
140
schlesien
01
sofern
##ln
##rie
sonntag
nötig
belegen
vogel
dame
ad
erforschung
wetter
sozialistischen
kpd
chemische
vorsprung
nowiki
platte
niederösterreich
journal
great
berichten
erhöhte
zugehörigkeit
landwirtschaftliche
winterspielen
betreut
anwalt
empfing
day
pommern
schwach
glas
überreste
überraschend
##eil
religiöse
1826
einziges
quadratkilometer
dfb
ablauf
vorpommern
##holz
diskussion
gegenstand
vorläufer
besitzungen
qualifizierten
##verkehr
tennis
koblenz
auszeichnungen
herzogs
gäste
##weiler
summe
entdeckung
umgang
instrumente
finanziert
m³
##ý
siedler
hinweg
ausgerüstet
mitbegründer
##unde
1798
##usen
pc
##nder
unmittelbarer
befasst
kämpfe
claude
retten
erfahren
##ies
wären
old
triebwagen
rajon
durften
##ild
nebenfluss
endlich
monte
früchte
demokratie
##yn
florenz
sahen
jüngste
worten
vögel
kontext
verbundenen
islam
neapel
einkommen
eg
ärzte
erfasst
##lager
town
übernimmt
hielten
hang
erkennt
ostsee
leer
erklären
jim
bekanntheit
reihenfolge
zeigten
vereinten
nassau
kompositionen
südseite
stufe
1829
male
großvater
gefeiert
country
wolle
##eite
##thal
sandstein
weser
##markt
zeichnungen
vollständige
vorne
1822
eben
1824
1802
theologe
na
chance
ruine
glocke
gefangenen
voraus
gesetze
ice
geschehen
büchern
technisch
gallen
##ft
##ou
bauarbeiten
höhle
if
draft
weiterentwicklung
gesamtwertung
siebten
training
costa
beamten
vorerst
pflanze
museen
##kopf
gabriel
kap
brust
wovon
spanischer
osnabrück
herum
gefallen
feiern
schwanz
gesicht
stufen
##ierte
jenseits
verzichtete
saarbrücken
zusammensetzung
jury
erreichbar
bezirks
geschäfte
fälle
yorker
flugplatz
bruch
be
bände
verbände
##zone
landtagswahl
erfolgreichsten
singles
kohle
valley
beach
sozial
theologischen
erkannte
wahrheit
hände
hauptbahnhof
bin
bestimmen
reine
historic
mannes
spitzen
##urm
##tische
verkaufen
mitteleuropa
grau
##museum
roland
bundesregierung
##ul
gulden
zusätzlichen
##mittel
last
##buch
bahnhofs
vertretern
edition
soweit
fahrzeugen
wohnungen
rolf
kanzel
waffe
fördern
offiziere
aufhebung
gesellschaftlichen
versammlung
originaltitel
hospital
bekommt
einzugsgebiet
verbandes
täter
bestätigte
töten
aufenthalt
geschlossenen
kreise
atelier
kupfer
publizierte
gelegenheit
nachfolgenden
worauf
##ate
1819
sammelte
maße
vorderen
eintritt
platzierung
gräfin
##wand
zurückzuführen
bevölkerungsdichte
1811
berühmten
jugoslawien
dj
plötzlich
pfund
zentimetern
stammende
niedersächsischen
mg
strand
dunkel
digital
##ć
türkische
verlässt
##werke
manuel
seitens
##lehre
verluste
anwendungen
hoffnung
##gs
stab
erhaltung
geöffnet
andrew
##fe
verbessern
erziehung
metall
##eg
erfüllen
##stadt
bernard
vorsitz
aufklärung
integration
kreisstadt
kavallerie
napoleon
grundlagen
bernd
##ón
gas
autorin
bit
bundestag
forscher
gitarrist
verbreitete
unesco
unterwegs
wirklich
salzburger
lebensjahr
gewerbe
bäume
zwanzig
mischung
fiction
forschungen
saal
carlo
kleinstadt
model
##chaft
finnischen
erkrankung
denkmalgeschützten
dänische
opposition
ecke
lernen
freiwilligen
business
##är
flüsse
uefa
siege
##politik
schlagzeug
clubs
natürlich
schneller
stock
räumen
schauspiel
ic
helden
##gebäude
lautete
entstammte
##ht
regen
bat
plätzen
risiko
antreten
slowakei
positive
lorenz
fellow
##latz
bewohnt
##gg
erschossen
sammeln
michigan
verbesserte
zwecke
geistlichen
1805
1827
reichs
##druck
hell
glück
stillgelegt
generell
berichte
##tten
schriftstellerin
komponenten
verbinden
##cken
großem
bielefeld
ausscheiden
america
geregelt
zugeteilt
quer
##kreis
offensichtlich
hoffmann
bulgarien
##asse
komplex
holland
fleisch
siegfried
1801
tätigkeiten
schaden
erben
##rin
arbeiteten
rief
spät
##field
tot
lippe
nutzt
ph
ch
umfangreichen
besaßen
harvard
##häuser
normalen
geschah
planeten
dan
norm
##rum
hamilton
brian
gelangt
palais
##arbeit
ross
schlechten
denken
##ps
dichte
statistik
manchester
abgegeben
bestattet
hauptrollen
may
begriffe
dörfern
hinteren
endspiel
gemessen
gedicht
bildern
berufung
rande
statue
railway
##ii
fliegen
##geschichte
gesetzes
##erung
rückte
creek
lösen
normalerweise
half
spanisch
sohnes
02
sache
amtsgericht
debütalbum
##artigen
1793
landwirtschaftlich
bekannteste
gutes
äußerte
temperaturen
primär
residenz
index
##iel
beschäftigten
badminton
##ds
##zeichen
##sis
grube
sammlungen
mitteln
prozesse
kritisierte
johanna
125
literarischen
knochen
junger
hubraum
menschliche
problemen
städtische
##ea
law
##bewegung
##organisation
##rand
sterne
eingeladen
##theorie
##ino
analog
nordseite
##fest
gespräch
##ue
##ruppe
haupt
##lingen
lady
hochschullehrer
##old
##án
gen
dreharbeiten
entscheidungen
umfassen
übertragung
voraussetzung
turniers
gewinner
codice
##ins
##ant
##ausen
testament
seminar
beobachten
zeche
orange
1804
labor
erzählungen
kim
jr
danzig
fuchs
null
äußere
zufluss
herrn
automatisch
sports
hängen
premier
antrieb
keramik
keinem
##han
powiat
seitlich
vize
polnisch
##nte
space
gerne
mittelmeer
##tadt
unterhält
endrunde
kommune
namentlich
erschlossen
beförderung
##programm
kurfürsten
georges
jüdischer
württembergischen
mag
touristen
genre
out
münzen
alex
hals
schwerer
nacional
##leben
abkommen
##ellen
vereinzelt
mittelalterliche
beinahe
unabhängige
1823
vorfeld
##führer
dur
engen
game
tim
spenden
stammenden
kommandant
heilbronn
hotels
dna
oskar
ausgrabungen
völker
##lis
details
verletzung
garde
schwerin
lissabon
erwies
entlassung
beenden
##ho
erneuten
arbeitgeber
signal
vergleichbar
nürnberger
inklusive
kriegs
##insel
##liste
##est
ausgelegt
kriterien
landrat
wirtschaftlich
installiert
bamberg
##funktion
or
vornehmlich
unterlagen
aufnehmen
rainer
stattfinden
loch
stoff
nordischen
uss
entscheidend
nationalversammlung
verletzungen
##ichen
legen
banken
zweitligisten
fulda
chemischen
islamischen
pferd
unabhängigen
ix
##ian
minnesota
gerufen
könige
negativ
elizabeth
decken
steuern
turin
allmählich
spö
bestellt
schreibweise
aufführung
mode
##end
vorlage
verleger
death
lokal
bewegt
zugeschrieben
fund
regelung
alan
floh
forst
forderungen
lyon
begegnung
fred
bmw
##produktion
regime
racing
benannten
betont
mithilfe
erzbistum
königliche
schatten
1600
profi
adel
ersetzen
dinge
hits
fox
versorgt
maximale
barock
##ah
##möglichkeiten
1940er
home
gebietsreform
priesterweihe
nachweis
interpretation
##uss
elementen
osmanischen
archäologischen
andrea
überführt
vereinigt
königreichs
bbc
1700
marken
oberbürgermeister
gleis
##sh
lebensraum
fliehen
texten
kandidierte
jörg
bürgerkrieg
##ata
dauerhaft
voraussetzungen
erstligisten
wahr
zeichnet
guter
fotos
aktien
prince
pest
xi
vizemeister
hammer
welchen
##ere
grande
erneute
stiegen
motive
unbekannten
forum
justiz
gebildeten
handball
wachstum
erwachsenen
größter
box
##wechsel
konzentrierte
heim
ibn
drehbuchautor
staatsexamen
ausdehnung
weichen
kalten
##reihe
vordergrund
falsch
unterzeichnete
##ula
miller
aufeinander
mineral
verlaufen
kirchlichen
hot
##gel
gefangenschaft
clemens
musikern
gebietes
##park
besonderer
schwierig
antwort
hauptsitz
steiermark
hochschulen
stürmer
vertrieb
bewaffneten
##lli
obergeschoss
einnahmen
einheimischen
1794
mathematiker
dokumentation
meldete
haushalten
plante
katholisch
bier
landesregierung
sanierung
talent
naturschutz
schuld
disziplin
bedroht
tsv
com
modus
##ère
etappe
re
##kapelle
verteilung
##irche
night
court
alkohol
benedikt
thron
sklaven
stadtbezirk
freunden
##plan
##are
klang
vorrunde
hinsicht
krise
katholiken
##sheim
eigenschaft
##ierten
##chi
schlüssel
gewöhnlich
sturz
vorlesungen
reinhard
##tin
verkauften
ungarische
##ci
etablierte
harz
generationen
bezeichnen
begründung
övp
kommenden
bgb
au
public
wall
aluminium
verkehren
teilt
bühnen
erfolgreichste
spezialisiert
montreal
kraftwerk
##fer
go
senator
längeren
koalition
übergab
archäologische
ludwigs
episode
daß
luis
##ini
einzeln
aufweist
##ford
##zi
verteidigen
eingeteilt
athleten
becker
zeitgenössischen
demokratische
gehabt
umgekehrt
bruders
chemnitz
neuere
soziologie
skulpturen
umbenennung
conrad
ruhe
polnischer
##ette
niveau
atp
loire
gt
benachbarte
verursacht
plus
##äuser
zweig
kroatien
warum
gedacht
felder
beliebt
kulturdenkmale
anthony
aspekte
cover
konservatorium
angriffe
humboldt
einflüsse
studieren
##abteilung
luzern
olympia
blauen
##äume
glaubens
dokumente
thüringer
geehrt
##ite
fame
redaktion
##ez
##teil
##graben
landtags
1790
registriert
##cs
umständen
verliebt
buenos
sitzt
republikanischen
unterscheidung
paderborn
missouri
verließen
foundation
##ionen
mars
reiche
vorjahr
privat
romans
planungen
aires
erzeugen
##lauf
oslo
gemeint
getreide
voller
sauerstoff
##ise
bridge
neuzeit
angegriffen
verbrechen
alice
besseren
prinzen
titelverteidiger
##ms
roth
flachen
leichter
della
affäre
deutschsprachige
leichten
flach
stephen
periode
stanley
renoviert
untergrund
pilot
##ara
flüchtlinge
##ria
spur
philosophischen
ausgangspunkt
patent
achse
publiziert
halben
rené
cross
güterverkehr
howard
georgia
flecken
geheimen
opern
julia
750
messen
iso
veränderung
bataillon
##kow
seele
letztendlich
streng
wuppertal
tausend
asteroid
##träger
mac
komplette
gebunden
##nia
überall
##kraft
faktoren
europe
bedeutender
austria
erhebliche
mond
beck
kolonien
erkannt
township
chefredakteur
genehmigung
betreiber
verzichtet
##ätze
wechseln
ankunft
helsinki
tisch
bell
befreiung
viermal
transportiert
sicherung
##mo
haltepunkt
bürgerlichen
konflikten
nad
nationaler
exemplaren
nachfrage
konstanz
dortige
autonomen
##lan
kritisch
sommerspielen
comic
##daten
erdbeben
fähigkeit
beendigung
##cker
##sberg
web
mitunter
##nge
##tti
umsatz
lebensmittel
kurzfilm
ansässig
jüngerer
vergangenen
trasse
marco
mythologie
moment
##lagen
urkunden
leutnant
gestalten
admiral
vorhaben
1789
orientiert
1792
##ans
sterben
anstellung
vorname
standards
district
brüdern
mauern
board
achtelfinale
schließung
juristischen
litt
harald
zerstörte
end
wissenschaftlich
ungewöhnlich
umfassenden
450
lokomotive
vorhandene
reichstag
düsseldorfer
kv
##ji
zusammengeschlossen
dialekt
berief
etliche
oberste
fürstentum
colorado
th
from
##fläche
teilnahm
##urs
##ord
##oren
thailand
markiert
kennzeichen
aufzunehmen
synonym
ressourcen
germanistik
erwin
##ahl
pedro
absatz
vermehrt
krebs
kommunalwahl
gehäuse
csu
funk
abgehalten
befestigt
beweis
ü
forderung
syrien
kreuzer
galten
order
geliefert
gegenstände
orthodoxen
kirchspiel
entschloss
empfangen
kuba
stuttgarter
ontario
gegeneinander
pastor
##bank
niemals
westseite
marcus
ähnelt
innenraum
kampagne
zusatz
server
behörde
johnny
befindliche
##smus
welle
richtet
website
küche
laufenden
bauwerke
##leitung
südwest
überlieferung
abwehr
erstausstrahlung
kanadische
##ände
erhöhen
begründer
janeiro
geistlicher
##tis
mw
gleichnamige
irak
##ud
aufstellung
qualifiziert
tageszeitung
auseinander
communauté
zerstörer
einzig
erwartet
zürcher
wirklichkeit
est
verarbeitet
ma
urkundliche
außenminister
##dae
porträt
nachts
dance
jimmy
mainzer
bemühungen
##rich
generalleutnant
inhalte
vorgehen
##formen
entwicklungen
##res
finanziell
ukrainischen
bewegungen
niedrigen
stone
einzelner
umzug
gordon
kaserne
ten
gekauft
litauen
meine
tiefer
teilung
fertig
älterer
dialog
durchschnitt
##ura
serbien
aktionen
beauftragte
stämme
##don
##tsch
ortsteilen
ebenen
anlehnung
besetzte
böden
##bild
stipendium
abermals
geprägten
wittenberg
gärten
alternativ
airport
##ín
philippinen
individuen
werks
orientierte
##stand
udssr
abraham
adams
ansehen
gehandelt
genauer
##kirchen
beschreiben
dementsprechend
sportler
flora
##ven
vierter
personenverkehr
präsentierte
dekan
burgen
##zellen
pius
landesstraße
verlags
baumeister
##acht
##ano
untereinander
ermordung
detroit
ausdrücklich
nrw
eingenommen
liefert
irischen
busch
kapazität
hinterließ
medaillen
vfl
mercedes
jeweilige
glasgow
allianz
studioalbum
lp
keinerlei
nachricht
kulturen
mans
kleidung
##welt
nachlass
bestritten
ursprungs
satelliten
mont
dorthin
ozean
betreute
phasen
befreit
eigenständigen
erkenntnis
borussia
strafe
übertrug
queen
konzipiert
geraten
zerstörten
angekündigt
charlie
willi
betätigte
strategie
senior
experten
tafel
hop
##ron
petrus
bischöfe
kompanie
##rücke
wellen
moor
malte
verbessert
handels
continental
kette
genauso
projekten
dei
ausrüstung
preußischer
hanau
greifswald
glatt
paulo
lothringen
taucht
vertritt
fußballnationalmannschaft
##uf
fertigte
lexikon
stadtteile
propaganda
australian
briefe
##sk
jährlichen
erlaubnis
##rad
##ald
louise
maurice
institution
geschwister
theatre
nba
##ec
wahlbezirk
##aten
##ogen
##ver
benz
traum
kurfürst
##ire
wälder
zugrunde
stirbt
ausgesprochen
##wasser
wärme
##à
ltd
freiwillige
archäologie
willy
herrenhaus
dieselbe
entertainment
zustande
kreisen
kennt
anwesenheit
werbung
peru
hohem
dc
global
blütezeit
passagiere
kreuzung
zeichnen
prager
haushalts
eigenem
staffeln
ferrari
verpflichtete
christopher
reederei
bildenden
##hersteller
wählen
händen
geschieht
q
dirigent
##verwaltung
nova
1799
billy
literarische
philologie
diego
vfb
heiraten
atmosphäre
##rbeit
duke
festland
marketing
häufigsten
wettbewerbs
relief
rad
spannung
gleise
marmor
vorzeitig
angestellt
viii
##züge
départements
verteidigte
elektronische
schmalen
##nberg
##mar
gesperrt
##horn
place
verwundet
gestartet
##opf
matt
hip
größerer
gesammelt
päpstlichen
modern
zeitweilig
selbständige
polizisten
##nz
enger
annähernd
vincent
rumänischen
beheimatet
milch
sex
ostseite
abbildung
beine
achter
benötigte
philip
verglichen
diplomat
hd
vancouver
québec
italienisch
105
weinbau
##ong
##vo
tatort
vergrößert
restaurierung
ehepaar
oberösterreich
auflagen
förderte
florian
hingerichtet
1797
kindes
schwarzer
jane
gymnasiums
mitten
##erie
francesco
##latt
entfernten
nikolai
handlungen
women
foto
mississippi
ministerpräsidenten
bewohnern
##onen
campus
we
anführer
moore
gänzlich
##del
santiago
kunstgeschichte
mitgliedschaft
schaffung
han
##ī
##wood
these
märchen
riga
moschee
abenteuer
schwert
wiedervereinigung
volkes
sarah
fk
##hofen
überzeugen
wendet
##ank
siemens
municipio
schnabel
generalsekretär
zehnten
abteilungen
schöne
händler
protest
anzutreffen
nachbarorte
##unkt
wettkampf
manga
epoche
##modell
eingeschränkt
nominierung
ländlichen
bestimmungen
clark
anstatt
eigens
adresse
##ums
##bus
##quelle
lebende
##spiel
alters
zentrums
wohnsitz
ff
werkes
uk
hund
##maßnahmen
internationales
##mmer
afrikanischen
hochwasser
vorfahren
hubert
##viertel
produzierten
peters
memorial
luise
##ów
verkehrt
mountains
op
special
kansas
größen
##ufen
wahren
bewertet
forest
latein
##wski
wohn
militärdienst
can
buches
helm
gregor
stetig
mayer
tote
gelungen
sächsische
schoss
##hr
disziplinen
feier
spendete
non
länderspiel
##bo
erkenntnisse
mexikanischen
darsteller
##fahrt
nutzer
theaters
erteilt
walther
##gang
physiker
gegenzug
##winkel
##kammer
fische
erhöhung
ausgehend
##chef
chemiker
##alen
pacific
école
historischer
langjährigen
hildesheim
offs
kai
deutliche
gewählten
stettin
halb
landete
1795
jordan
erlernte
##leistung
vermittlung
lkw
melbourne
kapital
unterstand
##ble
ausgeliefert
anstieg
verliert
nick
1300
roy
gerichtsbezirk
abriss
vermittelt
hahn
abhängigkeit
##š
autos
leichte
stadium
pflicht
speyer
friedrichs
pflanzenart
porto
anfänglich
rechtswissenschaft
notwendigen
inc
angetrieben
vorn
erwähnte
ansässigen
schulden
uraufgeführt
camp
##iden
lösungen
hunde
gotha
bundesstaaten
##ase
geschaffenen
absicht
sockel
dauert
##ée
##unden
wladimir
behauptet
ansiedlung
doppelt
berger
kanadischer
gelben
reinen
motors
moskauer
zylinder
untersuchte
170
industriellen
playoffs
lothar
edinburgh
frisch
heller
hms
aufsteiger
##ola
##od
monarchie
mehrheitlich
innehatte
##erk
##trag
kärnten
baudenkmäler
##owski
siegel
eingesetzten
##erte
adelsgeschlecht
##gt
fächer
dokumentarfilm
belgrad
turnieren
brasilianischen
##ucht
##rate
##unterricht
##garten
bauch
unterseite
##kt
wichtiges
##eis
khan
unverändert
##bare
##ebene
rates
freizeit
ergaben
singen
reifen
massiv
erfolgreicher
verabschiedet
auguste
eventuell
berechnung
nordost
back
##ore
identifiziert
liedern
bischofsweihe
##direktor
letzterer
##cha
lande
kehrt
ethnischen
punk
##bteilung
zuständigen
##aft
öffnen
magazine
##gas
stadtmauer
beginnend
einfacher
programms
##prozess
##stedt
arme
haag
##artig
abseits
absolute
absolviert
kontinuierlich
fell
biologie
sm
hard
baby
westlicher
##rte
südkorea
rückseite
ms
##nk
##kosten
volle
hk
richtig
roma
raketen
marsch
##hütte
kiew
microsoft
meeresspiegel
maine
faktor
rtl
orf
lüneburg
laden
##vertrag
paulus
breisgau
vorstandsmitglied
##ode
niemand
##film
technology
porsche
nordsee
##well
weiss
negative
silbernen
bewertung
marcel
höhlen
##up
fuhren
weihbischof
öffnung
##per
schlägt
dahinter
mönchengladbach
feldzug
kenntnis
cheftrainer
sternbild
bett
bäumen
liefern
lausanne
verschoben
opera
trainierte
1796
schwedischer
sizilien
australische
sr
übersetzer
sage
indiana
akten
gefecht
inschriften
erwachsene
höchstgeschwindigkeit
##beck
##gan
mönche
##gut
zugewiesen
wirtschafts
news
warf
christine
##rf
##tät
schwaben
wonach
schnellen
erwerben
kunststoff
verbündeten
roter
miss
götter
heinrichs
##oy
voran
reden
standorten
schmuck
spielbetrieb
vorherigen
neunten
künstlers
konstantinopel
wisconsin
saniert
angewendet
normal
bayer
sendungen
klage
gestapo
projekts
##ndorf
derer
##sammlung
##auf
ständigen
ruth
kilogramm
grafik
schienen
abgebildet
prototyp
israelischen
sp
##ücke
tennessee
meilen
dave
minderheit
gebaute
tests
mühlen
äußersten
##räume
##geschäft
melodie
interessiert
4000
römischer
bauzeit
antarctic
volumen
jahrhunderten
chief
systemen
geschlechts
##ye
bakterien
##ska
##änder
europäischer
auswärtigen
erlaubte
künstlerin
kulturdenkmäler
##kommission
uwe
##nummer
abbruch
vorteile
sakristei
interpretiert
niederländischer
zeitgenössische
gebauten
aktiengesellschaft
220
##ani
##aal
stadtzentrum
politikerin
mangel
perspektive
insolvenz
ära
##länge
gründungsmitglied
normandie
verfilmung
länderspiele
staatsanwaltschaft
fremden
bsg
staats
erwerb
wider
fernseh
absolvieren
lateinische
unserer
aufzeichnungen
videos
regelmäßige
bekamen
japanischer
gebiets
##ure
##nten
höfe
gegenwärtig
bedeutendste
##tar
dos
bürgerschaft
##č
europameister
ed
heutzutage
organ
##artige
aufgelistet
partnerschaft
giuseppe
##baren
schnelle
abgesetzt
folgejahr
verfolgte
fränkischen
##we
dienstleistungen
behaart
barocke
1791
speicher
kenntnisse
konzerten
##ges
unmöglich
verfahrens
regelungen
##pen
auftrat
lübecker
denkmalliste
gegangen
blaue
##namen
motorrad
export
meint
farm
inter
aufschwung
mobile
##ó
fisch
freiwillig
breiter
schuss
ablehnung
flur
titeln
1750
liverpool
##las
reichweite
sky
gliedert
1784
niederlagen
inhaftiert
performance
##spor
motto
moll
reformen
communes
rugby
karosserie
who
geklärt
action
ermittlungen
range
kindergarten
naturpark
trieb
erheblichen
berechnet
##ont
sultan
worte
merkmal
philippe
1780
pionier
bruce
airlines
senioren
down
erhalt
sternen
café
metz
vertretung
philosophen
##rei
passiert
syndrom
nachbarschaft
standorte
ausländischen
theorien
etabliert
edmund
konzentration
schnee
donald
zweifel
invasion
hohes
organisierten
techniken
roll
verweist
starker
benutzte
##itsch
wahrgenommen
car
1400
ausnahmen
poem
tropischen
norbert
gr
steinen
schickte
rue
puerto
zurückkehrte
vorschriften
##kette
connecticut
sechste
kriege
delegation
fotografie
amateur
sierra
ausländische
bürgern
##ysteme
viktor
##klasse
##tus
salz
mrd
teich
austragung
basilika
schönen
##rer
fortgesetzt
moderner
hinblick
##jan
axel
kongo
jh
geschlossene
frequenz
angewiesen
türen
aufnahm
schen
that
vorgeschlagen
nummern
##führung
##teile
##hagen
treu
ursachen
wachsenden
bebauung
##nau
steil
diejenigen
besonderes
area
nachwuchs
##ão
wohnhäuser
türken
ems
häftlinge
gene
praktische
división
bekämpfung
light
ägyptischen
##utz
elektronischen
kessel
101
geistliche
etablieren
copa
agnes
profil
wohnen
##felder
übliche
anderson
formal
schiedsrichter
erhob
conference
böhmischen
##wirtschaft
holding
damm
pianist
dominiert
hauptquartier
apostolischen
##uk
charakteristisch
zwang
hamm
##llo
stammspieler
fordert
##fa
inszenierung
verbund
plateau
binnen
normale
##lein
atlantik
arizona
gemeldet
steuer
iwan
scharf
durchquert
##ı
berühmte
bemerkenswert
##ings
olympiasieger
gewerkschaft
tower
nicolas
##theater
heran
##kin
schiffes
nachweisen
legislaturperiode
franklin
kleinste
kuppel
phänomen
operationen
##satz
populär
haute
##idae
eintracht
glaubt
ruinen
ändern
erbte
zurückkehren
russen
renovierung
haushalt
##ast
eingewechselt
captain
juristische
ko
wäldern
vielfalt
gefallenen
##olitik
regelmäßigen
ansichten
produzieren
spannungen
pfälzischen
mail
abfahrt
wahrscheinlichkeit
fokus
comics
modellen
##ois
steuerung
bukarest
nachweisbar
nachkriegszeit
##ille
gottesdienst
teilnehmern
einladung
kunstakademie
hauptstraße
##wo
weiden
universal
unser
aufbewahrt
befreien
norwegische
##ceae
philosoph
3d
cruz
entwässert
dublin
dicke
popularität
jähriger
##bund
porträts
söhnen
staatlich
salon
angabe
benutzer
##kel
magnus
entscheidenden
chronik
berühmt
abschnitte
zeichner
beton
abgrenzung
gattin
mountain
zelle
gestiftet
wähler
nest
edgar
##ßen
trennte
kulturgüter
grob
verbreiteten
margaret
laubblätter
gruben
begegnungen
ä
zugesprochen
neueren
fernsehserien
1785
überlassen
erfinder
digitale
ski
##flächen
kevin
handwerker
##olz
realität
##ive
stoffe
unterarten
schön
grundstein
pause
departamento
##grad
heck
beschäftigung
notwendige
synthese
gesellschaftliche
##era
staatsbürgerschaft
press
reformierten
seltene
technischer
bundesautobahn
bomben
trainiert
notwendigkeit
##bene
zell
wahrnehmung
kriegsgefangenschaft
li
##ofen
coburg
pokalsieger
elite
kirchliche
##wahl
worms
schwarzwald
##tätigkeit
claus
krankheiten
fein
ausgelöst
betrachten
##ris
##eben
##ück
##material
##üge
afghanistan
meinte
inspiriert
käfer
eingemeindung
gräber
leder
betragen
##ät
kandidatur
wüste
lloyd
entscheidende
färbung
truppe
konkurrenten
gerd
posen
history
lincoln
verfasser
wiederherstellung
zumal
kritiken
gerichts
##phase
nn
##etz
rasse
1787
##ühle
vormals
gerichtsbarkeit
##gabe
##kommen
kritische
##ès
nordwest
spitz
kalender
##lasse
solange
##gi
informatik
wandel
uhrzeigersinn
dynamo
inmitten
ann
##itel
verwandte
budget
stewart
kommend
eichen
veränderte
gehörende
eiförmig
ec
granit
atlanta
gastgeber
##bi
inn
wolff
bittet
mittelfeld
apsis
shanghai
palästina
belegten
ahl
rechtlichen
##haft
##baum
überlegungen
##yer
##eister
kugel
erobert
abstimmung
überzeugt
gerettet
360
ansprüche
##rechte
##sser
konstantin
zähne
stausee
nordöstlichen
countys
konzentriert
##lag
ähnliches
##oden
dunklen
lok
gebraucht
virus
level
krakau
social
nachbarn
gesendet
vollkommen
arabische
starten
larven
##ala
bahnen
var
stürzte
broadway
konflikte
nutzten
bundesland
erweiterten
skulptur
miami
your
##jew
erik
gültigen
positiven
christentum
aufs
boy
drogen
blumen
pedal
clara
akt
##els
zurückgezogen
anbieter
übersicht
##maschinen
taten
##titel
veröffentlichen
störungen
befahren
##ade
soul
ziemlich
##äure
elektronen
##sion
unsere
##rennen
schriftlich
verstand
##iv
ursula
maximilians
boris
probe
nouvelle
##ufer
##ua
schien
morgan
##teilung
fis
##tta
faust
southern
railroad
hut
##zahlen
##erin
uruguay
schädel
pr
spanier
solches
wertung
sitzung
komitee
altenburg
getriebe
nelson
festgenommen
##tan
erschienene
rückspiel
parlamentswahlen
stadtverwaltung
küsten
##nnen
story
brot
pfeiler
linden
rohr
fels
zueinander
prägte
schulzeit
wann
südwestlichen
berner
##ologie
sparkasse
sobald
feind
veranlasste
ländereien
zügen
siedelte
beobachtung
##ark
##uß
wände
stade
australia
nah
arbeitsgemeinschaft
schwerpunkte
bassist
mund
##isierung
listen
ev
mönch
verstärkte
logo
hartmann
betreuung
##lia
##ile
verkörperte
sainte
reis
greift
decke
wettbewerbe
namensgeber
urban
zufällig
##gau
schiller
giebel
umgestaltet
landesliga
hongkong
apple
german
104
rheinischen
##mannschaft
##pel
innern
##grund
einweihung
taiwan
reichsbahn
monats
beute
##linien
vertrauen
südöstlichen
bayreuth
nördlicher
eröffneten
##biet
##ari
mini
##rm
##och
verlangt
head
schmid
offensive
metro
verlegung
bearbeitung
mine
finger
##pf
château
sportlichen
matrix
örtliche
gelehrten
genehmigt
verschwunden
niedriger
erstbeschreibung
1786
boten
angreifer
erkrankungen
102
verdacht
protein
##kreuz
office
##barkeit
luftlinie
med
laura
##dorfer
rosen
gelbe
verpflichtung
slalom
onlyinclude
schuppen
italiens
gera
bande
informiert
##echnik
zunehmenden
verziert
kaiserreich
bologna
insofern
elsass
stücken
meeres
moderator
final
vollendet
flensburg
lukas
gesungen
bismarck
datenbank
hob
weißer
renault
##förmig
volkspartei
bemühte
tiroler
normen
1788
##cus
auschwitz
platzierungen
begangen
schlagen
effekte
ausgang
soundtrack
höchst
##aut
graham
aufgebot
klöster
iowa
bauweise
vietnam
kommende
estland
quasi
gotteshaus
gefordert
kaiserin
##jo
tempo
##fahren
caspar
angeführt
##so
demselben
##dy
lateinisch
julian
103
vorbereitet
##eich
##team
spektrum
darstellte
ausgleich
sommerspiele
gewölbe
derartige
astronomen
nordwestlichen
linker
vergeblich
ordentlicher
hallen
##shi
harris
meißen
##musik
zoo
reaktionen
oberstleutnant
erstellte
achsen
##ereich
zugehörigen
##eiten
gedruckt
berücksichtigung
aussterben
##öl
##nus
schenkte
vertrags
maschinenbau
lisa
zusammenbruch
substanz
sea
audio
##maschine
zucker
beat
brett
russlands
protagonisten
torhüter
regierungszeit
rittergut
kritischen
department
volleyball
robin
johan
##iten
canada
indische
##sel
ruder
##hu
sofia
ernährung
erhöhten
kentucky
lawrence
landstraße
richtungen
stuhl
wilden
kairo
##ain
##platten
prinzipien
dorfkirche
echten
emma
aktivität
zunehmende
##unst
büros
bestände
wörter
orts
holocaust
gesetzlichen
zitiert
schach
pakistan
##gewächse
##reise
kabel
interessierte
antoine
sprachraum
denis
nfl
marseille
orleans
gern
klubs
instanz
verhältnissen
landschaften
erwähnten
fa
betreten
trocken
halbe
kent
##ormen
##cy
erzähler
cottbus
ecken
240
unruhen
prediger
java
sri
sorgt
bodensee
challenger
franco
##region
blei
nachträglich
aufzubauen
inszenierte
oh
selbständig
1783
extra
##hilfe
lucas
verschwinden
gotischen
kaufmanns
endgültige
antonius
automobil
##tik
startet
abgeschafft
2020
iucn
##ous
verlaufenden
masters
fischerei
ho
##logie
variiert
genres
badischen
##ses
kalkstein
##ras
commonwealth
verlieren
allee
alpes
student
ereignissen
disney
gramm
ehrenmitglied
rotterdam
places
fußballverein
neumann
entkommen
amtierte
##eln
fern
##ić
bug
vorträge
umwandlung
beobachtungen
sd
leonhard
habilitation
neffe
gewinnt
aufsehen
##ene
##raft
hinzugefügt
übrig
bosnien
lehren
folgejahren
##bert
bilanz
basierend
##zene
kirchturm
immobilien
geistes
auffällig
verwaltungsgemeinschaft
zeitlich
second
beeinflussen
four
caroline
massiven
einbezogen
1770
herangezogen
kanonen
job
ähnlichkeit
saar
men
guy
marokko
bürgermeisters
persönlichkeit
leiche
##ender
landeshauptstadt
gitarristen
kronen
besiegt
realschule
vorrangig
minden
avancierte
bois
##og
hirsch
erfindung
unterfamilie
überquert
umland
##stellen
benutzen
##ku
hochaltar
##és
mechanische
##aren
flugzeugen
##inen
magdalena
bergwerk
behauptete
abu
mörder
kämpfer
grunde
emeritierung
kaiserslautern
begab
versteckt
wdr
türkischer
fantasy
einnahme
diensten
türme
aufsicht
studiert
beachtung
ihrerseits
eroberte
beobachter
tschechische
antwerpen
mediziner
##liga
##chs
gelöst
mitkonsekratoren
schriftliche
##elt
halbes
stärksten
base
einsetzen
tel
ansbach
portugiesische
erzielten
basierte
haltestelle
senats
professoren
jens
grant
bestimmter
ei
weiters
trennt
pan
norddeutschen
rhône
kommunalen
hills
andy
##dale
##gemeinde
vermitteln
oberlauf
##anstalt
aufgeben
fresken
µm
springen
paare
braut
angewandte
kolumbien
berges
arbeitnehmer
##ack
bewusstsein
schlag
##zo
katalog
blättern
staatssekretär
kommunisten
##pitze
estnischen
derart
##shausen
##tand
mi
echte
debatte
naturwissenschaften
entfernte
springer
feder
os
jon
##säure
romanischen
##schutz
abgetragen
schönheit
busse
##fall
vollständigen
russell
genutzten
resultat
human
kantone
übersetzungen
hütten
bedingung
uci
kurzfristig
##handel
haar
großstadt
dich
##ührer
he
style
endgültigen
##gh
115
bauart
verkehrs
##att
auftritten
liechtenstein
good
stattfindet
stellvertretenden
##acher
kanzlei
##mm
rechter
demokraten
genügend
repertoire
traditionen
passau
##ktion
gelangten
griechen
diplomatischen
veb
sorten
over
bindung
südlicher
klassischer
maryland
stimmte
##ett
##club
herausragende
plant
mittelalters
komplexe
##endorf
lebensweise
kostete
havel
turniere
##kunst
grundlegende
europapokal
wiederwahl
hawaii
angestellten
rechnung
direkter
##enberg
südtirol
hölzerne
blüte
anbindung
##zeiten
musikvideo
zuständige
benennung
fernsehsender
diskussionen
wu
tiger
1775
indonesien
##nik
rechtliche
pilz
fassaden
rebellen
kranken
wohnt
##werte
wofür
tus
besuchern
vorkommt
comedy
homo
##sellschaft
verarbeitung
jüngsten
aufwand
verstorben
turner
verheiratete
überblick
##örper
begleitung
durchschnittseinkommen
durchgesetzt
fifa
vernichtet
kaiserliche
bedrohung
ordnete
kreuzes
altes
xii
krieger
einstigen
##kultur
planck
vorgeworfen
bush
1772
deutet
development
piano
charaktere
##ios
##sbach
hauptrunde
ville
adels
überlebenden
digitalen
stadtteils
erstellung
fertigung
kennedy
schmale
pkw
houston
schlechter
gesellschafter
durchgehend
grossen
stiel
avenue
anstalt
aufführungen
frucht
fahrrad
oberflächen
malers
inhaltlich
polens
barocken
##ane
produkten
vorwärts
pädagogischen
logik
##ieg
militärs
lieben
kings
kelly
zyklus
monument
durchzuführen
korea
teilnahmen
##lus
nm
schmal
messung
pädagogik
bundesländern
seltenen
britisch
beruflichen
lutherische
leib
##chor
herrscht
mantel
immerhin
##esen
are
handwerk
aufträge
rache
double
##ruppen
mosel
dunkle
stapel
demo
montiert
230
limburg
##nlage
romanische
gerichtet
eisenbahnstrecke
apostel
leon
laien
streitigkeiten
si
erlassen
jonathan
##prüfung
finanz
evangelischer
nationalspieler
gewährt
deuten
teilchen
überwachung
verträge
dark
automobilen
ortsnamen
ralph
book
vorgang
geführten
brannte
##way
wahlgang
##ira
warten
wörtlich
kastell
komplexen
##ngs
westküste
stralsund
singapur
rassen
halt
gewässern
##gemeinschaft
landung
genua
letzteres
##hörde
dokument
##lehrer
zeichnung
magister
orientierung
statuen
zypern
gerechnet
wood
wettbewerben
pfarrhaus
##anz
##worth
erwiesen
engagements
ragt
108
beweisen
besuchten
ian
öffentlicher
metropolitan
schulz
ken
dazwischen
independent
engineering
lebzeiten
ausstrahlung
match
volker
klosterkirche
abgekürzt
ohren
bulgarischen
zeilen
dorothea
studies
rückstand
lehrerin
ausschied
stimmung
scheinen
scheinbar
jesuiten
anerkannte
ip
proben
gesagt
mozart
überleben
kirchengebäude
folk
1776
frederick
abends
##größe
flache
ausländer
sara
vorort
held
##eu
fremde
fernsehfilm
fr
1782
weitergeführt
vermuten
musikalisch
linux
slowakischen
hitlers
erstellen
reiner
vorliegen
herstellers
wiederaufstieg
fu
ernähren
wechselten
eisernen
begriffs
gesucht
spezialisierte
unterhalten
challenge
##tung
gebe
##tel
canadian
##ete
verschieden
angel
raupen
lyrik
##ok
##halten
möbel
klassenerhalt
einsetzte
##hal
boys
raymond
wohnten
##ero
geographische
entwürfe
##echt
verletzte
heutiger
diesel
nebel
gitarren
abwesenheit
restaurants
protestantischen
interviews
steinbruch
louisiana
publikation
abzug
##nbach
gestrichen
agent
menschheit
medium
##bruch
boeing
hauptwerk
contest
pensionierung
gerichtshof
koordinaten
schröder
ausschusses
raf
spree
messer
fehlenden
anklage
bundestagswahl
geschaffene
nannten
ausgespielt
fire
luftfahrt
markgrafen
ar
stiftete
fachhochschule
unterzeichnet
repräsentiert
turn
theologische
oberseite
angefertigt
anschließende
verbracht
erwarten
kurve
ernest
##anten
pazifik
börse
regierte
alb
talsperre
selbständigen
niedrig
nationalrat
##paar
beratung
gewährleisten
augsburger
1777
flog
entwickler
engländer
heimlich
verwaltungs
biathlon
heimspiele
weltrangliste
schwäbischen
marien
angebote
gran
##ilm
madonna
##bäude
reparatur
gelblich
industrialisierung
nebeneinander
finanzen
schatz
erneuerung
austin
zentren
lig
wiedergewählt
billboard
baus
adolph
fernando
se
einbau
verbundene
schäfer
##vi
harten
gehirn
alabama
alaska
##rau
rechtsprechung
aussicht
cv
österreichisch
##min
vogt
katzen
##sky
gestanden
eisenach
christ
##welle
teilgenommen
maßnahme
sportverein
malta
regisseurs
umstand
##ehen
erweitern
treppe
instrumenten
grundlegend
##uppe
regierungen
unterart
oregon
industrielle
##nahme
byzantinischen
gary
##krieg
erkrankte
erbauten
cooper
balken
kurse
##alter
siedelten
mächtigen
marktplatz
gewebe
scheiterten
northern
kombiniert
##zeichnung
bundesministerium
bein
##kampf
menschenrechte
kürzer
minderheiten
körpers
wahlperiode
individuelle
fan
abschied
tochtergesellschaft
rauch
franchise
erinnerungen
network
walker
##owa
evans
einteilung
##ausbildung
##chten
kaufen
vereint
sinfonie
gottlieb
gezielt
riesenslalom
friedens
bremerhaven
lieber
##ran
wurzel
zagreb
slowenien
mk
unbedingt
pfarre
##pp
jenen
net
beibehalten
rapper
fusionierte
italiener
gefasst
fehlende
##ensis
scheitern
herzustellen
##blatt
niedergang
bordeaux
drittes
alpha
konfession
vereinbarung
drohte
##systeme
aspekt
rückgang
mangels
angelegten
satteldach
##iche
α
offenbach
##sson
650
räumlichkeiten
lahn
boxer
1760
aufrecht
widmet
praktischen
##ères
gewerkschaften
dekanat
hubschrauber
gedächtnis
wilde
germania
emanuel
##typ
dallas
##richt
umbauten
sogn
##net
geologie
erringen
protokoll
elster
ehemaliges
oswald
belgische
obst
geeigneten
entscheidet
##kan
längste
wintersemester
serbischen
106
neffen
stuart
hervorgegangen
geographischen
elektronik
zweitgrößte
langjährige
year
aufsatz
##richtung
statthalter
joan
thompson
acker
1100
##muster
offener
eingeleitet
übersiedelte
agenten
beschäftigen
verehrt
unterbrechung
ehre
carter
sammler
135
##rath
jugendlicher
kirchenschiff
gehalt
einander
behaupten
##orum
übergabe
bricht
##iff
##ella
vieh
parameter
##zt
befehlshaber
##town
thematisiert
millimetern
geschoss
schlechte
baudenkmal
##ult
wiederhergestellt
1778
fünfter
eddie
##usch
zurückgekehrt
kahl
##ße
stollen
weitestgehend
helene
pietro
angewandt
agentur
a1
bemerkt
komponiert
delta
##chnik
betonte
berkeley
##ú
kreisstraße
coast
sportliche
vorgaben
amts
cousin
theoretische
##orschung
jedenfalls
##nischen
empire
fonds
bänden
betrifft
ringer
quartier
stellvertretende
schlachten
vergabe
##lose
sat
alois
systematische
initiierte
erdöl
campbell
anpassung
aue
jemand
low
gilbert
##plätze
miguel
##ros
emigrierte
kommunen
weitaus
brooklyn
befreundet
forstwirtschaft
vol
steigen
labour
behalten
verdient
stärken
journalistin
zweigt
thriller
zuordnung
filiale
anzunehmen
islands
anwesend
sowjetischer
bull
herausgabe
##useum
festgehalten
weltweiten
schafft
verwechseln
konservative
mixed
minen
anliegen
senkrecht
lech
##oli
##läche
1763
militärisch
gotische
ermitteln
##iedlung
rhythmus
gesundheitlichen
ausgeliehen
##alle
folgend
##lau
motorsport
##typen
verzichten
konkurs
##telle
##prache
benötigten
ansätze
neuordnung
stattfindenden
richtlinie
abfluss
##fs
ähnlicher
ortskern
##kanal
herrschte
kalk
parker
ensembles
##platte
ur
reformierte
##verbindungen
##losen
sant
herzen
dichtung
gouverneurs
zonen
gefangene
##meinschaft
##amen
währenddessen
verhältnismäßig
semester
##ö
aufgegriffen
zimmermann
gewertet
wasserstoff
saarland
kult
pauli
##ess
nationalparks
bomber
##ammlung
untergang
geometrie
saudi
zivilen
muslime
verändern
ba
pol
ryan
belastung
administration
1740
mare
dessau
empore
salvador
ausgegangen
##dauer
schriftstellers
renommierten
quartett
2000er
schräg
1774
mtv
jünger
ernte
gottesdienste
##ick
dünn
bonner
ida
münchener
##arte
österreicher
ortsgemeinde
lichtenberg
##zel
wahre
trennen
services
wochenende
betraut
abc
untersuchen
gemüse
angegliedert
##ller
bitte
freitag
leichen
classic
##chiff
wunder
nacheinander
##bad
erwartungen
angebunden
##ammer
kosovo
##ora
genutzte
lernt
rallye
juristen
vollzogen
reife
vergessen
erheben
spitznamen
##cia
überarbeitet
exakt
cleveland
vorarlberg
werten
venezuela
verbands
verfolgen
anhängern
forderten
brothers
generals
verschwand
##ía
übersetzte
##isen
zentraler
ändert
tausch
sätzen
einheitliche
nordafrika
bart
jeff
##etten
universitäts
ingolstadt
ethik
##ats
vegetation
event
engeren
beschriebenen
frühling
berlins
amtsbezirk
klassiker
zahlung
u20
laufzeit
empfänger
santo
inbetriebnahme
ausgegeben
kameramann
##ppe
trockenen
parallelen
kapellen
xvi
##äge
durchführen
manhattan
professorin
häfen
atlas
umstände
fungiert
##einheit
verknüpft
folgendermaßen
##nce
freigegeben
charlottenburg
##ffen
statistischen
kostenlos
fürth
misst
republikaner
111
##reiche
munition
erteilte
berufliche
elektrisch
dir
verwandtschaft
entfernen
dreizehn
reinhold
beta
hauptdarsteller
gemahlin
bevölkerungszahl
noten
geheiratet
##quellen
fotograf
duell
##uhr
moderierte
kommissar
verlangte
morris
1773
robinson
unmittelbaren
flüssen
akademische
intensive
hardware
beachten
##rogramm
##aden
schmiede
##ystems
baker
##uck
sportarten
liberal
göttin
organe
fahrten
alltag
sf
geschmack
##ute
verfügten
schwimmen
folter
kaffee
armut
treue
##stellung
reagiert
leinwand
commission
widmen
bibliotheken
vers
territorien
radar
wechselnden
vs
##macher
##ix
warner
fördert
konkrete
##reichen
klagenfurt
##ried
this
silver
hilft
reguläre
matthäus
martha
indian
##orte
community
weltrekord
##dach
homburg
konzentrationslager
angeklagt
friedhofs
warschauer
bezirke
zar
alternativen
eingebunden
hörte
entstammt
##fähigkeit
##osen
##how
vision
konstruiert
1781
sozialer
gesamtfläche
verantwortlichen
maus
individuellen
dead
wassers
theo
feststellen
werkzeug
wayne
valle
unterstützten
jason
anerkannten
deportiert
##hs
##loch
##ama
zivile
stadtbahn
sauer
legten
murray
kanzler
denkmalpflege
##ā
ältester
##ator
preisträger
sekunde
run
denselben
survey
späterer
richtlinien
verwachsen
exemplar
marshall
vorlagen
taunus
unterhielt
schlesischen
organist
filter
joint
theologen
##chte
montana
plastik
rechtlich
luigi
pole
logistik
jonas
sonstigen
tr
schiffs
detail
gleichung
negativen
nancy
marianne
vordere
burgund
verlaufende
cds
##geräte
##verhalten
##qualität
spalte
##chutz
wenzel
gedeckt
folglich
tommy
säule
wrestling
abschaffung
längst
google
einwanderer
##kes
argentinischen
po
nations
hp
weswegen
still
vollen
ethnien
ordentlichen
aufteilung
lieutenant
utrecht
##ru
##licher
schrittweise
lords
gegenseitig
##ruch
wöchentlich
natural
bobby
blasonierung
##station
laser
fehlte
seoul
dutzend
klassifiziert
heilig
jochen
früherer
gedenken
##ele
verkündete
tante
alfons
akzeptiert
gutachten
großherzogtum
mathematischen
schweizerische
fuße
guido
bemüht
1730
folgendes
abgetrennt
birmingham
gelassen
2500
studierenden
ketten
hansestadt
engels
phoenix
ron
girl
dreier
liedes
kiefer
intelligenz
verbringen
##rolle
sozialdemokratischen
konvention
durchgeführten
silberne
kaliningrad
verwickelt
expansion
##manns
jubiläum
sven
rs
gütern
rinder
seinerseits
innenminister
deck
vw
gg
ballett
bären
gewählte
geeignete
angela
##olo
##lu
oberbefehlshaber
gerechtigkeit
##ors
echo
##nga
alberto
vorwürfe
besatzungszone
##ona
##hus
1779
##version
stammes
datei
herzogtums
##eid
schumacher
gau
##ena
aachener
leiten
vertreibung
venus
tobias
kommunistische
cricket
gesamtlänge
ig
heft
beschränkte
ostküste
zwickau
augusta
550
bildende
geraden
bolivien
autors
##ars
##itt
italia
bowl
wahlbeteiligung
verlängerte
chinas
kontrolliert
einzusetzen
##ting
sb
catherine
tut
orientierten
niederlassung
drehen
jungfrau
##fenster
werkstätten
track
total
pour
field
erstreckte
schwager
projektes
xiv
kommerziellen
stifter
machtergreifung
liberale
ivan
bahnhöfe
pays
glockenturm
210
zerstören
holen
##hoff
1648
handschriften
beamte
nazi
zensus
betrugen
malaysia
experiment
östlicher
konsul
##uren
##verbandes
verringert
orient
symptome
gruppenphase
gemeindeverband
seattle
schlicht
##tter
teufel
##eten
sony
sonstige
situationen
norman
bezeugt
jenem
tabellen
explizit
##use
bewarb
gefühl
versenkt
gedenkstätte
vereinbart
konstant
amphoe
sche
portland
##landschaft
meisterin
haare
massaker
existierten
##ührung
gegebenenfalls
##ė
gegenüberliegenden
kapitulation
gliederung
lud
unbekannte
heftigen
mitwirkung
kinderlos
gemeinsames
dato
telefon
betten
sektor
gewährleistet
lars
vereinsgeschichte
most
großmutter
abgaben
youtube
liefen
gedenktafel
names
süddeutschen
selbstmord
freistil
turms
mohammed
id
experimente
bristol
unterhaltung
##lied
stützpunkt
rosenberg
##als
platin
löwe
arte
two
claudia
typischerweise
sud
garden
kroatischen
##ahrt
gras
rb
holt
widerstands
rangers
audi
sozialistische
getauft
##verordnung
##ima
##oni
verteilen
gesetzlich
gerichte
##üter
##lon
ku
ionen
gertrud
##äumen
trophy
künstlerisch
bezahlt
wehr
vegas
modernisierung
leber
gb
persischen
rückrunde
batterie
sumpf
nonnen
massive
geschütze
##geschwindigkeit
violine
##din
pont
längs
ungarisch
föderation
booten
anden
termin
erfordert
hansa
widerspruch
##flug
wang
umgangssprachlich
scheidung
finnische
empfohlen
weiterbildung
##osten
erlauben
privatdozent
aufständischen
zucht
rico
nahegelegenen
ralf
staatsoper
investitionen
organisieren
männlicher
legion
leonard
fett
fm
transfer
stadtgemeinde
anime
128
konzentrieren
##yl
geheim
bedeutend
##truktur
lust
baudenkmale
falter
verhaltens
lehm
ram
umlauf
tödlich
moos
erregte
adligen
zink
slam
angesetzt
hinauf
verfilmt
##ienst
markgraf
ganzes
erscheinungsbild
einstieg
beamter
##firma
seelen
peak
japaner
differenzen
umgebenden
tätigen
geschlechter
umso
wahlkampf
kopie
alexandria
armutsgrenze
christlich
vierzehn
verzeichnen
190
materials
gespräche
überlebte
lehr
jerry
seitlichen
dirk
gerecht
evolution
angelegte
oberschule
bearbeitet
konsum
fester
etappen
ausgedehnte
ohnehin
fenstern
libanon
dennis
wenngleich
umstellung
margarete
clan
hervorging
ständige
besagt
görlitz
channel
klammern
erlass
260
##osa
zwischenzeit
verdrängt
schallplatten
landeskirche
##grenze
niederrhein
angriffen
substanzen
##iere
dateien
böse
vorwurf
sinnvoll
münden
dachau
hudson
harold
balkan
riesen
heimatland
dokumenten
##dichte
frühzeitig
rettung
ellen
vermutung
##ă
cp
zielen
primera
##strecke
lehmann
##änger
kannte
kamm
hansen
just
yi
mais
astronomie
##figur
##ū
##rkt
moral
orthodoxe
krim
##yan
soziales
gunsten
##nie
vulkan
professionellen
##einheiten
diktatur
burschenschaft
hohenzollern
anschlag
falsche
zeile
wenden
te
fpö
rick
##ppen
arbeitsplätze
konkreten
##heimer
##aison
störung
jules
ideal
##ampf
trinkwasser
tabak
lehnt
bahnlinie
umgestaltung
reporter
##wil
botaniker
griffen
geschäftsführung
mittig
siebte
ole
indirekt
befunden
##kamp
medal
lohn
##vereins
ji
##nne
##körper
oberhausen
verstärkung
susanne
reduzieren
jemals
anzeige
sabine
zeitgenossen
stätten
##erten
medical
griechischer
südost
festes
schwäbisch
heart
landau
erdgas
helena
entzogen
helle
ermland
konzepte
kirchenbau
angestellte
valentin
korn
gewordenen
bronzezeit
cape
staatsstraße
steven
staub
regierungs
betrachtung
##ü
stattgefunden
ausgeprägt
##eur
ostern
##waltung
wechselt
bewahren
samstag
bekanntgegeben
schul
1720
##folge
wachsende
landkreise
##eile
##ský
##entwicklung
fernstraße
dean
alma
##tzen
##ole
##management
##ial
fracht
einmündung
miles
asiatischen
##owo
arzneimittel
verhaftung
systematik
angeordneten
eroberten
##projekt
aktiver
##cal
hr
alljährlich
##dung
##ali
baseball
##ita
rechtzeitig
ausgetragenen
kong
terror
##wein
##let
rekonstruktion
##ichtung
veranstaltete
täglichen
augustus
wirft
weiterentwickelt
begeistert
ausgehenden
stalin
künftig
stärkste
1768
maría
electric
lebensunterhalt
bc
6000
modernisiert
##eichen
belle
ward
dampf
schreiber
geprägte
##а
rakete
##basis
vera
steigern
rasen
##sitz
dreißig
vorgänge
gefühle
angehört
gelistet
baut
franziskus
class
vierer
segment
garnison
lobte
##ängen
emden
##lug
hofmann
zeuge
schwierigen
muhammad
filmmusik
unterdessen
jay
##ittel
wertvolle
fasste
deutlichen
hindurch
singt
pay
romanen
geschieden
amtierenden
eurovision
mehrzahl
herman
proteste
heimischen
stützen
nachfolgende
##ären
strahlung
mast
gefüllt
interne
steilen
list
spezifische
##altung
son
barry
abwechselnd
flüssigkeit
##ew
reagieren
##haltung
segel
erforscht
empfangsgebäude
##yi
heine
1765
japans
##op
roberto
hunger
krefeld
ak
trans
toni
magdeburger
hugh
ae
hintere
##lung
ts
##pflicht
##gaben
zweit
vermont
oklahoma
gewonnenen
beinamen
aufkommen
professionelle
nasa
landtages
##wettbewerb
informations
germanischen
referent
feldern
teilstück
tank
benötigen
objekten
berichterstattung
huber
finanzieller
buslinien
##sierung
fortgeführt
zugerechnet
gärtner
water
veranstalter
tagebuch
präsidentin
project
bretagne
vermarktet
ringen
versorgen
uran
brünn
toulouse
humor
##tos
erschließung
anschlussstelle
überwinden
vermieden
quadratkilometern
hölzernen
dänischer
verkehrten
##öglichkeiten
wirkten
wiederholte
stängel
gläubigen
isoliert
##charakter
fossilien
taler
fortschritt
taufe
terminal
kunstwerke
##ämter
##verbindung
lima
dakota
##eder
wanderte
steiner
masuren
geographie
##zimmer
knie
ausläufer
glaube
eifel
107
##ş
280
##eri
geringere
aussprache
anschloss
umfassend
pazifischen
beruhen
systematisch
stickstoff
gestein
langem
eingeordnet
su
zeitalter
sattel
rechnen
elektro
##eus
buddhismus
überdies
zugeschlagen
künstliche
baltimore
winterthur
stadttheater
explosion
320
##fels
trend
moon
aristoteles
##ös
platzes
habsburger
dreieck
abständen
modells
caesar
weigerte
fe
dimension
fünfzehn
zivilisten
zugriff
desto
##ela
empfehlung
##more
freistaat
opfern
paaren
labels
schildert
religionen
suizid
verurteilte
##yr
##val
##aben
##ram
bewirkt
##lassen
staatsbürger
glen
atlantic
isle
β
knight
ökonomie
1753
kp
bp
##hain
fachzeitschrift
sexuelle
tabellenplatz
erleben
vernunft
##enbach
peer
##rung
##now
##ada
falschen
geschützten
1771
gitter
nigeria
löst
leichnam
rechteckigen
1756
landshut
dream
beides
##seite
verhinderte
##bogen
dasselbe
pittsburgh
beeinflusste
offizieller
nachteil
schwefel
image
freude
pseudo
112
##chau
vermögens
ronald
brandt
werder
geheimnis
schema
altona
fühlt
schlucht
##gerät
##tas
filmregisseur
muttersprache
##bt
landschaftsschutzgebiet
bahnsteig
annehmen
beschließt
provence
fünfmal
brechen
materie
arbeitsgruppe
überfall
wehrdienst
kongresswahlen
##iner
amp
##ika
wiese
tatsächliche
künstlerischer
his
einheitlichen
##schichte
##hafen
signale
kompetenz
interessant
abgeben
##prinzip
zuzuordnen
motiven
beigetragen
verse
betriebssystem
wright
teilzunehmen
schuljahr
erforderlichen
niedrige
##born
verzeichnis
richtige
geringeren
anhieb
verursachte
leiterin
nebenbei
piraten
mittelfeldspieler
aufgewachsen
1715
persönlicher
##én
##zentren
realen
christina
planet
organischen
##iegel
frost
kant
überprüfung
schritte
notre
einheitlich
##por
kredit
##uz
beseitigt
nichte
##verbände
preisen
designer
ausführlich
analysen
##rom
bestandteile
##ichter
vorstadt
symbole
shakespeare
flankiert
pension
geräten
verlangen
gm
udo
rippen
hierdurch
##nacht
theoretischen
bestrebungen
##00
ausmaß
quadratmeter
genauen
anscheinend
109
islamische
grabungen
ausgedehnten
##zell
175
##lar
lichtjahre
flandern
dekret
michail
salt
##tur
##rot
grafiker
radstand
sprachgebrauch
pfarrers
grimm
1650
more
##ves
##kon
##affen
dichten
darm
##win
rotem
bond
schätzungsweise
geburtsort
amtlichen
1769
##ott
linde
##ions
nachfolgend
jur
fasst
magen
kriegsdienst
##verbot
zukünftigen
höherer
thai
öffnet
ing
##tra
listet
politisches
##dern
gift
rötlich
richtigen
höchstens
##mont
tötet
brandenburgischen
philosophische
kammern
##karte
verwaltungsreform
konzil
##stoff
jetzigen
geburtsstadt
##ese
yale
verkehrte
sol
ndr
karibik
hintereinander
feinde
messungen
hauptartikel
henriette
anhöhe
zusammengelegt
göteborg
fauna
pater
landsmann
herzegowina
maas
population
jurastudium
erzeugung
vr
tendenz
schulter
god
bf
aufgelegt
tochterunternehmen
left
##kehr
physikalischen
arabien
xiii
chur
brt
monuments
mariä
handschrift
##uft
##mal
##frei
ergebnissen
geschäftsmann
klingen
kfz
forschungs
mütter
israelische
behandeln
##lm
ortsteils
basler
rap
stabilität
hinrichtung
##orten
fassen
nebst
internen
celle
container
gleichfalls
##ecke
wolfenbüttel
sigismund
algerien
##nda
verkürzt
bernstein
weihe
##wer
##eiter
entstehenden
einschätzung
außerordentlicher
##horst
ware
osteuropa
beliebtheit
ukrainische
tee
kritikern
getestet
spring
erlebt
bitten
##tet
##ente
landwehr
höhenlagen
ausgenommen
##tia
säkularisation
##yo
alba
##lände
##lf
mähren
kongregation
benzin
##mauer
wissens
rudi
faktisch
veränderten
ted
adrian
geschmückt
erweiterungen
##pass
treffern
vergrößerte
valencia
biographie
mechanischen
cornelius
##low
verbandsgemeinde
swiss
beitritt
gelesen
director
##menge
aufsichtsrat
##äger
schottische
regimes
monatlich
bürgermeisterei
braune
african
wusste
geführte
##chicht
nachhaltig
##ringen
waldgebiet
angekommen
1680
##aner
steigerung
freigelegt
##meter
like
##zeug
chen
kohl
besonderheiten
petra
globe
wahlrecht
bestätigung
reduzierte
atom
betreffenden
baptist
auswertung
bereitete
rail
innenhof
##lock
eastern
five
vorbehalten
bb
umgehend
import
terry
stgb
hunter
##cki
komitees
käufer
ideologie
drachen
village
überschritten
zuständigkeit
verzicht
bundesweit
bisweilen
kommandanten
jülich
castro
##aux
schubert
erlitten
tatsächlichen
helen
fließen
grundstücke
allesamt
palm
anker
##uth
sevilla
karlsruher
druckerei
durchfließt
quadratischen
privilegien
tausende
nsg
herstellen
control
platzieren
hellen
betriebene
wuchshöhen
elefanten
triumph
trauer
charakterisiert
konzeption
slawischen
sorte
vergab
generaldirektor
privater
förderer
##ür
sergei
##yama
waldes
link
riss
beerdigt
attentat
hampshire
wüsten
angehören
observatorium
köhler
gegossen
hub
##name
ehrenbürger
bezirksliga
##kas
eichstätt
angestellter
##uppen
leuten
gleichgewicht
laurent
überzeugung
leverkusen
grammy
entnommen
##pi
ligen
julie
berthold
##euer
ergänzung
wohngebäude
ausgetauscht
##nische
people
fluggesellschaft
##til
theaterstück
lac
ackerbau
kinofilm
##ς
prinzipiell
##karten
krater
championships
1766
lüttich
##ński
mar
freiburger
ruft
henning
##keiten
what
neuem
klare
##linger
ried
comeback
albanien
aa
pa
cia
zugehörige
erfolgs
verlorenen
lutz
diagnose
gestalteten
1525
pat
part
läufer
geistigen
zurückgeführt
gescheitert
##bs
naval
konfrontiert
hauptgebäude
gürtel
geformt
betrag
schulgebäude
az
wirtschaftlicher
warren
unregelmäßig
kontrast
bedenken
bd
##eitung
entdeckten
bezahlen
##tellung
entry
##zustand
seil
##schicht
stich
beethoven
absteigen
mythos
ju
jenes
##har
wolfsburg
asche
sl
mexico
lorenzo
geologischen
way
warm
triathlon
data
divisionen
shi
sh
ortsrand
marktgemeinde
barth
verbraucher
##iter
parlamentarischen
weihnachten
täufer
forschte
sexuellen
jun
privatbesitz
egon
ausführungen
##gesetzes
nerven
1755
titelrolle
schauspielhaus
selbstständige
kommerzielle
infolgedessen
marschall
mhz
katastrophe
270
tenor
ssr
heimspiel
zurückzukehren
präsenz
massen
galaxie
eingliederung
kelch
zukünftige
silva
betrachtete
##rz
schlaf
berücksichtigen
erzählen
mülheim
wirksam
branchen
großraum
french
ehrenamtlichen
schiefer
samtgemeinde
##einrichtungen
geschenk
anzeigen
vorschläge
ibm
augustin
angrenzende
##hauses
einheimische
namibia
1758
südafrikanischen
hitze
entwürfen
##ragen
winterspiele
xaver
limes
auvergne
querschnitt
asch
##wirkung
##gericht
stellungen
kaukasus
##ill
verwiesen
verwalter
achte
kohlenstoff
basieren
uno
1764
vollständiger
schumann
##ollen
ala
verwirklicht
##ands
staatsanwalt
kaplan
madison
braucht
gewinnung
doppelte
fahrgäste
bundesrat
vorgelegt
säure
##ache
sorge
cole
##gne
moses
##rock
maya
##ecken
ausgangs
wenigstens
mauerwerk
langes
##reifen
##krise
terra
mut
kay
bedienen
pilger
malerin
filialen
durchgang
zahn
seat
differenz
untertanen
mitarbeit
flaschen
##litz
viehzucht
kongresses
geringfügig
autonomie
gun
kasachstan
angezeigt
düren
anregung
##anteil
stärkere
##air
psychiatrie
mitchell
maßstab
##ney
befestigung
schmitt
statistisch
bekenntnis
spalten
monster
gefolge
##rbeiten
##ball
ausbreitung
##arkt
starteten
colonel
beherrscht
app
span
##ohn
##ufe
##aceae
ludwigshafen
##rode
ruhrgebiet
##yp
nina
1767
physikalische
crew
gaststätte
##inseln
fair
charakteristische
bo
zitat
wissenschaftlern
morgens
##po
scheiben
gebräuchlich
dicken
bär
##tation
march
##chse
download
trust
ny
##räger
zustände
überließ
ska
rundfunks
census
stilllegung
existierenden
##su
ähneln
wallace
geister
montevideo
kanals
##tellen
##tiv
bk
stilistisch
passage
horror
röhren
harrison
##lz
##dar
unterrichts
meier
marktes
library
gesetzliche
begriffen
##nal
##ath
##ais
scottish
jin
examen
stände
zaren
wasserversorgung
fotografien
##ssa
herzöge
doctor
##ultur
zk
gültige
grosse
ghana
unternommen
sehenswürdigkeiten
längsten
bewohnte
stirn
abgeordnetenhaus
turbo
radikal
steinkohle
hanns
deep
nickel
niederländisch
##punkte
##court
matthew
backstein
strahlen
jahrhundertwende
##jagd
ebert
richten
geliebten
franche
monaco
iris
##hrt
automobile
##handlung
reliefs
cc
viktoria
minor
synonyme
geliebte
##heorie
om
ministeriums
kate
fing
politikwissenschaft
asteroiden
1762
##eide
gestattet
jahrzehnt
formuliert
schwiegersohn
kennengelernt
mitarbeiterin
##dan
regio
kontinent
erfüllung
tischtennis
jahn
beurteilung
wirtschaftswissenschaften
hs
begegnet
äußerlich
schlangen
kommerziell
größeres
##leistungen
käse
entfielen
note
langjähriger
bürgerkriegs
##tedt
rumänische
gelebt
kurven
artikeln
gebrochen
gray
grauen
wilhelmine
rudolph
revolutionären
hänge
##öhe
susan
energy
cook
##ex
gemeinnützige
anlegen
wohnort
ukrainisch
mb
fleck
nationalsozialistische
kälte
kehrten
##sia
umgestellt
freiberg
utah
prosa
##ube
vetter
kirchenprovinz
abbildungen
kurzgeschichten
pflichten
antarktischen
gezeichnet
##hle
##bergs
sachen
##runde
##fach
spin
chancen
kommunale
gleichermaßen
elias
vertrages
mandate
entfallen
angriffs
rain
command
##dia
nam
kirk
waldeck
geltenden
neigung
meiningen
ml
abgelegt
diana
denkmäler
bey
ast
rebellion
114
militärischer
ggf
ausschluss
##ost
gedeutet
dreht
bundesländer
ana
##farben
kommentar
##rift
langfristig
kaspar
hubble
##rio
delegierter
augustiner
zwerg
volksmund
verehrung
reduktion
dürften
austragungsort
##dra
##ça
radsport
cs
vorwerk
variablen
chinesischer
##eise
##lächen
vorgesehenen
##ücken
fischen
zeugnis
stile
deutlicher
europäer
casa
spital
afrikanische
##hase
kalt
gleichwohl
wozu
##rechts
jegliche
betriebs
napoleons
benutzung
gross
geiger
col
##oi
volks
unterlauf
fundament
##twicklung
##line
ct
weithin
senders
künstlich
jo
empfahl
aufruf
sudan
pfeil
tourte
six
öffentliches
##scha
kunsthistoriker
##spieler
tempels
##е
körperlänge
##äre
sophia
marne
begleiter
##ister
verfassten
stall
heil
##motor
stadtteilen
endeten
##luss
grundstücks
längen
vorangegangenen
federation
nebenrolle
binden
##pieler
vertraut
theoretisch
landwirt
tauchen
neuguinea
aviv
##analyse
unterliegen
prof
regierungsrat
lt
gesteuert
##ame
under
jahrelang
installation
harte
belege
##therapie
entsprechender
ankara
erklärten
mol
lehrern
strategische
nächstgelegene
hört
cannes
canal
bunker
buffalo
wahrzeichen
instrumental
beliebtes
schauplatz
beitragen
ziegen
geschossen
napoleonischen
erobern
##lust
##rus
kanadier
coach
weltausstellung
##iro
elo
einschränkungen
bock
fiktiven
sonntags
irische
hinterlassen
geo
frey
##bilder
bataillons
untersagt
wohlhabenden
blind
fühlte
songwriter
jefferson
skandal
princeton
##verhältnis
bulgarische
1742
##dis
set
fahrbahn
scheiden
genoss
sorgten
chaos
apotheker
konvent
emmy
##egen
##förmige
kameras
auslegung
##rohr
revision
olga
geworfen
frz
depot
##itung
##edt
preisgeld
##tage
witt
u18
zweige
##nlagen
glaubte
tallinn
académie
konzerns
family
fachbereich
##fahrten
müsste
distrikts
burganlage
##tze
problematisch
maurer
finanzierte
beweise
platziert
letzteren
##cks
bosch
##brunnen
denkmalgeschützte
##gramm
blood
poker
mo
erzbischofs
zins
square
mitherausgeber
beirat
##ui
nagel
kraus
ungarischer
nt
butler
our
herab
schwachen
propheten
eingangs
a2
##änderung
potential
nase
autorität
hanna
angeregt
##mark
potok
bestellte
erlangt
ablösung
ruhm
ki
##wall
hofes
bud
freilassung
ohr
mt
gasthaus
flak
einigung
biografien
arabisch
##eo
gepflegt
deutung
burgenland
werkzeuge
leid
progressive
eingesetzte
tc
ostfriesland
lauten
hessische
fußballer
##ood
finanzminister
zirka
verbleib
matura
##reuz
überlebt
strauss
##ote
zinn
##eier
wohlstand
kirchenkreis
algorithmus
verblieben
schweine
sporen
kleinerer
textil
cups
sogenannter
gegenteil
absoluten
##uche
##grün
strenge
assistant
##äden
verkleidet
sozialdemokraten
pp
porta
ausüben
##gebirge
##ass
ludwigsburg
vergleichbare
risiken
armstrong
##ater
oberpfalz
lambert
apollo
ökonomischen
waffenstillstand
palmer
trade
maul
ligakonkurrenten
##karriere
weizen
stiftungen
rundfahrt
##meyer
operations
comté
##ub
rau
müssten
einträge
##hin
zensur
ansässige
##con
roberts
historisches
##schrift
westdeutschen
##orden
##eisen
société
edwin
hörspiel
boulevard
##cio
populationen
praktizierte
titels
daimler
ain
1759
unterhaus
##versorgung
verleiht
##truppen
##unktion
vila
kühl
##nos
lehrt
##lers
eck
collins
revier
##bu
heftig
endpunkt
review
nordamerikanischen
kompetenzen
ka
dp
optisch
##fragen
paula
mrs
##rke
rügen
##apelle
##ager
schuh
zirkus
stolz
montage
englands
verabschiedete
linda
konzession
agierte
##rahmen
let
##gu
uhren
naturdenkmale
wirksamkeit
eingeführte
departement
u23
hardcore
##rücken
diener
##becken
##ë
ruht
##meisterschaft
stuck
stan
mäßig
##sport
arbeits
##ík
##gger
gymnasien
definierte
kn
romeo
farmteam
##öfen
##fi
kleinsten
verfall
uniform
machtübernahme
geborenen
fortuna
##jäger
tarif
durchlief
irene
globalen
2n
realisierung
##könig
##eau
three
resolution
gültig
geländes
helfer
tonträger
wählten
sichtbaren
protestanten
pflegte
membran
reichtum
kämpften
how
##mon
teatro
wachstums
##ias
geholt
dunkler
heidelberger
chip
belief
newton
keith
adalbert
##issen
neo
fia
##ziel
##walde
äußerungen
##ret
##arm
wiederholen
##dingungen
radikalen
aufsätze
indes
geschützte
allgemeiner
umkreis
summer
honda
jorge
bestätigen
identifizieren
##ida
sms
flammen
fehl
rechner
mechanik
breites
1757
pfeifen
facto
einberufen
marina
beinhalten
neubauten
jüngster
bautzen
angehörten
gerieten
verbaut
populären
bt
bergland
fang
##mel
##das
grundsatz
durchzusetzen
vornamen
singer
landen
staatsbahn
baukosten
##fel
sichere
pictures
werfen
habsburg
##alten
hauptfeld
##ink
unmittelbare
durchschnittlichen
shows
mathias
getrennte
germain
wasserburg
gips
aserbaidschan
perry
getrieben
##isches
iranischen
##turnier
tibet
freiwilliger
##ding
##bauer
prominente
prize
indiens
##produkte
##sy
rt
plural
mu
gräben
get
filialkirche
beginnenden
datierung
hong
feierlich
zwecken
rex
##ruck
reichstags
höchster
##meinde
##asser
radrennfahrer
jude
joch
grundwasser
gebrüder
ausgeübt
hunderte
geringem
bauteile
kammermusik
jahrestag
orgelbauer
gerald
##serie
rafael
##ügel
##kunde
schuldig
eingreifen
marion
rolling
philipps
led
gil
vorfall
lehrers
getränke
geheime
ämtern
integrierte
##uen
passieren
strengen
greifen
präsentation
##nas
##ance
wilhelmshaven
publikums
elfmeterschießen
##wen
lotus
gis
gewordene
häufige
##pur
überwacht
übergangs
glanz
geordnet
litauischen
krisen
fragmente
1745
semi
117
vizepräsidenten
theresia
ks
eingeführten
bezirksamt
##sgesetz
##figuren
weltmeistertitel
flughafens
verbandsliga
prototypen
kompletten
jahresende
zerstörungen
biografie
arsenal
reichenbach
reagierte
wolken
neunte
fähre
auftraggeber
##lde
larry
850
geleistet
##aktion
karin
fressen
##mes
neumarkt
fiat
programmen
cr
charakteristischen
1752
eingebracht
bergischen
1754
muslimischen
marktanteil
kriegsmarine
##änderungen
##förmigen
nachfolgerin
flieger
born
rekonstruiert
absteiger
swing
pferden
kernstadt
ausfall
sodann
einhaltung
fachwerk
##gehalt
##assen
ik
hirn
nil
glücklich
disposition
schilling
etablierten
##fassung
##bachs
##una
strömung
solingen
heavy
annahm
kb
nicholas
manuskript
magazins
gegenden
commander
bürgerliche
torschützenkönig
schulbesuch
kaliber
seven
eingespielt
bestehens
##oe
grundlegenden
allan
tuch
qualifikationsrunde
geprüft
wta
eigenständig
##lter
##länder
##ausschuss
skelett
porzellan
organische
hedwig
eintrag
danny
pod
investoren
weiblich
type
speed
beleuchtung
bürgerkrieges
mathilde
option
müll
erhebungen
##eien
verdiente
tägliche
bureau
bas
stabil
lasten
anweisung
unglück
niederländer
##ied
chromosomenzahl
key
kasten
bird
weiher
île
milchstraße
##dl
staatstheater
nahrungsmittel
lebewesen
verbänden
räder
papstes
neuhaus
gekrönt
bundestages
1660
torpedo
krimi
verbleiben
##ap
optischen
fabriken
oberamt
kr
beatles
verdanken
betriebenen
staatlicher
spezifischen
fotografen
##siedlung
wanderweg
león
energien
yards
merseburg
eder
ladung
##decke
##händler
bösen
##talbahn
restliche
##asis
torf
tennisturnier
kärntner
webseite
archäologen
stößt
##wi
##akt
optische
georgien
verschiedensten
tschechischer
naturforscher
##mans
trainings
rats
steinbach
source
regina
niederschlag
darzustellen
kaufleute
##ätte
1748
lose
blanc
mer
pl
leidenschaft
gastprofessor
campo
bevorzugte
cf
ap
verursachen
far
beteiligen
ir
haller
sportwagen
english
nationalstraße
113
vorlauf
side
markenname
grammatik
ablehnte
abgenommen
##halt
gummi
verwandelt
hu
aschaffenburg
paolo
franziska
##chel
opel
##systems
limousine
##и
gouvernement
erzeugte
entsandt
zusammengesetzt
pas
malen
intervention
dichters
sprang
paz
herrmann
anatomie
limited
zerfall
würzburger
futter
codex
##wege
##ico
##enko
kanten
brecht
biologischen
côte
ausstellungs
stifts
player
meta
lettland
##ä
##een
hexen
##ila
synchron
roosevelt
330
tell
klassik
watt
nintendo
droht
##register
##ova
uv
sätze
oberlandesgericht
liebhaber
alexandra
wolfram
verweigerte
uni
kurzem
hannoverschen
bratislava
publizist
vita
botanischen
hypothese
coupé
trikot
brut
##ovice
##fahrer
##asen
nils
lsg
storm
chan
besetzen
wortes
schmerz
##enten
ds
münze
hervorgehoben
stattfanden
schein
vögeln
mundart
nizza
vikar
osmanische
fahrgestell
frühesten
bedeuten
himmelfahrt
paket
spar
domkapitel
##chter
temple
petit
##iste
pink
drucker
erfunden
1717
##organisationen
mur
fragt
##ruktur
##ness
schnecken
sack
reims
hass
strophe
gs
englischsprachigen
wohin
##zyklus
##literatur
isabella
feuchten
##ationen
versprechen
##kademie
betracht
##macht
wesentlicher
weltwirtschaftskrise
1751
elektrotechnik
besiegen
##ori
##amm
schlager
##rna
leitender
geheimdienst
##stil
krüger
beinhaltete
antarktis
##oll
gesundheits
streik
panama
rapid
putz
hingewiesen
friederike
##ätzen
##ju
impuls
eigen
##wan
schrieben
isar
executive
disco
mari
ruprecht
biologische
treiben
queensland
multi
aufgelösten
##inie
variieren
kräften
weißrussland
ina
gestützt
cinema
propst
padua
ottawa
##kos
vorbereitungen
justin
stolpersteine
luc
aufenthalts
mix
##bindung
palermo
bildungs
##äche
##kis
##öffnung
geschenkt
##dal
sicherheits
bienen
landesamt
entführt
1550
typus
rich
einstellen
australiens
schweinfurt
schall
nevada
yu
##hart
verbleibenden
reichsstadt
abgabe
##cho
teilnehmenden
bildhauers
ziffern
##cu
kleve
ira
mächtige
linear
steg
schenkung
begleiten
bella
verschluss
verleihen
congress
##tem
walk
gebet
rechteckige
modul
fremd
enthaltenen
ta
verteilten
saturn
brest
##achen
weine
gebeten
##richter
beliebten
wandelte
dachreiter
clinton
prozessen
oberleutnant
vorderseite
hirten
ausgeschieden
##tern
innenministerium
zurückgeht
treibstoff
keineswegs
gefäß
##brand
neil
experimentelle
##wertung
verwechselt
töne
ermittler
isaac
##tone
potsdamer
verschwörung
reliquien
beschwerden
age
##our
arbeitsplatz
parlamentswahl
körperliche
gletschers
leuchtturm
interstate
##schaften
stanford
leopoldina
kreistag
jet
diplomaten
administrative
##gung
1761
##illa
freising
225
pianisten
para
schau
aufgefunden
##zy
##eller
##car
fürstenberg
fine
schätzungen
cap
eger
##älle
##recke
verworfen
präsentieren
baptiste
schotten
geborgen
##raben
tschechoslowakischen
gebildete
##vogel
##sie
angelehnt
wacker
jahreszahl
demonstration
##etrieb
luftangriffe
komponente
handbuch
##artei
wettkämpfe
lagers
korrekt
##ituation
unterworfen
putsch
erscheinende
##geld
archipel
unterstützer
auftakt
##alt
hertha
antennen
bauernhof
##eter
relative
klaren
ehrenamtlich
ecuador
impulse
##behörde
einmarsch
1710
vergrößerung
unterliegt
petri
##allee
ringe
professional
äthiopien
verwaltungseinheit
hochland
mindest
ethnisch
145
lehrtätigkeit
lagern
berührung
##elli
ermöglichten
##ind
##bury
zusammenfluss
wings
lena
gartens
carmen
christlicher
zunehmender
trauben
##ieger
##eistung
umweltschutz
bereiste
befahl
dienstgrad
verletzten
split
##nitt
gemeinschaften
craig
hope
##ähnlichen
ortslage
nachmittag
künstlichen
##kräfte
landsberg
anknüpfen
schönberg
mitsamt
##sta
##lichkeit
##xt
##gelände
ziegel
solothurn
##row
##ildung
pyramide
ffh
extreme
beschlagnahmt
circuit
außerordentlichen
abschnitten
laufende
kontrollieren
##ener
versetzung
health
giro
dam
##witsch
##licht
wählt
märtyrer
zulässig
spannungs
cl
wappens
protesten
interpreten
gedichten
gästen
rohstoff
präsent
guatemala
gefragt
wat
technologien
dieselmotor
bögen
amtliche
weltraum
stimmten
skandinavien
korruption
##dien
thun
saône
##house
vertriebs
pablo
veit
nature
kiefern
vermutete
##tu
landesmeister
korb
##zenen
suchten
mono
lücke
call
##gebiete
zurückziehen
que
apostolische
prädikat
sachs
zauber
lane
kopien
##volumen
##mmen
radweg
gewechselt
##trom
osmanen
lille
chi
moderiert
freigelassen
##gewicht
watson
vortrag
dana
##otte
colin
kampfhandlungen
austritt
aufstiegsrunde
überlegen
ng
bewaffnung
behinderten
verbesserungen
##oro
rogers
herrschenden
ferien
1741
lès
zweieinhalb
prägen
mulde
eignet
dünnen
unit
gebirges
1744
fächern
sozialismus
leibniz
stumpf
santos
poesie
nordirland
jederzeit
future
überregional
passagier
##è
##rod
scheibe
branche
landesliste
interniert
herkömmlichen
raumfahrt
pete
kanäle
flüge
weltweite
##rts
##ellschaft
amerikanisches
gmina
auswärtige
saiten
##hai
rennfahrer
mathematische
illegalen
beleg
##glas
galaxien
ausübung
torwart
gelagert
edwards
bangkok
##cz
bozen
flanken
bedürfnisse
tauchte
söldner
überprüft
steuerte
dirigenten
historiques
beherbergte
koran
bros
after
##ches
lie
krautige
erzbistums
verfolgten
sechster
individuell
tokyo
legenden
nötigen
##uten
verweigert
tunesien
blu
wörterbuch
jam
pädagogische
teheran
rob
geheimer
pick
franziskaner
emeritiert
verbrannt
kuh
##ähnliche
fl
1250
springs
niger
hasen
ft
finanzieren
antisemitismus
##num
draht
weich
##ž
##herstellung
##piele
gemeinsamer
##eins
nationaltrainer
erließ
##kloster
predigt
leine
haas
sigmund
geistige
bars
asiaten
apotheke
africa
ll
fahne
##sches
##ndi
illustrationen
ableitung
äbtissin
ungewöhnliche
lenz
##aki
ratten
geplündert
steel
gelobt
##lösung
honig
##itter
versprach
hybrid
##nka
schmerzen
gespeichert
demonstrationen
vielfältige
ofen
kieler
sichergestellt
selbstständig
grazer
empor
aquitaine
##pin
parish
dolmen
##boden
übersee
neugegründeten
lost
gesetzgebung
profis
balthasar
vorgesetzten
lund
landesweit
##wind
ökonomische
ghetto
chirurgie
vorgängerbau
nominierungen
zorn
beer
##niveau
##gy
prominenten
empfang
erarbeitet
##my
vilnius
##ücher
##tig
wurf
pet
spencer
1747
##vögel
ceo
begrenzte
remis
angehöriger
1732
elften
ban
spaltung
##oa
##posten
greg
bildschirm
schalke
bv
##quote
##nds
prozesses
##ity
##aja
kommunalwahlen
gesamt
##dor
bewegte
##iet
##ato
stadtzentrums
cb
sul
shin
krupp
aufging
schnittstelle
##rien
vierzig
kriegen
jeanne
sklaverei
rod
hinnehmen
freundes
stießen
kamerun
aufgefordert
122
erbauen
tals
lot
verfiel
todesstrafe
fries
einbrachte
##gie
vernichtung
grundbesitz
bekanntschaft
leningrad
thüringischen
gewichtsklasse
strömungen
pulver
gent
überarbeitete
transportieren
zweigeschossige
bundeskanzler
arno
brasilianische
garcía
##hammer
##du
luxus
natrium
günstigen
blattspreite
ständiger
klinische
genossenschaft
atlético
##ø
verurteilung
staatsdienst
einleitung
spaniens
ultra
krank
erziehungs
##vić
offizieren
herzogin
türkisch
schülerinnen
calgary
schale
schwedisch
gedient
1746
sing
pflanzenarten
bewaldet
##bauten
meisters
gleichmäßig
nor
beliebte
füße
handelskammer
380
jenny
favoriten
alm
edith
wille
make
##häusern
pt
mittelmeerraum
schulze
rabbiner
braunschweiger
##wiesen
sen
rechen
klassisch
ita
##mission
kompromiss
av
verschwindet
häufigkeit
geschwistern
ereignete
##ahmen
telekom
präsidentschaftswahl
entdecker
blitz
##vice
pal
buchen
schaf
earth
wissenschafts
bon
annäherung
##ár
##offizier
##damm
##ary
beschriebene
iron
schlugen
papa
hörfunk
cum
menschlicher
dell
ermittlung
gewachsen
westdeutschland
horizontal
luke
gemischt
richmond
gespeist
einstimmig
norddeutschland
missionen
erzherzog
eineinhalb
dg
##ront
zivil
liu
sitzplätze
resonanz
treppen
buchholz
betroffene
ägyptische
bekämpfen
##hard
sportlich
schah
gruppierungen
1736
##voll
hochstift
##chlag
sortiert
shaw
pen
pascal
igor
lehrauftrag
##stätte
steigenden
##rmen
armin
1620
symphony
armenien
##tzer
full
universum
lateinamerika
helligkeit
villen
göttinger
anglo
anbieten
1735
paradies
##minister
spätantike
fbi
schlösser
verschlossen
irish
##sha
take
gedenkstein
besichtigt
stammsitz
elberfeld
belgischer
margarethe
zentrales
##nta
##hnen
##friedhof
rai
komödien
gert
doc
alain
yang
definieren
jährig
##elemente
sommersemester
letztmals
##ögen
##laden
iss
hb
118
eiszeit
bewerber
abfall
liebt
brigitte
liturgie
küchen
tourneen
gefährlich
blütenstand
typisches
momentan
dünne
synchronisation
quadrat
martins
##igur
symbolisiert
montag
flossen
durchgängig
1630
abspaltung
verweisen
minsk
##tunnel
ti
flut
commune
étienne
toleranz
europacup
boss
##ré
vorliegt
sicheren
regisseurin
ni
oberbayern
burgruine
romantik
haupteingang
##nu
israels
territoriums
##ilder
vergibt
##ütte
gala
1714
116
versorgungs
##pflanzen
spiegelt
ahnen
##sburg
civil
öfter
konsequenzen
sieges
rhön
maximalen
niederlassungen
trilogie
flash
1743
absolut
fieber
bewahrt
##eh
lin
infektion
produktions
##rde
##igung
jupiter
hobby
##ws
##ebiet
zuweilen
vorstands
winterpause
oval
kali
but
127
##hy
schallplatte
nachfahren
lauter
alexandre
ungarns
asia
propstei
arnsberg
grabsteine
überrascht
kara
diplomatische
##tau
turmes
krause
vorgängers
anger
##az
wasserfläche
vorstandsvorsitzender
verkörpert
satzung
##masse
##inge
roh
reichswehr
aaron
##ahren
lokaler
kenia
bundesbahn
fußgänger
baubeginn
1530
puppen
nachweislich
anzusehen
adelsfamilie
madagaskar
partisanen
industrial
grabmal
festgelegten
brenner
benutzten
##feuer
transformation
ib
wallis
movie
jugendstil
##verteilung
prozessor
strategischen
realismus
grundsteinlegung
währung
führungs
å
plauen
überregionale
rd
fehde
angeklagten
schleuse
proteine
1749
justus
pavillon
dal
1713
adeligen
##var
verschont
postum
drang
bip
auffallend
gelder
##ners
trommel
grabstein
erfüllte
salm
rennens
angola
parteitag
mad
1737
rathauses
##örderung
##tück
taxi
suite
##sam
plattenvertrag
brauch
abteilungsleiter
kastilien
defa
capital
advanced
##arben
rey
erfassen
bestreiten
berührt
regentschaft
ao
155
ter
gesandter
synode
christiane
angesprochen
chinesen
behinderung
abweichungen
##müller
##rne
verteidigt
race
##klassen
chlor
gelsenkirchen
sichtbare
verstärkten
krönung
affen
tänzerin
sparkassen
athletic
##ätigkeit
##nice
##auen
streckenabschnitt
schwangerschaft
pier
cis
toyota
ausbilden
anspielung
teilten
cher
1738
borg
fernsehproduktionen
ableger
weitesten
transit
begründeten
südamerikanischen
torre
##bedingungen
soccer
platon
fügte
verkündet
mas
internat
saga
roche
##zow
nazis
lucius
##örmig
triest
stadtrecht
handwerks
afd
##ffe
##erger
vorgesehene
erforderliche
algebra
unterirdischen
dazugehörigen
##kern
##esse
originale
höfen
constantin
arkansas
##nig
staatspräsident
parkplatz
hafens
alfa
minimal
kreuzt
##owitz
streben
marienkirche
derby
genauigkeit
reinhardt
einwohnerzahlen
##non
##heide
rennwagen
erz
erhard
auskunft
steinerne
advisory
reale
guillaume
##nburg
eingegangen
heftige
essays
erwarben
olivier
##ò
zufrieden
hauptfigur
betraf
allgäu
##möglichkeit
wolfs
welten
zuhause
television
regelt
80er
##olle
##borg
##ters
wasserscheide
redner
profit
botanik
##zonen
wimbledon
education
betrachter
##dos
turbinen
saisons
##tals
nachbar
kaufmännische
landgrafen
mc
asyl
##wick
tänzer
pascha
bourgogne
##unk
ökologische
bi
baku
v8
calcium
1540
schuster
##allen
revolutionäre
schutzgebiet
flughäfen
##tto
##hrer
##konstruktion
mitgliedstaaten
##nar
##achs
zeitliche
strich
berechtigt
##rl
##sko
##position
##bacher
hochhaus
wohnplatz
maritime
grey
federn
##uri
##ohr
mel
mach
bundesamt
ausdauernde
zehnte
hinweisen
dominierte
##egel
verona
regierenden
##san
platzierte
berufs
märkte
kontrollierte
formulierung
zusammenhänge
näheren
titularbischof
1618
holsteinischen
##oberfläche
lehrbuch
india
johns
1670
freies
erarbeitete
##rit
orientieren
wänden
weitem
kronblätter
auszug
say
ruhen
rockband
eingelassen
##tro
vielfältigen
montréal
kempten
##reform
warb
bibliothekar
##rasse
1690
rechtsform
riesigen
mali
gallery
datieren
verbliebene
ursprünge
hinterland
132
rokoko
besatzungsmacht
zeitgenössischer
claire
universidad
gesetzen
cent
odenwald
stolberg
keltischen
century
pfarrgemeinde
page
biel
##aro
stadtrand
ot
maske
mara
göttlichen
1733
126
##räte
gebäudekomplex
passagen
hinunter
verhalf
gemeindegebiets
ul
bio
af
tunnels
halber
##com
revue
großmeister
1724
##wal
##orst
füßen
australischer
yo
unterbringung
lob
doms
##reihen
lancaster
herausragenden
ligaspiele
goldener
##struktur
sohle
schwache
ding
lou
##konferenz
holmes
feucht
wiederaufnahme
musikhochschule
illegale
begegnen
angelo
mind
lanzettlich
gegnern
frühlings
##chrift
stroh
kommunikations
beseitigung
##pan
sbb
initiiert
schulhaus
heiden
feindlichen
allzu
ignaz
denkmals
vergleiche
osttimor
übrige
aka
##vorkommen
##code
thesen
portugiesisch
belastet
baches
hafenstadt
##kov
weltlichen
lions
jubiläums
härte
1721
wandern
initiativen
1701
##aar
begünstigt
assistenten
know
ingrid
1520
##pflege
lc
auslöser
reiz
quarz
dominierten
denkbar
argument
zunahme
verzeichnete
hohl
##heater
##fehler
ponte
lemberg
kuhn
genfer
dimensionen
bl
techno
stichwahl
rm
moldau
ehrendoktorwürde
unterstanden
tele
pädagoge
einnehmen
##mas
vorab
vollendung
spirit
gefundenen
1718
##listen
vorjahres
##truppe
##sar
spielfeld
erleichtern
123
sean
battle
##elder
pm
ähnlichkeiten
nachkriegs
senatoren
bayerischer
erlosch
sitten
sibirien
##sow
##enz
entdecken
##ware
serben
kontroverse
##usik
wittgenstein
kulturdenkmal
judentum
besiedelten
1725
##rates
kurator
1640
protestantische
starr
kräftig
alliance
mill
inszeniert
##einrichtung
weiblicher
roms
##änden
sparta
schifffahrt
8000
volt
konkret
afrikas
staubblätter
intellektuellen
angeblichen
wohnungs
mafia
##nin
vogtei
tuberkulose
fahrzeugs
erika
##modelle
gemalt
ganzjährig
rücksicht
palazzo
börsen
bundesligisten
bode
##iya
tagsüber
monika
blech
##okal
##eb
kümmern
##kum
verstorbene
small
gegebenheiten
grace
##ña
ye
stereo
ironman
oro
facebook
eisenbahnen
ea
sequenz
beschlüsse
amtierende
##ewegung
spielerinnen
kreuzberg
preises
geschosse
beschafft
haltestellen
burgstall
bergwerks
behauptung
pelz
gemäßigten
##öße
vizegouverneur
urs
gläubiger
exportiert
strauß
klinge
behandelte
workshops
sui
reisenden
laub
eiche
##mba
plattenfirma
liege
intensität
erinnerte
starkes
dieselben
trennten
mig
investiert
##urnier
##eiler
zusammenlegung
tiefland
vergleichen
einstige
briefmarken
##zucht
##ations
waldemar
raumes
trinidad
armeekorps
##tl
vorwort
sarg
landhaus
ergänzen
beantragte
länglich
geweihte
zufall
unterkunft
stille
separat
quedlinburg
##lub
fußballmeisterschaft
öffnete
beschädigte
fürstentums
längerer
besichtigen
##vermögen
trag
schenk
pisa
dynamik
1723
##bot
mega
weltmeisterin
resultate
lasse
braunen
zwangsarbeiter
gesamtheit
bert
beraten
##iz
parade
dong
##ő
##cum
untergeordnete
naturwissenschaftlichen
knappen
graubünden
verschollen
tagebau
schönsten
##wellen
teuer
selbstständigen
luftangriff
befestigte
##hre
ineinander
##lügel
rica
griffel
##ünstler
schriftlichen
gewürdigt
finalrunde
sap
fehlender
drängen
bereitgestellt
124
gehe
1688
##bände
perfekt
magic
bassisten
existierende
derweil
zweithöchsten
##zeitung
profikarriere
optik
geologische
fortsetzen
bildes
##unkte
kol
##sin
murphy
mp
vermerkt
ridge
kümmerte
ernährt
##zig
überaus
katze
alpine
guinea
vu
betreffen
kid
##ust
##inn
gegebenen
fs
vorder
rita
playstation
senegal
konstruierte
##komplex
erschwert
syrischen
knaben
##lte
zweibrücken
salomon
nackt
##ibliothek
##ati
perth
libyen
homosexualität
mechanisch
rings
playoff
halberstadt
eisenbahnlinie
röntgen
partido
bang
tt
gremium
freud
defensive
außenministerium
bonus
ai
propeller
nathan
einkünfte
aufbauen
urlaub
serbische
prüfen
dai
##rren
##ante
fahr
##iat
reist
nennenswerte
getan
anwesenden
regionaler
illegal
gemälden
siedlungsgebiet
neuauflage
##back
freundschaftsspiel
165
1634
##zu
bachs
vielfältig
stoß
short
muskel
eingeschlossen
ia
1683
##out
##ob
stoßen
schub
herausforderung
unterdrückung
ua
berechnen
unabhängiger
ruta
bewiesen
##freiheit
1739
##methode
##kau
türmen
mittelschule
geschwader
entstehende
ureinwohnern
stadtkirche
stärkung
sandte
ilse
anhang
##mos
##dorff
bahnstation
tanzen
sinkt
gabriele
##schluss
offiziers
kassen
durchschnittsalter
zeppelin
##zeichnungen
mexikanische
##nung
witten
universitätsbibliothek
repräsentative
cockpit
abb
##inder
##iers
woll
stevens
novelle
##uchs
gemeindebezirk
dee
geltend
##partei
kirchberg
erlebnisse
viola
musikschule
annexion
aktivisten
##nna
##aler
verfügbaren
trägerschaft
intensiven
giorgio
##wissenschaft
##pielen
##ets
zen
schöpfer
1678
##rst
##linge
zweigen
treffpunkt
rezeption
gewährte
else
urteilte
hölle
herzinfarkt
##hlen
schwarzenberg
inflation
fh
entschlossen
industries
1734
121
##runnen
##peicher
sechzehn
cut
antworten
aero
stämmen
##can
willem
realisieren
bäche
schafften
funktioniert
erzgebirge
##wände
##iesen
verteidigungsminister
polo
kolben
1727
##achse
stadtgrenze
sous
ausreichende
##ndes
##fahrzeuge
kirchenmusik
cie
lagerung
1722
##schiff
mongolei
legendären
einher
##pt
lieferten
##nstein
vorkommenden
bs
heiliger
dorn
##versuche
##eam
orchesters
gelehrte
boxen
tb
provisorischen
moser
berichteten
nasen
langhauses
einbeziehung
##vin
##ová
##hang
stiftskirche
untertitel
gültigkeit
wüstung
tora
pächter
ordnet
untersuchten
nebenrollen
##kurs
geschwindigkeiten
verdankt
schnellste
respekt
dauerhafte
wismar
columbus
##10
##det
einstein
kies
leonardo
feststellung
arbeitslosigkeit
adjutant
absturz
##van
##ef
##ees
nat
##iana
ra
gauliga
empfunden
biblischen
grat
##versuch
##hardt
sullivan
sternwarte
bestraft
##oje
spvgg
hannes
##meier
referenz
dritt
neuss
##ev
gal
traditioneller
prüfungen
fliegt
1712
##α
filmkomödie
armeen
round
rausch
partnern
mauritius
madame
##pu
mosaik
metropolregion
##kar
hebräischen
##itze
sendete
##ektor
weide
völkern
filmemacher
1632
##rig
##herrschaft
##auten
mechanismus
fer
##sst
überzeugte
räuber
##konzept
##mp
zukünftig
vogelarten
rachel
essener
landschafts
belange
ausgegraben
orlando
flotten
komitat
##mme
standes
nacken
kramer
transkription
georgs
ocean
delhi
armenischen
aborigines
##eer
stadtviertel
lanka
demgegenüber
adenauer
core
beidseitig
nischen
getreten
##ning
ästhetik
##institut
sponsoren
offizielles
nachhaltige
ge
wars
körner
kennenlernte
erwartete
enteignet
abgezogen
spalt
scheitel
integrierten
enthielten
standpunkt
morde
kanadas
cemetery
ata
bewaldeten
beeindruckt
verdienen
götz
etagen
elternhaus
##mäßig
##fonds
vokal
sozialwissenschaften
maier
weißlich
orléans
gewerbegebiet
agrar
work
raimund
provinzhauptstadt
plasma
obgleich
hergestellten
abwehrspieler
1719
##üche
überwiegende
überlieferten
newcastle
filmdrama
briefen
bel
ländliche
gremien
beherrschte
wach
objektiv
textes
inge
##oth
##strom
teleskop
maximum
gewünschten
volksmusik
lösten
ach
mae
1689
gründungs
novi
leider
hughes
einflussreichen
##oo
##afen
##inrichtungen
federal
nrhp
kiss
mannheimer
she
gemisch
dargestellten
beliebig
begrenzten
##stra
cola
messing
beschreibungen
woraus
insassen
quadratische
kehle
ökologischen
airways
##у
stärkeren
pearl
eintreten
champion
schar
verlegen
reichten
paraguay
##instrument
##ichte
##höhle
zweithöchste
gastierte
religiöser
inkrafttreten
aufbauten
vorgeschrieben
benediktiner
##ān
##quet
afroamerikanern
stress
hühner
hochfläche
fraktionen
##ieb
##geber
südostasien
ne
vorsteher
vollendete
gebirgs
fra
137
kulturgut
fv
erschließen
entschädigung
albrechts
westeuropa
pi
pech
einordnung
##head
palace
gesteigert
selbstverwaltung
intel
flüchtete
intendant
hunt
fertiggestellte
priesterseminar
mordes
cincinnati
##р
sal
lo
dornen
césar
markierte
auftretenden
trinken
##ph
zwingend
vermeidung
aargau
##oche
kickers
kabarett
hiervon
gregory
1716
##xe
##fähig
##ries
regiert
##brunn
betriebswirtschaftslehre
klassifikation
eingefügt
wasserkraft
1880er
##nor
##lands
wing
unterzogen
touren
stadtwerke
fossil
##ske
überein
vermittelte
neuburg
alleinige
weißem
##mpf
schlamm
außenstelle
##meisters
entsandte
eiserne
centro
realisierte
libretto
##roth
##rden
pd
detmold
1672
##büro
smart
psychotherapie
einzurichten
relation
originalen
340
1450
hervorragende
1570
##läufer
widerstandskämpfer
guide
doris
rc
außenpolitik
##ör
##ques
tafeln
indigenen
chinesisch
zusammengestellt
sad
1705
leistungsfähigkeit
pölten
##toren
session
1728
##förderung
sandra
alias
1350
##uli
spätgotische
großteils
getrennten
##ief
titan
johannis
basen
spa
indonesischen
einflüssen
##brief
vorläufig
fakultäten
entwicklungs
##ersdorf
deich
##gny
sauerland
haaren
bergmann
##variante
arbeitern
judith
claudius
bediente
##ral
##nsis
räumlich
ausländischer
##rsdorf
vakuum
eingabe
ausgestaltung
unerwartet
tram
savoyen
bonaparte
alp
##oss
##iga
triebwerk
sn
übereinander
wangen
sub
aufgezeichnet
##lten
panorama
ester
hebt
aufwändig
klinischen
fünfzig
führender
variationen
norwegischer
montenegro
lebensmitteln
landesweiten
chaussee
##anal
nordkorea
gewünschte
geboten
exklusiv
becher
##reste
res
alltags
##ätten
vorherige
strategisch
preußens
police
pine
experte
##king
gegnerischen
convention
##ç
vorbilder
##transport
schießen
nicole
maschinenfabrik
##urn
##iele
##ech
##bal
lebenswerk
##methoden
depression
winters
nebraska
hörer
hain
firmierte
fehlten
dingen
##träge
dortmunder
480
##rbe
##lk
räumliche
nutzbar
graue
formulierte
niederschlagung
meiste
mangelnde
eid
bodens
thematik
stadien
nk
flügeln
erfassung
süß
präsidentschaft
##last
remix
musikalischer
lebenszeit
zurückgehen
versailles
senken
reed
hinab
geschafft
dialekte
baltischen
syn
eigenständiges
##zan
##via
zugeführt
weinberg
überarbeitung
taufstein
ehc
heiß
bartholomäus
wave
rufen
nass
laurentius
radikale
gerüchte
eindeutige
ming
akteure
ausgegliedert
aufgefasst
1711
tg
krug
##piegel
##griff
killer
hofe
##eifen
zwölften
musicals
merkel
erlernen
banner
##ommen
chang
##test
scharfe
ima
günstige
eröffnen
dringend
oberlausitz
kreta
fsv
aufwärts
70er
1709
##ichten
tauber
sw
spaß
burger
abschließend
##verlust
winkler
umgehen
##hand
stätte
rüdiger
mason
leidet
pokals
ideale
ausgewählten
##zin
##tier
##partner
kostüme
1729
germany
ausgedrückt
##wiese
##lei
ermordeten
##studium
volkswagen
geschütz
straßenrennen
statistische
heimatverein
auslands
##zelle
sportart
markante
bagdad
##äule
tours
zelt
kor
großherzog
daily
curt
stammplatz
operative
memphis
factor
phillips
abbey
##iven
raub
freiherren
##bericht
verwehrt
stimmt
sitzungen
initiator
anfänge
wanderwege
posthum
möglicher
erwähnen
suco
par
henrik
##nica
got
##räumen
brasilianischer
##lay
spezial
gc
cat
bombe
##istischen
tang
verringern
fürstbischof
elektrischer
##werken
verpflichtungen
stempel
rätsel
mallorca
##iges
toledo
kräftigen
gate
##zzi
holger
##este
hervorzuheben
doppelten
##ckt
gesellschafts
ash
verbündete
relegation
neuerungen
##ás
schwächen
adria
##ope
verteilte
lieferung
##uern
strauch
konventionellen
cash
1685
nashville
hausen
dauernden
amtmann
harvey
erzogen
sendet
erstrecken
befassen
bandbreite
##rats
strahl
präsidium
##atus
verb
satire
roboter
olaf
dein
unsicher
leeds
butter
##irtschaft
martini
cameron
kohlen
arztes
schafe
##werks
auftrags
aneinander
kun
goethes
wörtern
1580
##äusern
##vis
schirm
melodien
lazarett
globale
##inkel
nora
herford
epochen
##fisch
verwaltete
speisen
landgraf
gesteht
volksabstimmung
sardinien
atem
1560
##zentrale
adi
##oten
hauptschule
##oor
nd
kenneth
eingriff
1704
vd
jugoslawischen
con
blum
##mir
##keits
himmels
herausgegebenen
brachen
##irchen
bath
abe
streitkräften
ausbildungs
security
##setz
teamkollegen
foster
associate
##rollen
wells
noir
##iri
ausgeprägten
alberta
##arzt
verschaffen
hz
stockwerke
motivation
lese
kreuzen
vereinfacht
slowenischen
verwaltungsgebäude
wwe
pfarr
faser
sas
1731
markennamen
beiträgen
unterhalt
künftigen
euch
ausstieg
##rken
sogleich
française
fertigen
aufstiegs
abhandlung
##ede
übungen
rinde
braunkohle
senden
steins
inner
bankier
denver
oberschlesien
##lb
##öse
pur
generalstab
erleichtert
dragon
##vereinigung
##loge
verstärken
siebenjährigen
##osition
##ahr
mbh
##ň
dachverband
basalt
##if
##ct
##awa
##any
officer
bourbon
schlichte
wasch
trail
micro
##raten
ewigen
anfrage
gehaltenen
casino
befestigten
wünsche
##ändler
##kontrolle
tigers
##ná
##rzt
##dienste
wahlkreises
np
herrschaften
chu
homer
amtlich
##nheim
fordern
cars
131
tourenwagen
luftaufnahmen
1697
körperlichen
konsequent
ergänzte
beschaffung
erscheinenden
böhm
alto
buchenwald
##ș
##icher
##ado
talk
schaffhausen
konsolen
ausgeprägte
aufgebracht
wels
vc
sekundär
##anbau
richteten
kabinetts
##forscher
vergehen
owen
hieronymus
zeugnisse
gasthof
externe
enttäuscht
calcio
arkaden
satellit
laute
intern
angebliche
1635
##zahn
vt
volkswirtschaft
raumschiff
außerordentlich
7000
##tat
überholt
wut
wirkungen
verlagert
definierten
##vá
vorletzten
stattfindende
routen
komiker
korrespondierendes
kometen
gewisser
ego
blockade
aktiviert
basketballspieler
festspielen
pau
eli
profimannschaft
##ühl
überstand
hf
nepomuk
aspekten
steyr
kürzere
auslieferung
##kation
fränkische
unterschrieben
faschismus
##mitte
verspricht
späte
gesprengt
erliegen
guts
falken
bahnhöfen
nachschub
gw
##ond
support
reduzierung
durchlaufen
bewohnten
shan
now
##heiten
kruzifix
break
skala
heilbronner
gd
eleonore
ameisen
vergessenheit
such
stockwerk
qui
adaption
vorhalle
vatikanischen
jungtiere
entsprachen
dunkelbraun
secretary
mehl
engine
##gon
sechsmal
partikel
##bundes
patient
gesangs
boom
##gens
titelgewinn
lan
kan
anderthalb
1702
römern
oberhaupt
gay
##ρ
stürzt
magna
gloria
unterbau
tschechisch
demonstranten
420
##üsse
##alz
verzögerte
sweet
rajons
dd
hilde
spielstätte
kleinbahn
##spitze
übereinstimmung
illustrierte
missionare
biber
##waffen
##stalt
##hon
gus
##ili
zeremonie
subjekt
schieden
töchtern
teilhaber
hauts
ahmad
##armee
miliz
commons
##nan
##wicht
zeitlichen
netze
kraftwerks
wich
forces
ostfront
mannschafts
gesichts
##ava
spandau
meinen
flohen
steuermann
simone
gabe
entziehen
case
schock
jennifer
fahrplan
einschränkung
dreiecks
teppich
1726
1707
warmen
nächstgelegenen
hauptgürtels
gemeindegrenze
fun
##oda
wesel
wachs
une
##hip
##fahrzeug
veranlasst
abel
##uti
zealand
tierarten
mitglieds
drum
beeinträchtigt
##bon
vorarlberger
tragflächen
stendal
siena
municipal
ausprägung
ace
terrasse
planen
naumburg
ausgeschrieben
1708
reg
rama
erlebnis
enterprise
chassis
##sicht
##neu
rocky
glenn
ara
pumpen
familiennamen
bsc
schotter
rer
repräsentativen
abnahme
zement
norfolk
gl
adelsstand
nachteile
beruflich
##ypen
kranke
schlaganfall
córdoba
bauwerks
##hofer
schwimmer
moss
##ehr
swr
niederösterreichischen
früchten
##uma
sparte
petersen
frequenzen
rhode
neuesten
beiderseits
##sz
##rang
inventar
bulle
##lemente
solar
angegebenen
##tions
urin
informieren
grundfläche
##utter
##lat
thorn
gewöhnlichen
fließend
enorme
weltcuprennen
tales
republikanische
lu
leere
innovation
gefälle
erzählte
eingerichteten
drive
ausgestorben
verwies
ungeklärt
##zar
##ranche
fragment
umfangreiches
umstrittenen
neunkirchen
##marke
buche
138
peace
konstante
kapellmeister
fälschlicherweise
edmonton
##sverfahren
zuflüsse
stadtrechte
kriegsgefangene
##rbeiter
##mund
tätige
kristall
haken
funktionär
darstellende
birken
verankert
kirchdorf
gebühren
anthropologie
203
##ib
##abrik
happy
schlange
##nach
erlag
##veranstaltungen
luthers
glass
gastronomie
absolventen
lb
202
##gesellschaften
##chtung
trockene
1622
kommentierte
hofer
eigentums
##nski
##waren
##its
salem
künstlernamen
hügelland
aufgetreten
studiengang
het
karen
##icherung
stellenwert
grönland
gasse
dre
##qa
##ommission
portugals
npd
schmaler
md
1699
vienna
startplatz
##ð
kommunal
gutenberg
##reisen
zubehör
süddeutschland
resten
##einsatz
weihte
unterbrechungen
indianern
bemerkte
batman
vertreiben
jade
durchsetzung
bg
léon
leichtathlet
government
##funktionen
lf
kriminal
brook
##itte
bundesverdienstkreuz
##organ
verwüstet
ausweisung
tetra
schlafen
clay
trinity
preußisch
warburg
tumor
flaggen
##urkunde
##frage
nötige
jakobs
verschleppt
dab
automatische
##alis
zeitungs
wasserfall
qi
fußballspielen
##woche
turbine
gesandten
beurteilt
##endung
religions
externen
bauliche
##werkstatt
geladen
eugène
amy
walt
analysiert
wirbel
sogenanntes
konferenzen
filmproduzent
amateure
##lätter
überschreiten
vorburg
reutlingen
sakrament
natürlicher
vergleichs
verbesserten
ausgemustert
helga
##gl
versicherung
ufa
tötete
portugiesen
wahlkreise
hai
generalversammlung
dampflokomotiven
blass
astronom
artepitheton
alessandro
organismen
mendelssohn
bürgerlich
wüst
viren
schiffbau
landwirtschafts
jahrtausend
enkelin
schaft
antenne
studierende
lago
unterirdische
mn
brad
kraj
notar
farmer
einfaches
##mie
highschool
eth
entgehen
ausgewählte
zweitklassigen
hygiene
heu
##dler
fisher
curtis
hindernis
##schlag
vornehmen
mahl
dh
##moor
fundamente
airbus
mitwirkte
kasernen
gewöhnliche
aids
##darf
westfront
##vor
radius
drehmoment
mieter
adelheid
##enster
schalen
rath
productions
soft
girls
extremen
ablegte
3500
##qui
taschen
synchronsprecher
reichlich
##oh
dauern
befürworter
rast
shuttle
lenin
##mis
parma
schnellsten
konsequenz
gottlob
spruch
mängel
dreifach
##szene
##enen
mater
ewald
chelsea
beachtet
altarraum
##urt
milan
##eno
jesse
##rup
##oto
schleusen
methyl
erbracht
empfehlungen
onkels
military
bräunlich
seminare
enormen
buck
montgomery
häufigen
stecken
spurweite
eden
##wegung
yorkshire
vertikal
trump
sportplatz
prägung
lateinamerikanischer
isa
##ungs
##tre
spontan
sozialdemokratische
missions
charter
##aufen
schicken
beschuss
rhin
##mu
py
gartenbau
kontrovers
volksbank
politikern
lebensdauer
esslingen
chin
alphabet
##ßt
feindliche
adelaide
##ffer
schaffens
##vik
##verlauf
vitamin
puls
##insatz
##dem
mythen
has
vorsah
verbreiten
eisenerz
##wesens
##hara
##av
thor
kelchblätter
georgen
afc
##gebieten
urheber
ud
staatsrat
provinzial
than
harbor
hab
genetische
bergs
##zzo
yan
joy
ingenieure
souveränität
rupert
boots
autobahnen
ausschreibung
##boot
wiedergegeben
verlorene
riff
renn
##regiment
kreisfreien
cox
byzantinische
gros
##roman
##inde
##größen
kommandierte
bundespräsidenten
weichsel
ausgerichtete
arne
##dom
sole
nuntius
jahrgang
gebräuchliche
administrator
eingebettet
eingereicht
schrein
grünland
wallfahrtskirche
schloß
kane
heben
##nutzung
##nken
##eine
lucy
kit
bloß
abwärts
kroatische
locker
lichten
fundort
vektor
seelsorge
parti
legislative
kirchhof
halbzeit
flüchtlingen
bedeutsam
saarlandes
duett
anfängen
##hältnisse
##chsel
milwaukee
steinernen
ada
stromversorgung
lehramt
staatspräsidenten
frist
aufgestiegen
204
##eta
verlages
medikamente
hildegard
angesehenen
wetzlar
magistrat
##motoren
werdenden
gambia
dw
152
westminster
schickt
religiös
genehmigte
clarke
churchill
##mitglied
rassismus
kombinierte
verraten
oo
abfolge
##kind
ritt
osaka
neugründung
lea
gehaltene
fahnen
wettkämpfen
wei
ligaspielen
formell
entstammen
diamanten
119
plattformen
konto
moralische
program
mira
terrassen
repräsentieren
buslinie
stadtbefestigung
ordentliches
##ellung
stier
amadeus
bewirken
tarn
ragen
##eli
##amtes
lutherischer
förster
annie
##aria
einheits
dora
machine
justice
fabian
dominieren
schreib
medici
margin
filmpreis
durchgehende
aurich
##jahren
starts
nationalliga
jazzmusiker
##jen
ausübte
##kers
anzeichen
##wka
begeben
scotland
eure
bruck
winde
konzils
vertriebenen
gerichteten
chores
aufrechterhalten
ah
##saal
##rth
wolga
araber
vorläufigen
sehenswert
reichsmark
naturparks
kaiserlich
hendrik
detaillierte
bw
traditions
gp
angestrebt
abgesagt
##eiben
##angebot
gewehr
blake
bearbeitete
schwäche
überlebende
podest
sokrates
schwieriger
inspektor
fruchtknoten
dill
brau
beliebter
##gene
skiweltmeisterschaften
kristalle
großbritanniens
building
artist
##abel
nepal
markenzeichen
esch
bahnsteige
136
lungen
indianapolis
grundmauern
ausweitung
##own
##ký
##bek
unternehmensgruppe
tambon
qualitäts
krankenhauses
1703
##ej
lyriker
devon
elb
vollzog
halte
vermarktung
einkaufszentrum
cro
##oß
third
bandmitglieder
psychologische
klerus
fahrwerk
pyramiden
gest
fachzeitschriften
anno
##fuß
umfangreich
orgelbau
joão
jamaika
beschwerde
begibt
##ester
##aße
kirchengemeinden
ham
gemäss
begonnene
aufforderung
##tio
hopkins
bebaut
aufarbeitung
winzer
bestseller
##xen
beobachtete
##antrieb
gens
geisel
beschuldigt
amalie
anwalts
1590
##messer
viscount
lokalbahn
cornwall
abschnitts
##ax
schauspielern
hase
entfiel
dürfe
verdienst
ungeachtet
notfall
drittligisten
substrat
landgerichts
##ystemen
##tr
##sieren
radiosender
niedergebrannt
eindringen
amateurliga
umgerechnet
amtsinhaber
440
##kommando
autonome
##less
##ift
wiss
westpreußen
süßwasser
prüfungs
aufschrift
kliniken
bewältigen
##ción
überlebten
kunsthalle
apfel
schwierige
reit
gestört
gespalten
beendeten
129
##bücher
1706
##hren
vormarsch
##oma
direktorin
verarbeitete
notiert
beckens
äußert
kontinentalen
cohen
##getriebe
rna
beratungs
zhang
friedensvertrag
60er
##flügel
sozialisten
powell
eisenbahngesellschaft
##durchmesser
parallele
garmisch
bevölkerungs
##ahlen
sorgfältig
chemisch
##trecke
##kte
steigerte
slawen
mama
leistungs
laboratory
children
ls
##reuth
verlierer
altars
##aka
stadions
permanent
alarm
pin
herrschafts
günstig
##wort
##uto
evangelisten
tragödie
rotation
württembergische
keil
##ober
kanu
hess
bestellung
##erz
südtiroler
jose
erläutert
215
##iler
lock
georgi
ausgehen
angetreten
##inski
##fu
ve
gestoppt
dahl
133
stella
niederschläge
holm
##roduktion
verschiebung
rosenheim
niedrigeren
ion
direktion
144
##vereine
schulabschluss
lauenburg
rheinische
##hm
europastraße
kegel
##rief
##jar
pauline
zwangsarbeit
sojus
pforzheim
##uta
äquivalent
signatur
gutachter
bausubstanz
champagne
##bahnhof
wen
thessaloniki
hydro
bewirtschaftet
eignen
männlich
begräbnis
##lanung
##fahr
##besitzer
gestohlen
geological
brutto
185
verbannt
ruhestätte
queens
kolonisten
grüner
freigabe
carol
##enst
##dus
tech
hon
feinen
geltende
##teuer
schrauben
ol
hilfsmittel
disc
türk
rheins
oscarverleihung
kost
democratic
adlige
verschaffte
ou
dun
duc
begrenzung
##ierende
wanderer
schweiß
##ño
geäußert
##lut
referendum
brigadegeneral
##üller
##tab
##odell
##hill
zweikampf
sexual
mao
diverser
andrei
##aue
hora
gottheit
##ritz
kurfürstentum
abweichende
teenager
rekorde
landebahn
hosen
fragestellungen
engelbert
aktueller
veraltet
mora
mia
geistig
denkmalgeschütztes
##quartier
##fische
toskana
spinnen
sediment
professioneller
alpinen
gestellten
formale
##ürme
##nel
zuges
unterschiedlichsten
twin
##mmt
##lbach
bedacht
underground
montpellier
korrespondenz
flüchten
populäre
erfurter
beabsichtigte
vereinbarten
recherche
markanten
##ügen
##uh
wit
senke
pfad
sheffield
rhetorik
bedeutendes
pak
münz
gewerkschafts
beseitigen
##zügen
##urf
##tha
rivalen
meißner
erstliga
begeisterung
##not
halbbruder
derjenigen
unterquert
prospekt
kümmert
expeditionen
baumaterial
jacobs
freigesprochen
torschütze
sanskrit
era
avantgarde
##bezeichnung
vice
stellenweise
geruch
205
1654
nico
og
ens
ō
##lern
##lder
##freie
spielers
aufwendig
##faktor
schlüpfen
produktionsfirma
herstellern
##ů
heirateten
effektiv
siebenbürgen
lava
chester
##ösen
hecken
90er
honorarprofessor
dual
##pus
loge
interessierten
halbleiter
1610
sarajevo
sammelt
renate
demzufolge
cluster
bahnhofsgebäude
##papier
nadel
horse
berechnungen
anwender
lands
forts
festzustellen
##yu
##rr
spionage
bundesgesetz
##ndo
woods
uganda
naturdenkmal
nachbargemeinde
exponate
beeren
clans
bergfried
##gate
zwecks
verursachten
straßenbau
manifest
##denkmal
castel
##ilfe
staatsangehörigkeit
patriarchen
##itis
vereinigen
kreuzzug
beliebtesten
##tafel
stationierten
1675
bunt
brod
##jas
abmessungen
steinmetz
pool
gem
##aß
rate
elsa
arbeiterpartei
touristische
kahn
guss
niederen
motion
juri
fußballverband
##sum
##nahmen
schlichten
chorraum
1631
##ändern
##union
überstanden
reisende
gewinne
fish
cousine
fühlen
ausgerichteten
##kus
derjenige
sopran
reaktor
mani
##ngo
hi
graduierte
baureihen
köpfe
##ène
heeresgruppe
befehle
wochenzeitung
rückgängig
nominierte
deckt
1625
##uchen
snow
verringerte
unwahrscheinlich
pohl
variable
optimale
namensgebung
benny
behälter
##orchester
##cup
körpergröße
geschäften
ural
geschäfts
einsetzt
bischöflichen
richards
kreislauf
staatsminister
okzitanien
dog
mura
luca
brom
bekanntes
##oot
schmalspurbahn
hing
domain
common
come
##hat
intensiver
##zylinder
##kauf
##aa
wog
pn
hardy
delle
bundesverband
archäologe
##vit
gu
eigenständigkeit
auswärts
1661
ras
intra
grundsätze
festlegung
dozenten
zero
youth
päpstliche
fülle
überlieferte
bayerns
assistenz
fasern
##ray
##ales
scharfen
president
haftstrafe
1603
kunde
134
##gänge
weges
nc
leslie
inland
europäisches
aux
asa
##trainer
schottischer
präzise
organismus
fakten
##objekte
wiegt
diamant
beschleunigt
##fort
standardwerk
lesungen
gibson
##aterial
koe
jungsteinzeit
bruderschaft
1480
ricardo
##wang
##ndung
##ello
verkaufs
funden
balkon
prima
never
aufgestellten
dominanz
trient
sepp
psychiater
##ude
##planung
schlosser
##istische
stils
privileg
kulturell
zunft
stahlbeton
solch
nordwand
hauptteil
gleichstrom
gefäße
weißes
freedom
dramen
wasserturm
dramatiker
##kraut
##bauweise
straf
schwedens
agency
##erl
stehe
mittlerer
lektor
##hel
nh
gegenstück
##gar
wirkende
wanderten
vis
rivers
journalismus
jacobi
grabstätte
fitness
##rop
##achsen
saxophon
künftige
grundgesetz
linné
leone
behinderte
##onne
sektionen
kata
gutshof
dienstes
##ē
##rischen
vampir
oppeln
hebel
arminia
wellington
verwaltungsrat
praktiziert
##chow
hufen
beeinflussten
##laufbahn
##bre
krems
gisela
geschichts
alliierte
##chlorid
herausgebracht
breiteren
bist
wechselwirkung
vorliebe
furcht
cold
##anus
gruft
##lls
thurn
superior
lebensräume
che
brühl
zusammenstellung
wiedergabe
grenadier
fühler
hesse
durchgeführte
glatte
vb
algen
##opfer
vergleichende
price
wikipedia
##streifen
unzureichend
eisenzeit
drehzahl
prä
opus
impact
dramatischen
##reite
##branche
warte
prior
penis
akzeptieren
xv
beschränken
ausgeglichen
überprüfen
hanse
ger
events
verdienstorden
sommers
langsamer
endstation
##felde
yacht
lei
erbfolgekrieg
emissions
emigration
verborgen
mittelschiff
ehen
bennett
1684
##trasse
kleist
##schuss
teilnehmerfeld
schneiden
hauptdarstellerin
dani
ce
arbeitskräfte
newport
mache
##front
vorzubereiten
umfrage
bezahlung
1698
sulzbach
report
235
missionar
kirchlich
townships
leinen
koordination
habitat
370
kombi
bryan
aufhalten
arndt
wünschen
territorial
sigmaringen
landeshauptmann
haiti
gui
elektrifiziert
wirkstoff
soloalbum
rossi
repariert
bewaffnete
walmdach
verdeckt
sekretärin
ruhig
##jahre
ostasien
marino
##brauch
werra
trompete
thematisch
milieu
tendenzen
psychischen
neubrandenburg
erreger
erlen
emily
effizienz
1572
##tri
ritual
julien
##ther
namhafte
feierliche
##äder
umzusetzen
##wart
##arme
strophen
stehend
bergsteiger
wilder
polar
wächter
wan
proto
passt
hertz
##zwecken
##ignal
venture
unterrichten
pit
fließgewässer
forschungsschwerpunkte
erfand
##rät
##nti
una
triebe
mick
län
landesverband
erasmus
emporen
antiker
abwasser
##ská
molekül
kalium
verfassungs
unterkiefer
batterien
gesteine
##ridge
tatsachen
stoffen
pot
moderatorin
kriterium
##tärke
monopol
kj
enten
ask
1656
##aw
##stab
ungleich
bundespräsident
abzweig
1628
schülerin
innenausstattung
darwin
arrondissements
950
##uan
überspannt
betty
aba
pfarreien
partnerin
kubikmeter
kantonen
det
##nst
plata
neugestaltung
netto
herschel
gescheiterten
einblick
##rainer
kennzeichnung
amberg
##objekt
ausführen
aufzugeben
latin
damaskus
1870er
##oka
tracks
sin
außergewöhnlich
sgb
font
ehrendoktor
bremsen
##owitsch
tötung
sach
neutral
galizien
aufgesetzt
amtsantritt
verlusten
sag
dänen
212
brd
##ön
##nter
##bung
mons
##ingenieur
##cat
studienzeit
beging
##fo
scheune
dmitri
saul
kk
melchior
konstruktionen
elektrifizierung
bamberger
##nov
mon
1693
kugeln
gemein
trieben
rochester
neugliederung
lindau
dokumentieren
brandenburger
1629
streicher
ethnische
##ish
##drama
mil
tropen
tasten
schätzte
mitgewirkt
bm
##usa
woman
plattenlabel
ligue
irischer
eintreffen
care
bloch
ortsvorsteher
kampfes
hexe
##andel
zusätzlicher
missbrauch
##ê
##inheit
tränen
gaius
bischofssitz
##chie
wirt
tamil
schmelz
rückwärts
japanisch
soest
holländischen
##urz
rohstoffe
nieren
enzym
crawford
##universität
meiner
individuum
jemen
gewonnene
fichten
arrangeur
##jet
unregelmäßigen
anlauf
lade
##udium
sos
separate
sala
raben
monti
gesetzgeber
böhmische
verfallen
rangliste
io
edo
durchsetzte
dag
anonym
##kal
ulrike
frosch
fortschritte
dieselmotoren
buchhändler
##tow
##ntwicklung
zentralbank
kabinen
hurrikan
gegenseitige
cai
wohingegen
linearen
kunstgewerbeschule
kleider
have
hal
gewichts
flottille
dreischiffige
bevölkerungswachstum
bergleute
##meer
justizminister
bedienung
bedarfs
##tionen
lux
akzeptanz
sonnen
sidney
schmitz
dunkelheit
angehoben
##schi
liegend
konsens
275
spielzeug
körpergewicht
harmonie
gebogen
dämonen
client
borough
##ägen
##graphie
sukzessive
slawische
paarung
krypta
inspiration
kontrollierten
einsatzes
wirtschaftsgebäude
reh
pacht
integrieren
gibraltar
experimentellen
blöcke
beliebige
verwaltungszentrum
tan
schmied
nennung
geldern
edi
betonung
##ymnasium
steppen
piemont
imperial
diakon
schott
regimenter
eugene
##ô
weltliche
wal
visuelle
##н
neuseeländischen
mecklenburgischen
kraftstoff
gefieder
erwarteten
##zes
öffentlichkeitsarbeit
psychische
mills
historia
##я
##ege
rotten
inszenierungen
anbietet
weiche
transferiert
förderverein
beliefen
##ici
ritterkreuz
palma
##lach
porte
militärregierung
leitungs
komplexität
alexei
ravensburg
##assung
theatern
hergestellte
gedrängt
dünen
charta
sommermonaten
horrorfilm
dale
sicherten
hinrunde
erlangten
crystal
grass
gemischte
bemerkbar
##teich
voice
phänomene
leistet
joel
hou
gegenständen
ausführliche
1623
##yon
##höfe
lithium
lichte
erzeugten
delaware
##hafte
weißenburg
teufels
tala
marquis
food
ewige
starkem
rezension
instand
essex
cbs
zuchthaus
wester
bereitschaft
##ulen
##ones
taxis
patente
parlamentarische
1686
##ierenden
##ekretär
ncaa
inselgruppe
versuchs
verschwanden
trierer
strebte
sonstiges
erb
beobachtungs
annahmen
well
tageszeitungen
henderson
eintragung
durchflossen
täler
ausgebildete
anweisungen
abspann
nachnamen
giacomo
flusslauf
oka
freguesia
206
##regeln
##ija
##güter
flieht
bann
##lum
##gründen
##fluss
##flugzeug
stürzen
einflussreichsten
brennstoff
auflistung
alphabetisch
##arbeiter
maßgeblichen
##breite
würfel
wil
verbrecher
maxim
fiktive
##echsel
soli
oblag
kick
##portal
sowjet
filmfestival
##kasten
##festival
drückt
##dium
panther
finn
brooks
1621
##bezirk
wacht
sprecherin
sporadisch
komplexes
heiratet
##hne
##blätter
utc
philharmonie
luftstreitkräfte
pérez
ziegler
gong
documenta
chilenischen
gotthard
asian
##magazin
starter
niedrigere
mitgründer
chors
1652
heimatort
lópez
kriegsgefangenen
epitaph
##zza
##gna
wartet
timor
systematischen
horizont
haager
entschluss
eingriffe
##haften
zugehörig
profitierte
einflussreiche
edge
##red
##kowski
##his
katholizismus
gesamtweltcup
fleet
1664
untergliedert
registern
klinikum
baumann
ostantarktischen
emi
##ør
##sts
geschriebene
gegenspieler
farbige
antwortete
wirts
vic
delegierten
zahlungen
illustrator
göring
erwärmung
1667
1526
aufwies
study
##bschnitt
theodore
regelfall
polizist
manila
baba
perlen
materiellen
mata
lachen
gängigen
gonzález
beth
studiengänge
erstaufführung
einbruch
deal
##able
##ssi
verschrottet
lama
##ń
rohrbach
modernes
entführung
einiges
brasiliens
schuhe
merkmalen
gruppensieger
gelernt
betrachteten
##rtig
oberhaus
jakobus
canterbury
assistentin
übel
westfälische
geflohen
beschleunigung
##ssel
##nell
wandmalereien
vorm
unrecht
persien
gefertigte
freischaffender
denk
akzeptierte
##tochter
sus
ley
##chluss
ulmer
##nit
techniker
sar
rott
musée
aussichtsturm
1529
quell
aufklärungs
141
##ʿ
##malerei
ott
überwunden
##treifen
ws
kurier
kranz
hierarchie
feine
##pol
##ović
tessin
supreme
##vorgang
##llung
wiederholung
tai
porter
pioniere
lg
eiern
##übertragung
##ban
schutt
idealen
amphibien
od
niedergeschlagen
ireland
gruppierung
bevorzugten
konföderation
jensen
heimisch
exposition
##rme
europaweit
##chan
rookie
nantes
großgemeinde
sue
flügels
durchzogen
##lit
##aba
grundherrschaft
##rc
##fte
reines
kameraden
hochschul
1679
raw
monde
raab
kapuziner
empfiehlt
bu
##sprache
##nae
sel
nebengebäude
metropole
masken
dänisch
hartmut
ausgedehnt
angeordnete
##ausschusses
unna
gefundene
thrash
strafen
sheriff
kühn
##sco
witz
rhythm
jugendabteilung
interaktion
anschließen
abgedeckt
saum
milton
geleiteten
finnischer
akte
thomson
sichtweise
schwanger
kosaken
gerichtete
flöte
dazugehörige
circle
aufstellen
142
uli
hunsrück
feuchte
überfallen
separaten
memoiren
##fälle
verknüpfung
kenny
kaiserreichs
##gebot
lack
feierlichkeiten
verkäufer
umliegende
nordrand
konstitution
gütersloh
gutsbesitzer
gemischten
anjou
alla
1692
##betriebe
stadtbild
orgeln
lineare
überlieferungen
spezies
postamt
gezahlt
sicherlich
afroamerikaner
vertrauens
oberschicht
klee
hameln
entnehmen
sz
jets
##iguren
##eilen
nahverkehrs
eingehalten
1536
unterhaltungs
tatra
org
hara
gleicht
gegenwärtigen
abgeschlossenen
verlagerte
goldberg
midi
bai
##une
##terial
##rchiv
lew
info
häufigste
abgewickelt
1694
##nto
zeitlebens
waadt
reinigung
etage
##egg
verfehlte
strassen
cuxhaven
ziegelei
vorhandensein
forte
drehbücher
sey
resultierenden
betreffend
vermeintlich
nash
mor
##vision
##stoffe
judo
durchs
##sto
##jer
riesige
gutsbezirk
grade
goslar
einseitig
##än
snooker
sj
erbauer
betätigung
bereitstellung
##immer
##eiden
doping
ausarbeitung
abd
umschlossen
radebeul
obmann
nicola
mobilen
estnische
bäcker
azur
##mangel
dominikaner
architekturbüro
platt
1555
##entrum
schwarzem
problemlos
luftwaffen
dil
blinden
anstrengungen
rolls
reuter
linzer
buchstabe
aufgeführten
##tätte
rum
heiz
erker
##grenzen
niedere
einfahrt
computerspiel
collection
##ip
trompeter
secret
schütz
kronprinz
chuck
buddhistischen
ahmed
cloud
anleitung
211
ungewöhnlichen
symmetrie
schwimm
rush
renommierte
mass
lucia
lern
collegium
works
verabschiedung
pistole
oak
lärm
kos
glänzend
dialoge
rettet
freiherrn
ferne
cello
auslösen
##eda
##chsen
sahara
monroe
badische
zielgruppe
plo
modifiziert
durchweg
landgemeinden
hay
edel
corpus
##zki
stoffwechsel
##py
##block
zoologie
sensoren
hindenburg
gallo
ausgezeichnete
222
##rre
veranlassung
kingston
kasan
erfolglosen
bspw
arie
andenken
##bereiche
konzipierte
atari
##mast
zuflucht
prost
gliederte
##sitzer
train
heimatmuseum
erworbenen
##box
übersetzen
zuzug
siebter
dk
beiwagen
##chin
oberland
coverversion
bildnis
landesgrenze
entworfene
einstellungen
dauerausstellung
tm
robertson
indischer
ellis
zeus
wichtigster
bekrönt
administrativ
ableiten
##shire
##gio
olympic
geschütztes
##icherheit
sicherzustellen
schritten
hypo
groningen
bregenz
##sit
wagens
sperre
moers
kämpft
karriereende
gesprächs
exakte
duncan
bauform
195
sai
mclaren
canyon
américa
1676
1633
1626
schweigen
leng
jos
havanna
genossen
fed
bemühen
290
##vas
##runn
##oid
debatten
stummfilm
papua
umfassten
relevanten
raja
kreisreform
kaiserzeit
ee
1547
isabel
echtzeit
cer
##ι
##bridge
romantischen
essay
##route
regenwald
lehrbeauftragter
cao
verstärker
kre
eingerichtete
universitätsprofessor
betätigt
##eni
verde
solist
schwankungen
schleife
here
dekor
werben
strategien
bewegungs
zigeuner
bundesverfassungsgericht
abgestellt
1890er
vorangetrieben
psychologischen
143
##flege
adressen
vizemeisterschaft
infanterieregiment
gps
##usse
##ssystem
##enge
schanze
schalt
geradezu
renner
museo
kapitalismus
##periode
therese
speer
nu
migration
##iegen
vormaligen
verstecken
verlage
tauben
middle
wohnhäusern
volkswirtschaftslehre
str
sim
kreide
dor
massa
##asten
saug
angelegenheit
präsidentschaftswahlen
erstflug
öffnungen
nietzsche
neiße
nein
eingangsbereich
1695
1668
##eng
anfangszeit
##inien
liszt
koordiniert
assessor
zehen
steigende
physiologie
jetzige
hebräisch
genießen
df
##uge
##teilen
realgymnasium
mina
friedberg
erwähnenswert
##freien
wulf
vale
tagung
hiv
malereien
klären
geschildert
fitz
dampfer
belt
1681
m1
herzens
fußballliga
freimaurer
##ader
voss
erkenntnissen
##war
##direktion
##ahrten
formationen
##setzung
weiterführende
sensor
erdoberfläche
##ping
zauberer
siedlungs
mathematisch
astronomischen
nordhausen
lehens
gleisen
festungs
assembly
abgegebenen
öko
steckt
minneapolis
marian
had
davos
cad
wilfried
uppsala
phosphor
inhaltliche
distrikte
##kten
##ihe
##ders
serra
jedermann
grades
dubai
##uni
neuerer
lamm
höhenunterschied
##gestaltung
##etzung
zunge
cn
ö
obama
kürzeren
dietmar
##lly
deckel
cham
ablagerungen
a4
##hau
##gras
##gkeit
##dustrie
wasserstand
vermeintlichen
todd
nissan
martina
kamp
alleiniger
##xi
opernhaus
oberhof
lind
katz
geometrischen
einsicht
anlässen
andauernden
147
##altar
panamerikanischen
1687
1682
##verletzung
##mmission
testaments
room
lead
helmstedt
befürchtete
auer
eintrat
verwaltungsgebiet
tha
tara
taktik
handlungs
burton
aufgerufen
##programme
##mat
beworben
ale
##quin
##kawa
tropische
sund
kirch
##å
##risiko
##arbe
##abe
versah
ordinarius
malmö
lombardei
konföderierten
flussabwärts
compagnie
argentinische
grenzte
##vers
percy
freiheitsstrafe
rodríguez
gatten
emmanuel
breslauer
straubing
gesammelten
erwerbs
beleuchtet
1696
tiflis
gleichem
##baus
vereinigungen
beschließen
wem
katastralgemeinde
ausschlaggebend
abweichend
reparaturen
raster
1665
vl
refrain
##rmee
##eae
pflegt
interpretationen
haven
gesamtrang
##gürtel
planungs
partenkirchen
abgestimmt
www
kur
bour
1642
nutzlast
fürsorge
friedrichshafen
sprachliche
photo
1666
codes
zweitliga
##halter
bundesgerichtshof
beerdigung
basic
##rsch
jugendarbeit
exchange
bänder
seelsorger
lj
burn
albanischen
warn
väterlichen
versteck
malo
cecil
##nehmer
##akademie
wartung
ioc
hannah
erkrankt
bülow
vg
mentor
shop
hamburgischen
gründungsmitgliedern
geschäftsführender
##llt
##essen
wuppertaler
straßenverkehr
erweist
##iti
heilung
gliedern
fürs
arc
wurm
save
quanten
problems
mori
kollektiv
##vs
##tall
##ming
##elo
##chemie
spezieller
mangan
kommentare
dienstzeit
##rechnung
##amilie
mitspieler
holten
##familien
wirkenden
vatikan
seitenschiff
aufgehängt
wa
theaterstücke
indo
analysis
ut
1624
satzes
##sso
sortiment
reptilien
nan
eich
bohr
abschließenden
abi
jer
##tums
##steuer
linsen
fußballs
ethnie
diskurs
chrysler
##ppel
vorderflügel
violett
sho
rege
##panzer
terroristen
ausbauen
##dingen
staatsprüfung
potter
gospel
etablierung
bangladesch
sterbe
perl
optimal
1645
##rück
##ortal
##lings
schlepp
russ
kambodscha
1598
##ketten
wiens
rothschild
portugiesischer
briefwechsel
verden
seitenschiffe
nero
flanke
##sees
wirren
untergruppe
renten
kurzform
bestimmtes
##omi
##bin
stipendiat
schöpfung
mühlhausen
mess
kernkraftwerk
gotik
teiche
rf
odessa
goebbels
geschichtsschreibung
deportation
borsten
##nse
schützt
rosenthal
kredite
deutschem
besiegten
##spielen
stabile
pianistin
eb
##äulen
##center
rotes
ries
pe
cour
body
behandlungs
vie
tribus
objektive
echter
charakters
absetzung
##maler
##busch
kirchengeschichte
antikörper
##ün
nachbarort
krankenhäuser
gedenktag
einzelheiten
überqueren
zigaretten
vorherrschaft
rus
mittelteil
ministers
gegnerische
eye
bischofskonferenz
augustinus
schwarzes
310
1655
##ähigkeit
##glocke
oxid
strahlungs
##probleme
ununterbrochen
frédéric
differenzierung
1644
##ield
mat
löcher
lufthansa
dokumentierte
versehene
pollen
malcolm
legislaturperioden
kawa
abgeschnitten
##haut
watch
restauration
moleküle
gabel
chefs
alf
zwangsläufig
schliesslich
pfand
festgesetzt
zusammenspiel
bereichs
##org
##mutter
##cheid
wirklichen
store
fachschule
##šov
##mbe
versammelten
oranien
oberösterreichischen
schauspielschule
kelten
gefährliche
156
##tic
##einigung
steffen
rundschau
alta
##kai
##erer
romantische
lieh
händel
hero
enthüllt
##rge
wohnraum
gesicherte
funktions
##tücke
##nat
säugetiere
musikvideos
gladbach
finals
##itzer
##darstellung
true
jaguar
fischfang
archivar
verlängern
treppenhaus
magnesium
diabetes
popmusik
luna
humanistischen
glücks
gezielte
bene
saalfeld
##ε
##amp
schriftzug
patricia
damaliger
zusammenhängende
zukunfts
operette
mohr
kontroversen
geschäftsstelle
fle
berufsausbildung
stimm
steigung
sander
qu
por
gemeinnützigen
windsor
strikt
plymouth
mailänder
kurzes
kapstadt
autounfall
vorherrschenden
ple
manöver
korrektur
ful
aufhielt
1637
1559
pyrenäen
lynch
andre
##widerstand
##rger
provisorische
##änner
keyboarder
bearbeiten
auswärtsspiel
##ï
stabs
simpson
heiligtum
##bedarf
vorstoß
dreh
achim
##älder
westerwald
tribut
moralischen
##esi
wander
kompakt
gase
disqualifiziert
repräsentanten
muschel
jagen
belo
amor
lippen
inhalts
glashütte
elfenbein
auftauchen
olympique
außenseite
430
cho
alexanders
##tufe
verwirklichen
verbuchen
möller
alonso
sanitäts
regent
ug
polit
kleinasien
klassizismus
rasche
netzes
bari
##pläne
worin
herunter
geologe
filmes
farb
beliebigen
puy
gelege
badmintonmeisterschaft
1612
##ohl
entwurfs
einzuführen
1651
wertvollen
gefechts
begründen
##uff
##lement
##ffel
taxon
staatsgrenze
mancher
isländischen
aufstandes
arbeitskreis
##yne
mozarts
konservativ
kirchgemeinde
##lig
verpasst
mf
materielle
diskriminierung
christa
aufgestellte
arbeiterbewegung
tib
rechtsstreit
afro
ves
unterwasser
spezialisten
seilbahn
einmalig
ari
##lles
westturm
viva
kür
jen
gou
einkommens
bertha
##iki
minus
grenoble
erd
bewusstseins
ausgestattete
predigten
flüchtlings
flugzeugträger
aki
##präsident
##ami
münch
gestiegen
este
werkstoff
ukw
profitieren
kinn
itf
auftraten
altäre
##rra
verurteilten
verschmolzen
jeher
##verbund
##pannung
##ordens
##ange
quo
herd
eduardo
tsg
tango
sammel
nische
lebe
demokratisch
émile
vermachte
ufern
literaturwissenschaft
gesandtschaft
ars
zugangs
wohngebiet
merkur
kamin
inwieweit
nahrungs
firmensitz
bela
schöner
schöneberg
fried
angeschlossenen
heidi
color
einzelfall
anschliessend
##ono
ökologie
schaumburg
phosphat
geschriebenen
feldes
bedeutungen
##ruf
isolierte
höhenzug
hj
diamond
##rund
zurückgegeben
verliefen
melden
besiedelung
balz
##rtigen
##rama
gleichungen
denjenigen
##rieb
versteigert
königreiches
##ging
verbindungs
konsumenten
kil
geflogen
dou
1609
zitadelle
xavier
regisseure
nobelpreis
hinspiel
##к
##wehr
##vel
##ausstellung
urteils
pfingst
neueste
ermittelten
zuschlag
stop
revolver
militärakademie
letzterem
gewähren
dé
child
1636
symbolisieren
marschierte
hügels
bitter
##met
festgelegte
erprobung
vierzylinder
spitzname
lpg
1643
wikinger
tina
peri
geburts
card
##temperatur
quadratmetern
kaunas
göttliche
gunst
ernährungs
till
lugano
ballade
avignon
##üro
##räder
schwanken
parodie
befehligte
alo
schifffahrts
raus
quecksilber
chat
##streit
vfr
fruchtbaren
berufe
##rta
step
philologe
lit
finnlands
altpreußischen
##etti
passion
bekleidet
auszubauen
##oku
##iss
richters
nowgorod
esther
256
##rab
##iu
verhält
veranstaltungs
strafrecht
großherzogtums
elena
1653
##tiere
kita
zählung
moselle
eigenständiger
##ttel
wohnungsbau
thur
sofortige
fraser
denkt
bedeutungs
vinyl
silberner
jähriges
juniorenweltmeisterschaften
hierher
days
##ngel
##gers
wiktor
titularbistum
malt
jessica
pai
magie
1490
##rag
##kop
vieles
maud
kriegerdenkmal
eidgenössischen
1662
1521
privatleben
next
nar
blog
rezensionen
mechanismen
langzeit
anzubieten
gmünd
geschäftsbereich
falkenstein
drucken
beinen
1663
überwachen
zehnt
versteckte
sum
##sing
vorsaison
deutz
##bein
optimierung
kulturzentrum
gestürzt
geldstrafe
plaza
##ə
##srecht
usb
margaretha
festungen
abdul
zwingen
variabel
skizzen
mid
hefte
emigranten
anfänglichen
##rans
talente
sponsor
parkanlage
daf
##ichi
##auch
##alm
##korps
##immen
stellungnahme
staatssicherheit
sporn
sae
märkischen
##ted
nachzuweisen
##otor
##alk
rüstungs
prüf
nva
kantor
hochebene
banks
argumente
##systemen
förder
ersichtlich
dylan
berry
neugotischen
kanone
dvb
##ltung
wirtschaftskrise
landwirte
eingepfarrt
passiv
liber
##betreiber
zeiss
scholz
maha
fruchtkörper
angefahren
##fre
tälern
bor
##tius
##ington
shell
qualitativ
veteranen
nicolai
kartell
gelenk
amerikanern
rahmenbedingungen
phantasie
levi
wes
ssv
sorbonne
einkaufs
durchführte
buddha
seitliche
astro
410
##ome
tansania
nationalmannschaften
mercury
behindert
##lio
umstrittene
ned
kaufhaus
geschwindigkeits
enrico
assistenztrainer
anerkannter
##äte
##handlungen
ser
querschiff
ochsen
kalte
befehls
1638
##isation
mönchs
medizinstudium
geschnitten
218
##tour
omar
motte
iau
hauslehrer
##precher
vorgegebenen
panik
investor
interessante
indie
herrenmannschaft
calais
##teams
##lor
##hler
rufe
loks
##eth
mikro
eisenbahnnetz
cru
björn
##inheiten
##farbe
##dam
spätmittelalter
mile
market
lieblings
eagle
##chens
überging
unterzeichnung
räumlichen
literarisch
kriegsbeginn
domenico
##pri
thal
kurpfalz
gegners
1528
josh
1535
##sorgung
zustands
stations
1542
rk
pra
fly
editor
befreundeten
verpflichteten
skilanglauf
dynamische
##ugh
vorspann
teller
spärlich
lieb
kreisgebiet
besatzungsmitglieder
##the
zusammenfassung
schönau
oc
entstehungszeit
cam
##szeit
montfort
körperlich
aldo
##eto
tags
mittelfranken
johannesburg
met
leitende
hülle
1556
staatsgebiet
oz
mongolen
##lätze
wrack
ok
triebwerke
patrozinium
passen
mexikanischer
kreuzweg
koreanischen
gräberfeld
##sens
##rose
##paare
##die
verben
komme
croix
poly
hm
fließ
##rede
##olf
##afel
springfield
namensgebenden
migranten
hervorgerufen
devisen
1674
##had
sinken
schulausbildung
kunstwerk
1619
##scheid
taube
lettischen
jungvögel
geographischer
gefährdung
bildhauerei
ausgleichs
sexualität
fide
winston
torpedos
taka
gelöscht
andrews
##post
merz
brenn
beyer
abhandlungen
schwankt
mob
kombinationen
geologisch
frauenfußball
eheschließung
dynamischen
brunner
##ilo
mosambik
carnegie
##bet
englischsprachige
bauhaus
##wissenschaften
##eimer
pack
nes
karoline
erosion
##lp
überreicht
weingut
typischer
ella
capitol
süddeutsche
reggae
früheste
freitags
##rben
neuenburg
grünlich
albumcharts
1627
ärzten
wanderungen
jordanien
erneuerte
##wy
##jekt
uruguayischen
sitzplätzen
namhaften
kubanischen
kristallisiert
##zweig
superman
##enburg
baumaßnahmen
aarau
##onia
belgier
##zität
unix
rouen
gemeindehaus
##ique
marko
lebensende
korrekte
glied
##prozesse
schwarzburg
ordensgemeinschaft
##ní
##ause
some
rouge
print
popular
subsp
ausläufern
1649
##yk
manualen
lay
ermittelte
##tive
##né
zahlreich
nicolaus
lucky
integrations
inspirierte
dscha
bundesstaats
bonifatius
babylon
auferstehung
pommerschen
kreuzgang
gemeine
zweijährigen
schlagzeilen
lampen
karate
dinamo
baumwolle
##öffnungen
taz
festspiele
bara
aufgekauft
anzuschließen
##time
##latten
ré
nordamerikas
bezüge
unendlich
textilien
stell
neugotische
konventionelle
into
gefährlichen
entfällt
animation
##rou
##gent
jeglicher
##arn
voigt
kei
##ox
##ffekt
sternberg
konstruktions
homepage
guardian
gehör
annette
##behandlung
operetten
namensgebende
mausoleum
kampagnen
1605
look
davies
##tischer
teure
aufstands
asphalt
##mitglieder
##kapazität
zurückzog
vorgeschichte
pflegen
minerale
ergriffen
abweichung
146
gerlach
catharina
208
schufen
kurzgeschichte
gesenkt
frühes
dominierende
##ša
statuten
flying
einzigartige
bedrohte
##losigkeit
scher
herne
formalen
##ebäude
weitreichende
recklinghausen
purpur
hull
angemessen
##rium
##kur
verstreut
verfügbarkeit
tschu
shakespeares
rostocker
pixel
nationales
musikproduzent
##ugen
##artner
prägten
map
fahrtrichtung
zahlte
rheine
junkers
##ě
##produkt
##gos
vermehrung
ibrahim
hoffte
erforschte
ausgezeichneten
##fjord
elliptisch
straftaten
sergio
benno
##lie
weitergegeben
verweis
verwandter
resultiert
proportional
gesprächen
##sus
prozessoren
läden
hofrat
bergisch
vertretenen
oberbayerischen
länderspielen
isbn
großeltern
##avi
trick
aeg
##hos
##eum
##aktionen
versicherungs
ave
##ächer
##ennen
mächte
feuerstein
familiengröße
##schinen
##mb
tur
serbisch
motorräder
manufaktur
korallen
glatten
besonderem
##nkt
faden
214
1669
##dell
hsv
folgesaison
##unnel
zeige
wiedereröffnet
harburg
colleges
champ
begabung
1691
##orientierte
##hügel
norwegens
lex
kaninchen
gesunken
bal
unterstützungs
mönchen
##iker
raums
auckland
effektive
drake
1552
##chiffe
willens
patrimonialherrschaften
s1
podium
lichts
koffer
himalaya
gérard
erforderte
bourg
##leute
##ktor
##ides
##bor
stützt
aston
##rius
##messe
there
stipendien
pia
ortsbürgermeister
kron
klassifizierung
##vier
##logen
ostteil
dominante
ausmachen
unterzeichneten
naturschutzgebiete
entscheidungs
überregionalen
mündete
emeritierter
wedel
fragte
amerikanisch
##mündung
kommunismus
gnade
fachgebiet
bos
470
##grube
saßen
tabernakel
gore
eingetreten
befragt
##berge
individual
handele
fußballmannschaft
##dio
schleifen
ostafrika
nummerierung
güterwagen
##then
wide
rost
ritters
langstrecken
diagnostik
verschlechterte
trümmer
rights
grenzgebiet
gian
##emann
##bahnen
neuwied
exekutive
astra
piper
luftschiff
kla
geschwächt
gefällt
dramatische
brandschutz
##gion
tartu
prestige
petition
ele
1658
##plätzen
##partie
##hältnis
sparten
rettungs
egg
ya
sitzverteilung
saarländischen
ratgeber
lv
elektronischer
dirigierte
bala
##noten
zaun
unterabteilung
investment
honduras
##meisterschaften
vergrößern
dn
bereitet
android
überbaut
speise
dahingehend
##ν
persische
geleit
1671
##äufe
##ison
discovery
protagonist
ui
fernsehens
##11
##maß
##gewinnung
weltkulturerbe
unterirdisch
thermo
praktiken
nové
maxwell
jahreszeit
begonnenen
spiegeln
sem
scham
bevorstehenden
bedingte
##profil
verzweigt
gefährdeter
aufsteigen
kami
gänge
geprägtes
beau
rendsburg
mittelgewicht
beruhte
##ieben
##filter
mv
kou
enorm
belehnt
sta
self
lautsprecher
franck
bear
##unktionen
##ght
wasseroberfläche
warfen
innenseite
domäne
contra
auswanderung
schwergewicht
1524
##rain
##preise
südstaaten
simbabwe
nom
liebes
erholung
##quer
zusammenarbeitete
salzgitter
##cin
vernichten
staatsarchiv
rome
interessieren
gf
brisbane
##gard
restaurierte
hardt
##modus
vergleichbaren
tiefste
mütterlicherseits
himmler
ew
zier
vernetzung
verhandlung
schwan
evakuiert
südrand
recherchen
pfeilern
##tner
##bl
wagners
task
märkten
gegenseitigen
##zeitschrift
gehörigen
galerien
eco
dl
deckung
##versammlung
##asch
plate
lücken
lausitz
hügeln
hohenlohe
außerordentliche
1604
##kleidung
vorgehensweise
rollstuhl
pegel
neuro
1616
##eber
speichern
obhut
minder
laude
lateinschule
kürzel
cicero
##orth
##ces
zivilisation
versand
uri
tauch
sil
kreuznach
katastrophen
kartoffeln
fähr
durchschnitts
1657
154
##lik
##ausgabe
überraschung
südfrankreich
staff
nahverkehr
monarchen
ehrenamtliche
1534
triple
südwand
scala
erschaffen
myanmar
entspringen
##messung
##aktor
yuan
1585
tito
reichsstraße
hochzeits
arsen
1150
ub
henkel
fichte
ey
baulichen
umgebracht
mack
finanzierungs
fernen
##loster
wiederkehrende
unbekannter
treibt
pfeiffer
##dit
väter
mobilfunk
mitgeteilt
misch
intellektuelle
##gte
wahlweise
spielminute
siedlern
schreiner
rückgabe
moto
lenk
generalgouverneur
ehrenzeichen
##ritt
##format
1564
##önig
##isiert
##ext
untersuchungs
mannschaftskapitän
griechenlands
brauchte
325
##angen
keyboard
installierte
galatasaray
erklärungen
ohl
fungieren
đ
multimedia
kot
jahreszeiten
erbin
brügge
bauwesen
##ummer
##bra
suzuki
jahrtausendwende
iberischen
hein
katalonien
vertreibt
symmetrisch
schwein
problematik
maple
geometrische
einwanderung
astronomische
überdeckt
##olge
verwundeten
schwiegervater
module
kräftige
auftretende
sid
seemeilen
pds
metzger
geräumt
##zahlungen
##geräten
berühmtesten
ausgerufen
##trukturen
winnipeg
tübinger
schadens
psa
ferro
drag
bedürfnis
steig
mühe
grundschulen
angestiegen
139
##chung
zisterzienser
muslimische
kindergärten
aufgegangen
1527
##kat
unterbrach
rp
ono
kt
kalifornischen
##rache
peugeot
mdr
landesmuseum
bade
1860er
geltung
beitrug
1677
##hou
klagen
mana
farbigen
familienbesitz
endemisch
305
wiederholten
verfassen
blume
ureinwohner
kartoffel
erstem
endstand
##af
zeitz
verarbeiten
rittmeister
regierungschef
einigten
überschwemmungen
territoriale
mainstream
isaak
speck
landkreisen
hinterachse
exklave
doo
brunn
##reiter
stick
lehnten
kollision
garantiert
funktionieren
barn
aufwuchs
##cci
vorkommende
perspektiven
ld
bailey
hood
biblische
375
springt
slu
gerard
adelige
151
ver
klassizistischen
sauber
personalunion
navigation
kran
herausgegebene
erzieher
aviation
##manager
wahn
dienstleister
befunde
##roda
##lappen
brun
bohrung
540
158
urteile
théâtre
russisches
puppe
manuskripte
geräusch
beanspruchte
1575
##ù
silvester
karel
herstellte
geografischen
##ipfel
überragt
teu
kehl
como
autobiografie
##has
sprachlichen
##holm
stoppen
mobil
liest
fronten
vorstandes
vorgelagerten
said
infektionen
immun
erzeugnisse
angels
leisteten
doom
sterling
bergstraße
reno
außergewöhnliche
hau
geläut
fortzusetzen
coleman
beirut
knüpfte
guild
162
##bis
überführung
wid
trost
tree
peerage
gamma
fernández
resultierende
medikamenten
enteignung
mose
freiheiten
derzeitige
release
reaktions
kräuter
jong
schatzmeister
liess
gy
enns
##tzung
##ep
xbox
thronfolger
roi
biennale
##pfad
verpflichten
ritus
pola
germanen
birgit
365
##par
variation
horní
bru
unterwelt
saalkirche
ortsmitte
offenbart
homosexuelle
heid
cala
bewies
##ře
lilien
bauingenieur
hus
dino
augenblick
anc
##gia
tragende
sanders
liberty
devils
168
##zia
##lieder
rubin
rn
rice
weisheit
vertrauten
hank
einzigartig
bewerbung
aufgestockt
kontroll
friesen
chase
ausgeweitet
##rle
##appen
somme
olpe
##energie
wiederaufgebaut
lebendig
katar
hieraus
##ühne
##öpfe
##ace
##shof
##schnitt
##fern
titus
kraftwerke
1523
##nke
ant
verrat
tödliche
singh
belastungen
abzeichen
##sig
##ates
trage
schmetterling
pendant
mangelnder
kroaten
général
burns
auszugehen
##brück
touch
pieter
mittelrhein
hinreichend
donnerstag
cal
außenseiter
unterstellte
stu
partners
ingo
grobe
anzutreten
konstanten
clo
wechselnde
startelf
sprengstoff
lion
detailliert
stadtbibliothek
seeschlacht
kolleg
##ments
zukommen
studentenverbindung
romano
regensburger
hari
##aris
vorrang
thurgau
fußboden
fit
##steine
richardson
kündigung
handy
forbes
##öfe
##qi
##bos
sle
pradesh
lamellen
fortsetzte
fluch
authority
##knochen
##aire
rundbogen
fixiert
clermont
chess
##llon
touristischen
teufe
litauische
lastwagen
fur
bj
abstrakten
zweijährige
gelehrt
##gymnasium
c1
beige
albany
##weite
##shan
##fried
floss
einziehen
holy
holländer
gräbern
feldkirch
ballon
auflöste
agieren
##machen
verbringt
sonn
nebenwirkungen
lädt
gehobenen
diejenige
##element
vorherrschende
untersuchungshaft
tristan
suhl
sch
mos
löhne
lessing
kultureller
guard
esa
emilia
critics
1588
1568
##ì
##zione
überwindung
zusätzliches
ordentliche
m2
klarinette
hörner
hervorragenden
doktorarbeit
bäuerlichen
##sbe
vorzeichen
kir
erkannten
drittgrößte
abschließende
gleichgesetzt
gestaltungs
##side
identifizierung
gemeindeteil
blütenstände
unschuld
iranische
öfteren
tri
hui
gipfels
fili
1659
##burger
kro
isolation
franc
derek
befördern
##konzert
##ander
score
rumänischer
netzwerke
horizontale
1608
weihnachts
patriarch
kc
bekanntestes
##mia
unterlegen
straßenbahnen
muß
gebürtige
##uga
##mers
##käfer
sehnsucht
kontinuität
jana
dip
degen
weicht
siegreichen
regulierung
regte
konflikts
dela
bradley
##älfte
timo
sämtlicher
saba
##schin
tonnengewölbe
pyrénées
gekürt
electronic
berlinale
außenlager
1641
##operation
##lier
##lang
zak
verwaltungsbezirk
puccinia
neutralen
koh
karst
gruber
dion
bewirtschaftung
1230
schlosspark
privatisierung
when
fin
bibliotheks
##ær
##ito
##datum
##bb
walisischen
tyler
landgrafschaft
implementierung
hitparade
flaggschiff
financial
##nko
versammlungen
stopp
hör
1673
##υ
##gur
tschechen
milde
erkrankten
148
toiletten
königlicher
fuji
##zentrums
##ntrum
griech
fass
berühren
##ndel
user
atlantischen
##lee
patron
matti
kollege
1617
bona
bezahlte
vertikale
sicherungs
meldung
hassan
geeigneter
bestehender
anzugreifen
##rug
##ielt
wegbereiter
verhandlungs
pirna
kommentiert
geh
bac
##uster
##haupt
##frau
verringerung
frühgeschichte
##verzeichnis
δ
muse
lh
feldmarschall
163
spielende
senators
michaelis
lau
gangster
friends
erhoffte
##uke
umstrukturierung
schulte
bezirken
##user
##gis
1597
1565
##iva
##bögen
tagungen
rückten
manuell
drittklassigen
anita
ackerland
abgetreten
inhalten
fließenden
221
verzierte
leitenden
##rian
leeren
gründungsmitglieder
##uro
raumstation
korsika
bien
##mögen
##kirch
##hmen
rettete
falten
dorfbewohner
##äufer
##elen
klettern
homosexuellen
fei
drohenden
dauerten
brabant
##erei
nordöstlicher
kyōto
jamie
capo
##handwerk
umgebende
steile
literaturpreis
baustil
##ämpfen
spezialisierung
##udien
verbrennung
sachsenhausen
lotte
camille
##iftung
sioux
chrom
##bschluss
erlaubten
domingo
##pra
##ldung
##dens
stiftungs
1583
σ
rotor
mayr
kd
adventure
##yra
unterschriften
stiftes
ges
aminosäuren
sängers
nicaragua
gesteckt
1543
##tore
##ativ
sportlicher
nordufer
kompanien
hawk
vorzugsweise
rotenburg
güte
barbarossa
abgewiesen
##renze
pauls
nielsen
lublin
heiner
chirurg
chapelle
1611
##ulo
überzogen
verwundete
schlitz
schalter
pilaster
pfahl
kissingen
electro
betonen
zwangs
mitternacht
fanny
daumen
aw
##ča
staatsoberhaupt
römerzeit
gebräuchlichen
arche
amerikas
versorgte
tampa
novo
mazedonien
trompeten
tou
profivertrag
potenzial
kunstschule
kostengründen
##с
##mä
##architektur
zuordnen
lebend
historismus
belfast
##iums
verkleinert
verdi
kö
freundeskreis
##spiele
vereinbarungen
organisations
##atur
view
mineralien
häuptling
grenz
dub
##tanz
##sal
##hörden
keines
industriegebiet
angemeldet
##rest
ty
sämtlichen
gesellen
ausgebaute
andersen
##ós
verbrauch
gnaden
bananen
ausgewertet
##schiffe
##illo
oster
##ery
volkshochschule
richt
elterlichen
##sfeld
wied
medicine
karnevals
herausforderungen
ankündigung
##erke
##bibliothek
vas
töpfer
ostufer
konsortium
face
besessen
architektonische
academia
##nteil
##essel
##debüt
fahrern
morton
marius
hv
banden
##aga
pilze
ga
dro
za
umlaufbahn
teresa
säugetieren
nachempfunden
hintergründe
blocks
beantragt
216
##dnung
ze
mäzen
maigret
gesetzten
gebrauchs
cool
bali
##schau
schwerpunkten
residierte
instituto
chart
büste
gli
213
schiene
nbc
heritage
anzupassen
##inghausen
verschmelzung
sylvia
ingenieurs
ammoniak
niederschlesien
genießt
diktator
##tch
sec
metalle
kostenlose
ilm
hymne
fai
werbe
traun
tar
stadtarchiv
korrespondent
herrschers
celtic
bestzeit
zwischenfall
kosmos
khz
hey
fremdsprachen
christentums
ausnahmslos
##önen
##wälder
quechua
premierministers
leitungen
franke
b1
amtsgerichts
wallfahrt
obrigkeit
musikwissenschaftler
macdonald
maa
gebühr
einzunehmen
fortführung
direktoren
1613
157
##tsu
##bekämpfung
sprachwissenschaft
ministerien
kommandos
grenzübergang
gegessen
dschungel
bürgermeisterin
abgegangene
keim
##tagen
##motiv
##kit
vorbildern
niedersächsische
kō
konsonanten
babelsberg
archive
##lien
##eig
komplexer
institutes
ie
bachmann
##tür
##duktion
vernachlässigt
screen
local
gänse
grabhügel
abgedruckt
tauern
frankenberg
begegnete
verlegten
pankow
humanistische
genauere
##lé
triumphbogen
memmingen
korpus
übung
stadtverordnetenversammlung
silben
bindet
zurückgewiesen
kommandiert
hecht
erging
ausreise
arrangements
ablegen
ruderer
reichskanzler
dü
cle
##kurse
demontiert
verdun
segunda
rechteck
oberkommando
ela
łódź
tischler
schenken
mul
fahrgast
besorgt
belohnung
sure
monica
einzustellen
bra
alban
##kie
zirkel
prosieben
litauischer
enzyklopädie
choice
beschränkung
ausgerechnet
ani
##yna
##palast
oberstufe
dorothy
bücherei
anni
##helm
yves
liiert
aha
soko
reiten
oil
furt
erfordern
beförderte
##ßer
##varianten
vasallen
uh
pb
klöstern
aufgenommene
##rade
##hrung
va
ehf
anhaltenden
##lou
vermessen
schlank
lateinischer
dragoner
bohnen
ust
schätzung
haube
eröffnungs
001
##schichten
##bit
kontinuierliche
guerilla
freiin
beschränkten
560
##urse
##techniken
##hum
platons
niedergelassen
faz
brutzeit
blattstiel
auszuschließen
anruf
##ά
##log
steam
sitzend
mechaniker
makro
lm
architektonischen
aqua
saalbau
katja
endung
beherrschten
altarbild
##iso
##erfolg
##andes
wenigsten
lara
kirchheim
ganzer
dotiert
##ntal
##dre
paarweise
kreisfreie
freiem
erden
corporate
akustik
##esellschaft
schieß
professors
neunter
nationalmuseum
maru
hubertus
buchs
browser
kunstmuseum
gedanke
erloschen
dauerhaften
beschaffen
##enheim
##aya
rothenburg
nottingham
mekka
häftlingen
goldmedaillen
amd
abgegrenzt
1607
##scho
wahrnehmen
jahrbuch
honorar
##pal
tō
rente
polymer
ly
kleinst
gutem
##praxis
##aufnahmen
schütze
raj
schwartz
mahler
gäbe
grie
amazonas
tödlichen
selbstverständlich
kain
jackie
gleiches
gilles
generator
dv
drängte
1647
153
##bachtal
ulf
stückes
souverän
rheinprovinz
pla
pfleger
oise
etlichen
emilie
ausbeutung
207
1614
1562
ungültig
isi
dienststelle
dia
battista
##uben
##frequenz
ros
magnet
lichter
iserlohn
einjährigen
überlegenheit
wiederherzustellen
reflexion
nutzungs
mes
falk
dio
##design
südafrikanische
relevant
naturraum
leiters
bone
192
##ädt
##raut
wg
operativen
halbmarathon
ausdrucks
abgeliefert
##stück
weiterbildungs
virtuelle
##effekt
kerzen
hersfeld
fusionierten
erstellten
umgesiedelt
petro
lennon
zapfen
träume
arms
##lab
##erien
zusehends
organisatorischen
nördlichste
irving
ano
##î
##unternehmer
gerber
brunswick
luftangriffen
ljubljana
hegel
heat
französisches
aix
##gb
spessart
vermessungen
verkürzte
reichsten
atlantis
176
zurückgegangen
224
##ł
##gazin
vermittler
vel
textilindustrie
stefano
koma
juniors
integral
##ines
poe
granada
dillingen
rapide
him
filmfestspielen
fertiggestellten
bewerben
basierende
217
swan
solisten
seh
gemeinsamkeiten
fangen
209
westphalen
martín
##üren
vorgegeben
topf
kriminellen
arbeitenden
##inden
schätzen
anmerkung
tl
tao
pfarrstelle
nächst
jüdisch
federico
kontrakt
dachte
bingen
absolvierten
mist
ignoriert
expo
enttäuschung
botanische
beabsichtigt
assoziiert
stele
röhre
kulturgeschichte
gewaltsam
rei
gill
brutal
ausgebildeten
sowjets
pressekonferenz
namensgebend
kriegsschiffe
erzdiözese
direktors
mfs
genügt
##gue
weilte
schuldner
hochwertige
gekürzt
arbeitsmarkt
##äter
##sm
##ilen
physische
mecklenburgische
laval
kronprinzen
grafische
ehrentitel
adelstitel
1515
##ufgaben
schreibweisen
kanoniker
1599
1510
willie
kuratorium
hoffnungen
##unfall
##sund
##bergen
schlachtfeld
psi
castell
abstrakte
##uber
##feier
reicher
husaren
begrüßt
##50
sons
kontrabass
jar
accademia
a3
232
1558
öpnv
pitt
karpaten
gesundheitswesen
gel
forster
bekämpft
##ärke
südsüdöstlich
slowakische
rocks
gleichgewichts
gepäck
201
1548
##olt
##ao
schal
sande
pfeffer
ottos
jagdschloss
einjährige
carroll
##stift
##sein
##lius
warnte
sampler
georgischen
geiseln
gefechten
460
166
##reiheit
bet
##nier
##flicht
##esch
zuerkannt
suisse
basierten
ablöste
##herr
##chnitt
##alo
zerschlagen
gewerblichen
fähnrich
feststoff
##zsch
term
programmierung
gleichsam
gemeinschafts
##umfang
##angaben
südufer
jutta
##ecker
weißenfels
strömungs
seefahrer
pfadfinder
formate
##nien
##mei
##ière
vikariat
tra
radfahrer
landestheater
1601
##komödie
##gemeinden
pic
orbit
magischen
kreuzfahrer
germanische
familienmitglieder
bewerten
##rro
##regierung
gesamtbevölkerung
gebeine
fürstin
barre
##ämpfe
##aco
upper
testen
tastatur
sumatra
kompilation
1615
##й
##kinder
weinstraße
unterste
mitteldeutschland
jake
horizontalen
anleger
167
zi
uc
terrorismus
langfristige
involviert
geschehnisse
fraunhofer
forsthaus
serge
hyper
gemeindevertretung
flüssigkeits
1541
verkaufszahlen
verglich
quintett
modifizierte
##ury
##decken
phantom
mano
lynn
kolonialzeit
katalysator
concert
adliger
1492
zittau
ordnungs
empfangs
einw
bläser
ausschreitungen
1602
meinungen
kri
kontinental
gema
angewachsen
##wu
##rati
##icus
unternehmung
theory
landgut
##taler
##mond
südöstlicher
meilenstein
bundesminister
1561
##verkehrs
weltcups
mis
friedland
foreign
1563
landeten
hemi
tau
musikwissenschaft
loyalität
kletter
ausdrücken
##operationen
##liches
##lam
nordwärts
munitions
kauften
beherrschen
##äfte
ster
minderjährigen
gängige
gle
archivs
access
absetzen
1460
##zugehörigkeit
##yang
##klub
##bandes
überquerte
pokalwettbewerb
marvel
kriegerischen
zentrumspartei
wiegen
westens
taucher
politikers
hinterflügel
##walt
##hut
##gk
umher
repräsentant
grundsätzliche
genuss
##ästen
##mee
verpachtet
too
geschätzten
gefährden
frederik
erholungs
donner
##veranstaltung
michele
dinosaurier
biberach
##inae
kill
##jow
zinsen
regelmäßiger
betritt
beständig
aga
abzweigt
161
1592
##aufgaben
##artikel
umschlag
##12
##inrichtung
tama
südwestlicher
symbolische
swift
hiro
greene
geologen
direktmandat
##rojekt
##lbe
##arbeitung
üben
ärztliche
ingeborg
fay
##rp
##ema
vf
tes
tasmanien
lola
fernsehsendung
bul
blauer
alexis
##gler
##ehre
tro
staufer
leihbasis
iz
economics
detektiv
##toff
##inhaber
strada
ling
dogen
dock
superintendent
nachgehen
mariens
josefs
ht
besitzes
##κ
verwalten
führungen
bestands
1539
##tudien
vampire
ride
jahrzehntelang
bing
beträchtliche
##dle
vermeintliche
lila
kirchenraum
giants
auffällige
anzuwenden
##ção
##zirk
##olen
##legen
##eschichte
##char
schächte
gerichten
einverstanden
172
ghost
forschungsgemeinschaft
defense
beauftragten
banda
ava
##gleis
telekommunikations
musikpädagoge
untergeschoss
haber
brahms
sto
shō
medina
innovative
ilmenau
hag
gehoben
drastisch
behielten
befragung
arta
##lea
nau
konfrontation
carsten
##ormat
napoléon
geschäftsjahr
empirische
##iano
sende
rührt
unabhängigkeitskrieg
gedenk
ante
##sver
##mbo
skisprung
kirsch
haydn
gaston
frische
burke
bora
##hua
##bataillon
##azi
wendel
indienststellung
genetischen
bauteil
abgerundet
##ergie
wertvoll
bestrafung
##ils
nl
mccartney
gewand
erbach
calvin
buchhandlung
bam
aufgehalten
##ith
weis
waisenhaus
##rch
##jahres
steirischen
sint
ship
ratsherr
gap
ahorn
1470
##ransport
##nummern
commodore
##ál
##furt
scheich
primären
verkündigung
uz
qualitäten
nordwestlicher
mitleidenschaft
fraktions
1532
sitcom
rheinisch
1571
wasserkraftwerk
verputzt
vega
gestellte
aufzug
##01
##giebel
weitgehende
seu
ritterschaft
ekliptik
bewegten
anmerkungen
allenfalls
vegetations
staudamm
1553
papyrus
neptun
größerem
fi
evelyn
eheleute
720
verhängt
statistiken
reynolds
reichenau
chemical
byzanz
bemerkenswerte
1595
wernigerode
muslim
eo
##stern
##rage
##edi
südamerikas
relativen
neutronen
kana
hauptaufgabe
ankauf
##qua
voor
teig
nachkomme
jungs
geest
engagieren
bildender
amiga
1646
stor
prognose
erc
begleit
artur
1569
##jon
selbständigkeit
erschlagen
raphael
natal
nachmittags
lap
gelisteten
entfernungen
asiatische
anja
1420
##tempel
##klinik
##kh
##clubs
ša
spielertrainer
schauspielerei
sambia
reflektiert
cali
##dge
völkerrecht
pharao
einklang
265
1519
öbb
win
verdeutlicht
schriftzeichen
ringmauer
perioden
hermes
ground
blend
1554
##rb
##dd
verantwortliche
schell
imam
darmstädter
##dat
saw
hürden
gans
aer
schauspielers
riefen
dru
deine
books
varietäten
scho
flüssigkeiten
##riedhof
reim
pharmazie
pf
evakuierung
einigte
todesopfer
mok
##knoten
##ead
wee
unzählige
steck
konfessionen
gebr
avi
1639
vorstellen
sic
gesichtspunkten
dili
tf
städtchen
schulleiter
ostsüdöstlich
manitoba
litern
gymnasiallehrer
dfg
transparenz
stolp
roe
eschen
erinnerungs
pio
nationalteam
gutshaus
farbgebung
ehrt
##atten
simons
lizenzen
lina
kunsthochschule
feuchtigkeit
fat
##schwindigkeit
bol
bewaldete
##ř
##kala
qualifikationsspiel
primäre
cerro
bestleistung
##odi
##ginn
ärger
praktizieren
pforte
herrschen
frischen
aufbaus
günstiger
##phen
wachen
verdoppelt
torres
nähere
lampe
freilich
angeschafft
##usbildung
right
nester
bewirkte
passagieren
entließ
direct
cornell
baukörper
automobilhersteller
1589
##gal
villeneuve
vertraglich
regenten
heidenheim
abschließen
1606
##д
##æ
harper
entsprechendes
entgelt
schauspielausbildung
kritisierten
gir
ausgeht
arp
##division
verwirklichung
verwaltungseinheiten
elvis
claudio
beigelegt
##pro
symbolisch
forschern
doubs
bewaffnet
##tse
##nah
übergeht
zentralasien
sächsischer
auslaufen
##presse
montags
ios
520
##ław
made
geneigt
##rri
##fell
vertraute
togo
anbot
##latte
waterloo
synthesizer
kunstverein
klippen
cyber
aberdeen
ärztin
winden
selbständiger
norweger
arch
##ši
scorerpunkte
kingdom
##umme
##rno
##gewebe
stadtmauern
siegmund
ping
ostwärts
kolonial
aufnimmt
##örmigen
##uo
##moos
##anischen
zugänglichen
kinderbuch
kaiserlicher
gleichstellung
##ersonal
legal
landwirtschaftlicher
instandsetzung
gleichheit
fremder
bran
##schlacht
##rdi
zusammenhängen
gurt
economic
ausgebreitet
abzugrenzen
##ams
planmäßig
lionel
laufend
gebot
fresko
bevorzugen
1567
##villa
##uit
##iar
##archiv
sally
lebenslange
intelligence
gefertigten
datenschutz
billig
##zeuge
##scu
übergeordneten
verlängerten
unger
ori
menschenrechts
buddy
blo
##öne
spann
flachs
were
psalm
kulisse
ke
gruppenspiel
aloe
##bewegungen
verzögerung
vereinte
tugend
rechtsextremen
nordatlantik
michaels
junction
dominique
anschließt
##ärten
##eler
zuwanderung
zunehmendem
bertrand
importiert
aktives
##top
##nähe
##höhen
solidarität
scholl
mod
entsprechung
##informationen
978
245
##unterschiede
##reaktion
zähnen
zuverlässigkeit
stabschef
sporthalle
mustafa
hommage
dosis
severin
magnetfeld
emmerich
cara
ausserdem
##teine
##dol
ehrenamtlicher
dot
domänen
##völkerung
voraussichtlich
til
rezeptor
ovale
nächstes
mh
medizinisch
linguistik
kasimir
enthoben
angefangen
##uerung
##statt
##rische
übergehen
mika
hunden
##rka
##logy
sprech
rechtswissenschaftler
pos
parc
namenszusatz
gebhard
dokumentationen
cas
bla
640
1566
##20
##ül
season
oxidation
mahnmal
cine
##stad
##formation
virgin
jump
beaux
beantwortet
arabischer
akustische
164
sou
erworbene
aden
marias
lagune
fix
bürgerrecht
##sung
mei
lunge
knut
##rekord
reality
klara
fröhlich
fri
forschungsinstitut
berühmtheit
berchtesgaden
armenische
##ämie
stücks
##leitungen
neubaus
israelischer
experimenten
dänemarks
bundestags
##ürger
##handels
hed
eschweiler
ahr
##fla
versen
regelte
nara
fassungen
zünd
vermessungs
geschützen
dig
1577
simulation
mühlbach
identifikation
howe
domherr
baulich
255
##pop
##fingen
##behälter
##aschinen
wellenlänge
topologie
schulische
ortsgruppe
karneval
hunds
glasfenster
display
clare
cave
cargo
ruß
haftung
feuerwehren
ek
##chichten
rr
pil
eisenberg
bewertete
wiederbelebung
vogtland
sporting
färöer
bernburg
ansprüchen
##inus
##acker
wesens
rennes
chanson
##orientierten
videospiel
senne
pri
##amin
vorschrift
vorläufige
verbreitert
schilf
nowo
##verhältnisse
nim
333
##joch
zusammengearbeitet
westteil
dienstleistungs
australier
anselm
alu
##oz
reservat
konvergenz
gefärbte
engsten
##ction
serienmäßig
beni
##sand
##ersteller
##cas
ukrainer
sounds
nea
français
##ák
geschätzte
fluggesellschaften
flight
ever
departements
blas
1596
##stischen
würdigung
wirkungs
remscheid
1594
##deck
##cer
versöhnung
prime
eingeräumt
berühmter
spielweise
qa
hoff
gründern
enrique
coupe
bombenangriff
1578
##üste
##sg
vorgetragen
lebensstil
##treffen
##siert
##igt
thunder
privatpersonen
manual
lab
gewitter
##reiber
##eriode
vorausgesetzt
mansfeld
hindi
boll
##potential
synchronisiert
stones
petersburger
energieversorgung
##vertreter
##aku
twitter
quellgebiet
marin
foot
erträge
bertram
##uy
verteidigungs
rams
publishing
fleischer
einberufung
aj
##xy
##iese
##egion
erstere
bed
arnim
vo
muschelkalk
marsh
leit
auflief
abgeflacht
##reien
##kompanie
strukturiert
schlanken
referendar
picture
oberhoheit
gesunden
bäder
angebotenen
##ota
##eiche
timișoara
nw
murr
kenner
geburten
erblichen
##zol
##echte
##abschnitt
untersten
singular
nekrolog
mittelalterlicher
bedrohten
anzulegen
salzwedel
rou
krankenversicherung
ernannten
ausgearbeitet
##lberg
wos
segeln
morning
fähig
freibad
duft
aircraft
##olizei
strang
kwh
grafiken
gleisanlagen
frances
apache
301
##yte
##lak
##bestand
want
sli
sieb
rotations
reisten
kl
gegenleistung
geoffrey
einführte
##holt
vorträgen
sotschi
pausen
native
##xa
vorgelagert
quentin
montan
floyd
enthaltene
##wig
überflüssig
schilderung
carbon
segmente
rudolstadt
lausitzer
kuni
##fan
wertheim
spezialist
marktführer
gren
gesellschaftlich
##mit
##law
tieferen
skandinavischen
lagerstätten
konteradmiral
esel
##loh
umgangssprache
##text
gebliebenen
angemessene
abbrechen
1586
##weit
tiefgang
rebounds
preston
orangen
ranch
lebensbedingungen
bindungen
anstoß
##regel
##herapie
##hals
stage
spezialisierten
gassen
fugger
extraliga
##ziehung
##anns
tennisspieler
ringel
naka
folklore
##dig
steuert
stabilisierung
ränge
##ossen
##ful
zerlegt
südkoreanischen
sussex
positiver
niederbayern
methan
journalistische
familiären
atome
##chein
volkszählungen
vaterländischen
rumänen
getöteten
felle
errungen
bab
##uts
##regionen
zuverlässig
mcdonald
malaria
kehren
hbf
faber
169
zwillinge
zweigstelle
zechen
bestätigten
befürchtet
abba
##übungen
##js
zulauf
tiefbau
southampton
krankenschwester
klassizistische
##beit
vermietet
fachliteratur
pha
argentinischer
##wn
##ago
zivilbevölkerung
suk
picasso
bodo
bieber
bemalt
##lot
##agazin
westafrika
connor
affairs
182
##pper
schornstein
pg
originals
minimum
katrin
boykott
bambus
archäologisch
##röße
##onds
wandten
psychoanalyse
gud
cliff
chevrolet
attribut
stromerzeugung
schnauze
phi
mayo
keltische
idaho
gesteins
alfonso
##stärke
##gat
warnung
vermischt
touristisch
philosophisch
mena
kellner
amtssitz
1584
##reit
##empel
sulz
solms
navarra
aussen
stach
singlecharts
schlitten
landschaftsplan
krankheits
kemp
erheblicher
zer
quin
pali
offenbarung
lebenserwartung
epos
eisenbahnbrücke
cornelia
##äfer
zeller
vorliegenden
shah
clyde
anzeiger
##rze
rud
mittelamerika
biochemie
about
##ächen
waters
generalvikar
1557
##äle
##sang
natura
leicester
hauser
erholte
emotionale
##jn
stadtkreis
kasachischen
kart
circus
##orgel
übt
übertragungs
sánchez
offenes
matsu
zugabe
vermisst
schief
olympiastadion
notierte
formierte
anleihen
##ierungs
wel
saisonbeginn
gerichtsverfahren
ef
drücken
assists
apostolischer
wirtschaftspolitik
siam
portsmouth
desktop
blair
##fang
terre
surrey
stachel
plakat
verwandeln
nf
lens
dit
##tafeln
##nhof
édouard
kaufmännischen
##pos
umkehr
rekordmeister
denkmalverzeichnis
##partien
tiergarten
rück
querhaus
nektar
göttern
elektronisch
eingebaute
##pelle
##künstler
umsetzen
sachsens
plans
gram
culture
aktivist
##star
vereinbarte
venezianischen
hir
gewählter
brauchen
##nay
##hauser
##brücken
unterteilen
passenden
nationalismus
laos
immanuel
güstrow
erfahrenen
derzeitigen
bestattung
ausfallen
177
##â
##esser
##bst
uspd
pk
##böden
spannweite
durham
##skaja
##gattung
##arriere
thorax
staatsstreich
physischen
passive
hochdruck
eagles
duisburger
auszuführen
1544
##öden
##osch
sno
meldungen
heimgesucht
ertrag
aufgenommenen
annimmt
##reg
##lmann
spider
schnittstellen
philips
normalspur
entscheidungsspiel
##ngebot
zeugt
wilmersdorf
joyce
danziger
roadster
oktoberrevolution
##uel
verordnungen
spätgotischen
seitenaltäre
klärung
belagert
##ällen
##uc
äste
yard
vollem
streu
muscheln
hussein
grove
beaumont
reid
record
lore
fn
verleih
nordnordöstlich
controller
bö
##läne
wiederentdeckt
liegnitz
hiermit
einbindung
bleibe
argumentation
verlagerung
u2
sza
ses
narren
landesvorstand
jeffrey
einstufung
dürr
abwanderung
##ilanz
übergegangen
vorge
vicente
sonja
nachwahl
beginnende
##grab
zimmern
nächster
gründet
elektrizität
aut
##projekte
schönste
durchgehenden
##sek
##pokal
##lund
wr
unterteilung
row
kämmerer
erwerbstätige
vorhergehenden
royce
quartal
provincial
ortszentrum
landschaftsmaler
hinweist
elfenbeinküste
bootes
##ogel
##formel
##anne
steigender
kochen
gaststätten
##filme
ute
trockenzeit
ostens
mäuse
fliegende
draußen
##aat
versailler
umbenannte
tochtergesellschaften
maxi
matrosen
borneo
neubaustrecke
erforschen
datenbanken
aya
##rieg
##lima
zahlenmäßig
verbannung
marbach
fernmelde
brent
beispielhaft
zahnarzt
walser
ungeeignet
lar
junges
ernsthaft
akademischer
##tad
##räfte
pre
maastricht
hale
egal
wupper
politikwissenschaftler
late
##äne
##stände
zwischenkriegszeit
werften
vaterland
sascha
modena
baro
50er
##bier
zugpaare
viertes
spindel
rover
klostergebäude
gauß
##ulation
##stan
##hebel
##dampfer
reb
befestigungen
##adel
verständlich
sten
mint
gewandelt
bankrott
autobiographie
relevante
lein
inch
aufkommenden
##pumpe
##oftware
##eitig
##bend
stillleben
siegten
nano
käthe
folgendem
flores
aktivierung
nachhaltigen
königshof
kante
hierauf
altenberg
##verlag
roggen
mündungs
flasche
banknoten
##felden
vista
spätsommer
lines
klo
##kor
é
stör
##örmige
##stische
##gor
svp
mühl
automatischen
##sätze
##hor
wegge
stillgelegten
schne
schauen
mgm
fluor
##sau
##funde
##flotte
##aun
thermische
inka
##ttbewerb
##kra
zulässige
vettel
turnhalle
neustädter
irgendwann
gunter
beschleunigen
beisein
##ktivitäten
zusammentreffen
zeitspanne
stasi
kf
1551
squadron
sportlern
obi
gesims
cardiff
##kli
##ewski
trainieren
rebecca
heiße
freikorps
christie
brain
botschaften
aurora
##örder
##gern
seitenaltar
kraut
kids
höhenburg
feiertagen
diesbezüglich
patrizier
mez
hinrich
dolní
credit
bezwang
bauwerken
aula
artikels
wahlspruch
vergleicht
gesichtet
computers
betreuer
leichtgewicht
grundfarbe
erbringen
beklagen
ausweich
akkordeon
##omo
##chu
wis
stabes
##wicz
##gewölbe
tff
qing
ostfriesischen
landesweite
füllen
feierlichen
browns
brat
##nsi
opa
lügen
##iller
janet
engagierten
aso
##atoren
versprochen
madeleine
deluxe
aalen
##oxid
spekulationen
palme
money
lörrach
historique
decks
api
##uhren
yen
wohlhabende
beklagte
223
##hes
witte
weißensee
unvollständig
perg
mau
beweglichen
beansprucht
auerbach
1522
##verarbeitung
verunglückte
vasen
segler
lili
f1
deg
bors
##uis
wassermühle
streckenführung
pv
mairie
herzoglichen
bettina
bautätigkeit
verteidigungsministerium
roller
emir
drangen
detlef
athener
sprengel
parlamentarier
palästinensischen
pakt
adelsgeschlechts
##xid
##itzen
wim
räte
intro
geschichtlichen
beibehaltung
##sicherung
##requenz
##gentur
sekundäre
ausgetragene
1545
##pes
##oper
voß
vergewaltigung
moni
mobilität
miniatur
blanche
##recher
nb
naumann
wintersport
tone
respektive
makedonien
least
hann
frühzeit
flugabwehr
borken
bandleader
anmelden
##oso
##hit
vereinzelte
regierungsbezirks
fußballtrainer
euler
drau
verzehr
versetzte
mutationen
dominik
##urger
##pas
use
reservoir
niedergelegt
mör
kohlenstoffdioxid
gebirgszug
frankenstein
erprobt
##ünde
##nker
fahrplanwechsel
donna
distanzierte
alfredo
aas
##zogen
##utzung
##nster
wahlberechtigten
sofortigen
ranking
notation
jeremy
félix
1576
##ziert
##uhl
##ká
zugängliche
faschistischen
erschießt
derartigen
##sur
verschleiß
rezeptoren
marines
benedict
bayrischen
##aer
verhandelt
trondheim
terminus
seltenheit
republican
konzentrierten
gries
denkens
barmen
1531
verheirateten
spieltagen
reißen
fertige
##že
##ßler
##reu
##problemen
rundbogenfenster
mona
herrenhauses
akkord
1538
##pach
##netzes
ratsherren
gerundet
falun
173
##wohnung
schultz
brixen
bauherr
##nich
sergeant
freundlich
diagramm
##dent
wirk
paper
halbfinal
frühjahrs
frederic
dutch
wiederwahlen
westufer
vorabend
lehrstuhls
kriminalität
ax
##ogramm
##ence
##begriff
wismut
pierce
lé
gerüst
filial
canadiens
##gast
##chichte
rezept
paramount
ldp
kraftfahrzeug
handle
besiedelte
beriet
bains
ausgestatteten
##undes
wuchsen
wochenenden
felde
exe
elise
einzelpersonen
eingefasst
divisions
diebstahl
bruins
2021
##irektor
schwamm
oberbefehl
dat
228
##ull
##pad
##firmen
zurückzu
vil
niels
mädchens
mala
lebender
khl
florence
arbeitszeit
##о
##lick
verstoßen
opernsänger
bravo
##ligen
südsüdwestlich
deli
somalia
nos
genie
farblose
##irma
##ense
##bio
ölgemälde
würdigte
scheinwerfer
noble
muttergottes
litauens
kale
floß
dominierenden
concordia
änderten
untersteht
cry
##т
##erne
sperr
putin
lub
heath
erstveröffentlichung
change
##ssung
wirtschaftswissenschaftler
toll
musculus
milizen
lower
kanon
hast
filmreihe
##unter
##tigen
##heer
vertiefung
städtebau
schanzen
beachtliche
##rist
##lı
unterschrift
tempelhof
plantagen
lehrerseminar
gekämpft
eiskunstlauf
einnahm
##mitteln
unzufrieden
stech
generalrat
fertigungs
entwerfen
dijon
bedingten
apa
##dh
zutaten
spielenden
konstrukteur
gründers
baumwoll
##steig
volkskammer
sia
rollenspiel
profilierte
privates
nachweise
interpretierte
##eat
theresienstadt
schlauch
operator
neutralität
jost
baur
abkommens
##ühlen
##onzept
cove
beschaffenheit
##rone
##ourt
##linik
merkt
doppelkonkurrenz
ajax
##genen
walzen
prägend
bombay
##kle
tana
heutiges
habilitiert
gemeinderats
erlebten
1582
terrain
modifikationen
maut
guadalajara
##ündung
##ues
##dou
pavia
##uda
##hol
priorität
piet
navigations
magische
kha
gewohnt
##tts
##landes
untergeordnet
sut
ran
nordische
mains
elfte
bunten
beträchtlich
149
##erklärung
versicherungen
qualifikations
perm
korrigiert
eingeschätzt
cic
weilburg
taxa
radi
##ij
verhaltensweisen
rak
neumünster
ama
##sat
other
lehns
joshua
hawks
eingehen
aura
##zon
##trakt
vermessung
iwanowitsch
gemeindeverwaltung
dieb
schrecken
loh
konfiguration
kirke
ill
ili
doug
bigband
##eyer
##elin
##core
ticket
südküste
schnellstraße
scheu
kari
gunnar
gepflanzt
familienunternehmen
bent
ausgewiesenen
##halte
teddy
partnerschaften
identische
emissionen
ehrenlegion
clifford
##überwachung
##sender
##pflanze
ökumenischen
vin
uniformen
zuhörer
rampe
physikalisch
178
##dow
wi
ren
bundesstraßen
##staltung
##chul
virtuellen
bauvorhaben
aberkannt
##tretung
##stufe
##esa
übergeordnete
yellow
kis
fw
##ahnhof
unfälle
rauen
nixon
##unn
##alde
orchideen
maison
leichtes
ehrung
dampfmaschine
angebots
183
##rtige
##reh
##mur
umbauen
stadtrats
logische
gardner
eventuelle
bewährung
veräußerte
verzweifelt
inneres
auen
##ulus
##schine
##ower
##lattform
patronen
herausgab
angreifen
##ël
##etzen
ʿa
zugespitzt
trophäe
holl
chun
bou
blasen
auftaucht
188
##rmann
permanente
geflügel
aufzustellen
verfügbare
sessions
offensiv
mussolini
meereshöhe
längerem
enz
boo
bischöfen
241
##stätten
##genieur
schillers
##öcke
##orium
##ahnen
pate
manns
lor
erhöhter
börde
bolivianischen
artefakte
anal
anhaltende
##ų
rächen
regenzeit
kru
gefühls
gallien
friedlichen
erkämpfte
einnimmt
##luft
##kung
##ket
westafrikanischen
umfangreicher
plünderungen
mittag
inoffizielle
garonne
fruchtbare
faso
cora
chemikalien
antisemitische
##čice
umfassendes
filmfestspiele
conservation
brei
##yas
##pie
##lotte
vorweisen
tran
stö
kooperationen
ewig
zusammenhängenden
nordküste
gestärkt
emotionen
bergbaus
ableben
##nisch
##ieder
##folgen
zerstörern
vorwand
veräußert
veranstaltungsort
peterson
nem
lüdenscheid
hauptver
erschießen
transporter
spreng
rastatt
gelehrter
fallschirmjäger
diagnostiziert
1573
wittelsbacher
stören
rehabilitation
junker
gefoltert
flussaufwärts
endes
defekt
chromosomen
242
##stock
##lben
zeremonien
wache
verkehrsbetriebe
rwe
mittelklasse
dodge
184
##übergreifende
##rel
##gewinn
sparen
schlesische
geleitete
betriebes
abtreten
1587
##oc
##jes
industrieller
europawahl
coverversionen
automaten
ang
##aufnahme
urenkel
praktischer
gezüchtet
1591
##abkommen
uta
mehrfache
lingen
lesung
inder
bestreben
##vre
##marken
##ehe
yoga
scheinbare
ola
##tock
##tam
überreden
zuwachs
riegel
papen
herbei
fir
erfolges
erbschaft
crown
##oge
##ippen
vortrags
verbotenen
reiß
obliegt
hôtel
friedliche
friede
anteils
1546
##gefahr
ue
superliga
somerset
interpretieren
historikern
bahnstrecken
schaum
reglement
heaven
hacker
experimental
departamentos
aufeinandertreffen
##zwecke
##ggen
spiralgalaxie
nai
krämer
jes
diagonal
##gren
##chts
trent
fussball
signifikant
kostüm
bundesebene
bauphase
193
##rti
wildcard
rückeroberung
psycho
nachname
musica
druckluft
brennerei
anstehenden
##waffe
##lastung
rota
mate
kal
industriell
bewährte
##äste
##pers
##ogi
wanne
verbreitungsgebietes
soziologe
rückenflosse
marburger
host
bae
zielsetzung
vernichtungslager
pfosten
ortsbild
kerr
einfuhr
##ützen
##oko
##ohle
##enau
tol
straßennetz
reformiert
nürburgring
newman
geschmacks
comune
andauernde
alemannia
##rukturen
rebsorten
anzu
zd
sä
menhir
lieferanten
##echer
vorsitzendem
unbemerkt
technisches
syrische
stillen
statut
silbe
prägt
interdisziplinäre
cu
astronauten
zylindrisch
splitter
gleichzeitiger
charme
##stin
tec
summen
ostrand
entfalten
##racht
kapazitäten
hasel
echt
ciudad
bh
adjektiv
##bro
vogels
siegreich
potentielle
plötzlichen
pfarramt
franzose
eingelagert
begeisterte
##felsen
rennsport
moderation
mauerreste
lektüre
hort
citroën
benennen
tunis
cos
baustelle
addition
##ärbung
wessel
shiva
seidel
großzügig
ci
##ree
milden
leader
historien
geschlechtern
arroyo
##nja
##lumen
fängt
els
boa
##schäft
wp
tannen
müllers
ino
indirekte
greif
1440
##rds
##lav
susanna
pendel
initialen
infrarot
hug
##sil
##riften
schriftstellern
melde
herrschaftsgebiet
behandelten
wirkliche
vertikalen
same
fälschlich
distribution
beb
##gaard
##far
psychiatrischen
logan
kipp
harde
erscheinungen
vermuteten
heidegger
gefährdeten
##nick
weißrussischen
neuwahlen
lüneburger
genom
garantie
creative
##run
##apa
teilgebiet
sprachlich
regisseuren
isabelle
hole
gesund
bak
torgau
residenzstadt
ov
kurie
kang
hofmark
brüten
bauabschnitt
anschläge
##fraktion
verdächtigt
naturwissenschaftliche
masten
johnston
fü
doppelter
baja
ateliers
apollon
##ér
##kranz
##gehen
##federn
südwärts
rie
rent
lokomotiv
eur
autoroute
##lokomotiven
xx
wirtshaus
unverzüglich
tin
schwulen
konservativer
estadio
eröffnungsfeier
zutage
verstaatlichung
oberfranken
matrizen
grabungs
akzent
schnur
limit
gelbliche
bürgers
abkehr
##aud
unterwerfung
tauf
nennenswerten
finanzkrise
beschäftigungs
versehentlich
muslimen
##pfe
übertragenen
zf
schlanke
oi
geige
fabrikanten
elfmeter
einhundert
bunte
beteiligungen
1581
##sition
##rche
suspendiert
sis
rändern
ner
jou
beethovens
allo
##vorschriften
##gem
##euerung
unternehmungen
radios
pere
fog
##nest
##kk
trenn
rab
organisatorisch
nutz
nebenflüsse
ministerin
maca
kommunizieren
gewerkschafter
deportivo
blank
bhp
##krone
woo
spott
räumung
revolte
reading
morrison
hampton
dra
achtzehn
##ämpfer
##torf
##set
##ple
##etta
iu
geschichtliche
312
##get
stationäre
organisator
massiver
königsberger
beschossen
antonia
angelsächsischen
##umi
##ement
worth
vrch
novel
lungenentzündung
komet
knappe
fortpflanzung
##sme
oppenheim
computern
chips
beschädigten
##ähe
vincenzo
mittags
kie
blockiert
binder
##uchi
möge
komponistin
hardenberg
buddhistische
beisetzung
##situation
##ministerium
##kins
##iß
return
meg
kreisliga
bulgaren
bee
##untersuchungen
##mor
##hälfte
##bbau
papierfabrik
oberster
much
intercity
heike
gates
contemporary
belegschaft
verhinderten
usbekistan
oakland
kul
kirchlicher
beeinflussung
ausgeführte
ausdrücke
aufgestaut
angebrachte
alster
##katalog
neuf
meran
melk
expeditions
burkhard
betrafen
##sdorfer
##bia
talern
tabu
merit
genossenschafts
beate
aufzeichnung
anmeldung
##probe
zoologischen
weile
psychisch
monitor
byrd
aufgedeckt
argentiniens
arbeitende
annaberg
##zyn
##geln
##asa
übungs
zutritt
vladimir
visier
schu
langsamen
hayes
elliptische
bussen
alpin
##mut
modelljahr
teurer
oman
homberg
aufgesucht
anwohner
algier
##nza
##idge
rivière
machthaber
glu
frans
##rfolg
##pit
##kreises
verfechter
stammvater
snowboard
naturstein
flat
concern
broad
##ande
zahlungs
verzweiflung
rockmusik
phillip
absichtlich
##aub
besteigung
##lda
unterlegt
trink
tate
ore
opfers
macau
1430
##assade
sor
kragen
1574
##rach
zufalls
reykjavík
nal
msv
michal
landesherren
fo
1220
##üll
##ista
weltmeisterschafts
gedichtband
cop
blinde
bewegliche
630
übers
veralteten
tian
schönborn
mie
levy
hn
halbfinals
beigetreten
##xis
##lian
ziegeln
worcester
stangen
lahti
kreisel
kasseler
jahreswechsel
geschichtswissenschaft
auflösen
apparat
angelika
1533
##ři
überschattet
vorzunehmen
verdienstkreuz
subjektive
staumauer
sequenzen
samstags
honor
geschichtsschreiber
flämischen
zwittrigen
webseiten
todestag
randy
ihk
gehörige
ergänzend
##tai
wieland
edison
bever
226
##husen
wörth
vp
thailändischen
salze
pu
organisten
kühlung
hochge
1537
##day
vertraten
studienreisen
strasse
ru
hamlet
graphen
##zk
##upt
whitney
sti
nomenklatur
literarisches
liberaler
##she
##hoven
##hoe
ventil
ria
gedruckte
gebets
gall
collège
bestplatzierten
##té
zentralkomitees
themas
shot
sejm
nordnordwestlich
hauptportal
bezugs
betreuten
wildnis
vizekönig
berufsschule
willkommen
weigert
titelverteidigung
schlussendlich
reorganisation
investierte
inspektion
fußballstadion
entlastung
229
##triebs
##nner
##muck
##lation
##häuschen
wai
universiade
tageslicht
oldenburger
heuss
gla
gi
ehrlich
senkung
poll
n1
monatliche
metternich
lega
lao
kabine
hervorragend
betreffende
beschädigungen
amazon
##če
##ütten
##lfe
spinn
reuß
lösch
goss
geburtstags
##zis
##ustand
streckennetz
poren
eingelegt
drop
##hur
##flanze
##alon
turnverein
tera
stéphane
orientalischen
mohammad
mexikos
medizinischer
kurzerhand
kommunalpolitiker
förderpreis
flöten
cg
attorney
##urus
tanks
relevanz
nag
bow
##lant
##ervice
zee
seiden
schlegel
quoten
niederlausitz
maschinengewehr
log
erhobenen
brass
1512
##rchitektur
niederung
lanz
kien
doma
cultural
brescia
blankenburg
befürwortete
roz
magnetische
locken
biotop
beurteilen
adele
##verbänden
##ringer
##eti
tiefebene
thronfolge
schutzpatron
profifußball
phra
mutation
kolb
ine
hübner
haifa
fjord
angepasste
##orts
stadtentwicklung
pir
obigen
halo
gendarmerie
flacher
##gebirges
rv
nuss
##training
tos
produktionskosten
kala
hasan
formeln
bloße
tribüne
site
niedrigste
##stor
säbel
rottweil
pracht
porno
nationalbibliothek
flussbett
sprinter
passierte
obern
julio
juliane
deb
beträge
ami
##kasse
staatsoberhäupter
jagst
flugbetrieb
deutschlandweit
angefügt
π
straßenseite
piazza
bekanntheitsgrad
231
##slav
wonder
registrierung
pdf
martínez
inneneinrichtung
##untersuchung
##toffe
spezifisch
landet
kapsel
glo
eintraf
chlorid
##ochen
##eigenschaften
xml
travel
stadtkern
serviert
klingt
handelsschule
ay
aran
##zahlung
kennzeichnend
ergreifen
choral
##tests
##card
wanderers
sterns
sichel
seymour
ratsmitgliedern
ostnordöstlich
kni
fahrzeit
dichterin
brighton
1593
strike
pipeline
personenwagen
geteilten
fdgb
dramaturg
altmark
315
##qu
oda
hydroxy
##wärme
##gesetze
womöglich
geförderten
fälschung
architektonisch
anregungen
algorithmen
##tadion
##cen
##abzeichen
zuteil
geringerer
fünft
marek
geforderten
falkenberg
apo
unbe
referendariat
milo
fp
enzyme
doppelb
ärztlichen
vuelta
galen
freistaates
berta
##lsdorf
troy
rea
leuchten
lappen
gleichzeitige
gewaltigen
##ό
verständigung
juventus
hua
droste
cordillera
besançon
ark
ade
##ym
ökonom
umge
tru
plot
passende
##ské
##opa
sexuell
mus
liebig
forschungsergebnisse
antisemitischen
670
##endungen
stream
sechszylinder
reagan
hartford
bescheidenen
##rozess
##oga
##aufbau
stillstand
intervall
gender
abgeschlossene
papiere
meh
künstlergruppe
baltikum
arbeitsweise
234
##tv
zwangen
verlangten
urlaubs
poli
innozenz
höhenlage
higgins
eingleisige
##bindungen
verpassten
pilsen
gastspiel
eishockeyliga
##schreiben
tumoren
stabilen
movement
klarer
eingetragenen
brauer
beschränkungen
angedeutet
390
zhu
nis
mitsubishi
kalb
fürstlichen
führe
friedhöfe
fachwerkhaus
##vy
##stes
##ermin
volksgruppe
rückspiele
momente
moderatoren
marta
chromosom
befestigungs
bandes
##sgrad
##pet
##emeinschaft
rauten
patronat
michelle
esp
dahme
betreuungs
##reiben
willis
weingarten
königstein
freigestellt
flüssig
flugzeugs
falcon
##wie
##boote
wohnplätze
teuren
teltow
steinberg
skin
schwalm
mensa
gnu
durchgangs
arrangierte
##rweise
rag
naherholungsgebiet
marguerite
feuers
doktoranden
cornelis
beschuldigte
##plattform
##ographie
##benen
tres
portale
kollaboration
fortbildung
rekonstruieren
manu
kriegsverbrechen
toro
straßennamen
kürzester
gattungsname
abschuss
##ädter
##water
übertroffen
sedimente
schlichter
rok
nachbau
heimsieg
festhalten
empirischen
##tek
magnetischen
iod
herstellt
hack
geografische
empfand
dixon
##ward
##problem
überwintern
rotbraun
revolutions
gebar
expressionismus
demos
brien
##nbe
##kla
##drüsen
zipfel
sterblichen
riet
reinigungs
pawel
identitäts
ensemblemitglied
##haltige
titelsong
musa
beziehungs
abhängt
abgelegenen
##mine
weitsprung
petr
pars
odo
lohr
jansen
##ume
##sor
##ego
zeitgeschichte
schimmel
landratsamt
inkl
illustriert
gießerei
fd
facharzt
einöde
##chon
sinfonieorchester
ritz
heimmannschaft
fremdsprache
fear
ausgrabung
armenier
##liegende
versagen
sayn
offshore
jugendmannschaften
installationen
fantasie
##staaten
##rriere
##frist
zugute
streiks
stephanie
lebensgefährtin
##vent
##opo
chao
bundestrainer
##erstellung
verletzungsbedingt
umgerüstet
seide
neuseelands
guitar
dimitri
bun
##srate
tasche
judas
flügeldecken
definitionen
darstellten
aufwändige
hes
erna
##anspruch
##angs
##alität
mem
fernverkehr
bestattungs
##liegen
##deckel
##cos
traineramt
kühler
granaten
fraglich
bataillone
aufschluss
abdullah
##organe
##iehen
zwangsweise
schwäbische
pirmasens
ivo
gottheiten
##weig
##stro
ägyptens
protektorat
festnahme
aussichtsplattform
##gleich
zielt
reifeprüfung
ode
misserfolg
hiller
geschäftsleitung
gesamtschule
dy
285
##hilfen
zusammengeführt
weiterge
spaltete
finnen
ermorden
baronet
262
##sca
höcker
dreifaltigkeit
brock
bestieg
beitrags
analoge
##neubau
##iw
##aßnahmen
niederließ
kommissarisch
epa
##mengen
##darstellungen
organisatorische
mehrfacher
dome
annen
##ntrieb
spielerin
selbstverständnis
römisches
ri
opernsängerin
olympiasiegerin
offenburg
körperschaft
izmir
gastauftritte
einmalige
altersklasse
254
pharma
mittwoch
joche
1260
tänze
größtes
gefallene
caen
bedeutsame
##ziele
wissenschaftliches
trek
shu
ressort
neutrale
neuseeländische
laguna
dvds
[...]
