[PAD]
[EOS]
[UNK]
[CLS]
[SEP]
[MASK]
der
und
die
in
von
den
des
im
mit
wurde
dem
er
ist
das
Die
als
zu
auf
ein
für
eine
sich
war
an
##s
##n
aus
auch
bis
nach
am
Der
bei
einer
zum
sie
##en
durch
##e
werden
einem
sind
nicht
Im
Das
wird
es
In
zur
einen
über
oder
wurden
um
##r
dass
Er
unter
Jahr
1
wie
vor
vom
seiner
sowie
nur
Nach
noch
hatte
seine
Jahre
##er
aber
zwei
Sie
hat
##a
waren
2
eines
ab
zwischen
Jahren
sein
Am
dieser
Es
gegen
##t
jedoch
Zeit
Stadt
seit
ersten
so
3
etwa
drei
wieder
de
5
of
Als
seinem
seinen
mehr
später
man
kann
diese
Bei
liegt
4
Von
beim
##es
ihre
Ende
konnte
Mit
ihm
erste
##o
heute
Gemeinde
wo
kam
Teil
haben
##i
Mai
dann
bereits
##m
Januar
August
März
Oktober
ihrer
20
dort
anderen
ihn
Ein
September
6
Diese
Juni
während
April
US
##y
10
Juli
Universität
erhielt
können
Dezember
da
beiden
15
Seit
Kirche
ihr
diesem
vier
November
000
gab
Deutschland
dessen
gibt
Eine
Saison
Jahrhundert
B
Berlin
8
18
7
Mitglied
Platz
##in
alle
Auch
19
##l
Februar
damit
zurück
m
sehr
16
Auf
zunächst
Für
zusammen
keine
deren
ihren
befindet
12
Namen
Ort
14
allem
weitere
begann
km
9
30
Film
worden
13
2010
Sohn
bzw
17
bekannt
deutschen
steht
ebenfalls
2011
anderem
2008
Familie
selbst
nahm
2009
Personen
spielte
##d
was
St
dabei
denen
0
gewann
statt
formula
neuen
hier
2007
ohne
2012
##us
Während
2014
bezeichnet
neue
2015
a
gehörte
2006
11
ins
Jahrhunderts
2013
25
erstmals
immer
deutscher
schon
New
trat
I
ging
fünf
Band
Seine
sondern
Ab
gehört
##ung
Meter
So
Titel
A
einige
Name
Deutschen
The
führte
Art
Zu
seines
erst
2005
sei
Sein
II
neben
zweiten
Menschen
Durch
besteht
arbeitete
andere
wegen
hatten
rund
2016
dieses
Friedrich
fand
studierte
mehrere
##k
großen
ihrem
Gruppe
genannt
z
wenn
Da
2004
allerdings
sollte
diesen
2000
Geschichte
21
Tod
Anfang
24
große
s
soll
letzten
2017
Kilometer
weiter
1945
erfolgte
Gebiet
wobei
##on
Unternehmen
gegründet
u
tätig
the
nun
22
Johann
Frau
viele
Nachdem
musste
Mitte
Liste
schließlich
Zweiten
Karl
Einwohner
deutsche
blieb
folgenden
USA
sechs
wechselte
##g
2003
Straße
weiteren
Region
erreichte
übernahm
Form
jeweils
2001
Vater
23
welche
100
Gebäude
Bis
2002
neu
Bereich
An
Prozent
meist
verwendet
Kinder
Dabei
Norden
führt
C
Land
Mannschaft
erhalten
##u
König
Bau
dazu
verschiedenen
##te
gewählt
insgesamt
entstand
Leben
aufgrund
lang
Dort
28
Dies
Album
Neben
26
2018
stand
darauf
##de
Wilhelm
Tochter
and
Wien
gilt
Haus
folgender
Dieser
erschien
München
Amt
27
Rahmen
Mal
##um
Süden
Millionen
insbesondere
teil
konnten
d
finden
##ch
1999
errichtet
University
Rolle
Verein
ließ
50
Aus
John
erneut
Heinrich
Dorf
oft
##den
Beispiel
also
eingesetzt
fast
Richtung
davon
Weltkrieg
Einsatz
Arbeit
Stand
Frankreich
Um
innerhalb
##z
1990
Außerdem
Osten
Staaten
eigenen
damals
Provinz
Hans
Folge
stark
Partei
Unter
Westen
Seite
starb
kommt
29
1998
Beginn
Gesellschaft
York
##ing
Peter
S
Jahres
heutigen
zog
##ten
Paul
Schule
dies
ehemaligen
kurz
Paris
U
##h
ca
muss
zweite
Zur
Entwicklung
31
Regierung
Landkreis
Höhe
Bevölkerung
habe
zahlreiche
Welt
findet
Musik
gegenüber
je
darunter
folgte
1994
Frauen
besonders
sowohl
allen
1996
FC
verschiedene
Spiel
1997
1992
Sitz
Insel
Bedeutung
beispielsweise
lange
weil
Werk
Zum
Kreis
Österreich
Serie
Krieg
danach
Team
doch
Burg
1995
1991
V
bestand
veröffentlicht
französischen
meisten
alten
stellte
40
zudem
lag
Gemeinden
teilweise
Professor
Europa
##is
sieben
lassen
1993
besuchte
Spieler
Mann
setzte
gemeinsam
daher
hinaus
Sommer
gehören
geht
Mutter
Hamburg
Alter
acht
zuvor
geboren
ihnen
gelang
1989
machte
Karriere
London
##berg
zeigt
befinden
zehn
Strecke
schrieb
Armee
Maria
häufig
Schloss
kamen
möglich
eigene
DDR
hin
D
Arten
##an
amerikanischen
Franz
Danach
kleinen
einigen
Vertrag
Mitglieder
Georg
Liga
etwas
gleichen
entstanden
Schweiz
Zwischen
genutzt
gründete
Reihe
kein
vielen
sehen
handelt
erreicht
Betrieb
Hier
Tag
stehen
zwar
Wasser
Bruder
nachdem
Vereinigten
somit
deutlich
Saint
kleine
beide
aller
Bereits
County
aufgenommen
Ersten
1933
1972
Politiker
Nähe
Deutsche
Den
##dorf
Ludwig
gut
Bahnhof
Buch
Stelle
Ziel
veröffentlichte
Grund
Über
Chr
lässt
direkt
Studium
v
außerdem
1988
folgende
Michael
Bezeichnung
La
Berliner
ursprünglich
Linie
mehreren
dafür
Spielen
1987
1980
letzte
1970
III
liegen
Werke
erwähnt
hinter
absolvierte
weniger
pro
Erfolg
kommen
schloss
##le
Thomas
##ng
stellt
Präsident
gewesen
1974
Klasse
ernannt
1939
Truppen
##S
Museum
1986
1938
entwickelte
Preis
National
südlich
Euro
Nachfolger
Robert
1984
West
1985
Kloster
1975
welches
##A
Kaiser
erster
selben
Weg
Teile
Besitz
kehrte
stammt
Zudem
Ihre
Martin
Familienname
Einwohnern
anschließend
##mann
League
größten
ganz
1944
Köln
umfasst
1968
San
Sprache
Verbindung
Damit
Siehe
Olympischen
1978
ihres
1969
mm
dritten
Raum
Dieses
nördlich
60
System
bildet
1983
1971
h
1973
##bach
verheiratet
Ausbildung
gebaut
diente
Begriff
Weitere
##chen
1982
heiratete
200
Gründung
Ortsteil
Schweizer
1979
amerikanischer
1976
hohen
befand
sogar

Spiele
Beim
500
1946
1960
Tage
Erst
Johannes
Frankfurt
##na
##ia
Fall
damaligen
Meister
wenig
England
Italien
Landes
dar
einmal
Bischof
E
ehemalige
Kunst
ebenso
spielt
1950
1981
Bad
Carl
Länge
e
Hälfte
Otto
benannt
City
britischen
größte
Zuge
besitzt
Joseph
Institut
##el
Wahl
entwickelt
Sieg
einzige
Hilfe
Grenze
1967
##os
Ernst
1977
weit
Regel
Arbeiten
1964
##ler
AG
##au
nahe
französische
fanden
See
Ihr
Herrschaft
späteren
Wie
##ner
müssen
Firma
Leitung
Leiter
politischen
Vor
Theater
Bahn
bisher
Nr
bevor
1965
Zentrum
##ne
Sachsen
Produktion
Anschließend
Aufgrund
weiterhin
Leipzig
ob
Rennen
1966
Zahl
Ehe
verbunden
1961
beträgt
entfernt
enthält
##x
Rang
GmbH
##al
frühen
Stil
1963
Später
##sch
##ischen
1956
1962
Division
Wiener
1952
cm
1940
1949
lediglich
Finale
Schlacht
Man
Kanton
1948
Lage
la
Fläche
Republik
General
Christian
brachte
eher
Park
machen
##gen
internationalen
##c
##f
viel
International
1941
1958
M
ausgezeichnet
Akademie
1943
heraus
1942
Gruppen
Version
Heute
hohe
wollte
Bayern
erreichen
sollten
Abschluss
verlor
Vorsitzender
1959
führen
##ka
L
wohl
km²
Gegensatz
zahlreichen
beteiligt
siehe
Gattung
östlich
1957
ersetzt
deutsch
Dr
Tour
neun
David
Polen
Schiff
William
Mitarbeiter
Richard
hauptsächlich
Funktion
1947
Stadtteil
Weltmeisterschaft
##ie
westlich
Männer
1934
Nord
aktiv
wenige
hielt
1953
Schüler
sollen
##G
1955
1936
Künstler
erzielte
Zeitpunkt
gesamte
Runde
1954
belegte
Verfügung
Soldaten
Berg
früher
##C
Alexander
Rom
erfolgreich
einzelnen
keinen
nächsten
1920
bilden
1919
Metern
Vertreter
alte
Baden
Meisterschaft
Anzahl
1918
Projekt
Max
Hochschule
##se
Literatur
dadurch
stieg
betrug
Staffel
80
Roman
College
Hermann
Position
eröffnet
würde
Eltern
darüber
Dollar
folgten
mussten
##ach
bald
politische
knapp
R
gleichzeitig
##ra
##as
vermutlich
Kultur
Einfluss
Reich
Anschluss
1937
Fluss
1951
Hauptstadt
1935
Unterstützung
lebte
Hof
verläuft
##ck
daraufhin
Dienst
##w
du
geführt
Jean
##é
Anlage
35
leicht
sogenannten
wiederum
Alle
gestellt
Basis
besten
1930
denn
##schen
trägt
Bürgermeister
##or
lebt
##ig
##0
indem
James
T
Trainer
George
Spielzeit
Main
##ke
gehörten
China
nie
Seiten
amerikanische
##re
will
beendete
##straße
zuletzt
überwiegend
River
gefunden
Union
übernommen
kaum
Dresden
öffentlichen
fiel
erfolgt
##B
##sten
ausschließlich
legte
Papst
bietet
Cup
vollständig
Dazu
ehemaliger
##P
70
Zusammenhang
jeder
Gymnasium
verließ
heißt
Verlag
Uhr
Zwei
##ge
gesamten
bestehen
Bild
##isch
zerstört
Graf
1914
90
mindestens
Lied
Markt
K
heutige
1928
erwarb
Verwendung
galt
Hannover
Minuten
Schauspieler
Tätigkeit
wuchs
O
langen
##and
Einige
lebten
School
##ar
1929
verloren
1932
Direktor
for
Japan
Le
Bundesliga
Darüber
n
Auftrag
Mark
1970er
Fußball
großer
genommen
Zeitschrift
wirkte
nimmt
Stiftung
leitete
Monate
45
Zusammenarbeit
Club
welcher
Ländern
zwölf
##ische
deshalb
erbaut
1900
Daneben
entlang
Turm
American
durchgeführt
300
Doch
Recht
Walter
Obwohl
Stück
Josef
SPD
##ion
##nen
Zeitung
J
Friedhof
gemacht
Jugend
Insgesamt
Thema
Verfahren
F
1980er
Stuttgart
leben
Mannschaften
regelmäßig
Orte
selten
verkauft
G
Charles
Schutz
Umgebung
Lehrer
##ta
##M
folgt
relativ
Département
##sen
Organisation
##V
seien
32
weiterer
IV
schwer
zusätzlich
Artikel
Kampf
Autor
##ow
Russland
Allerdings
1925
Politik
Wochen
Herbst
1960er
katholischen
erstes
Brücke
südlichen
Anna
H
Vom
World
bildete
weitgehend
##F
Stunden
bekam
##haus
Familien
startete
1924
Kapelle
Nationalmannschaft
schnell
##it
Städte
Bezirk
europäischen
##R
dient
1990er
erschienen
Zürich
##T
1927
weltweit
##at
##man
##K
anderer
Möglichkeit
##rt
inzwischen
historischen
Gelände
zeigen
##la
größere
Laufe
Großen
Verwaltung
verliehen
Abteilung
Programm
400
vertreten
spielen
1910
größeren
entdeckt
##p
##heim
fest
vorhanden
beginnt
sogenannte
Modell
Punkte
Schriftsteller
##feld
gebracht
Führung
sodass
dritte
Nordosten
Größe
Boden
Philosophie
Kind
Juden
verfügt
Hand
Anteil
Halle
Staat
Single
Süd
1931
Weise
Siedlung
1921
Beide
hoch
Weltmeisterschaften
al
1923
Kopf
dagegen
geprägt
geworden
Grafen
Spanien
Weltkriegs
oben
Song
##b
1926
##da
van
wichtige
nördlichen
Wappen
Tor
stammen
jeweiligen
##sche
nichts
Angaben
1912
Wert
##D
Darstellung
gehen
westlichen
Großbritannien
di
ausgetragen
Rudolf
Regie
Frage
Krieges
italienischen
Südwesten
gingen
englischen
Jazz
1922
wahrscheinlich
Schon
##1
eingeführt
darin
Maler
jährlich
gegeben
betrieben
Wolfgang
Motor
eingestellt
früheren
endete
##E
##L
Tal
russischen
produziert
bedeutet
Wagen
gleich
##st
außerhalb
Ost
Sammlung
stellen
Open
gebildet
führten
Bank
##nd
berufen
Verlauf
##et
Nordwesten
Ergebnis
##ur
Kategorie
Bewegung
setzt
Nur
Los
gerade
Tiere
Grand
Abschnitt
Award
trotz
Württemberg
##lich
Wort
TV
hervor
Louis
arbeitet
et
genannten
sah
österreichischen
Königreich
Albert
P
Herzog
Westfalen
Stimmen
##ter
Südosten
Schwester
gewinnen
##O
geben
wäre
United
##der
Schweden
neuer
mehrfach
Wald
Gold
trug
Herren
Viele
höchsten
##tal
##2
Typ
hingegen
##hof
könnte
Festival
Opfer
beschrieben
##zeit
jungen
Inseln
laut
Tore
enthalten
1913
unterstützt
sieht
W
ähnlich
Ortschaft
Rock
##ns
weist
Bundesstaat
hätte
Daten
Noch
entspricht
Grundlage
Sinne
Fahrzeuge
Heiligen
wenigen
groß
bekannten
macht
Hessen
zählt
Washington
Bildung
frei
Frühjahr
Vergleich
gleichnamigen
Aufgaben
Ungarn
zugleich
##ungen
Dem
Bremen
obwohl
Teilen
Vaters
solche
Quellen
##ce
Royal
##tz
dahin
versuchte
Kraft
wichtigsten
1911
standen
Themen
##ern
Aufgabe
her
##ki
Deutsch
aufgelöst
verlassen
Polizei
halten
##keit
Objekte
Rat
Bahnstrecke
Punkten
Zentimeter
neues
Adolf
hergestellt
Winter
erweitert
Forschung
Schulen
Wegen
65
höchste
versucht
Co
Turnier
Fußballspieler
gegründeten
Ehefrau
1905
Air
1000
Weltkrieges
lief
##ll
Kurz
Rhein
##rs
erhielten
Heimat
Folgen
Landwirtschaft
umbenannt
Präsidenten
1907
Punkt
nahmen
internationale
1917
Schiffe
offiziell
fort
Geld
Kindern
SS
Musiker
Wenn
gelegenen
Des
Sowjetunion
##ers
1908
CDU
Düsseldorf
l
1950er
Bonn
Gründen
weiteres
Ebene
geschlossen
gespielt
erscheint
zeigte
bestimmt
Teilnehmer
allein
Island
Person
Weiteren
Frank
Einführung
Studien
Station
ich
britische
Gesetz
per
##land
Bücher
bestritt
beschäftigt
##burg
##che
33
Architekten
katholische
eingerichtet
##ni
Leistung
Interesse
Andreas
Nacht
De
Söhne
Rückkehr
dargestellt
WM
bekannte
verbreitet
Gut
erklärt
nehmen
Ortes
arbeiten
Sprachen
entsprechend
linken
verantwortlich
Abitur
36
zuerst
mittels
Kirchen
oberen
kg
Radio
weiß
##v
1906
besaß
Moskau
römischen
elf
Erde
kleiner
angeboten
zählen
Preußen
Laut
EU
##erg
Medien
Teams
Mittel
breit
tragen
Start
vierten
junge
älteste
wodurch
75
Straßen
Text
Hamburger
Veröffentlichung
##I
##itz
Niederlage
Werner
Autoren
Philipp
Aufnahme
bestimmten
Records
Fritz
unterschiedlichen
Kosten
unmittelbar
blieben
Kritik
außer
jüdischen
1909
34
Trotz
Sänger
##3
Standort
X
Flughafen
Ausgabe
bringen
N
Orgel
1904
Müller
##ger
östlichen
Chor
Bach
Australien
Brandenburg
kurze
zunehmend
Bürger
französischer
Anton
Technik
Kanada
Villa
150
Wirkung
Durchmesser
Aufbau
verlegt
Erzbischof
Königs
Mädchen
ebenda
Länder
rechts
gezeigt
Elisabeth
nominiert
Freund
Regisseur
besitzen
Druck
jetzt
angelegt
1915
Häuser
South
stets
Fenster
ganze
Verband
Formen
tritt
Wettbewerb
Richter
Europäischen
Nummer
Alfred
Körper
vertrat
belegt
Pfalz
rechten
##ja
##no
geschaffen
fließt
Liebe
Marie
del
Films
Aufstieg
t
Nürnberg
Münster
PS
to
gelten
errichtete
genau
Zusammen
hält
##ca
jede
Stein
##N
namens
Parlament
Hektar
dienen
verfasste
Top
übertragen
Probleme
Kontakt
Dadurch
bleibt
North
gehalten
Bewohner
##ert
Internationalen
Nutzung
##traße
38
eigentlich
1903
Vereins
zweimal
Filme
Hockey
Angeles
bestimmte
Henry
Ferdinand
traf
Öffentlichkeit
nahezu
Macht
Deutschlands
erstreckt
State
Schauspielerin
Bilder
römisch
Einheit
##ma
hinzu
bezeichnete
alt
zugeordnet
Informationen
Brüder
Company
Freiburg
1916
##ed
werde
gewonnen
entweder
Auflösung
daran
Mio
2019
mittlerweile
Rand
Tradition
polnischen
geschrieben
Prozess
Debüt
modernen
Fernsehen
Drei
Auswahl
Meer
Leistungen
preußischen
##werk
Spitze
entschied
##ei
Ich
links
Gott
Natur
Wirtschaft
erklärte
Pfarrer
1902
nationalen
begonnen
erkennen
SV
Gustav
##ste
Christoph
Mittelalter
Gebiete
Holz
Industrie
Revolution
Medizin
benutzt
Kommission
Pflanzen
1848
1901
unterhalb
verkaufte
Formel
seitdem
bleiben
verstarb
Tode
Theorie
würden
##ton
##4
jedes
Daniel
beste
sur
vorwiegend
gegründete
völlig
##platz
Theologie
Figuren
Hotel
Regiment
spielten
CD
##gruppe
Lebens
Situation
600
Zeiten
##hausen
SC
Fakultät
baute
wesentlich
##rn
1899
##ich
aufgestellt
jedem
Music
Rechte
Sport
Parteien
Städten
##5
Lieder
Daher
Einheiten
ursprünglichen
umfasste
historische
Kreuz
Millimeter
zuständig
besondere
Große
Kalifornien
Mitgliedern
Qualifikation
öffentliche
ausgestattet
mal
begannen
unteren
37
##ren
Jan
promoviert
Herstellung
42
Küste
Tagen
Laufbahn
##th
House
Boot
kleinere
Silber
k
Neubau
##bahn
##em
Quelle
Pfarrkirche
en
Hafen
Teilnahme
Energie
starken
Beziehungen
Ausstellung
spätere
55
teils
japanischen
Wahlkreis
älteren
Züge
1898
gemeinsamen
Reise
ehe
unterschiedliche
Gleichzeitig
Besuch
Prag
44
Stellung
nieder
schied
Nicht
Lauf
Hall
Zunächst
Lehre
Anwendung
Verhältnis
Kongress
Tonnen
##iert
1890
Marine
Landtag
Heidelberg
Stadion
besetzt
spricht
eröffnete
##ut
abgeschlossen
recht
verbrachte
gute
übrigen
Ergebnisse
Zeichen
kurzen
Untersuchungen
##ien
erhoben
verschiedener
Society
Elemente
späten
Linien
##ier
Status
##6
erhält
mündet
i
Konzept
Indien
Studenten
on
Nordrhein
beziehungsweise
ha
dortigen
besser
Angriff
Grafschaft
einzigen
alles
800
Chicago
Klaus
zweiter
Hersteller
Ausnahme
Aber
Schwerpunkt
Fuß
Bezug
##ierung
Heinz
geplant
Zug
##H
All
Ufer
gesehen
##ingen
64
Gericht
Werken
Erfolge
aufgeführt
bislang
Metal
Architektur
Mainz
spanischen
1896
griechischen
Szene
früh
1895
Material
Entscheidung
fuhr
grenzt
Maschinen
Gegner
Ebenfalls
Aufnahmen
hätten
Ausland
schuf
unterscheiden
1870
Figur
beschreibt
Mexiko
Fragen
Pierre
Universitäten
urkundlich
Rheinland
Daraufhin
##ein
Santa
erinnert
vorher
angegeben
versehen
aufgebaut
Abs
Zustand
Besetzung
Förderung
1897
unten
Klosters
Charts
Basel
Sankt
betrachtet
Amtszeit
südwestlich
Herkunft
gelegene
parallel
kennen
##W
zählte
Bistum
Hintergrund
1871
Sieger
südöstlich
promovierte
Arrondissement
ungefähr
Luft
wissenschaftlichen
Komponist
Alben
Lake
Handel
Lager
##li
##cht
österreichischer
##ri
Gegen
verurteilt
hoher
ältesten
Jakob
schweren
High
Ritter
##ey
Bundesrepublik
Erste
##ville
##ben
einzelne
Einrichtung
gesetzt
Star
Kiel
48
derzeit
##urg
Songs
vorgesehen
250
Fällen
Kurt
nannte
Breite
Mehrheit
Sender
##lle
Idee
Internet
39
Abgeordneter
Klub
nordwestlich
einfach
Unternehmens
Schleswig
ganzen
Großteil
Gegend
Patienten
entlassen
gar
wissenschaftliche
befördert
Praxis
##U
Minister
##ee
fällt
Besitzer
Essen
##il
Beziehung
gelegentlich
nordöstlich
getrennt
Roten
Chemie
Theodor
Infanterie
Zeitraum
Versuch
Feld
wollen
Vereinigung
Plan
##ts
Türkei
Monaten
berichtet
großes
international
wir
##8
Bauern
Wissenschaften
Errichtung
traten
entsteht
darf
geb
Regionen
Oper
damalige
Institute
Schriften
angesehen
öffentlich
miteinander
Weibchen
Königin
Zugang
eigenes
zeitweise
Bern
##ngen
Charakter
starke
Label
##igen
Bestandteil
##ige
##son
lernte
1850
##io
endgültig
ermöglicht
##7
Bernhard
##ken
ernannte
1893
Eisenbahn
nennt
Wahlen
könne
##stein
##ort
Gemeindegebiet
Verfassung
Arzt
entstehen
Dänemark
erreichten
Braunschweig
##arten
möglicherweise
Wechsel
Halbfinale
NS
1880
gemeinsame
Waffen
existiert
Augen
Arts
Association
Groß
existieren
reicht
Krankenhaus
Filmen
##á
Göttingen
schwedischen
verpflichtet
Grab
anfangs
##ya
Halbinsel
einschließlich
Schrift
klassischen
##art
Salzburg
Besonders
Super
Kontrolle
El
Chef
geborene
Ordnung
leitet
Ulrich
ergibt
Bayerischen
Vorbild
Landschaft
engl
Satz
Show
mittleren
Software
1892
mehrerer
##ystem
verbindet
Sicht
Dann
verhindern
Auflage
Belgien
Sendung
Academy
Einwohnerzahl
Live
##ation
erlangte
Fahrzeug
1930er
benachbarten
Black
##to
Bibliothek
Repräsentantenhaus
Neuen
Arbeiter
Kriegsende
Gerhard
52
Flucht
British
angenommen
fertiggestellt
Post
Struktur
löste
Gouverneur
sofort
Brand
1885
Verkehr
Ausdruck
Studio
Kölner
Neue
hieß
1894
##Z
Maßnahmen
Weiterhin
kleineren
bestätigt
41
##len
bisherigen
Untersuchung
handelte
Fort
##j
schlug
Variante
Gebieten
##ro
weder
Zuschauer
Blüten
Einen
guten
120
geriet
Wissenschaft
1888
Nachbargemeinden
Bay
manchmal
Frankfurter
Schließlich
##ski
Ruf
Hauses
Initiative
Fahrer
43
Oberliga
Julius
sowjetischen
##bar
1889
Ortschaften
Bund
Texte
befanden
scheiterte
##ß
##inger
Rest
Anlagen
##nt
NSDAP
Orden
stammte
##ang
unabhängig
errichten
Fischer
gemäß
scheint
##ko
##sdorf
Ausbau
widmete
zumeist
nationale
Woche
Vereine
Rollen
##am
zumindest
##bau
Widerstand
Licht
Einrichtungen
dennoch
bestehenden
Alten
##ieren
komplett
Europameisterschaft
jeden
genannte
politisch
Schmidt
Wolf
Funktionen
1891
Paar
Phase
Center
Konrad
schaffte
Brasilien
daraus
vergeben
entsprechenden
Holstein
gestaltet
sozialen
Publikum
Joachim
höheren
Meisterschaften
allgemein
Stellen
freien
untergebracht
ausgeführt
Gründer
Zusätzlich
##X
1860
##kirche
Dennoch
Mathematik
51
Simon
sprach
tatsächlich
47
49
Volkszählung
46
Generation
weisen
überhaupt
Problem
Veranstaltungen
Weltcup
gekommen
Historiker
Tempel
##weg
1874
Ursprünglich
Front
Israel
Farbe
oberhalb
eng
Farben
Aktivitäten
britischer
ursprüngliche
Denkmal
Sicherheit
##heit
Eröffnung
##bereich
Mensch
Eduard
Bedingungen
1866
benannte
##uch
##que
Pokal
##tion
stellvertretender
bot
getötet
Priester
##ker
Vielzahl
Don
Red
versetzt
##ine
notwendig
Party
##recht
klar
Science
Instituts
le
King
##ik
dt
Kanal
Angebot
Ebenso
nächste
Junioren
inne
offiziellen
englische
Behörden
produzierte
Verbindungen
##ius
Bereichen
Besucher
Wunsch
zufolge
Güter
##mus
Football
ehemals
1875
umgebaut
Dorfes
Gemeinschaft
offizielle
Stern
Behandlung
Männchen
Produkte
bildeten
Standard
fünften
umgeben
ausgebaut
gelangte
Partner
verwendete
Grenzen
erscheinen
1867
1879
italienische
Mühle
unterlag
Einzel
Reste
erzählt
Handlung
Gefängnis
Verhalten
Orten
desselben
Auto
Entwurf
Architekt
Arthur
Street
1887
weshalb
unterscheidet
bestanden
russische
außen
trifft
##ium
##ga
einiger
Dörfer
treten
geweiht
unterstützte
Design
Kommando
Dach
Video
##rat
Erich
endet
1872
##schaft
##ann
##tt
Reiches
Kunden
Münchner
Donau
##aus
Flügel
Deutscher
##raum
1886
Zweck
organisiert
feierte
österreichische
Etwa
Orchester
Lösung
##ling
Bronze
Kader
Netz
Frieden
Smith
1884
Eigenschaften
1920er
dürfen
Portugal
nämlich
nutzen
verhaftet
Monat
heiligen
Gemälde
Altstadt
Vorstand
Volk
Gewinn
Herbert
##verfahren
Spielklasse
zentralen
Group
technischen
Modelle
1868
Physik
Brief
Nationalsozialismus
1873
zogen
1500
weißen
kaufte
Festung
##9
basiert
schwarz
Garten
chinesischen
beigesetzt
Je
Strecken
##ss
##wa
States
Zahlen
Distrikt
Edward
##meister
##system
00
Würzburg
Vergangenheit
ließen
militärischen
Kassel
Route
85
o
wichtigen
Menge
Senat
1882
jüdische
beschäftigte
Operation
Gipfel
höher
nachgewiesen
1881
Ehren
Bühne
Norwegen
Anerkennung
privaten
Afrika
Andere
eingegliedert
deutschsprachigen
solchen
erhöht
wirtschaftlichen
Sängerin
Lee
Posten
Gestaltung
niederländischen
Insbesondere
Einer
g
Pfarrei
Francisco
hierbei
Künste
Presse
Gottes
schreibt
Magdeburg
##ry
Staates
Methode
Jürgen
Reaktion
bieten
beschlossen
behandelt
Und
ermöglichen
liegenden
1878
##ek
Aachen
54
Vorgänger
Verkauf
verfügte
Zukunft
Neustadt
lokalen
Hause
debütierte
Allgemeinen
Beispiele
Niederlande
Internationale
Naturschutzgebiet
##men
##nde
verstärkt
Entfernung
95
Online
erworben
##anlage
möglichst
Adam
jener
entsprechende
Pro
##co
anders
Kern
Bord
Management
anhand
beendet
Suche
##ot
Drittel
schließt
Erwähnung
Verbreitung
bestehende
1883
fungierte
bezieht
Beruf
Datum
lautet
José
zentrale
Organisationen
700
höhere
bedeutende
Magazin
##rd
Wesentlichen
##form
Anhänger
1815
eigener
Erfahrungen
vorbei
Wehrmacht
##see
Service
aktiven
Freien
größer
Rio
1876
fortan
VI
Texas
Herausgeber
1861
Hitler
Thüringen
lehrte
Jungen
##ti
womit
Krone
Abstand
##witz
schwere
breiten
Nachfolge
abgerissen
Dichter
Albrecht
Rathaus
Anhalt
56
Tübingen
lagen
Übersetzung
Niedersachsen
einst
##hen
anlässlich
Gewalt
Kombination
bekanntesten
kW
sagte
Mecklenburg
Pläne
##reich
beschloss
holte
Wege
Stefan
##cher
Tom
Rede
Stücke
1869
Prinz
##do
Übernahme
üblich
Anspruch
Altar
1864
definiert
seither
1865
##rg
##tein
Journalist
brach
Marke
##chule
1862
Werte
infolge
##ag
##nden
Militär
Entstehung
##eld
solcher
gelegt
Auszeichnung
moderne
Flächen
##los
Siegen
Niederlanden
##orf
Les
Sinn
1849
Feuer
engagierte
rot
53
Viertel
Methoden
sicher
Bronzemedaille
Ukraine
Ring
Engagement
Oscar
Van
durfte
ausgestrahlt
mittlere
Mary
Rot
Streit
übernehmen
angebracht
Graz
Plätze
Grad
Vier
##me
stärker
gewannen
Stimme
France
##ld
offenen
offen
Assistent
Karten
Töchter
Regionalliga
Ferner
1877
verändert
Wohnung
begrenzt
##ve
Karlsruhe
forderte
Kammer
Unabhängigkeit
Augsburg
##ō
Master
Bildhauer
Gefahr
##un
Komponisten
Hugo
Franzosen
zieht
eigenständige
##of
Unterschied
Museums
##ismus
Mauer
Ruhestand
Hauptrolle
Oberfläche
Erweiterung
folgen
Transport
Alpen
fallen
Amerika
Technischen
begleitet
traditionellen
staatlichen
länger
benötigt
Nationen
Ägypten
erfolgten
erlaubt
Veränderungen
Interessen
verboten
Gemeinsam
Griechenland
frühere
05
Sekunden
Bands
betreibt
Bericht
Al
Darmstadt
57
Milliarden
Meinung
Eingang
Amsterdam
festgelegt
KZ
unterschieden
Blick
Best
Offizier
##he
eingeweiht
Fürsten
wirtschaftliche
##ley
errichteten
##innen
04
Systems
beeinflusst
Konzert
##be
Studie
Umwelt
Jena
erfolgreichen
soziale
angeschlossen
zusätzliche
Qualität
zugänglich
##ls
##enden
Big
militärische
Inschrift
08
evangelischen
besonderen
anerkannt
unterschiedlich
Europameisterschaften
##technik
Register
##sa
Denkmalschutz
Mission
Hill
mehrmals
Gesang
sonst
Fraktion
Corps
##va
##mer
hören
Gebäudes
Schwarz
Abgeordneten
entwickelten
Original
Medaille
ältere
Boston
Kandidaten
58
Freiheit
##lin
Kabinett
etc
bringt
1800
Weltmeister
Exemplare
Morgen
Auftritt
Kamera
09
schließen
Tunnel
stellten
speziell
Europas
Hierbei
Englisch
Baureihe
1863
veröffentlichten
##wagen
##lt
Nationalsozialisten
reiste
vorgestellt
Spieltag
##ens
Funde
Aussage
Autobahn
Klein
Mündung
jährigen
Jack
62
##tor
betrieb
Drehbuch
übersetzt
Beiträge
Konzerte
##ina
Freunde
zweier
Herz
Existenz
allgemeinen
Herr
Prinzip
Möglichkeiten
Play
Minute
Expedition
Malerei
Herzogtum
Dortmund
Somit
Verhandlungen
Botschafter
Mannheim
Antonio
Fernsehserie
Heer
Helmut
##ende
aktuellen
##wald
Fassung
Major
##ze
Baron
Diplom
Kreises
##raße
Rumänien
##gesetz
verlängert
Träger
entwickeln
Geschäftsführer
72
ziehen
Lokomotiven
ausgebildet
freie
gelangen
Pariser
Höhepunkt
Beschreibung
gedreht
führenden
##age
langer
darstellt
Namens
Geburt
christlichen
wiederholt
könnten
gleiche
##des
##ba
Kommandeur
Neu
Rostock
Ensemble
##ys
letztlich
Abend
##ale
##tte
italienischer
Lübeck
96
Objekt
Krankheit
Sonne
erheblich
geringen
Weiß
Z
##weise
maximal
Übergang
Bundesstraße
Abt
Stadtgebiet
ergänzt
treffen
59
änderte
Columbia
getragen
You
Seinen
Bundes
uns
Gewicht
Flotte
Heimatstadt
Computer
Alte
geblieben
Nikolaus
##atz
Rücken
Irland
andererseits
sprechen
setzen
Ereignisse
übergeben
vierte
Mount
Projekte
63
Besatzung
dänischen
verteilt
Leichtathletik
Sir
diverse
1856
gelegen
beteiligte
1840
eins
machten
wichtiger
unterteilt
##elle
überliefert
Planung
Kilometern
Kirchengemeinde
Innenstadt
Breslau
gaben
do
##ice
einfachen
##aum
66
reichen
schaffen
Rechts
Führer
1806
Venedig
Umbau
bedeutendsten
Athen
Leopold
ähnliche
East
##ir
Hügel
Konflikt
Motoren
eingemeindet
Western
beschädigt
Szenen
beobachtet
private
kanadischen
einerseits
Fahrt
NHL
Bachelor
Ziele
Tourismus
Ansicht
Jedoch
Promotion
Maschine
Zwar
unterstellt
Erhebung
Matthias
bekommen
##agen
1859
Unterricht
##schule
Joe
Prix
Premierminister
Strom
unterstützen
71
städtischen
stattdessen
türkischen
Ersatz
Sebastian
klein
Bundeswehr
Nationalpark
Reformation
Klavier
größtenteils
unternahm
Südafrika
m²
Innerhalb
Deshalb
##lla
Rechtsanwalt
Partien
vertrieben
b
Mailand
gezogen
Unternehmer
##fen
Verlängerung
Madrid
erfolgen
unterschrieb
Virginia
wichtigste
abgelöst
Herrscher
technische
07
aufgegeben
Verteidigung
Bill
Barbara
eigentlichen
White
schwarzen
Systeme
Rücktritt
Anwesen
Kino
Verlust
fielen
Ball
wandte
beider
Anders
erlebte
DVD
evangelische
##lage
Klassen
##ad
Religion
Jahrzehnten
Landgemeinde
siegte
Navy
Force
geschlagen
##ly
Seitdem
Umfang
Kinos
gezählt
Leo
##zentrum
##ha
Firmen
##je
nutzte
möglichen
Flugzeug
Schritt
Gottfried
Kollegen
Mittelpunkt
##eim
99
untersucht
##sse
Sprecher
##liche
Beteiligung
61
Damen
Dynastie
Bergen
entschieden
Ursprung
Weil
erforderlich
maßgeblich
Emil
täglich
jüngeren
Saisonende
Barcelona
Trennung
diesmal
wissenschaftlicher
tief
Bestand
Pop
Love
Viertelfinale
Ortsteile
Bucht
Renaissance
Regeln
Brown
Plänen
Gemeinderat
##all
##ov
Weißen
gründeten
Wissenschaftler
Williams
wirkt
gesprochen
67
Grünen
vorhandenen
Männern
Blues
Wissen
Korps
Zeitschriften
Albums
Ausstellungen
Gitarre
##und
##one
##ae
vermutet
Bauwerk
1803
beschrieb
Jura
tun
umgewandelt
##band
Ideen
##id
Juan
offenbar
sorgte
Ingenieur
Rundfunk
breite
Lord
verletzt
Gang
nennen
Berge
bereit
68
integriert
Arnold
wollten
Blätter
1830
Urkunde
1854
Bass
Landkreises
Bereiche
Erstmals
Dieter
Geschwindigkeit
Bauten
Kardinal
derselben
fahren
Klima
Schwierigkeiten
Sturm
Analyse
unbekannt
Jones
ermittelt
##ol
##ist
##lichen
ergeben
aufgeteilt
1857
Veröffentlichungen
Woiwodschaft
gefördert
entspringt
voneinander
Weiler
1852
1855
dreimal
kurzer
Tages
Harry
Tschechien
geleitet
staatliche
##ff
##gesellschaft
reduziert
Nordamerika
direkte
Schneider
hierfür
Florida
usw
Nachrichten
Dom
roten
##ell
Earl
Inneren
Brunnen
direkten
Jurist
Karte
Wende
##amt
umfangreiche
Dissertation
Fassade
Stationen
geändert
rein
Umsetzung
1858
spezielle
Bekannt
Potsdam
Witwe
Eigentümer
verwendeten
Franken
##lo
Dauer
##gebiet
##go
Gestalt
Provinzen
meistens
Central
einfache
Geist
Leipziger
##hn
Ordens
##mühle
dienten
Auftritte
ausgewiesen
One
Carolina
Streitkräfte
bedient
Horst
Rechtswissenschaften
Haft
##ster
Ton
Erster
Wagner
errang
98
Fach
Alt
jährige
nochmals
Massachusetts
langsam
eingebaut
Innsbruck
bayerischen
Schluss
Silbermedaille
zugunsten
Begriffsklärung
Ford
gefangen
Ausstattung
Gebrauch
Typs
englisch
##eren
##dienst
Glocken
finanziellen
Basketball
y
Fürst
##za
organisierte
Treffer
06
örtlichen
88
entdeckte
76
grundsätzlich
Fehler
verzeichnet
Spiegel
Christus
nunmehr
sichtbar
gefertigt
wählte
sämtliche
Büro
Wiederaufbau
abhängig
Kantons
##llen
engagiert
Regensburg
Verdienste
Versionen
aktive
Ob
erzeugt
My
110
datiert
europäische
Trier
Koch
Fabrik
Doppel
##zen
Blut
Oberst
Konkurrenz
Toten
##unternehmen
Ausbruch
besucht
Instrument
äußeren
lehnte
verlief
unterrichtete
Linz
##ard
kleines
geringe
bauen
Wales
Königsberg
3000
Synagoge
zusammengefasst
1845
ermordet
durchsetzen
Onkel
anschließenden
Castle
Kapitän
Marburg
Schottland
1813
Keller
Reserve
Ohio
1851
möchte
Bruno
Österreichischen
wächst
Beitrag
Falle
kritisiert
positiv
Siedlungen
Flusses
Haut
Kräfte
Erscheinung
Zellen
c
Parallel
menschlichen
persönlichen
USD
Konstruktion
Anlass
Ausgaben
Scott
Geräte
Jacques
Änderungen
Mike
Berater
Petersburg
sicherte
entgegen
Hauptort
Ben
Zuvor
stehenden
erhältlich
polnische
Französischen
##brücke
zugelassen
1847
##ny
Versorgung
Jacob
##ring
Argentinien
Ernennung
François
restlichen
Lehrstuhl
##les
Seen
Produzent
Erfurt
Toren
74
Varianten
Premiere
##ana
Aussagen
Aktion
bedeutenden
Moritz
darstellen
FDP
Strukturen
1846
92
Gemarkung
Studiums
Tabelle
Dietrich
Reihen
verwenden
Jagd
Goldmedaille
Wein
Spuren
Zerstörung
Felix
eigentliche
erstellt
sechsten
Code
japanische
dürfte
Was
Serien
Michel
##linie
gezwungen
##nger
Meyer
Abkürzung
Schwestern
inneren
sang
##ay
##zahl
näher
Vorsitzenden
Tiefe
Aufmerksamkeit
Christen
kämpfte
Kaufmann
angeblich
Auseinandersetzungen
Bob
1816
Budapest
vieler
australischen
Anne
Kaisers
78
läuft
Temperatur
üblichen
Komposition
Befehl
Nun
Research
abgelehnt
mittelalterlichen
eingetragen
wies
1853
Fertigstellung
1818
englischer
Veranstaltung
Weber
qualifizierte
##q
keiner
erfolgreiche
Hinzu
##zug
herausgegeben
Samuel
77
Feuerwehr
Dienste
Samen
weiße
Line
##im
natürlichen
Victoria
Österreichs
No
Reisen
Stahl
Umfeld
Mord
Highway
geplanten
Marx
##hi
Kritiker
Liter
Waren
European
##gruppen
besiedelt
präsentiert
##dt
Brücken
beschränkt
hinein
bezogen
73
beginnen
Tat
brachten
1814
Ruhr
Betriebe
Baum
Finnland
Katharina
allgemeine
zweites
richtete
##ham
Ehemann
Green
antiken
bestehend
Fusion
ungarischen
##nn
Straßenbahn
##verein
durchaus
Persönlichkeiten
Mengen
angeordnet
Army
geeignet
EM
##í
First
Geschichten
Auseinandersetzung
Positionen
umstritten
Blue
##mi
ermöglichte
Jahrzehnte
Haltung
Evangelischen
##eck
lebenden
82
welchem
##eit
Abtei
Sekretär
Löwen
Kommunikation
Tier
hundert
Einstellung
verfolgt
Symbol
berichtete
Pennsylvania
##ser
Ist
Oder
Räume
Wir
Vorsitzende
Anforderungen
umgesetzt
##cke
93
leistete
römische
ausgewählt
aufmerksam
Young
Schäden
Rose
Jerusalem
Sprint
Abstieg
##hl
Jesus
Elbe
äußerst
Manager
erbaute
manchen
DM
André
Künstlern
Urteil
Gewässer
ferner
Säulen
Folgezeit
##industrie
saß
Neuseeland
Rektor
beauftragt
##by
gekennzeichnet
##ock
##ug
Galerie
mögliche
Luxemburg
Real
Botschaft
ausgestellt
Charlotte
Darstellungen
Unfall
durchschnittliche
Maximilian
##ment
Kapitel
daneben
getroffen
Saale
gefärbt
Weimar
69
Kindheit
Glauben
Warschau
Ausführung
Treffen
gestorben
begründete
Dresdner
gelingt
erfährt
##pe
Jesu
Masse
diversen
Giovanni
geringer
auftreten
schlossen
regionalen
Demokratischen
beinhaltet
Produkt
Francis
Spielzeiten
##arbeiten
##ty
86
81
Kooperation
Manfred
bekleidete
Briten
reichte
Studios
84
Oblast
ausgeschlossen
Dreißigjährigen
SA
dauerte
Exil
aufgehoben
setzten
Erklärung
Test
hinten
aktuelle
Brüssel
ergab
Versuche
erhaltenen
sog
1843
Zimmer
erkennbar
Gegenwart
entstandenen
abgeleitet
sächsischen
##gasse
Ämter
##ordnung
1832
Windows
längere
Stunde
Durchbruch
Archiv
Rote
Einsätze
Schülern
Häusern
Kathedrale
liegende
##ai
Runden
##preis
1844
Illinois
trugen
Schacht
Sowohl
Dafür
1842
Chris
Gedichte
Stadtrat
1835
trafen
##uer
vorgenommen
praktisch
Boote
Werft
Werkstatt
südliche
Davis
Roger
ZDF
##orn
130
Istanbul
elektrische
abschloss
Port
Wohnhaus
Pferde
ums
Ministerium
Awards
Lehen
Anbau
Kontakte
rasch
verstorbenen
jap
Sitze
Verbreitungsgebiet
180
Chile
Amerikaner
weibliche
Infrastruktur
##tag
Zusammenschluss
97
Europäische
Volksschule
spanische
Wind
all
finanzielle
religiösen
westliche
Stockholm
##isten
schwarze
gleicher
entsprach
Goethe
oftmals
Wand
Klinik
königlichen
Haushalte
at
nördliche
Einsätzen
Nachkommen
##om
vgl
Asien
NGC
Stamm
Streifen
kurzzeitig
Ursache
gestaltete
starben
##ons
##ky
Ihm
Hollywood
Becken
Publikationen
Meistertitel
83
Christi
verfügen
Blau
Tschechoslowakei
festgestellt
bezüglich
1810
##icht
Prüfung
geschützt
Jäger
evangelisch
Eroberung
Johnson
VII
entscheiden
900
Französisch
enthielt
Gast
Steve
91
Erbe
übte
1837
Gletscher
Interview
Institutionen
Tournee
87
##port
Schlosses
Flugzeuge
Auge
Spielern
Road
Gebäuden
Folgende
Tokio
Konferenz
Abstammung
hängt
Verleihung
##stelle
Brigade
94
gegliedert
##nitz
zahlreicher
##scher
bewusst
Zeitungen
1838
EP
Grundstück
Professur
min
Verwaltungssitz
##ahn
Tieren
Inhalt
Oxford
##ssen
Böhmen
Victor
Preußischen
ständig
Toronto
dicht
woraufhin
Kolonie
schützen
Henri
geschickt
natürliche
klassische
##ica
versteht
UN
Kopenhagen
genaue
zeichnete
Eigentum
Me
89
Fans
##rk
##tes
Freiherr
verstanden
Jugendliche
##orm
Eberhard
besetzten
Muster
Y
São
gering
Hit
Effekt
Oldenburg
Geschlecht
erzielt
freier
##ber
350
Grundschule
Pflege
Genf
Auffassung
voll
eindeutig
1841
Parks
Sektion
vielleicht
erschienenen
Weiter
Stephan
##di
Markus
Messe
habilitierte
Fähigkeiten
Sydney
Flagge
Belagerung
Verbesserung
California
Karls
1839
Produktionen
kündigte
Fortsetzung
letzter
verlieh
politischer
Fest
Spielfilm
##verband
Bremer
##ak
berücksichtigt
Definition
Val
Leute
darauffolgenden
Jersey
Vorteil
beherbergt
Geburtstag
1836
Flug
Philadelphia
Änderung
innen
Iran
1834
angesiedelt
Formation
Verordnung
Ali
Auswirkungen
persönlich
umliegenden
Palast
anderes
Bedarf
verpasste
##betrieb
Sound
br
Luftwaffe
geplante
Brauerei
Pseudonym
Eis
Psychologie
musikalische
gesichert
Diözese
schreiben
##ic
angehörte
79
typischen
Freundin
stattfand
suchen
Adler
fehlen
stammten
Committee
erhaltene
historisch
Preise
##J
##familie
Vorstellung
Spiels
befasste
Engel
Prinzessin
##trieb
betroffen
##ft
Kauf
SK
Horn
1821
männlichen
Lizenz
erfolglos
Aufstand
Eindruck
schottischen
Stärke
##ierte
Günther
lokale
##adt
Steine
Tatsache
Antrag
abgebrochen
1200
Takt
##ate
Produzenten
bedeckt
Golf
Champions
1820
Council
gearbeitet
indischen
cm³
eingestuft
behielt
Jänner
beteiligten
Therapie
Fünf
Frankreichs
Rekord
stieß
##netz
Buchstaben
offene
Games
Ausschuss
Series
Arena
Artillerie
Tony
##fabrik
Vorschlag
Besonderheit
Orchestra
##jahr
Sciences
heißen
Stellvertreter
Zulassung
Wiesbaden
Tirol
Doktor
Volksrepublik
Personal
erfüllt
Portal
##ischer
wirken
Verantwortung
Himmel
musikalischen
##halle
verstehen
Musical
befindlichen
erneuert
Winkel
Landgericht
##anlagen
Partie
Life
##höhe
durchschnittlich
Schlagzeuger
##off
Carlos
Erinnerung
Oliver
Hinweis
verfasst
künstlerische
Ministerpräsident
helfen
Sees
Vermögen
erinnern
sichern
Einzug
geschätzt
##ellen
Generalmajor
Stattdessen
Angst
abgebaut
Zustimmung
Straßburg
Wilhelms
Tür
160
Langhaus
##bel
##forschung
legt
03
Verfolgung
Eier
##nis
genug
Graben
Merkmale
vielfach
Regiments
regulären
Zone
Grundriss
Gesundheit
Territorium
ähnlichen
##her
Erzählung
bezog
Dass
Londoner
Kategorien
Ulm
Maß
Verhältnisse
Cambridge
sagt
Lewis
Romane
Million
##reis
begründet
ausgerichtet
schwedische
künstlerischen
##änge
Pass
Stars
##ität
Vizepräsident
Duo
##ent
frühe
entworfen
SG
AC
Hütte
Eisen
Eishockey
Knoten
Stift
Marc
##ule
ans
Jackson
seltener
1831
Römer
Ortsname
Heirat
Centre
Netzwerk
##auer
vermeiden
komponierte
1812
Ex
Komödie
##cken
erzielen
##wert
Jahrhunderte
Konzern
Jeder
wichtig
Mario
realisiert
##si
üblicherweise
beziehen
Vorbereitung
erlitt
Legende
Kandidat
Durchführung
##pa
##piel
Eva
Freundschaft
Höhen
angepasst
Media
Journalisten
Corporation
Bündnis
antrat
##ux
Lange
steigt
Plattform
sowjetische
Motiv
Angelegenheiten
Materialien
achten
Beschluss
persönliche
bewegen
Element
Bundesstaates
##tten
Bogen
belgischen
Erfahrung
##bildung
katholischer
##smus
##ks
Unterschiede
##turm
##mt
aufweisen
lieferte
DB
unterrichtet
##punkt
Tanz
erweiterte
Marathon
veranstaltet
Ober
Eishockeyspieler
verlegte
müsse
gefährdet
gefolgt
Austausch
##wesen
Annahme
Drama
Inhaber
Regierungsbezirk
Wilson
5000
Abbau
Long
geteilt
Parlaments
typische
Patrick
angebaut
Wurzeln
verblieb
suchte
eingezogen
gehörenden
Vorstellungen
Angehörigen
Block
p
Gebirge
unterschiedlicher
fährt
1808
Nahrung
Schreiben
1817
##nder
Hagen
Bistums
ersetzte
besiegte
##ies
Bergbau
Ansatz
russischer
Anordnung
weiblichen
##ý
elektrischen
Südamerika
Peking
seinerzeit
Zoll
Amtes
##rten
teilnehmen
Duisburg
restauriert
Mitarbeitern
Weimarer
bevorzugt
identisch
Bauer
kulturellen
Schiffen
SED
Wer
Dritten
Point
gewidmet
qualifizieren
##politik
1833
Technologie
ausgesetzt
hinsichtlich
Taylor
Piloten
Bochum
Günter
Ausrichtung
begleitete
erfuhr
Mehrere
Zahlreiche
Festivals
KG
Trio
Geschäft
Times
bezeichneten
Ostpreußen
erhebt
1828
Redakteur
drehte
Gründe
solle
Episoden
Todes
Heide
enge
Bischofs
##berger
Präfektur
beruht
Junge
regionale
1825
norwegischen
fehlt
Schichten
begraben
Rumpf
Felsen
Areal
Sand
Panzer
stationiert
ausreichend
versuchten
Sam
lat
Information
##nes
zählten
verbliebenen
jüngere
Hochzeit
Express
diskutiert
##ild
Power
verwaltet
Eugen
Insekten
Luther
Enkel
Distanz
##leiter
Restaurant
jene
häufiger
entwarf
Gedanken
angrenzenden
Wesen
schlecht
existierte
traditionell
Schwarzen
##usen
übernahmen
Bezeichnungen
Mandat
verhindert
Dozent
Kurs
##ide
Schicksal
selber
Trotzdem
Platten
Alternative
Douglas
Papier
Zuschauern
Kupfer
Sophie
leisten
Benjamin
gewisse
Schicht
Besiedlung
entstandene
Rückzug
Indianer
entsprechen
Neckar
1807
internationaler
verfügbar
bester
Zweite
speziellen
Verteidiger
Sprung
Finanzierung
Anteile
Identität
Gesellschaften
Antike
Bestimmung
War
verwandt
Uraufführung
bedeutete
Río
Gattungen
1809
Church
vergleichsweise
Hauptmann
##eite
Reform
Blatt
bisherige
Okres
dokumentiert
Reiter
Hinweise
##lager
Heeres
##thal
ja
Soldat
140
##lehre
Championship
Schlesien
01
bekannter
Programme
Beste
Abgeordnete
teilte
Schild
##holz
Angehörige
unterbrochen
Ablauf
Erdgeschoss
Eric
Jim
Erforschung
alter
KPD
Typen
Leser
wohnte
nowiki
circa
umfassende
Vorsprung
festen
Anwalt
Bibel
Monte
mir
##erung
traditionelle
portugiesischen
Winterspielen
jährliche
##buch
Pommern
Zugehörigkeit
einziger
Niederösterreich
Sonntag
Überreste
empfing
Gießen
##iger
1826
Quadratkilometer
##ht
Verständnis
##zer
männliche
Vorpommern
##ln
Hang
bessere
##nte
Vorläufer
Diskussion
Besitzungen
##verkehr
HC
älter
mich
erkennt
Koblenz
Beamten
f
Auszeichnungen
PC
Herzogs
Gäste
Umgang
Entdeckung
##zone
##ul
Dame
Gegenstand
stehende
DFB
m³
preußische
Vogel
Siedler
Summe
##mittel
Mitbegründer
1798
gelb
Instrumente
erhöhte
qualifizierten
Tennis
Fleisch
befasst
Free
kulturelle
Platte
durften
Claude
bedingt
anstelle
Nebenfluss
Triebwagen
Time
Florenz
##ab
##markt
Nation
Bus
Golden
nötig
Schwanz
##ven
Vögel
Neapel
herum
Worten
##wand
verbundenen
It
sahen
Islam
Früchte
hielten
Bekanntheit
letztes
Zweiter
Hierzu
Ärzte
vorübergehend
Kompositionen
1829
Südseite
Reihenfolge
Großvater
hinweg
zeigten
Bar
##eil
übernimmt
Einkommen
Stufe
erfahren
sucht
Wiesen
hierzu
unmittelbarer
##kopf
1822
rechte
1824
1802
Theologe
betreut
Zeichnungen
Ray
Rosa
Öl
Glas
Format
Ostsee
Sandstein
Kleine
Glocke
Ruine
Q
Sun
gefeiert
Bruch
Beach
intensiv
les
Bauarbeiten
##unde
Weser
nationalsozialistischen
Inzwischen
Gesamtwertung
Büchern
Weiterentwicklung
Gallen
ausgerüstet
Höhle
Journal
wachsen
Kämpfe
wären
erklären
##geschichte
no
Demokratie
Museen
darum
Selbst
Gesetze
rote
Pflanze
Gesicht
##stadt
Nassau
Gabriel
hl
verzichtete
erfasst
Saarbrücken
Act
Little
Chance
Yorker
##ou
Flugplatz
Osnabrück
Zusammensetzung
Landtagswahl
Fälle
##rand
Strand
griff
Hauptbahnhof
Bezirks
erfolgreichsten
Mannes
##tum
Wahrheit
Schnitt
Bände
Brust
Singles
à
##yn
##weiler
Mitteleuropa
Bundesregierung
einziges
Gas
dank
wovon
Draft
griechische
Training
Dritter
Valley
Geschäfte
Vertretern
Great
Stufen
Jury
Roland
erkannte
Hände
Bahnhofs
Ereignis
##druck
Manuel
##gebäude
Fahrzeugen
Waffe
##ose
##end
Verbände
Offiziere
Napoleon
Rolf
Originaltitel
Aufhebung
Versammlung
Einzugsgebiet
Gulden
Verbandes
Kohle
Aufenthalt
zusätzlichen
Wohnungen
Kanzel
##theorie
weite
Wild
bestätigte
##field
Täter
##zi
publizierte
1819
Gelegenheit
aktuell
##ino
gesellschaftlichen
bekommt
Platzierung
Gräfin
religiöse
Town
##bewegung
belegen
siebten
bestimmen
1811
Bevölkerungsdichte
innere
schwach
Country
sammelte
Zentimetern
##asse
Historic
östliche
##tisch
Mr
Pfund
Jugoslawien
Atelier
##rie
IC
Maße
nachfolgenden
stammende
##ue
ansonsten
berühmten
Fast
Anfangs
verkaufen
Anwendungen
Stab
ref
Andrew
geschlossenen
Hoffnung
DJ
##res
Day
##museum
sank
Verluste
Sports
Kreise
Erhaltung
russisch
##tadt
Lediglich
spanischer
Kreisstadt
worauf
Kavallerie
Erziehung
Bernard
##tis
zurückzuführen
lateinischen
obere
##fest
Kontext
Aufklärung
führende
Bundestag
verlässt
##werke
samt
retten
Hospital
verbessern
geöffnet
Lebensjahr
Autorin
fördern
##leben
vielmehr
versuchen
erreichbar
Forschungen
Mischung
##führer
##ón
weiten
Rund
vorne
Salzburger
wer
untere
Carlo
Arm
denkmalgeschützten
Old
Kleinstadt
Integration
Bäume
Erkrankung
Mitteln
Grundlagen
Forscher
Gitarrist
##sis
Ecke
Flüsse
vollständige
Vorsitz
überraschend
Berichte
##kraft
Reichs
##ć
UEFA
Metall
entstammte
Schlagzeug
Kap
Knochen
ARD
lautete
Bernd
Plätzen
Siege
Darin
Eines
Schauspiel
##kreis
Slowakei
##arbeit
erfüllen
Lorenz
linke
Male
Diesen
##chaft
Clubs
Michigan
Innere
Saal
1805
Zwecke
1827
##programm
Opposition
Bald
verbreitete
Wetter
##lis
Schriftstellerin
grün
alleine
Gesetzes
Bielefeld
##ère
stillgelegt
Verbot
##Y
##ata
UNESCO
Bulgarien
America
spätestens
1801
Siegfried
Edition
verbesserte
##ian
Tätigkeiten
zugeteilt
NATO
vorerst
Hoffmann
extrem
bewohnt
##urm
arbeiteten
May
Moderne
wesentliche
Harvard
Dank
Gewerbe
besaßen
umfangreichen
Holland
##ere
Lippe
##funktion
Zugleich
##organisation
Brian
##lingen
Las
erschossen
geschah
besuchen
Hamilton
niederländische
Hauptrollen
Fellow
Alliierten
##häuser
Planeten
Manchester
nutzt
Helden
abgegeben
Statistik
wirklich
##ea
Begriffe
Ross
Dörfern
Endspiel
Hals
##gg
gelangt
Berufung
Bildern
Rande
Gedicht
Fiction
##insel
02
Debütalbum
Sohnes
Falls
1793
Last
Creek
äußerte
geregelt
Statue
Komponenten
Temperaturen
Costa
##zeichen
Sache
Amtsgericht
Business
Residenz
Badminton
Stock
Palais
Grube
Railway
125
rückte
Glück
##han
arabischen
kritisierte
Sammlungen
Testament
Johanna
##ierten
Problemen
jüngste
##rin
unweit
Willen
Nordseite
Loch
##are
Nördlich
Prozesse
Hochschullehrer
Sterne
Dreharbeiten
Manche
##är
Gewinner
Bühnen
Risiko
Jugendlichen
Entscheidungen
##ant
Zeche
umfassen
goldenen
Turniers
Seminar
Index
1804
##án
positive
Gespräch
großem
Labor
verbinden
Danzig
unklar
Übertragung
Nachweis
##iel
Erzählungen
antreten
kaiserlichen
landwirtschaftlich
Signal
Zufluss
Rajon
Voraussetzung
Not
Lady
rief
Vize
Keramik
##ruppe
Endrunde
unterhält
Kurfürsten
##ac
Georges
Beförderung
##fe
verband
eingeladen
Powiat
##produktion
Mac
##ins
schlechten
##lli
Touristen
Mittelmeer
##fer
Hubraum
Stoff
Forst
Kommune
Zuletzt
keinem
Solo
Münzen
Herrn
1823
Vorfeld
automatisch
Model
reich
Space
##wechsel
stammenden
schneller
demnach
finanziert
Kommandant
##latz
Ausgrabungen
Heilbronn
Haupt
Abkommen
bin
Fuchs
Oskar
Lissabon
Verletzung
##ans
bestattet
Hotels
paar
Entlassung
Adel
erwies
Völker
##barkeit
Schwerin
Schatten
erneuten
Oft
Details
##est
Nürnberger
Allen
Landrat
##chi
##rum
Kim
Arbeitgeber
Hinter
Kriterien
Rainer
##gel
##hr
Norm
Schlüssel
DNA
Kämpfen
Außer
Nationalversammlung
installiert
Zweitligisten
##liste
Grün
Verletzungen
##ver
normalen
Alex
##ara
Minnesota
erschlossen
stattfinden
trotzdem
##ausen
Nacional
Pferd
Könige
gerufen
##möglichkeiten
Elizabeth
ausgelegt
Turin
Schreibweise
endlich
Banken
Aufführung
##plan
Dan
Vereinigte
zwanzig
Fulda
##ini
bekannteste
Begegnung
Vorlage
Lyon
Forderungen
##ite
Regelung
##teil
chemische
##reihe
landwirtschaftliche
BMW
legen
Erzbistum
1600
Alan
hinteren
Marken
gewissen
bestellt
##onen
##ise
zugeschrieben
schwerer
Premier
##ds
beobachten
medizinischen
benannten
Verleger
Bester
1940er
Garde
Dinge
Gebietsreform
Priesterweihe
Fred
Vereinten
Racing
töten
Kriegs
chinesische
Russischen
##nge
Königreichs
Andrea
1700
Elementen
menschliche
Oberbürgermeister
Bamberg
überführt
Tim
##ford
Mineral
BBC
##ände
##gs
kandidierte
##träger
##eg
versorgt
Jörg
Dur
Bürgerkrieg
Lebensraum
Game
codice
Du
Erstligisten
Voraussetzungen
Profi
Hits
##old
Vizemeister
Fotos
Regime
beenden
laufen
Vermutlich
Texten
zeichnet
##ps
fliehen
Interpretation
Wachstum
vereinigt
Staatsexamen
Drehbuchautor
##kapelle
vornehmlich
Fund
##sh
Motive
inklusive
Sturz
Vordergrund
maximale
spät
Handball
Gleis
Ausdehnung
wahr
voraus
Disziplin
Erben
Aktien
konzentrierte
unterzeichnete
literarischen
Gefangenschaft
Hauptsitz
Clemens
Musikern
Prince
Gebietes
Miller
verlaufen
##irche
Tatsächlich
Hochschulen
aufnehmen
##tin
Stürmer
Steiermark
Obergeschoss
1794
##gt
Pest
Mathematiker
##cker
Wall
Nationalen
Antwort
Landesregierung
Hammer
meldete
Sanierung
Dokumentation
Anti
##ichen
Etappe
Haushalten
##äuser
Kleinen
Jede
Death
Mode
vorderen
Davon
##park
Benedikt
##tischen
Cross
Stadtbezirk
Getreide
Vorrunde
Hinsicht
Erlangen
##nberg
Bier
Roth
handeln
ersetzen
##abteilung
Vorlesungen
Reinhard
Eigenschaft
##auf
Katholiken
##igkeit
bedroht
Thron
ÖVP
BGB
griechisch
erneute
verkauften
Schuld
Antrieb
bezeichnen
landwirtschaftlichen
Montreal
Begründung
Modus
blau
übergab
Ludwigs
schwierig
Koalition
Kraftwerk
längeren
aufweist
vergleichbar
christliche
dritter
Law
Vorkommen
etablierte
studieren
Athleten
##ätze
gehabt
kämpfen
Bruders
Umbenennung
Chemnitz
Episode
namentlich
Verteilung
##graben
Conrad
TSV
##ufen
Becker
Redaktion
gebildeten
junger
Daraus
bewegt
Senator
Loire
seitens
gerne
Skulpturen
welchen
Luis
Wird
Kroatien
Soziologie
verteidigen
technisch
betont
Mehr
Kulturdenkmale
Sklaven
Armen
Konservatorium
eingeteilt
weg
ATP
verkehren
Anthony
Angriffe
##sheim
fünfte
Einflüsse
spezialisiert
Gefangenen
SPÖ
zwischenzeitlich
Court
Felder
##kow
Olympia
Dokumente
gemessen
Dessen
Thüringer
##ms
##äume
akademischen
Forum
Krise
Aluminium
1790
Aspekte
Umständen
Humboldt
##ula
Heilige
##uss
grünen
Buenos
Generationen
Unterscheidung
aufeinander
verließen
Schaden
Lebensmittel
Aussehen
##uf
Vorjahr
manche
geehrt
Genre
Missouri
Box
Ruhe
Planungen
bewaffneten
Justiz
Römischen
Luzern
Funk
gefallen
Darunter
Glaubens
registriert
türkische
allmählich
dauerhaft
beinahe
Häufig
##lagen
Aires
Verbrechen
Titelverteidiger
##wasser
Prinzen
Oslo
Braun
verursacht
mittelalterliche
##lan
Spur
guter
Affäre
zeitgenössischen
Romans
Paderborn
sofern
engen
Foundation
gedacht
besonderer
Stephen
##urs
Stanley
##tische
Untergrund
Periode
Klang
Flüchtlinge
Umgeben
Ausgangspunkt
Grande
Zweig
Alice
René
Güterverkehr
Naturschutz
USS
Fame
##ura
französisch
Howard
Georgia
angegriffen
Achse
750
Südwest
typisch
renoviert
Night
##ci
##ji
Südlich
Wuppertal
Veränderung
Bridge
Derzeit
kommenden
Julia
plante
Asteroid
Vereinen
Freunden
Neuzeit
offensichtlich
##daten
Faktoren
Chefredakteur
dänische
Genehmigung
Township
lösen
Niveau
Ankunft
##ho
Seele
Hot
Helsinki
Bit
Kolonien
IT
teilt
Betreiber
erkannt
einzeln
Ozean
Landtags
Befreiung
finnischen
Haltepunkt
Konflikten
GT
Exemplaren
##fläche
##del
##ums
publiziert
##ano
Sommerspielen
Beck
sitzt
Talent
Konstanz
komplette
##sk
Cover
##isierung
Harz
##rich
Beendigung
dortige
Sicherung
flachen
seitlich
##lauf
wesentlichen
Flecken
Bataillon
Mars
##ase
gebunden
##ah
verzichtet
##rte
##ette
Trasse
Fähigkeit
Europe
Kurzfilm
Opern
##ire
transportiert
##ria
Mythologie
Leutnant
1789
1792
##formen
Fox
Admiral
natürlich
Anstellung
Achtelfinale
Tisch
Home
Brüdern
bedeutender
Urkunden
Patent
tot
Vorname
Schließung
Harald
Ausscheiden
450
davor
besseren
Marco
##ord
vergangenen
Reichstag
Lokomotive
jüngerer
Düsseldorfer
berief
##ahl
Fürstentum
Alkohol
umfassenden
orientiert
Mond
Bell
##iden
zusammengeschlossen
Erdbeben
Colorado
Mauern
Germanistik
##ogen
wirtschaftlich
Thailand
Traum
Erwin
aufzunehmen
##latt
erhebliche
Eintritt
erfolgreichste
zerstörte
Beweis
Pedro
Kommunalwahl
Kennzeichen
Damals
Vorhaben
plötzlich
Barock
betreiben
##don
daß
Forderung
ansässig
abgehalten
teilnahm
markiert
Kirchspiel
entschloss
Syrien
tschechischen
Ressourcen
Stuttgarter
Ontario
Nachfrage
Gegenstände
braun
Kreuzer
Westseite
Nachlass
##tti
x
ähnelt
Innenraum
Marcus
Kuba
Kampagne
Zusatz
Johnny
halben
befestigt
Gerät
Umsatz
polnischer
Allgemeine
Bauwerke
Behörde
Erstausstrahlung
befindliche
Küche
Überlieferung
Gemäß
Pilot
Begründer
Janeiro
Dialekt
kirchlichen
deswegen
##mar
##ez
##welt
##bare
Welle
##nischen
Satelliten
stiegen
Junior
Aufstellung
Standards
Burgen
gleichnamige
Website
##dae
galten
Moment
Gehäuse
richtet
##erte
Außenminister
Wirklichkeit
Mans
##iten
Jimmy
Austria
##zellen
beliebt
Generalleutnant
Bemühungen
##leitung
Absatz
zeitgleich
lesen
gegeneinander
Mainzer
geliefert
Wellen
Phasen
medizinische
vorhandene
##ud
Entwicklungen
Comic
vermehrt
Web
Server
tiefer
Einnahmen
District
##sberg
Inhalte
Dialog
Krebs
##bank
Bewegungen
CSU
Regional
Kaserne
##od
verliebt
Litauen
erhöhen
Evangelisch
Wettbewerbs
Teilung
verarbeitet
Gordon
Leiden
Communauté
##ī
Serbien
Board
##cha
Ortsteilen
Stämme
gekauft
Anlehnung
unabhängige
##ble
mag
deutschsprachige
Aktionen
Pastor
Erreichen
Stipendium
feiern
Umzug
geprägten
besetzte
Zerstörer
Böden
erwartet
Evangelische
Porträt
Wittenberg
Kurfürst
Zehn
Regen
reine
##ionen
Seither
Gärten
orientierte
##rbeit
##horn
bat
AS
Personenverkehr
##ndorf
Denn
Sportler
LP
Busch
unterwegs
##ín
Landesstraße
Unentschieden
präsentierte
Irak
Adams
normalerweise
##alen
Dekan
##ong
Philippinen
Ermordung
UdSSR
älterer
Detroit
Marketing
Baumeister
gewöhnlich
##fahrt
Infolge
laufenden
Pius
urkundliche
eingenommen
hinterließ
On
Kapazität
Glasgow
Studioalbum
empfangen
jeweilige
Mercedes
Sauerstoff
Abwehr
Zürcher
niedrigen
Allianz
Kleidung
bestritten
erzeugen
##oren
Airport
Kulturen
niemals
eigenständigen
eben
Durchschnitt
Ursprungs
Borussia
keinerlei
##verwaltung
übertrug
kritisch
gehandelt
zerstörten
betätigte
Spenden
Charlie
liefert
Bischöfe
Willi
##ßen
geraten
untereinander
Tageszeitung
Petrus
Abraham
Experten
chemischen
Strafe
sorgen
Nachricht
kennt
Flora
Ohne
zurzeit
halb
Individuen
VfL
NRW
Kompanie
Greifswald
Medaillen
Queen
Projekten
Continental
Paulo
Lothringen
Fußballnationalmannschaft
befreit
voller
Strategie
Stadtteile
Sechs
Dritte
Institution
Abenteuer
Up
##leistung
qualifiziert
fertigte
Dance
Australian
Ausrüstung
##ola
Maurice
Briefe
Louise
Mont
verbessert
vertritt
beschreiben
Wahlbezirk
leichter
jährlichen
angesichts
Stone
Lexikon
##rücke
##baren
##kirchen
Verlags
äußere
einzelner
angekündigt
Kette
is
soweit
Benz
Wärme
Wälder
Propaganda
NBA
Willy
Archäologie
Herrenhaus
überall
Hop
Anwesenheit
HD
auseinander
Schnabel
Blütezeit
Passagiere
##acht
Kreuzung
Mittlerweile
Hanau
Prager
Geschwister
Werbung
Christopher
Händen
##nia
##ron
konzipiert
1799
##rer
Ferrari
##erie
ausgesprochen
viermal
Billy
eigenem
Diego
Theatre
betreute
Staffeln
Staatlichen
Marmor
Reederei
Sieben
Moor
Erkenntnis
Philologie
Gleise
Atmosphäre
finanziell
Duke
Dirigent
##züge
floh
verteidigte
quer
##hersteller
häufigsten
Direkt
IX
verpflichtete
Spannung
Teils
##wood
gemeint
##bild
angestellt
abermals
gesperrt
Polizisten
##kt
VIII
Vincent
Erlaubnis
##kammer
Königlichen
Ostseite
Abbildung
verwundet
Peru
größerer
Départements
taucht
##spiel
VfB
Festland
##Q
Philip
105
stirbt
Québec
r
CO
wissen
Diplomat
Entertainment
Ehepaar
Vancouver
zustande
Restaurierung
Beine
Tatort
1797
Kindes
Gymnasiums
Florian
unabhängigen
benötigte
ausdrücklich
Francesco
Jane
vorzeitig
vergrößert
feste
entfernten
##tät
Nikolai
##opf
##bo
streng
hohem
Ministerpräsidenten
##ure
Verwandten
Bewohnern
Hohen
##gut
Handlungen
Anführer
Mississippi
##rad
gesammelt
Kunstgeschichte
Santiago
Ihren
Schaffung
##ald
##haft
jüdischer
geschieht
Wiedervereinigung
Moschee
with
Oberösterreich
Inc
##lose
Volkes
nationaler
Hochwasser
##à
Sarah
hingerichtet
Riga
Mitgliedschaft
Moore
Generalsekretär
Schwarze
Weinbau
beheimatet
Nachbarorte
##unden
Milch
Abteilungen
Siemens
Out
falls
Nominierung
überzeugen
Abriss
annähernd
Bestimmungen
##per
Schwert
##nk
leichten
Ltd
##viertel
katholisch
anzutreffen
Tafel
##aten
FK
Hip
Will
##stand
Werkes
Bauch
Adresse
##olitik
bestes
Wohnsitz
Hubert
Räumen
Haushalts
flach
Handels
produzierten
los
Märchen
unbekannten
##maßnahmen
Manga
Luise
Freie
genauer
##modell
Clark
eingeschränkt
as
##prozess
Kansas
Campus
eigens
##film
##bus
Protest
##ów
Buches
gänzlich
##ée
wechseln
Hund
spendete
zugrunde
Militärdienst
Gregor
Peters
Mountains
##chten
beauftragte
Mayer
##owski
verkehrt
Vorfahren
Erkenntnisse
Jedes
Digital
##ucht
##namen
Länderspiel
Jung
schmalen
bürgerlichen
gelungen
wählen
Disziplinen
Gegenzug
Memorial
Physiker
Walther
Epoche
Zentrale
Feier
Auflagen
Händler
Chemiker
wendet
Unmittelbar
della
erteilt
Werks
Erhöhung
langjährigen
Fische
vereinzelt
Theaters
1795
##artigen
##ebene
##ore
##chef
Stettin
wissenschaftlich
##up
nahen
Südkorea
##teile
Heim
dunkel
Via
stetig
Melbourne
##unkt
gestartet
Ruth
##mo
Faktor
1300
Komplex
Gerichtsbezirk
##führung
DC
Vermittlung
Women
landete
förderte
##gan
Friedrichs
Wettkampf
##rate
Order
Abhängigkeit
Gen
Spitzen
ländlichen
##kommen
##cus
erwähnte
Hildesheim
Darsteller
Pflanzenart
Public
Helm
Stadium
Ähnlich
Rechtswissenschaft
wolle
entscheidend
##garten
bewertet
Wladimir
by
Bundesstaaten
Mein
Lösungen
Ansiedlung
Lüneburg
Meist
Hahn
Moskauer
Autos
##quelle
erlernte
Roy
##pen
170
##direktor
Speyer
Edinburgh
Playoffs
##wski
Auguste
##tsch
Wenige
dorthin
Foto
##unterricht
Aufsteiger
notwendigen
behauptet
innehatte
HMS
Lande
Sockel
Nutzer
Baudenkmäler
untersuchte
Kärnten
Zylinder
eingesetzten
ansässigen
Adelsgeschlecht
Lothar
##ris
Belgrad
##trag
geschaffenen
##losen
kanadische
These
Motors
Dokumentarfilm
selbständige
Berger
gewählten
Insolvenz
Turnieren
Monarchie
##well
##ast
Opera
Pflicht
ergaben
verliert
gründen
Melodie
Pacific
Wohn
Goldenen
lutherischen
Bischofsweihe
Berechnung
Zeugen
##wo
MW
Nationale
verabschiedet
Ten
Rates
TU
Liedern
##ank
Größen
sammeln
Hunde
##länge
Porto
##ive
deutliche
Stadtmauer
ethnischen
Akten
Prototyp
ausgeliefert
##mmer
lebende
vermittelt
Programms
Zentrums
ungewöhnlich
Relief
absolviert
phil
Haag
##geschäft
identifiziert
Rückseite
Khan
Meeresspiegel
Gotha
##nten
Absicht
zuständigen
##hütte
Microsoft
fertig
##ont
Bett
Unterseite
IF
Vorstandsmitglied
##ani
Kiew
##ücke
Biologie
Forest
##vertrag
Paulus
Freizeit
größter
##š
polnisch
Porsche
schoss
Nick
##nau
Marcel
Breisgau
Weihbischof
unverändert
Öffnung
Zweifel
Teich
Hl
Mönchengladbach
##eben
uraufgeführt
Maine
Cheftrainer
Fisch
Feldzug
##kosten
##rei
Sternbild
Lausanne
dauert
Marsch
Deren
1796
verschoben
kontinuierlich
Rad
Schmuck
RTL
##ó
##ska
##winkel
##sion
trainierte
Sizilien
kanadischer
Bäumen
Staats
heiraten
Fell
Nutzen
Gefecht
liefern
Indiana
Höchstgeschwindigkeit
Bewertung
Nordsee
Mönche
##beck
Latein
einfacher
zugewiesen
Li
Christine
Kai
Roma
##hofen
Inschriften
mehrheitlich
Darauf
sagen
Sex
##gang
wonach
Spielbetrieb
Heinrichs
Schwaben
Standorten
##bteilung
ungarische
malte
Weiße
reinen
Entsprechend
Wisconsin
Konstantinopel
schlägt
Künstlers
Bürgerschaft
DIN
Götter
Raketen
vorherigen
HK
##sammlung
Kilogramm
##sser
Übersetzer
saniert
literarische
##ain
Sendungen
tiefen
Tennessee
##fahren
generell
4000
##kommission
##ye
##stedt
Jordan
Jahrhunderten
gebaute
Gestapo
Dave
##ene
##eis
Speicher
preußischer
Minderheit
##aal
Kulturdenkmäler
Künstlerin
obersten
erwerben
Mühlen
derer
Vorteile
Baby
Sakristei
Höhlen
220
Stadtzentrum
Kunststoff
fuhren
gebauten
Punk
Politikerin
Aktiengesellschaft
Projekts
Technology
Gründungsmitglied
Normandie
Verfilmung
Länderspiele
Bayer
Systemen
Magazine
##las
Tests
BSG
Olympische
Be
##nummer
Aufzeichnungen
unterstand
bekamen
Fernseh
Grafik
mexikanischen
interessiert
Nova
Europameister
Hin
hell
Meilen
Go
abgesehen
Höfe
##änder
Siegel
ad
erlaubte
Uwe
Giuseppe
islamischen
Schulden
End
Folgejahr
Abbruch
Perspektive
etliche
1791
Erhalt
Ära
Il
Konzerten
Kenntnisse
behaart
zentral
Regelungen
Lübecker
Denkmalliste
Anlässlich
auftrat
Bakterien
##klasse
interpretiert
##räume
gegangen
##wirtschaft
mitunter
Aufschwung
Videos
abgesetzt
##itsch
Di
Beispielsweise
##tätigkeit
Ablehnung
Antarctic
westlicher
Kenntnis
1750
Erwerb
unmöglich
Liverpool
1784
brasilianischen
dieselbe
Dienstleistungen
Titeln
Kreisen
abgebildet
Klage
Niederlagen
äußersten
##kette
genauso
Amerikanischen
Reichweite
Reformen
École
angewendet
benachbarte
sozial
Motto
##ehen
Salz
Motorrad
Ermittlungen
##idae
inhaftiert
Kapital
wichtiges
sitzen
Naturpark
##tus
1780
Rugby
Staatsanwaltschaft
neunten
meint
Kindergarten
Airlines
Merkmal
Flur
geklärt
konservativen
Range
Worte
historischer
Wirtschafts
Philosophen
##material
Vertretung
falsch
##ão
Standorte
Metz
erheblichen
Edmund
Bevor
betroffenen
##tik
##felder
barocke
##flächen
Volumen
Sultan
Farm
EC
Konzentration
Hard
Fotografie
##gau
Gene
1400
Theorien
Donald
volle
Metro
Zoo
Philippe
##ysteme
##titel
Invasion
Norbert
Mangel
Ausnahmen
zurückkehrte
gliedert
schickte
Special
Connecticut
benutzte
Senioren
irischen
Pionier
Delegation
aufnahm
wahrgenommen
Syndrom
Vorschriften
Austragung
städtische
Sternen
passiert
Viktor
##gi
Gewerkschaft
ausländischen
Steinen
Kriege
etabliert
negativ
Obersten
Kongo
Katholischen
national
Chief
Partnerschaft
Steuer
Back
Hinblick
Café
Techniken
Bruce
römischer
##era
aufgelistet
Miss
erfolgreicher
Axel
Erfinder
Wohnhäuser
Bebauung
Auftreten
##ings
##gas
wachsenden
Häftlinge
grau
absolvieren
berechnet
Nachwuchs
Türen
com
kehrt
##rennen
niederländischer
División
101
Gebiets
##ges
bedeutendste
Sky
doppelt
Nummern
Han
Mail
Export
Ursachen
schwedischer
Türken
Agnes
Zell
organisierten
hessischen
erhob
##jan
Achter
Hauptquartier
##tar
##theater
breiter
Stammspieler
##rf
Is
Mrd
##kin
etablieren
Inszenierung
Press
Bekämpfung
##rung
verweist
Arizona
richtig
Hamm
fortgesetzt
Königlich
Karosserie
Dichte
Atlantik
Anderson
gefahren
Olympiasieger
schnellen
vorkommen
UK
Performance
Nicolas
live
Weiss
Iwan
##esen
fordert
Legislaturperiode
Schiffes
angewiesen
japanischer
Mini
Conference
##förmig
durchquert
Operationen
Holding
Eintracht
##utz
Franklin
Universal
Renovierung
Acht
eingewechselt
erbte
Ebenen
Sierra
Nachbarschaft
Copa
Russen
Haushalt
Bauzeit
Kessel
AB
vorgeschlagen
Bayerische
Schiedsrichter
Ansichten
notwendige
Wahrscheinlichkeit
##ofen
Schuss
Bürgern
verglichen
Spannungen
starker
Wäldern
regelmäßigen
Bukarest
Abfahrt
Vielfalt
##ua
##nnen
##ück
Fokus
##llo
Verbund
Lok
Ruinen
Modellen
vorn
Kunstakademie
Hauptstraße
Einladung
voran
Tower
Nachkriegszeit
Amateur
##eln
Teilnehmern
warf
Geistlicher
Comics
Fächer
##hagen
zeitweilig
Popularität
##wahl
zurückkehren
Nordost
deutsches
##spor
##lein
Porträts
News
Inter
Angabe
Dublin
Organ
##ois
Frequenz
Söhnen
Damm
Abgrenzung
heran
Gattin
juristischen
Technische
wahren
Akt
verbreiteten
Letztere
Kulturgüter
##phase
communes
Laubblätter
Captain
leichte
Gottesdienst
Saar
jenseits
Margaret
aufbewahrt
1785
##ceae
Begegnungen
##erin
zugesprochen
Abschnitte
##dy
Konstantin
##és
##frei
befreien
Handwerker
Kevin
Fernsehserien
Realität
glaubt
dominiert
Möglicherweise
Allein
verfolgte
trennte
Edgar
##ses
##olz
Departamento
Beschäftigung
##erk
##halten
enger
Grundstein
Beute
##artig
Vorgehen
Roll
##ologie
gemeldet
Verfahrens
##tta
Bundesautobahn
Stoffe
Pause
half
Staatsbürgerschaft
freiwillig
Schach
Notwendigkeit
Kriegsgefangenschaft
Unterarten
Westlich
elektronische
Plateau
MS
Brot
##baum
Gera
Wahrnehmung
Steuerung
Cruz
überlassen
Car
Synthese
Pokalsieger
Schwarzwald
German
entscheidenden
Zelle
Krankheiten
##enberg
Chronik
Afghanistan
##mannschaft
Eingemeindung
Mountain
##vo
Municipio
Gräber
##jo
Kandidatur
Geschlechts
rumänischen
meinte
Basilika
Lang
Käfer
Haute
Konkurrenten
Benannt
Truppe
Elite
Lincoln
##bene
Färbung
##region
kommunistischen
Verfasser
##els
Posen
Kritiken
geschlossene
Lloyd
Wiederherstellung
Feind
1787
##eich
##oden
##zahlen
##we
Rosen
##shi
Gerichtsbarkeit
Worms
Gerd
Bande
Magnus
##cs
##linien
##ade
nachweisen
Uhrzeigersinn
Beton
Coburg
eiförmig
Goldene
gehörende
Atlanta
Informatik
Gastgeber
##ec
ORF
litt
Stewart
Mittelfeld
##oy
festgenommen
entwässert
Palästina
belegten
Philosoph
##öl
Überlegungen
Wolff
Est
produzieren
360
Shanghai
Pianist
ändern
Abstimmung
##lasse
Freiwilligen
##eister
Wandel
Taiwan
Ansprüche
erobert
bittet
Sächsischen
Stausee
Nest
Profil
tropischen
Logo
absolute
Dynamo
##ès
Countys
##tand
Kalender
aufs
3D
Krakau
Nachbarn
moderner
kommend
Place
##jew
##maschinen
Apsis
Ski
Schnee
##kel
Global
##grund
stürzte
nachweisbar
Broadway
Miami
konzentriert
Konflikte
Übersicht
Christentum
nutzten
Moll
veränderte
gültigen
##ı
##uk
##inen
Salon
Erik
Solche
Sage
Area
eventuell
Dick
rechtlichen
##pel
Andererseits
##bi
Larven
nordöstlichen
Störungen
##nik
Hallen
##dorfer
Zähne
gesellschaftliche
Maximilians
Ursula
ü
Bundesland
Wähler
Politisch
hohes
##ode
Clara
Anbieter
##rechte
poem
Phänomen
Ann
EG
##ufer
##bund
Spanier
Erscheinen
Bomben
wider
Sitzung
Inn
Wertung
Komitee
Abu
Boris
übliche
Pedal
##ku
Morgan
letztendlich
Stadtverwaltung
Rückspiel
Rue
vormals
betragen
Parlamentswahlen
##maschine
orthodoxen
##üge
##eiten
Railroad
##ić
ausländische
##ii
prägte
erschienene
Schulzeit
Heck
##č
Blumen
vollkommen
Kanonen
Ländereien
siedelte
warum
Sparkasse
veranlasste
##platten
Östlich
überzeugt
Zügen
##äure
Anstieg
Southern
Eichen
Beobachtung
Uruguay
Tel
Berner
Australia
elektronischen
Arbeitsgemeinschaft
Schädel
##ille
zueinander
Java
israelischen
Kabel
Wirken
Drogen
seltene
Schwerpunkte
Lagen
regelmäßige
Wände
Kuppel
verkörperte
Getriebe
Bassist
Leder
Namensgeber
entscheidende
Apple
Linden
Stade
##handel
Vertrieb
Landesliga
104
Links
Hartmann
umgestaltet
Sainte
Alters
Nelson
Beschäftigten
Wettbewerbe
Einweihung
##kreuz
gestiftet
Reichsbahn
Rasse
Betreuung
neueren
eröffneten
Probe
Hut
Hongkong
Bayreuth
Zeichner
zumal
Meeres
##teilung
##och
veröffentlichen
südwestlichen
Kämpfer
Gerichts
##ala
solches
Verlegung
Reis
Aufgebot
##kultur
Erstbeschreibung
1786
Altenburg
Angreifer
102
Benutzer
##tan
Handeln
Monats
Luftlinie
Schmid
##reise
Erkrankungen
##fall
##lia
onlyinclude
Verpflichtung
Skulptur
Slalom
greift
Laura
kleinste
Rohr
Light
württembergischen
Bahnen
Kaiserreich
Gegenüber
Decke
Bologna
niedriger
zunehmenden
Früher
verstärkte
##aut
Vietnam
Italiens
genehmigt
Renault
Pfeiler
südöstlichen
Flensburg
Stücken
fliegen
Lukas
Gruben
bemühte
Volkspartei
verschwunden
heilige
1788
##team
positiven
Auschwitz
verlangt
Platzierungen
Bearbeitung
Innern
Jh
Bismarck
Granit
Estland
Claus
Effekte
zurückgezogen
Iowa
Gotteshaus
begangen
Elsass
schnelle
Kaiserin
Boy
Budget
informiert
Bauweise
Caspar
ziemlich
Moderator
Kugel
103
##logie
Student
Kanzlei
Graham
darstellte
Sommerspiele
Astronomen
verziert
goldene
blauen
##nahme
Klöster
##elt
demokratischen
Normen
Giebel
Ausgang
gesendet
Mönch
ukrainischen
Oberstleutnant
Spektrum
Soundtrack
Meißen
##satz
##ark
Reaktionen
schenkte
erstellte
Null
Zusammenbruch
Hessischen
Tiroler
ausgelöst
Julian
Protagonisten
Regierungszeit
##schutz
##ormen
el
Torhüter
Rittergut
Matrix
demselben
Puerto
NN
Steuern
Russlands
##ruppen
Verdacht
##unst
Volleyball
mithilfe
##yer
Soul
Kentucky
Landstraße
erhöhten
Harris
##stellen
Weiden
Maschinenbau
Na
Ernährung
ISO
Château
Gewölbe
##hilfe
Johan
Dorfkirche
Datenbank
Canada
##rm
zugehörigen
Lawrence
vorbereitet
##acher
##nz
Robin
Aktivität
##pf
Berücksichtigung
Ice
##ereich
##fähigkeit
schien
Antoine
Nordwest
Kairo
umgekehrt
regional
Level
Büros
Sprachraum
##ender
vollendet
Wörter
Marseille
Beat
Orleans
Faust
zeitgenössische
gerettet
Sofia
berühmte
Küsten
##biet
Klubs
Virus
Verhältnissen
##liga
Department
Office
Mörder
##sel
Urban
Brett
Landschaften
##gabe
erwähnten
Stuhl
Orts
Denis
Cottbus
240
##aren
Unruhen
Social
NFL
Prediger
tat
Of
Englischen
aufzubauen
##ras
trainiert
sorgt
Richtungen
Krieger
Denken
1783
Action
Mund
Job
Bestände
negative
##gewächse
Bodensee
Emma
gebe
Kaufmanns
Adels
Challenger
2020
verlaufenden
IUCN
Haar
inszenierte
Antonius
##ühle
nad
Militärs
Mine
##vi
örtliche
Camp
##ele
Oberflächen
History
abgeschafft
Instanz
Ehrenmitglied
Disney
Rotterdam
Lucas
Prinzipien
Gramm
Fußballverein
Commonwealth
Ereignissen
Ansehen
amtierte
Ruder
Ausgleich
##pitze
diejenigen
gesungen
startet
erweiterten
nordwestlichen
Zucker
Ed
Ecken
Kalkstein
Schiller
Habilitation
Neffe
Vorträge
Story
Kent
Beobachtungen
variiert
SP
Masters
Leonhard
selbständig
Dagegen
Umwandlung
Folgejahren
Bosnien
Österreichische
##uß
zitiert
Lisa
schriftlich
Kirchturm
gebraucht
Wieder
Allee
Wunder
OS
Neumann
Immobilien
sterben
endgültige
Schweizerischen
Automobil
1770
##lichkeit
Schuppen
Substanz
Ansbach
Marokko
Bürgermeisters
Bush
Genres
australische
Persönlichkeit
Nordischen
Verwaltungsgemeinschaft
##lag
Leiche
Achsen
Ähnlichkeit
sportlichen
archäologische
Landeshauptstadt
Rassen
Ems
Realschule
avancierte
Gitarristen
herangezogen
beeinflussen
Elf
##zene
Unterfamilie
Erfindung
##grad
Umland
##so
Pakistan
##gemeinschaft
##ett
hinzugefügt
Caroline
Hochaltar
begab
Minden
Emeritierung
Flugzeugen
Kaiserslautern
Bergwerk
##echnik
überquert
leer
IP
Erzähler
Fels
Kommunistischen
angetrieben
behauptete
Gleich
besiegt
gefordert
Magdalena
Hirsch
##ros
##musik
ordentlicher
Bedingung
WDR
Elektronen
##shausen
##kunst
##gemeinde
Beachtung
Antwerpen
Mediziner
Mitkonsekratoren
Fischerei
Alpes
gedruckt
philosophischen
beginnend
massiven
betrachten
Jens
Einnahme
eroberte
Senior
Down
verlieren
Monument
op
zunehmende
ägyptischen
Türme
Haltestelle
##itel
basierte
einbezogen
##säure
erzielten
Diensten
Professoren
Grunde
bestimmter
Rhône
##lehrer
ihrerseits
##sellschaft
##aft
Vertrags
studiert
nördlicher
Beobachter
Andy
Bauart
Oberlauf
versteckt
kirchliche
Senats
Hohe
Braut
Immer
starten
Fantasy
Aufsicht
##chs
mitten
normale
gotischen
Kolumbien
Blei
Aufsehen
Fresken
Berges
gelöst
Rechten
Listen
Head
Staatssekretär
Finger
µm
Zurück
Kronen
Paare
Naturwissenschaften
stärksten
##ile
Bewusstsein
Kommunisten
afrikanischen
##nus
Hills
##dale
Debatte
##iche
grüne
Springer
Holocaust
genutzten
abgetragen
Schönheit
##anstalt
staatlich
##hörde
Übersetzungen
##zeiten
Sea
Russell
Final
Bug
115
endgültigen
##ran
nachträglich
Busse
##iv
Aussterben
schen
stattfindet
gesetzlichen
Auftritten
Großstadt
##tel
gewinnt
##richtung
Demokraten
trennt
Erwachsenen
gelangten
Repertoire
Maryland
Traditionen
Blättern
Griechen
vollständigen
Liechtenstein
We
Mittelalters
Jon
lernen
Bindung
Lebensweise
genügend
##etz
Resultat
Europapokal
Wiederwahl
rechtliche
Franco
entfernte
##bert
angeführt
Turniere
Handwerk
##örper
Musikvideo
entkommen
Rechnung
Anbindung
primär
kostete
Fernsehsender
##ät
Luftfahrt
Wüste
Diskussionen
1775
Matt
Hawaii
Blüte
Bilanz
##typ
Leib
Benennung
Arbeitnehmer
Apostolischen
Indonesien
befahren
stimmte
Rebellen
name
vorkommt
Besuchern
inmitten
Südtirol
##ieg
##chor
zahlen
halbes
Per
vermitteln
Havel
Durchschnittseinkommen
Hütten
juristische
Mosel
Bedrohung
##richt
ordnete
teilen
abseits
Kreuzes
Jr
formal
Passau
einstigen
Begleitung
verstorben
1772
Fassaden
##ios
##club
vernichtet
benutzen
Hauptrunde
Charaktere
Gitarren
Teilweise
Aufwand
##raft
##nische
Stadtteils
deutet
##blatt
##alle
Erstellung
Kennedy
wofür
Ausländer
XII
Kantone
Fertigung
Arme
Tiger
Gesellschafter
Houston
Anstalt
Malers
populär
Schienen
Grant
tiefe
Phil
Verkehrs
zufällig
Polens
Aufführungen
##nbach
Nebel
hölzerne
niemand
dunklen
durchzuführen
Offensive
linker
Kelly
Angel
Bundesländern
Katalog
FIFA
Produkten
##größe
Korea
Zyklus
##sbach
enden
vorgeworfen
aufgeben
Logik
durchgesetzt
Messung
##prüfung
Avenue
scharf
Four
Comedy
Aufträge
SD
Singapur
Schlag
230
##ührer
##tung
Kings
Eisenbahnstrecke
Planck
##assen
anstatt
einzig
##olo
##ack
runden
Pädagogik
durchgehend
Folk
vergeblich
Laden
Streitigkeiten
Jonathan
zehnten
europäischer
Tempo
Second
Apostel
Turner
Rache
Katzen
Nationalspieler
Ralph
na
herrscht
##ane
Wahlgang
türkischer
Verträge
übrig
vorrangig
Hart
##min
Ortsnamen
brannte
Leon
Guy
Westküste
Vorgang
weichen
silbernen
Teilchen
##tter
Stralsund
##chte
Wenig
Kastell
Genua
montiert
privat
Geistes
Bois
Zeichnung
Ernest
lateinisch
königlich
Pfarrhaus
Landung
direkter
Feste
Engagements
kritische
108
Orientierung
Wettbewerben
UCI
##ero
ragt
Lebzeiten
Gewässern
Ausstrahlung
Spanisch
Mantel
Klosterkirche
Volker
analog
archäologischen
schriftliche
lateinische
gerichtet
Fahrrad
##welle
besuchten
Ehre
##worth
##cal
Sitzen
Bein
##town
Synonym
Stimmung
Überwachung
Schulz
Dorothea
##ngs
Kirchengebäude
Amts
geführten
derart
Statuen
1776
gerechnet
ausschied
Places
Frederick
romanischen
Jesuiten
erwiesen
königliche
barocken
1782
wohnt
Lehrerin
Fernsehfilm
##isen
Frucht
Hitlers
praktische
Mozart
Wiederaufstieg
wechselten
##ok
##cy
Christ
Umstand
zeitlich
##typen
Kalten
##dauer
vermuten
Canadian
##paar
ernähren
##zo
Tote
Protein
weitergeführt
Vorort
Zypern
einsetzte
Klassenerhalt
Gran
Gefahren
##ess
gelben
abgekürzt
Raymond
Automobilen
##hu
Bestehen
Abwesenheit
berichten
unserer
Verschiedene
Raupen
Theo
Lyrik
##uppe
offs
kurzfristig
Ken
Louisiana
Möbel
wohnten
Publikation
Restaurants
##mm
erlangen
Entwürfe
Base
##einheit
##aden
##val
Steinbruch
kommunalen
Pensionierung
Hauptwerk
Gerichtshof
Interviews
Boeing
Audio
kritischen
Wood
##ira
Laien
Limburg
Ausschusses
Linux
rechter
Bundestagswahl
Schröder
SM
nannten
Gelb
Anklage
theologischen
grundlegende
anerkannte
fehlenden
##bruch
gestrichen
Langen
Freitag
Challenge
Markgrafen
Fachhochschule
stiftete
##fa
Rückstand
unterhalten
Metropolitan
verbracht
seltenen
Match
##ú
Menschheit
##äge
##rath
Kurve
regierte
Talsperre
Oberseite
##orum
interessierte
##lus
Spree
Nationalrat
##eid
1777
Ohren
##iff
##echt
repräsentiert
Pazifik
spezialisierte
Engländer
Augsburger
##reiche
##alter
erlassen
gewährleisten
Heimspiele
Contest
Weltrangliste
Biathlon
Vertrauen
Orange
Marien
Börse
Salvador
Development
##way
geschaffene
Sorten
gewährt
Industrialisierung
Held
Feder
Madonna
Entwickler
Einbau
##kampf
hart
Angebote
##att
Konfession
Finanzen
Austin
angefertigt
Erneuerung
Koordinaten
Engineering
Dokument
Fernando
Billboard
##werte
Pilz
Alabama
##ller
Independent
Rechtsprechung
Aussicht
Adolph
öffnen
wiedergewählt
Schäfer
Bisher
##ous
mechanische
VEB
fehlende
beruflichen
Sportverein
##systeme
südlicher
Messer
##ora
Zentren
##ole
##artige
Dark
##nlage
gestanden
Turn
Beratung
Maßnahme
Baus
Malta
Treppe
Boys
Regisseurs
##ammlung
unterzeichnet
Regierungen
Stiel
verbundene
Schatz
##ères
##owa
erbauten
Verarbeitung
liberalen
gelblich
Gary
siedelten
Bundesministerium
anschließende
Unterart
Marktplatz
Human
Eisenach
##yl
from
Wahlperiode
Körpers
scheiterten
Menschenrechte
deuten
Alaska
Tochtergesellschaft
scheinen
##zeichnung
Kurse
Erinnerungen
Begriffs
antike
teilgenommen
tausend
Oregon
Linke
Einteilung
##ührung
Gottlieb
##als
Gehirn
Abschied
scheinbar
Riesenslalom
Obst
Überblick
Bremerhaven
##ausbildung
Gelegentlich
Do
kürzer
##dach
glatt
Statt
Slowenien
Zagreb
fusionierte
inspiriert
Herstellers
Bart
Pfarre
herzustellen
Northern
Lig
Italiener
Niedergang
##sson
Rapper
##endorf
Stapel
Sri
Demnach
Vogt
Sinfonie
##krieg
##ult
schlechter
zuständige
Franchise
Forstwirtschaft
angelegten
drohte
Rückgang
schlagen
anfänglich
650
##hal
##ammer
Minderheiten
Gerade
##ions
fein
Räumlichkeiten
Offenbach
1760
Walker
Schaffen
Sara
Evans
widmet
FA
Dekanat
Gewerkschaften
Übergabe
gefasst
Medium
Modern
Ian
erweitern
Dallas
##ute
##ats
Emanuel
mein
Zentral
Kapellen
herausragende
Verwaltungs
Westfälischen
Oswald
Friedens
vereint
##kanal
flog
Instrumenten
Germania
Geologie
##ves
##platte
verschieden
geeigneten
Fe
Wintersemester
##sierung
106
Proben
Neffen
Hubschrauber
Vergabe
Lahn
Satteldach
Gewebe
diplomatischen
Gelehrten
1100
verheiratete
Aufsatz
Agent
##ari
übersiedelte
Stuart
Gedächtnis
##ppe
##bad
unbedingt
135
##loch
##ße
gezielt
Kirchenschiff
Elektronik
Reifen
Millimetern
Thompson
##iedlung
technischer
Befehlshaber
online
besonderes
1778
Statthalter
wörtlich
Joan
Boxer
Elster
Carter
Baudenkmal
Pietro
##oni
##ama
Helene
Eddie
Book
##plätze
Sind
Finanz
Aspekt
via
Studies
Kreisstraße
##ting
wiederhergestellt
lokal
erringen
Spanischen
Berkeley
einander
behaupten
Administration
##ali
Wohl
Agenten
Zeilen
XI
##og
kombiniert
Agentur
Schützen
Nieder
Bordeaux
Stollen
beibehalten
letztere
schmale
Cousin
Bänden
Alois
bemerkt
gesucht
beachten
##useum
##itt
gesagt
Ringer
Off
##truktur
aufrecht
Batterie
initiierte
Wahrscheinlich
weitestgehend
Brooklyn
Bekannte
Acker
##amen
emigrierte
Miguel
westfälischen
CA
Vereinbarung
verehrt
Anpassung
##reichen
olympischen
Kommunen
Protokoll
Vieh
Campbell
Alternativ
##chiff
##telle
##lu
zweigt
Sammler
Zuordnung
Wassers
Sogn
beschäftigen
Cooper
betrifft
1763
entscheidet
Filiale
Wurzel
Coast
zweitgrößte
ehemaliges
digitalen
niedersächsischen
sozialistischen
gesundheitlichen
Quartier
Journalistin
Pole
##lau
##gh
Nordafrika
MG
Gilbert
Aue
Tausch
öffentlicher
Fire
Parameter
ausgeliehen
Mittleren
Kommissar
Can
##erten
##ena
Freiwillige
Demo
deportiert
##verbindungen
flache
Thriller
stattfindenden
gestalten
Fotograf
Neuordnung
Historischen
benötigten
Ansätze
Alb
längste
Islands
##ängen
einheimischen
##ktion
Richtlinie
Ortskern
angewandt
bricht
Network
Balken
Reparatur
verdient
festgehalten
eingeleitet
Nahe
Gouverneurs
weltweiten
##ía
Vorgaben
##use
verzichten
langjährige
Nationalparks
Zimmermann
Muslime
Dichtung
Abzug
A1
1740
ähnlicher
Parker
Fonds
Ryan
Labour
Ensembles
2000er
1774
Schriftstellers
Empire
jenen
Herzen
Empore
##rau
renommierten
Gottesdienste
##ete
Saarland
Decken
Bonner
Belastung
Münchener
Bomber
Österreicher
Pauli
Ortsgemeinde
##osten
anzunehmen
DS
Wochenende
betonte
behalten
Semester
Ville
Geometrie
Generals
herrschte
betraut
Erdöl
Ganz
##ringen
MTV
##ā
alliierten
Dessau
##rkt
Quartett
##ick
Lichtenberg
digitale
Ei
misst
Your
geschehen
befreundet
Erwartungen
##iere
Minen
##ost
ibn
Pan
Juristen
##kes
##ilm
Gemüse
stellvertretenden
ausgegangen
aufgegriffen
Leichen
##macher
Rhythmus
genutzte
ermitteln
##meinschaft
Spitznamen
verhältnismäßig
thematisiert
Unterbrechung
##ella
##äumen
ständigen
Cleveland
forderten
Venezuela
##sky
vollzogen
Radar
Anhängern
verschwand
Grüne
angebunden
Rallye
Konkurs
BR
heutiger
Zonen
##etten
Ö
Sätzen
Jeff
überarbeitet
Umbauten
##uck
Unterlagen
Amtsbezirk
Ingolstadt
##kan
##uren
Good
Bull
Frühling
Abfluss
U20
Untergang
##prache
Klassiker
Alles
##ö
Berlins
Zahlung
Inbetriebnahme
Kameramann
romanische
##mal
übersetzte
dahinter
Manhattan
komponiert
##ars
protestantischen
Vegetation
##rechts
Fuße
Ethik
Charlottenburg
praktischen
bayerische
Professorin
Häfen
Herausgabe
##muster
##eu
fungiert
Brothers
beschriebenen
selbständigen
erwarten
111
sowjetischer
gerät
norwegische
Republikaner
Duell
Motorsport
erteilte
Detail
schafft
erkrankte
Russisch
Bevölkerungszahl
Hauptdarsteller
Delta
Gemahlin
Empfänger
##ache
folgendermaßen
angeklagt
up
freigegeben
Reinhold
Double
Schnell
Hoch
Fürth
1773
Enden
moderierte
zivilen
belgische
Umstände
Piano
Mixed
Angestellten
Flüssen
##osa
internationales
Laufzeit
verlangte
Morris
##zel
ex
oberste
Vorarlberg
ausgegeben
Robinson
Munition
verknüpft
Santo
Göttin
Alltag
##orschung
##läche
Werden
geheiratet
Men
Französische
verfügten
Gehalt
Armut
##chutz
untersuchen
unmittelbaren
Sportarten
nachts
Audi
kostenlos
widmen
##losigkeit
##din
##hs
angegliedert
CH
wechselnden
bauten
Ma
XVI
Warner
##lied
Schlachten
Territorien
SR
##ystems
##version
sportliche
Wasserstoff
Klagenfurt
Anliegen
kaufen
##eile
erheben
grundlegend
##rolle
Matthäus
Bibliotheken
##stoff
Organe
Fahrten
Noten
GB
Kaffee
zeichnen
Konzentrationslager
Halt
Weltrekord
EN
##ors
Warschauer
Kult
zwang
Indian
##cia
drittes
Friedhofs
komplexen
heimlich
Konvention
Anschlag
entstammt
1781
Gesamtfläche
Leinwand
Preisträger
reagiert
##dichte
gotische
Martha
Lech
offener
Bezirke
##tas
berühmt
Wayne
sechste
Gau
Sant
Baker
gewertet
legten
##manns
ändert
verwechseln
engeren
##anz
##verhalten
Sekunde
##üter
anerkannten
Magister
Kanzler
##geräte
unterhielt
Taunus
Rauch
Wehr
unterstützten
schlechte
Denkmalpflege
Murray
Republikanischen
Theologen
##rogramm
portugiesische
Luigi
halbe
##seite
hervorgegangen
elektrisch
##ienst
##fenster
Vulkan
Jason
Ernte
Nancy
Mut
Gleichung
verlaufende
berufliche
Marianne
verfolgen
verwachsen
##nne
späterer
Exemplar
warten
Homburg
Wenzel
Folgenden
##bäude
Verwandtschaft
##qualität
Tommy
Silver
Services
Jonas
auftritt
trockenen
individuelle
Säule
Abschaffung
einheitliche
Besondere
Richtlinien
Einwanderer
As
reformierten
Commission
mächtigen
jüngsten
anwesend
Stadtbahn
Werkzeug
##kehr
Plastik
Ethnien
##landschaft
Aufteilung
weswegen
verändern
Utrecht
Blasonierung
Bobby
##eide
jemand
Seoul
##orte
hilft
Wrestling
Jochen
##net
Logistik
##hoff
individuellen
verkündete
Organist
Großherzogtum
Lords
##ona
1730
gegenseitig
sonstigen
hängen
Birmingham
Gutachten
2500
##nal
feststellen
Verse
militärisch
Linken
Hansestadt
bar
Survey
Marshall
##anten
hob
Universitäts
##station
Liedes
Burgund
durchführen
Guido
fehlte
hörte
Tante
durchgeführten
Experimente
Alfons
bemüht
Geschmack
Kaliningrad
klassifiziert
solange
##körper
Jubiläum
reiche
früherer
Valle
##ried
gelassen
Spalte
Innenminister
Gütern
Google
steil
abgetrennt
Intelligenz
verwickelt
Mais
##ruch
Oberbefehlshaber
weitaus
trennen
Year
Großer
Alberto
las
Vorwürfe
Rinder
Geschlechter
Besatzungszone
1779
eingebunden
nacheinander
Sven
Gerechtigkeit
##egen
schöne
##altung
Zuerst
Herzogtums
Bären
RE
Aachener
Ballett
senkrecht
seinerseits
Gesamtlänge
Schumacher
akzeptiert
Vertreibung
Tobias
Ostküste
##ffen
Vision
Zar
550
Zwickau
##istischen
TH
Bolivien
Phoenix
gutes
Ältere
Wahlbeteiligung
Ketten
IG
Autors
##wer
denselben
Atlas
dünn
Cricket
Kosovo
Catherine
Beamte
##ath
einzusetzen
reguläre
Niederlassung
Gerichte
Joint
Chinas
##einheiten
konstruiert
Jungfrau
evangelischer
dick
Projektes
erstreckte
Schwager
Machtergreifung
orientierten
gedeckt
Orient
Glockenturm
210
Bahnhöfe
or
Engels
Non
Augusta
1648
Heft
##flug
Schmiede
##eri
##aison
Stifter
Malaysia
grob
Ivan
Werkstätten
Classic
Maus
Italia
Event
Gruppenphase
Gemeindeverband
Handschriften
Konsul
betrugen
Seattle
Wu
Zensus
Symptome
##ppen
kommerziellen
Teufel
Deck
Sehr
Mare
Auswärtigen
verbringen
beschränkte
bewarb
Betrieben
zurückgekehrt
Nations
##yan
Einzelnen
intensive
Venus
Gedenkstätte
Amphoe
Portland
Norman
Meisterin
Diesel
Massaker
Wo
Situationen
##eur
Kapitulation
verringert
gegenüberliegenden
existierten
Haare
##lz
##geschwindigkeit
##ball
heftigen
Bowl
jenem
Vereinsgeschichte
Telefon
Gliederung
Datei
Fan
CV
##oli
versenkt
Großmutter
Gedenktafel
verlängerte
kontrolliert
Freistil
Geschehen
sprachen
Mitwirkung
gewährleistet
Natural
Folter
schwarzer
liefen
Bristol
Unterhaltung
Vers
Turms
Tabellen
wöchentlich
Sony
Claudia
Löwe
##how
Kalk
##quellen
Geschoss
##tra
##tet
Lehr
Stützpunkt
Rangers
Neuer
##tzen
Lars
##bt
Ron
Burschenschaft
##fels
Gertrud
##verbandes
Umlauf
Rückrunde
Modernisierung
schrittweise
lernt
off
##ultur
treu
Violine
Vegas
##luss
Nonnen
Föderation
Ad
Geschütze
Autonomen
Expansion
Trophy
stellvertretende
XIV
Community
Sozial
Selbstmord
Stammes
Scheidung
Rosenberg
Privatdozent
Widerspruch
erfordert
nahegelegenen
nebeneinander
##änger
Ralf
Filter
Staatsoper
Anden
vereinbart
Investitionen
##ance
##ücken
Stadtgemeinde
128
##ew
##rom
gewählte
Mohammed
##ufe
Baudenkmale
##ensis
FIS
Leonard
Dutzend
erlauben
##ass
Vierter
bezeugt
exakt
Falter
Kiefer
Studierenden
Erscheinungsbild
Dead
böhmischen
Betten
##lung
konzentrieren
Cape
Beamter
##firma
männlicher
##stellung
Leber
Markgraf
Japaner
Experiment
Armutsgrenze
Alexandria
Kopie
Wahlkampf
VW
Differenzen
190
steigen
angesetzt
erregte
##ix
##äre
umgebenden
Hardware
angelegte
Oberschule
Hansa
Anime
##farben
verzeichnen
Jerry
##strecke
##rot
Gespräche
##nacht
Ionen
Libanon
##euer
seitlichen
Saudi
Ida
hervorging
Weiterbildung
##folge
Booten
überlebte
Margarete
Dennis
Görlitz
##uhr
##ru
besagt
Reife
Umstellung
260
Platin
##tern
verfilmt
tödlich
Pont
Landeskirche
Fehlen
Substanzen
ordentlichen
Nazi
Fenstern
Vorwurf
Katholische
Dirk
argentinischen
spitz
Dachau
Heimatland
Dateien
negativen
Erlass
Harold
Schallplatten
geeignete
Erfolgen
Low
Kurze
Garden
verdrängt
Zwischenzeit
Gefühl
##ären
Rettung
Vermutung
##projekt
meine
Tank
##nce
kannte
##schichte
Diktatur
Zucht
##sitz
Neues
Lohn
FPÖ
##lug
bearbeitet
Demokratische
Zeile
Primera
Vol
Betriebs
Arbeitsplätze
Wang
Hudson
Dream
Bahnlinie
serbischen
Jugendlicher
Umgestaltung
Laser
Jules
Girl
##lar
SF
##chicht
trocken
Lehmann
Botaniker
Astronomie
Störung
Gunsten
RS
Geschäftsführung
hinauf
Rick
bezahlt
Trinkwasser
BC
Oberhausen
Susanne
dementsprechend
Zeitgenossen
##а
wahre
jemals
Sud
##basis
folgend
List
Bronzezeit
Sabine
Verstärkung
basierend
##achen
##fach
pfälzischen
echte
##tos
zerstören
getauft
Ermland
##gerät
Peak
entzogen
dei
Track
sozialer
Stalin
Dokumenten
Hansen
Stätten
Staatsstraße
Ellen
Transfer
Kirchenbau
Betrachtung
Legion
Slam
##pass
##nda
##kamp
Valencia
Steven
##reifen
Valentin
stattgefunden
Ostern
1720
##ator
Zink
Fernstraße
Tabak
Landau
Tiefen
ausgehend
dreizehn
Water
Verhaftung
bekanntgegeben
angeordneten
Landkreise
Konzepte
Einmündung
Reporter
derartige
Systematik
##gaben
professionellen
gewordenen
it
singen
Sektor
östlicher
ausgetragenen
Medal
organisieren
##heimer
Pension
ausgedehnte
eroberten
Schiffs
Aussprache
veranstaltete
ausgeprägt
To
##uen
reduzieren
##wein
##our
Korn
GG
zivile
Fracht
1768
##schicht
empfohlen
6000
##iner
María
Lebensunterhalt
Helena
##haltung
Baseball
##tellen
gern
indische
explizit
##pp
geographischen
ausgespielt
Samstag
Clan
ausgehenden
Seelen
Rakete
dunkle
Rico
MC
modernisiert
geprägte
Franziskus
angehört
Gefühle
Augustus
##kon
Aktuell
##dern
lobte
Rippen
##arte
sinnvoll
Re
Hofmann
##ichtung
##ada
Emden
Channel
Klammern
Verbands
Rekonstruktion
lehnt
Vorgänge
Moos
##ckt
fasste
fördert
Muhammad
Balkan
##istische
Sozialistischen
ABC
##uft
##grenze
weiterentwickelt
##affen
deutlichen
Schreiber
##wil
Liberalen
##tze
Proteste
Dampf
Mehrzahl
heimischen
Romanen
Materials
##charakter
amtierenden
Barry
##eitung
##wettbewerb
Segment
Field
tätigen
betreten
Strahlung
Empfangsgebäude
1765
Filmmusik
schweizerischen
##ský
##eichen
Flüssigkeit
##ram
Erdgas
Japans
##tation
wachsende
Termin
Medical
Jay
Lieutenant
Kong
Eurovision
steigern
kinderlos
Krefeld
##vereins
Konsum
ohnehin
Magdeburger
Arzneimittel
Oklahoma
schwierigen
gemeinsames
Vermont
Forschungs
Landtages
steilen
heutzutage
gewonnenen
Neuere
Beinamen
AT
Roberto
Hugh
schmal
Teilstück
Nouvelle
gefüllt
täglichen
RAF
wirft
benötigen
Buslinien
Names
Berichterstattung
##verbindung
##aben
harten
Heine
##chnik
Objekten
Dean
zugerechnet
geistlichen
anti
Bretagne
Krim
finanzieller
Terror
Herman
Präsidentin
Feldern
Toulouse
Brünn
##enbach
##waltung
Anschlussstelle
wechselt
Veranstalter
Huber
Quadratkilometern
Innen
##name
industriellen
Erschließung
quasi
konstant
zentraler
Tagebuch
Oberen
wirkten
##mont
Zeuge
IS
Fortschritt
bewahren
##aner
gerecht
Schema
##zimmer
gelistet
Garnison
Ur
Kunstwerke
weißer
geschieden
gesetzlich
wanderte
Dakota
verkehrten
Masuren
##management
Spring
##rbeiten
107
vermieden
280
Normal
##figur
Taler
hölzernen
Lehm
##pur
griechischer
anschloss
leiten
Staatsbürger
frühzeitig
komplexe
hindurch
##owo
versorgen
beweisen
##pflicht
Geistlichen
zugeschlagen
Zeitalter
Geographie
320
erforscht
Südost
Eifel
##zt
Vierer
Städtischen
verteilen
Winterthur
Buddhismus
Baltimore
Platzes
##tellung
lutherische
fortgeführt
Bo
Aristoteles
Abständen
rechtlich
Taufe
Zivilisten
Anzeige
Segel
Explosion
Empfehlung
weigerte
reagieren
holen
gegenwärtig
niedrig
singt
abwechselnd
eingeordnet
Kongregation
vollen
bulgarischen
Religionen
Montana
Widerstands
Fossilien
künstlerisch
Referent
Hunger
Stadttheater
Modells
##usch
schildert
gegebenenfalls
Ausläufer
Steiner
Etappen
Au
Freistaat
Zugriff
Sumpf
1753
echten
Nigeria
##voll
##hafen
beruhen
Fachzeitschrift
vermarktet
Jährige
Tabellenplatz
MB
massiv
Habsburger
umfassend
1771
##MA
##entwicklung
##more
##eder
bewirkt
Lac
Labels
##fragen
Niederrhein
1756
Ökonomie
rechteckigen
konkreten
Leichnam
##hren
verhinderte
##dra
##dia
rechtzeitig
Landshut
Pittsburgh
estnischen
Neun
##yi
112
beeinflusste
##ämter
konkrete
Ronald
Alpha
##ampf
extra
##nie
##ė
Landschaftsschutzgebiet
Filmregisseur
##yo
geringere
Muttersprache
Nachteil
Mütter
Knight
##hin
Provence
Kongresswahlen
Caesar
Dreieck
Rheinischen
Isle
Betroffenen
##low
begeistert
Arabischen
wertvolle
Staub
Werder
##prinzip
beschließt
Glen
##sha
##born
Britischen
Arbeitsgruppe
##licht
zuzuordnen
Altona
teilzunehmen
##zentren
Schuljahr
Anhieb
Motiven
Mittelfeldspieler
Baptist
1715
erstellen
Lehren
ID
Wiese
##dung
Electric
Signale
verursachte
Schiefer
Verhaltens
Unterrichts
Leiterin
Erwachsene
isoliert
erforderlichen
Hohenzollern
Christina
##ika
AK
fühlt
Verzeichnis
beigetragen
Wehrdienst
Si
Lima
Gärtner
Schritte
Jüdische
Brandt
Informations
α
verstand
Überprüfung
##iter
Freude
##öglichkeiten
Außerhalb
indirekt
##ichter
Uran
Handschrift
Beta
Vorstadt
Bestandteile
Terminal
längst
einsetzen
beseitigt
Analysen
schönen
109
##leistungen
Riesen
Grabungen
abgeben
Symbole
Klassische
Heart
175
Lichtjahre
Flandern
##gung
blaue
Michail
fester
ausgedehnten
##uchs
genauen
Pays
Atlantic
Radstand
Bestrebungen
Ausmaß
##verbände
Wright
Quadratmeter
1650
Pfarrers
Grafiker
Überfall
##su
##ches
Sprachgebrauch
geringeren
Geräten
##én
##mauer
##bogen
1769
Geburtsort
Piraten
##ial
Grimm
Shakespeare
Gefangene
löst
einheitlich
Anker
tatsächliche
Betriebssystem
Alma
Gestein
wiederholte
Designer
listet
Udo
Geburtsstadt
Evolution
Beteiligten
##mon
Verwaltungsreform
PR
##ecken
jetzigen
Taten
Maßstab
##menge
##karte
SO
Hauptartikel
Echo
tschechische
bildenden
Henriette
Anhöhe
##ū
##dar
stärkste
Karibik
Messungen
Göteborg
Landsmann
dato
Yale
Herzegowina
ältester
Jurastudium
spezifische
Englische
Linde
Kammern
Tochterunternehmen
African
##lock
zusammengelegt
##eiter
Gegründet
systematische
Arabien
##litz
##wen
verkehrte
Gedenken
Mariä
sonstige
Geschäftsmann
##verbot
Konzil
Sachen
Kranken
annehmen
Kompetenz
Feinde
XIII
Ortsteils
Kamm
Ergebnissen
Erzeugung
rötlich
Hinrichtung
BP
Stabilität
zukünftige
Magen
Volks
##po
Sigismund
Algerien
Kant
künftig
aufgelegt
Pay
Bahnsteig
entstehenden
RB
Hell
Einschätzung
öffnet
Kriegsdienst
Beliebtheit
desto
Notre
arabische
Osteuropa
##por
Basler
überwinden
vergessen
Plus
Höhenlagen
##ui
##linger
dänischer
Säkularisation
##00
professionelle
Materie
Landwehr
Konzeption
##ă
Stich
##ragen
##cks
Wichtige
Trend
##let
zukünftigen
Mähren
veränderten
erlebt
##fel
##einrichtungen
Kritikern
##lon
Thai
Bond
Adrian
##gesetzes
Einzelne
Dimension
einheitlichen
##handlung
Verbandsgemeinde
Treffern
Project
verkürzt
Aufsichtsrat
insofern
kommende
Bürgermeisterei
Darm
Cornelius
vordere
geschützten
Erweiterungen
CDs
##fs
Waldgebiet
systematisch
Regimes
1680
slowakischen
Gift
##orten
##ese
##ente
vergrößerte
##krise
##ill
Jo
wusste
Rasen
##karten
Fauna
Besonderheiten
messen
tötet
Geheimnis
##ott
Wolfenbüttel
##hus
Population
bereitete
Knie
##ahrt
##meter
Bestätigung
Vorlagen
richtigen
Run
Container
Innenhof
##air
Zwerg
Schwäbisch
##sie
Terry
Celle
##mes
Col
##hauses
StGB
Angela
##ori
sexuelle
Käufer
Komitees
geführte
Kredit
Kommandanten
überschritten
Suizid
Steigerung
Geister
Biographie
erlitten
behandeln
Weihe
unterschied
vergab
höchstens
Grundstücke
Schubert
Karlsruher
durchfließt
Triumph
Moral
Schlaf
reduzierte
Zuständigkeit
Wuchshöhen
Mast
Berichten
betriebene
Helen
##eus
tatsächlichen
osmanischen
Privilegien
KV
geschmückt
Treue
NSG
Wahlrecht
Rudi
Generaldirektor
Druckerei
getestet
Witt
Monuments
freigelegt
Sergei
falsche
au
jung
klassischer
Auswertung
##hain
Hampshire
Eastern
Waldes
##zig
byzantinischen
langem
angehören
fränkischen
Belle
Ehrenbürger
Attentat
##länder
Observatorium
Köhler
Bezirksliga
Stängel
Leer
internen
Maas
Sevilla
Bitte
Ware
##nga
Planet
schräg
quadratischen
Canal
Verbündeten
Hunter
Überzeugung
Laurent
Leverkusen
##verordnung
Ackerbau
Wohngebäude
fassen
Fluggesellschaft
Berthold
##runde
gelesen
Julie
Förderer
Theaterstück
Ergänzung
Gitter
Leuten
1766
Lüttich
Dekret
dich
Kinofilm
Grammy
Beitritt
niedrige
##ittel
Toni
Henning
allesamt
ausgetauscht
Globe
Sei
Albanien
Schul
Freiburger
1525
##har
gestalteten
##ister
##punkte
##pieler
entnommen
Hauptgebäude
charakterisiert
Championships
Schlucht
Kate
Comeback
griffen
Schulgebäude
Elefanten
##truppen
orange
##schrift
##ame
BRT
##horst
##ecke
aufstieg
angekommen
##ita
Salt
Fußballer
##lassen
Tendenz
Ko
Drachen
##ommen
##ands
Sattel
Ligen
Image
entdeckten
Wolfsburg
Beethoven
##tur
amtlichen
Warren
Lorenzo
Geschenk
##eau
Vermögens
sche
nachhaltig
geformt
Ortsrand
Marktgemeinde
Peer
Regierungs
Mexico
Lutz
Weihnachten
Triathlon
NASA
Divisionen
##räger
Privatbesitz
##becken
forschte
Ausführungen
TuS
Mythos
Egon
1755
gescheitert
Titelrolle
##yama
##rücken
##gericht
Schauspielhaus
EV
zurückgeführt
mathematischen
270
Kohl
Katastrophe
##ς
##rig
zurückzukehren
##ça
Ringen
absteigen
Eingliederung
##zustand
##therapie
Chur
platzieren
Präsenz
Miles
Fett
schätzungsweise
Barth
##nds
##lust
God
Diagnose
Heimspiel
w
Mülheim
Marschall
Schulter
##tage
Samtgemeinde
##chau
Großraum
gelbe
Sorte
betrachtete
##aux
Ried
Asche
Vorschläge
Two
1758
Allgemein
Winterspiele
Namibia
persönlicher
Entwürfen
höherer
Galaxie
##ater
Lust
Auvergne
##ela
falschen
Xaver
Verbleib
Gürtel
Betrag
Wissens
Elektro
berücksichtigen
MHz
1764
hintereinander
basieren
Ghana
##grün
##zeug
##yr
Kaukasus
He
French
Stellungen
Atom
##rode
Moon
Kaplan
NDR
Fahrgäste
Bundesrat
Pater
Historische
Erfolgs
Synonyme
Zinn
Krater
##anteil
Operations
Madison
Castro
zugehörige
konfrontiert
SB
gegossen
außerordentlicher
wirtschaftlicher
Sat
wohnen
monatlich
Palm
Schein
SSR
Mauerwerk
vorgelegt
Zahn
Malerin
Control
trieb
Spätestens
##iste
Durchgang
Just
Betreiben
##tedt
##eisen
Moses
Filialen
FM
Viehzucht
Kongresses
Mo
Düren
Anregung
Trauer
Schumann
reformierte
Kasachstan
Untertanen
##zell
Rap
##jagd
Verwalter
Gewinnung
##analyse
starteten
mechanischen
##uz
Befestigung
rotem
breites
Entry
##itung
kroatischen
Autonomie
verwiesen
Ludwigshafen
sexuellen
1767
kaiserliche
Gaststätte
Ausbreitung
Mobile
##court
Schmitt
Läufer
##mäßig
Ruhrgebiet
##rock
Weiters
massive
facto
Vorwärts
SL
mittig
Pilger
Gläubigen
##brunnen
Mitchell
Wissenschaftlern
betreffenden
Swiss
Rundfunks
Massen
überließ
Mitarbeit
IBM
Jülich
ähneln
vollständiger
Vera
Montevideo
##rift
##wertung
Sol
Karin
Ideologie
Gent
##heorie
Marktes
Schlangen
Osmanischen
Zitat
Wasserversorgung
Verbraucher
Limes
Wallace
Scottish
Maya
CP
##lände
existierenden
Reden
Kanals
Fotografien
##arm
Sehenswürdigkeiten
##inseln
theoretischen
dreißig
angezeigt
Zustände
Tenor
braucht
Herzöge
Abgeordnetenhaus
##hle
Zaren
Psychiatrie
##turnier
reisen
Stilllegung
##tia
fünfmal
Fachwerk
verwandten
umgehend
##ík
ruft
Meier
unternommen
##uth
glauben
Gleichgewicht
unsere
Harrison
Jahrhundertwende
Matthew
Ebert
Vernunft
Monster
BA
neuere
Ja
längsten
Politikwissenschaft
Petra
Rail
Director
Benzin
##eier
##licher
verwirklicht
Nina
Hanns
konservative
##gy
Monaco
Steinkohle
1762
bewohnte
##ssa
##una
Jahrzehnt
Cole
Asteroiden
##fahrten
Crew
Schwiegersohn
DR
Bernstein
##mark
Ministeriums
##hase
Mi
Geheimen
Mitarbeiterin
Franche
Wirtschaftswissenschaften
##halt
Erfüllung
##scha
Village
Ju
Einstieg
gestattet
interne
Su
##bu
Kay
Beurteilung
Jahn
wirksam
Artikeln
entfielen
Wilhelmine
##ös
ausführlich
Reliefs
##risch
beherrscht
Tischtennis
begegnet
Examen
##spieler
##ima
Sudan
Preisen
nachfolgende
Humor
Abgaben
##sy
politisches
kehrten
Bär
Seil
Kirchenprovinz
Arbeits
##öhe
fasst
Ole
gelebt
Verzicht
Kurzgeschichten
Freiberg
##win
##uche
privater
formuliert
Import
Abbildungen
##motor
Rudolph
umgestellt
Politische
Augustin
##bergs
##wall
umso
Guten
##raben
Vetter
##ney
##hrt
verletzte
offizieller
Käse
Vertrages
Staatsanwalt
##aktion
Elias
##rischen
Susan
March
AL
##stil
Kontinent
##sport
##eten
Niedersächsischen
##eo
Sowjetischen
##nitt
##kunde
geltenden
Utah
Download
114
Denkmäler
Ch
##äger
β
beerdigt
Silva
realen
geringfügig
##ohn
Meiningen
Mandate
Ausschluss
Augustiner
##jäger
ZK
Hubble
dürften
abgelegt
Austragungsort
finnische
Kaspar
Part
Horror
Ausgangs
geographische
gebrochen
fließen
##ju
Library
Angestellte
kennengelernt
Deutsches
##rde
gültige
vorgesehenen
Vorwerk
Unterlauf
Volksmund
Rebellion
Europäer
Ph
##dis
##ding
vorbehalten
unregelmäßig
bezahlen
richtige
baut
Bird
boten
Prof
Napoleons
Benutzung
Viktoria
Etwas
##versorgung
##lm
Zeugnis
Diana
gedeutet
Paaren
empfahl
##produkte
Scheiben
Delegierter
Bas
##ER
Kunsthistoriker
##now
bedienen
Stickstoff
Körperlänge
Tempels
Chancen
Bundesländer
Passage
Ca
Stirn
Spital
Cook
ständige
brechen
Begleiter
##orden
folgendes
Stadtteilen
Pflichten
un
Stände
Geiger
Diesem
entfallen
Nebenrolle
Naval
Bekenntnis
Yi
Pat
Multi
Regierungsrat
AD
Federation
##pi
endeten
Neigung
wenigstens
Marne
Neuguinea
##ico
fünfzehn
Aviv
##verhältnis
vorangegangenen
verfassten
Lokal
Kirk
Cannes
##een
Querschnitt
##ügel
##ätzen
##aceae
entsprechender
Schauplatz
Note
##isches
inhaltlich
Ankara
alljährlich
Messen
Grundstücks
erklärten
Nickel
Installation
Eisernen
stärkere
Ward
Gras
Lehrern
CC
Kanadier
##arkt
jenes
ehrenamtlichen
Weltausstellung
Differenz
Terra
Radsport
##hnen
Senders
Hub
##zy
musikalisch
Gray
selbstständige
Wahrzeichen
Buffalo
##rke
Trust
Einschränkungen
##ub
Princeton
##uten
kommerzielle
fiktiven
befunden
Colonel
Vielmehr
Gil
GM
Eichstätt
1742
##ida
##kos
unterliegen
sorgten
Wohnort
##oi
fühlte
verlorenen
Sophia
##nas
industrielle
Backstein
Apotheker
Gutes
unbekannte
größeres
Emmy
Preisgeld
Konvent
##cki
##wirkung
Five
Tallinn
##auen
beliebtes
Fahrbahn
untersagt
Verehrung
Jefferson
Grundsätzlich
Auslegung
Burganlage
Fachbereich
##lten
vierzehn
Konzerns
finanzierte
Schwefel
Bataillons
glaubte
##ński
geistigen
Distrikts
hinterlassen
Erzbischofs
Songwriter
Automobile
ungarisch
Mitherausgeber
gezeichnet
Ziegen
müsste
Beirat
##ş
##rz
vorliegen
ggf
Stall
Olga
erobern
bedeutend
Unterhalb
Früh
israelische
Swing
platziert
Grau
##rus
beitragen
Autorität
Ansonsten
##eter
Propheten
sächsische
frz
U18
Académie
Kameras
flankiert
Rain
##lte
##issen
klare
aktiver
Hofes
##rahmen
langjähriger
deutlicher
Gasthaus
Freilassung
Einigung
##uppen
Ablösung
##ning
Link
Biografien
immerhin
Kelch
organischen
Hanna
##rohr
Iris
##elli
erlangt
CS
Bock
##az
Landwirt
Homo
Finanzminister
Depot
geworfen
Flaschen
Butler
##sia
bestellte
Wohlstand
Waldeck
Kirchenkreis
Deutung
Theologischen
Strauss
Jin
Fundament
Angriffs
##ters
##macht
Nil
kleinerer
Maurer
Algorithmus
##meinde
bundesweit
##öfen
tourte
Werkzeuge
ähnliches
Sozialdemokraten
Ludwigsburg
BK
Alm
sogenannter
##karriere
Werten
Pseudo
Bosch
##meyer
HP
FF
leiden
Waffenstillstand
Gegenteil
gleichfalls
Oberpfalz
Ligakonkurrenten
Medizinischen
Rundfahrt
Armstrong
##sta
theoretische
Schnecken
Ostfriesland
Stiftungen
Matura
Einträge
##aki
slawischen
Russische
Bunker
müssten
##ex
hintere
eingesetzte
##piele
Who
Revision
Chaos
Summer
Poker
##line
schlicht
entfernen
##rio
Kommentar
Edwin
##mans
1759
Seat
Populationen
Hat
##gramm
dichten
Risiken
Paket
Hierfür
Glanz
Daimler
##ür
künstliche
wozu
theologische
begleiten
Belege
künstlerischer
##trom
YouTube
Täufer
Mar
Roberts
Hörspiel
Angestellter
##enten
praktizierte
GE
Deep
##ais
Titels
Nase
Endpunkt
##yp
##ahren
gepflegt
##ary
gebräuchlich
Eck
##lösung
##dal
Lambert
##ube
Kohlenstoff
Bemerkenswert
Mur
Paula
Kompetenzen
Englands
Naturdenkmale
verdiente
Way
Nam
Lkw
Konzession
Hängen
agierte
Zins
Nichte
Collins
##gie
##cho
verabschiedete
Schweine
##meisterschaft
U23
Cups
Angriffen
##dan
Stile
süd
Reduktion
Längen
Wirksamkeit
##könig
Bud
Unterhaus
##das
verblieben
asiatischen
Umkreis
Command
##oe
drehen
For
##gebirge
Trans
##fassung
Zweige
Private
Farmteam
verurteilte
militärischer
Weizen
Gymnasien
##walde
Machtübernahme
Uhren
##recke
Departement
verkleidet
gleichermaßen
Apollo
überlebt
##iro
Burgenland
Romeo
Realisierung
Or
style
Diener
Maul
Linda
Geländes
akademische
Verfall
wählten
Tonträger
Hänge
pflegte
Mindest
Irene
durchlief
Protestanten
##serie
me
Kraus
##ener
Zirkus
Reichtum
BB
Helfer
Chen
kämpften
definierte
##twicklung
österreichisch
Heidelberger
##sgesetz
Äußerungen
eingeführte
##wan
geholt
Entlang
##freiheit
ruht
Adalbert
##lde
Keith
##lächen
Hardcore
nord
##amm
freigelassen
Schuh
Jorge
Aufsätze
Tu
##figuren
Montage
Palmer
Flammen
1757
Überlebenden
wohlhabenden
Ziegel
Honda
Comté
Bautzen
angehörten
Po
AN
wenngleich
Sorge
##bilder
Zensur
Außen
##ieger
##ied
gerieten
beinhalten
Brut
##isiert
jegliche
umgangssprachlich
Gefolge
##älle
Tee
##eller
durchzusetzen
Röhren
##osen
Bergland
Neubauten
Staatsbahn
Grundsatz
ansässige
Mechanik
Baukosten
Vila
Hauptfeld
##gehalt
Vornamen
##atus
künstlich
Resolution
Mathias
west
SMS
Newton
Germain
durchschnittlichen
Wasserburg
einberufen
##inie
bestätigen
Filialkirche
Ted
##my
##händler
beginnenden
Sporen
Energy
Datierung
DE
jedenfalls
Habsburg
##äden
##iegel
Indiens
Get
typischerweise
faktisch
Eintrag
Radrennfahrer
Fleck
Reichstags
Perry
geringem
Jahrestag
Cinema
Rapid
##ef
kommerziell
Bauteile
Publikums
Orgelbauer
Gerald
Boulevard
##op
##nlagen
Scheitern
Gebrüder
##ë
##asis
Rafael
Prosa
##wi
Turbo
By
Revier
Pfeil
Angesichts
##nos
Unglück
Philipps
Frey
##ager
Fortuna
##fähig
denkmalgeschützte
Wilhelmshaven
Lehrers
Geheimdienst
ausgeübt
Gräben
##num
Ämtern
Elfmeterschießen
statistisch
Getränke
Doctor
Kuh
Ku
sichtbaren
Publizist
##ood
##glas
Potential
1745
##chel
117
##förmige
Regio
Marion
##dor
eingeführten
Flak
##talbahn
Vizepräsidenten
demokratische
Weltmeistertitel
Springen
SE
Jahresende
Flughafens
Verbandsliga
Kasten
Bezirksamt
kleinsten
Vorfall
EA
##lf
reagierte
Teatro
850
Larry
##förmigen
Theresia
Leidenschaft
Auftraggeber
gesteuert
annahm
Zerstörungen
Société
Sagen
Ausfall
##bs
##bachs
Textil
Most
Prize
kompletten
Singer
Fähre
##asser
1752
geleistet
Franziska
1754
##freie
identifizieren
Son
Rügen
Kriegsmarine
charakteristische
chinesischer
Neumarkt
Nachfolgerin
Marktanteil
Putz
Prototypen
Mir
Kernstadt
Fragmente
Biografie
Absteiger
Verfassungs
Einhaltung
plant
Health
Kontrast
charakteristischen
##edt
##ausschuss
Pferden
Arsenal
populären
geheimen
##ätte
stabil
Präsentation
Solingen
Programmen
A2
##register
Sauer
Nicholas
##literatur
Nahen
Kaiserlichen
Schilling
##til
##organisationen
Torschützenkönig
Strömung
Manuskript
gewordene
##wiesen
wann
gültig
eingebracht
Schulbesuch
##änderung
##enko
##decke
Gegenden
Bestehens
weithin
Qualifikationsrunde
##schaften
DP
##systems
WTA
Lotus
Danny
getrennte
Norddeutschen
Flieger
Rolling
Reichenbach
Bürgerkrieges
##fahrer
Magazins
Hedwig
Blood
Shows
Mathilde
verbaut
geordnet
Investoren
##bauer
ungarischer
geborenen
rekonstruiert
Kaliber
richten
##peicher
Niederländer
sub
Chromosomenzahl
Beleuchtung
Square
Erhebungen
Branchen
##ebiet
Milchstraße
Pictures
##ollen
Lebewesen
Staatstheater
Bundestages
Anweisung
1660
##eise
Tuch
Papstes
##cum
grundlegenden
##lers
Weiher
te
Skandal
Assistant
##ellschaft
Neuhaus
Müll
überwacht
Oberamt
##reuz
##è
betriebenen
##apelle
Korb
##inge
##geld
verdanken
Zwecken
Strahlen
Marina
Beweise
hört
Wanderweg
Commander
##uli
Ladung
Beatles
2n
altes
Over
Kurven
Tennisturnier
Gips
Archäologen
##ink
mäßig
Fabriken
Webseite
Polnischen
Georgien
Fotografen
eigenständig
Obere
verschiedensten
alternative
Empfang
belief
Naturforscher
Nahrungsmittel
spezifischen
etablierten
Far
Allan
##lter
Räder
Kammermusik
weiblich
Six
Kaufleute
Betracht
1748
wiederholen
Fang
zeugen
nebst
ausüben
Gross
Gastprofessor
Fu
##TA
Steinbach
##urt
Del
restliche
darzustellen
Stuck
Nationalstraße
Key
Cent
113
Markenname
ablehnte
Disposition
##unktion
Eder
Zerfall
##kas
Heil
Aschaffenburg
neuem
Schau
Nagel
verwandelt
Sportwagen
Paolo
Option
Porzellan
eingespielt
Energien
Joch
stößt
León
Kfz
anscheinend
abgenommen
Herrmann
Hong
herstellen
entsandt
ausgeschieden
Lettland
##ffe
Aserbaidschan
olympische
Set
Opel
##sin
##illa
Würzburger
Dichters
330
##zyklus
Wüsten
erzeugte
beteiligen
Verbänden
Natrium
Mundart
Limousine
Hitze
Bratislava
teilnahmen
roter
Nintendo
fremden
Oberlandesgericht
Indischen
DG
Aufruf
English
Sätze
Fischen
verweigerte
ukrainisch
muslimischen
Hypothese
Côte
##kräfte
stattfanden
Ohr
Hass
Wortes
Roosevelt
geprüft
LSG
Münze
Haller
Alexandra
Nizza
Himmelfahrt
Heilig
##gewicht
##asen
Villen
Nerven
Liebhaber
Fahrgestell
##tu
Futter
Brecht
##det
frühesten
Kälte
sichere
Nils
1717
##pielen
Niederschlag
##siedlung
Wolfram
Trainings
Ausstellungs
bedeuten
Vögeln
Trikot
Torpedo
Domkapitel
##AG
Reims
Codex
Bürgerkriegs
zirka
Strophe
Trade
Stark
##richter
##mel
##eh
Letzterer
gesetzliche
Weltwirtschaftskrise
Family
Coupé
1751
höchst
##eins
Anatomie
Agrar
##vogel
schön
Klassik
ökonomischen
lehrt
beinhaltete
Krüger
Chip
LA
Elektrotechnik
droht
Panama
##enz
##aja
Isabella
Friederike
schrieben
heftig
Breiten
unmittelbare
Antarktis
##SA
##otte
Weißrussland
Spar
zusammengesetzt
aufgelösten
Ottawa
Kräften
Hexen
##öffnung
Propst
##chlag
italienisch
##igung
angrenzende
Vorbereitungen
Queensland
Justin
bisweilen
englischsprachigen
Frost
vertraut
Palermo
##gelände
staatlicher
Under
Ruprecht
1550
hingewiesen
Sa
Ecuador
Blu
Landesamt
verursachen
Vikar
Reichsstadt
Plural
Schlager
Pick
Nevada
Are
Rats
Instrumental
Bildhauers
Asyl
Australiens
##änden
TS
jahrelang
Schenkung
##bedingungen
silberne
Padua
Mrs
##laden
enthaltenen
besetzen
Drucker
Bang
globalen
Tibet
Spin
Beschäftigte
##ruck
Pier
fragt
Wachstums
Casa
Ala
jüngster
Rechner
Oberleutnant
Fiat
##ituation
beliebten
Kärntner
Brauch
wandelte
verleiht
philosophische
Verschluss
Review
Clinton
Vorderseite
AV
Verschwörung
##este
zurückgeht
schwachen
geschenkt
südafrikanischen
heller
Blitz
dunkler
Vorlauf
Stifts
Innenministerium
##ness
Stolpersteine
verbleibenden
genoss
Aufenthalts
##kern
Data
##allee
Ziffern
fing
Speed
##bauten
variieren
Potsdamer
Kleve
##reform
Ermittler
Brest
Census
Schweinfurt
Parlamentswahl
Uniform
Merseburg
##aro
verteilten
entführt
People
Leopoldina
Gletschers
Frisch
Dachreiter
Reliquien
Kreistag
Typus
Stanford
Interstate
Diplomaten
##dien
##cz
Zwischenzeitlich
Tarif
##tzer
1761
Hirten
225
Vierte
##behörde
dazwischen
Prozessen
verwechselt
##änderungen
rheinland
Leuchtturm
Beschwerden
AHL
Pianisten
korrekt
Jude
##king
Watt
Impuls
Din
langes
This
Isar
Isaac
Inner
Schätzungen
##ova
##ila
Grundwasser
Coach
tschechischer
absoluten
Limited
Jahreszahl
Gesundheits
##ct
Temple
Luftangriffe
Baptiste
Neil
Congress
Lagers
##witsch
tägliche
feuchten
gekrönt
Treibstoff
strengen
Saturn
Born
##tau
Zielen
Wettkämpfe
Komponente
dreht
##ato
Unterstützer
Bauernhof
##truppe
Hertha
##san
CIA
1710
aufgefunden
Schotten
Einmarsch
Yards
Demonstration
päpstlichen
keineswegs
Verwaltungseinheit
Äthiopien
rechteckige
145
Handbuch
Campo
optischen
ermöglichten
Vergrößerung
Lehrtätigkeit
Zusammenfluss
Archipel
Berührung
verleihen
erscheinende
Dicke
Ast
##ø
Weine
##esse
Île
liberale
plus
bereiste
Antennen
befahl
Ortslage
##ret
Heavy
##verteilung
Landsberg
##kar
Hochland
besiegen
Craig
runde
HA
Wolken
##äche
unterliegt
Storm
Arbeitsplatz
Schönberg
Freising
##row
gemeinnützige
unterworfen
Protesten
beschlagnahmt
Gouvernement
##ote
Wappens
Umweltschutz
Gästen
FFH
Eger
Player
Petri
Märtyrer
Ringe
Korruption
Skandinavien
Saône
Pyramide
##ovice
Schwimmen
Interpreten
Gute
##niveau
##lat
Guatemala
Dienstgrad
angesprochen
##RA
Pablo
Lena
Landesmeister
stimmten
Gedichten
Gartens
Dieselmotor
Ain
##wege
geborgen
med
Nachmittag
Fair
##eiler
mitsamt
Lücke
Kopien
Regina
Radweg
Bögen
Osmanen
##afen
mittel
gewechselt
HO
Flut
And
verworfen
Kampfhandlungen
Aufstiegsrunde
##herstellung
Stan
Gemeinschaften
Vortrag
##brand
nah
Impulse
##zenen
##erger
zunehmender
Sachs
Nachkriegs
##alten
1741
Bewaffnung
Versetzung
Dam
Verbesserungen
1744
##volumen
Seven
Membran
Carmen
schottische
Wings
Torf
Gebirges
##inn
Rogers
Griechisch
Einem
rechnen
Ferien
vermutete
Nordirland
Lernen
Kiefern
Disco
##kademie
##iri
##gger
Landesliste
##dingungen
feierlich
Mulde
Modul
eignet
Fünfter
Veit
KO
Alba
ausgenommen
suchten
Santos
##ond
Technologien
geschützte
Flüge
Zorn
Päpstlichen
strategische
lès
Watson
Vertriebs
Leibniz
Bozen
Bangkok
Sozialismus
##ár
Passagier
Scheibe
##hammer
Torwart
Galaxien
Colin
Söldner
##vögel
Rennfahrer
Bedürfnisse
interniert
herkömmlichen
beherbergte
Landschafts
Erzbistums
##rben
orthodoxe
glücklich
Saiten
GS
Dirigenten
präsentieren
Tunesien
Lille
##vice
##gebiete
Kanäle
var
Beleg
Fahrzeugs
frisch
Let
Ausübung
##tück
gebildete
dünnen
anknüpfen
Teheran
Bon
Wörterbuch
Fächern
Franziskaner
1250
Laufen
Iron
Opfern
Mari
Luc
Ba
##tiv
nordamerikanischen
jederzeit
Executive
Antisemitismus
##house
Hirn
Pfeifen
Nationaltrainer
erließ
##tier
Pol
Sigmund
Raumfahrt
Asiaten
Putsch
Lasten
##bury
##boden
Äbtissin
lieber
kontrollieren
Flanken
optisch
emeritiert
Circuit
##elemente
Fahne
verbleiben
Kommunikations
Sicherheits
Tokyo
Illustrationen
Bros
schuldig
Aquitaine
Apotheke
Demonstrationen
Source
Kieler
geplündert
Leine
Gesetzgebung
##oa
Ableitung
Weltraum
Balthasar
##eien
krautige
Split
neugegründeten
Ruhm
##wissenschaft
##bindung
verbrannt
bevorzugte
Aufständischen
Ana
Vorgängerbau
Springs
Lenz
überprüft
zeit
zulässig
Profis
steuerte
erzählen
Nominierungen
Ideal
tauchte
nötigen
Wacker
Kamerun
Gefäß
Vilnius
Haas
Edwards
Bildungs
##rne
Neo
Mer
Grazer
Würde
1747
historiques
Mel
finanzieren
Mix
1732
##eifen
iranischen
Tell
Pete
Lie
##ront
Griff
##rates
Rob
Kanten
Poesie
Elo
Lane
sichergestellt
Grammatik
rumänische
illegalen
Schalke
verweigert
Spaltung
Kommunalwahlen
##sburg
Skelett
##posten
##mission
mächtige
aufging
Spencer
helle
selbstständig
App
Africa
Manchmal
Prozesses
Ban
Italienisch
122
##nstein
TC
Hasen
Freundes
##reihen
Schnittstelle
##ü
versprach
erfunden
Rich
Fürstenberg
Dolmen
##tto
##chter
einbrachte
Wurf
PP
Krupp
Branche
##lands
Todesstrafe
More
verfiel
Krimi
CF
##ques
Jeanne
gespeichert
Oh
Leningrad
Intervention
Bekanntschaft
Angehöriger
Ing
Giro
Gewichtsklasse
Ki
Dana
mangels
hinnehmen
Säure
Bundeskanzler
erarbeitet
##achs
stießen
Lund
Jüdischen
##pflanzen
Sur
García
##zow
Strömungen
Br
hervorgehoben
Blattspreite
aufgefordert
Ofen
AE
##ind
Atlético
Verurteilung
##hard
günstigen
MP
##tone
##tig
##sow
##itter
##gne
Rica
Staatsdienst
Spaniens
Vernichtung
Trauben
PA
Stadtzentrums
##fi
Steel
Einleitung
Herzogin
Abschnitten
##struktur
##damm
Offizieren
Charakteristisch
potok
erbauen
KS
Chirurgie
Calgary
prägen
1746
begrenzte
Härte
stärken
langfristig
What
Pflanzenarten
Mali
##ziel
zurückziehen
AP
Wilde
Paz
380
getrieben
gelagert
Handelskammer
Favoriten
Auftakt
##nig
##etrieb
Pulver
Füße
gedient
Bildschirm
##häusern
Rabbiner
Mittelmeerraum
Luxus
Edith
Porta
Jenny
##ilder
##ias
überlegen
Schulze
Arno
zweigeschossige
##vin
überarbeitete
ereignete
Präsidentschaftswahl
##quote
Ratten
Jähriger
Geschwistern
##tals
##kloster
##enen
##achsen
##ees
unterlagen
Walk
Sklaverei
Meisters
bewaldet
Entdecker
Annäherung
##borg
schlugen
Braunschweiger
gefragt
Hörfunk
Privat
DI
##räte
Westdeutschland
Ermittlung
Häufigkeit
##ity
individuell
Norddeutschland
##klassen
##hafte
sobald
körperliche
kurzem
Sitzplätze
Bars
kommunale
dasselbe
Prädikat
Missionen
Ak
##wind
gewachsen
Three
Luke
1736
verschwindet
Angola
laufende
Lehrauftrag
Richmond
1620
steigenden
gest
Igor
##ildung
##freien
amerikanisches
Vorder
Gruppierungen
Armenien
Ghetto
Buchholz
ungewöhnliche
Thun
Letzteres
1735
##ndes
##masse
Wille
Helligkeit
Göttinger
beschriebene
Hope
Schale
##dl
Töne
##förderung
##out
Stammsitz
Preußische
Gedenkstein
Elberfeld
##mmen
weltweite
Margarethe
vielfältige
Schlösser
##ütte
wohin
binnen
Symphony
Shaw
Sommersemester
118
menschlicher
Mittels
Irish
Ska
Universum
##tunnel
Platon
Kenia
Alain
elften
Schah
Resonanz
Größere
##oro
be
Krisen
Bewerber
Analog
Brigitte
##zonen
NT
Blütenstand
Armin
##ws
theoretisch
##chse
nächstgelegene
Abgabe
##dos
Tourneen
Erziehungs
1630
Solothurn
Sing
aufgewachsen
##istisch
Rohstoff
Minsk
##iers
Transkription
##nken
Étienne
ineinander
Synchronisation
Europacup
Abspaltung
##stätte
vorliegt
Grundbesitz
##ante
Burgruine
außerordentlichen
Telekom
Oberbayern
Martins
KA
Haupteingang
##minister
Entgegen
##nin
Territoriums
Zurzeit
Romantik
Israels
künstlichen
1714
116
##offizier
Gert
##ān
##its
transportieren
Schall
Our
vergibt
Geliebte
Eingangs
besichtigt
Schülerinnen
##bacher
Toleranz
Pascal
##hrer
Konsequenzen
FS
relative
Trilogie
Niederlassungen
1743
Take
##code
Ä
Montag
Rhön
sicheren
Infektion
Winterpause
127
Side
Jetzt
symbolisiert
irische
Komödien
Schallplatte
Vorstands
Referenz
Gun
baden
Grabsteine
jährig
Turmes
Renn
Pink
Alexandre
vierzig
bewahrt
Liu
Küchen
Vorgängers
Schmerzen
Erzherzog
##igur
Ungarns
Tragen
Jet
Abfall
Wasserfläche
Vorstandsvorsitzender
Chan
Propstei
Bella
Baubeginn
1530
##rl
hellen
Zwölf
Satzung
Bureau
maximalen
anzusehen
Reichswehr
Rod
Adelsfamilie
Verantwortlichen
##konferenz
definieren
bewegte
Bundesbahn
Versuchen
Nachfahren
KP
Grabmal
Arnsberg
Übersee
festgelegten
benutzten
Greg
Partisanen
Grundsteinlegung
##egel
Mu
That
Realismus
Madagaskar
FBI
herab
Währung
Progressive
gemeinsamer
1749
##nburg
Schleuse
Ihnen
Brenner
##vić
1713
verschlossen
angelehnt
##е
öfter
Kompromiss
Gebet
liebt
##nsis
interessant
Justus
optische
Uni
Stereo
Proteine
Rennens
1737
NA
Sparkassen
Rathauses
Grabstein
##llt
decken
Wallis
Bestes
Plattenvertrag
Parteitag
mg
Kastilien
Abteilungsleiter
bekämpfen
Yang
155
##position
##head
##ege
verkörpert
Sieges
verwandte
Synode
Regentschaft
Chinesen
Salomon
Letztlich
Christiane
Abweichungen
##oten
Gummi
##hart
Jupiter
Lateinamerika
##wellen
nationalsozialistische
Regisseurin
Aaron
Gelsenkirchen
##dom
Versorgungs
Röntgen
Streckenabschnitt
Puppen
##hre
Commune
##üsse
##hai
Aufkommen
teilten
Treppen
Liturgie
1738
Tänzerin
Schwangerschaft
erfüllte
Krönung
Fernsehproduktionen
Toyota
wiesen
sprang
begründeten
Fußgänger
Ableger
harte
Future
Schaf
Gesandter
##konstruktion
physikalischen
Gefallenen
fügte
germanischen
Hörer
##heide
Ho
Triest
Predigt
Fine
Lot
##rund
verschont
dazugehörigen
Staatspräsident
Arkansas
weitesten
Jugendstil
Marienkirche
ICE
geistliche
Tang
Athletic
Parkplatz
Roche
Plauen
Höfen
Honig
Gelder
BS
auffällig
Constantin
##hip
Stadtrecht
Salm
Einwohnerzahlen
lokaler
landesweit
christlich
Rennwagen
Auskunft
verkündet
vergleichbare
Reiche
Quadrat
Bienen
##kov
##mme
zweieinhalb
Pelz
CE
erwarben
Genauigkeit
Hauptfigur
Guillaume
##toff
##owitz
gefährlich
Hafens
##ünstler
unser
Weide
Erhard
##hy
80er
Tausend
IK
Derby
##Ö
##meier
##fehler
Wimbledon
betraf
If
Wasserscheide
Blanc
überrascht
Yu
##möglichkeit
Olivier
Landgrafen
Betrachter
GP
##lay
1540
verstärkten
non
Kriminal
##var
teilnehmenden
Schutzgebiet
Flughäfen
Beer
##inder
geheim
Behinderung
Bourgogne
##IS
##rst
grossen
eingegangen
Mitgliedstaaten
##quet
Reinhardt
Allgäu
##tions
Wohnplatz
Essays
##ght
spiegelt
Torre
CT
Lost
Cap
CB
Bundesamt
prinzipiell
Transformation
Botanik
Welten
Lucius
vorgesehene
V8
Soccer
Bedingt
Verona
Zunahme
Wilden
##ücher
##zucht
##müller
Advisory
Type
Titularbischof
1618
Formulierung
##hand
spanisch
Staatliche
Schuster
Saisons
Johns
Draht
1670
wählt
Hochhaus
verteidigt
Zweier
Kronblätter
Genossenschaft
Rockband
Märkte
##listen
##kau
##elder
Rücksicht
Kempten
##rts
ehrenamtlich
doppelte
vielfältigen
erarbeitete
1690
TA
sortiert
132
riesigen
näheren
gestützt
Ursprünge
Besatzungsmacht
trainer
Montréal
Anspielung
##oberfläche
##aler
##test
indes
erforderliche
Niger
Krause
India
##unkte
##ations
persischen
dicken
Wänden
Pfarrgemeinde
Odenwald
##ña
Universidad
Hinterland
1733
126
##bände
achte
Gesetzen
Führungs
##ichte
eingelassen
Stadtrand
Gebäudekomplex
##ä
verhalf
dominierte
Meine
Gemeindegebiets
##stra
##car
berührt
##nica
##rien
##akt
1724
##brunn
Chi
biologischen
##bot
Maske
Internat
##partei
berechtigt
Rechtsform
MA
Ligaspiele
unterirdischen
lud
Großmeister
gleichmäßig
Tunnels
ST
Füßen
##ners
Rey
Lancaster
Koran
Eins
Musikhochschule
datieren
Petit
Boss
##anal
Gr
Techno
Sohle
Schulhaus
##geber
organische
lanzettlich
Call
bestreiten
Holmes
Biel
##einrichtung
folglich
##ás
einstellen
Wiederaufnahme
herausragenden
Daran
Tals
Ignaz
Unterbringung
Hobby
Hafenstadt
Doms
Baku
orientieren
fressen
Baches
Advanced
1721
längs
RT
Lehrbuch
Jubiläums
1701
##ici
Pavillon
Affen
1520
##pflege
anbieten
En
##rasse
##alt
regelt
Rokoko
Gegnern
tut
Wolfs
Titan
Fries
Beseitigung
Währenddessen
Unit
Stichwahl
Ehrendoktorwürde
Auslöser
##rod
##pan
##ichten
feindlichen
unterstanden
belgischer
Zusammenhänge
Vollendung
Lemberg
Ingrid
Dimensionen
1718
Königliche
123
##uern
eG
Vorjahres
CEO
Passagen
##ruktur
Spielfeld
Hu
herrschenden
Genfer
Flash
Sächsische
Redner
Curt
Assistenten
Ähnlichkeiten
verzeichnete
gefundenen
eineinhalb
Turbinen
zufrieden
Sibirien
##zin
Südlichen
Algebra
erlosch
Leid
Kulturdenkmal
Kuhn
Judentum
##ò
##zu
hinunter
1725
besiedelten
1640
ausdauernde
übrige
Sean
Kara
kontrollierte
erleichtern
Fahr
##xt
##rang
left
Serben
Lions
8000
##mpf
Pau
Grey
belastet
ausbilden
Staubblätter
##oll
##artei
dominierten
angeblichen
Handwerks
verbliebene
Knapp
Höchst
##orst
Kr
Bundesligisten
Afrikas
##cu
präsent
begegnen
post
##verlust
##sz
##heater
typisches
Schmerz
##olle
##friedhof
Schifffahrt
Pascha
Gegebenheiten
##modelle
##fisch
Sparta
Monika
HS
Vita
durchgängig
Television
Heiden
Erika
##fuß
Initiativen
Beschlüsse
##vermögen
##sches
dir
##kal
gespeist
Ha
Geschosse
Eisenbahnen
geistige
Kreuzberg
Ironman
Senatoren
Claire
##eistung
zeitgenössischer
Vizegouverneur
Spannungs
##gu
Behauptung
Frühlings
Austritt
Stroh
Preises
Hochstift
##nutzung
Wittgenstein
Strauß
Pädagogischen
Plattenfirma
Nature
Haltestellen
FIA
Burgstall
Pädagoge
##10
trennten
Tänzer
##nice
##hon
##dorff
##aar
Legenden
Eiche
Bergwerks
Aargau
##ähnlichen
sichtbare
Spalten
Lou
Streik
Chang
Armeekorps
##AS
##achse
beantragte
Zusammenlegung
Raumes
Vorwort
Unterkunft
Spielerinnen
Eiszeit
Verstorbenen
UV
Papa
Fußballmeisterschaft
##kis
Vogtei
Fürstentums
Denkmals
verweisen
Tiefland
Thesen
Quedlinburg
Nachbar
Bedenken
1723
Waldemar
##eam
Vokal
Calcium
länglich
Resultate
Briefmarken
##roth
öffnete
erinnerte
Zwangsarbeiter
ME
erleben
##rbe
Weltmeisterin
Palazzo
##iya
##ske
##methode
klassisch
Kirchenmusik
weiblicher
Kein
##nu
AM
Syn
Graubünden
inszeniert
Race
Luftangriff
Lob
Berufs
##herrschaft
Moldau
##brief
längerer
einstimmig
beschafft
behandelte
Finalrunde
##zeitung
124
##ationen
historisches
einstige
1688
##å
Å
gebeten
Ponte
Bode
Tele
Alliance
siebte
Intensität
Bassisten
zweithöchsten
Profikarriere
##bericht
platzierte
Sul
##wick
Lesen
Angelo
##komplex
Workshops
kümmerte
##fahrzeuge
zeitliche
Facebook
##transport
##irchen
Parish
Griffel
Age
integrierte
##OS
ökonomische
Sitten
Dynamik
Murphy
##iet
investiert
ernährt
Mill
Kristall
##ilfe
Schön
Bildes
AA
häufige
Argument
gesprengt
bereitgestellt
Tagebau
Net
Geo
Katze
Zweibrücken
Mafia
Mara
Libyen
##nel
Halberstadt
Eisenbahnlinie
Stolberg
Soziale
Homosexualität
##fte
Außenministerium
##pin
##last
geweihte
betreffen
beliebte
Revue
Heller
weltlichen
bürgerliche
##mba
fehlender
Tuberkulose
Gremium
ergänzen
besichtigen
Prozessor
##ahmen
schriftlichen
mi
Trommel
##ets
amtierende
Konservativen
Einkünfte
##van
##ev
##nka
##inrichtungen
konstruierte
Playoff
Parade
Mono
##chrift
##ati
kV
Siedlungsgebiet
Perth
Neuauflage
Nathan
Movie
Kriegen
Gemälden
Freundschaftsspiel
BV
165
1634
vermerkt
Sarg
##meisters
Kali
##ő
##tem
beides
1683
Wachs
Paradies
IM
Capital
gemalt
beschädigte
Herausforderung
geologischen
Partido
Unterdrückung
Ridge
Optik
1739
##ob
Dreiecks
Rein
dünne
Mittelschule
Ureinwohnern
Nor
Glaube
Stadtkirche
rosa
Primär
##xe
##org
passieren
VR
Stärkung
Schenk
##PA
##sko
##konzept
Geschwader
Bahnstation
Durchschnittsalter
getan
Bert
Bachs
##back
Gabriele
angewandte
Universitätsbibliothek
##werks
einnehmen
##institut
untergeordnete
heftige
Offiziers
wesentlicher
fortsetzen
Gemeindebezirk
##ätigkeit
wert
befestigte
Stevens
Ibn
Ilse
Erlebnisse
starkes
letzteren
Battle
Oberhalb
Earth
##ähnliche
Trägerschaft
Giorgio
1678
##rweise
Musikschule
Bey
angeregt
##anbau
illegale
existierende
Witten
Nazis
Cockpit
Anhang
##schiff
gewährte
Urlaub
Landhaus
Rita
Hölle
Herzinfarkt
1734
121
urteilte
Xi
Atem
##uchen
Pas
Blech
diplomatische
Sack
##ägen
##aufen
verfügbaren
Aktivisten
##ierende
Volt
Erzgebirge
##kurs
##kation
Rechen
##ction
Willem
Novelle
Cars
##höhle
Verteidigungsminister
Asia
##tre
strategischen
schafften
kräftig
Apostolische
Gesamtheit
1727
Stadtgrenze
Rezeption
##gny
gegebenen
Treffpunkt
Stämmen
Knaben
amp
Zeppelin
1722
Mongolei
##lub
##ektor
entstehende
Wat
LKW
##hardt
lieferten
Professional
Chlor
##tro
##ndi
##ersdorf
vorkommenden
RM
Kirchberg
##sicht
exportiert
Ruta
##ief
Education
ar
intensiven
funktioniert
Mehrfach
Langhauses
Stiftskirche
Einbeziehung
Century
legendären
Orchesters
Gültigkeit
##ßt
ganzjährig
Schwarzenberg
brasilianische
Bäche
Zeitweise
Wüstung
überaus
bewiesen
Pächter
Gallery
##rollen
verdankt
##stischen
islamische
berichteten
Nebenrollen
Vorgesetzten
Feststellung
Wismar
Moser
Gauliga
Arbeitslosigkeit
empfunden
Jüngere
##ust
sandte
Räuber
Leonardo
##üche
##okal
kümmern
Britisch
Adjutant
Grace
##frage
realisieren
Sternwarte
Geschwindigkeiten
Cher
statistischen
Sullivan
Neuss
Hannes
HB
Columbus
1712
##öße
Filmkomödie
Gala
werfen
ausreichende
aufbauen
Einstein
Armeen
##non
gehe
australischer
Metropolregion
Partnern
Jam
Höhere
Farb
##räumen
Prüfungen
Guinea
1632
##ügen
##mie
Us
Pi
allzu
Buchen
Völkern
Mauritius
##versuche
Vogelarten
Parallelen
Nu
Lagerung
Essener
##zeichnungen
Tala
Filmemacher
##isieren
gemischt
Orlando
Kurator
überzeugte
Eigentums
##ede
schönsten
Madame
Hybrid
Georgs
##ware
Trump
Mechanismus
##toren
##iz
Komitat
Stadtviertel
Delhi
##messer
Rachel
Annexion
Aborigines
nordrhein
bulgarische
Adenauer
##oor
getreten
ordnet
gelobt
Bonus
After
gewürdigt
Belange
selbstständigen
kennenlernte
Unteren
Respekt
Frei
ost
bestraft
südamerikanischen
Sal
bewaldeten
Kanadas
Elternhaus
Sozialwissenschaften
Kramer
##gon
enthielten
Quarz
Gewerbegebiet
##uti
##itte
Provinzhauptstadt
Absturz
hergestellten
Senegal
Pkw
Orléans
Fehde
Abwehrspieler
1719
##nto
##и
##α
##hlen
lieben
abgezogen
Polo
Paraguay
Maier
Lanka
##graphie
Raimund
Propeller
Newcastle
pH
Standpunkt
Geistliche
beraten
Nacken
fliegt
AfD
Ästhetik
1689
##dus
schwache
mechanisch
Zauber
Götz
Filmdrama
Briefen
klaren
Gesellschafts
##ral
##nar
Körner
Gremien
Türmen
Sponsoren
Nasen
##zzi
gewünschten
entschlossen
Hughes
##reste
moderiert
NRHP
Alfa
überlieferten
erwartete
##pu
lösten
enteignet
##tl
##ohl
überwiegende
gemäßigten
Profit
Ash
##uri
##ohr
Insassen
untersuchten
nachweislich
##vorkommen
##spitze
Reiz
Mannheimer
Industries
einflussreichen
##pus
##linge
Synchron
Cemetery
Airways
entdecken
##ndung
gastierte
Aller
krank
Full
Kehle
Benediktiner
begrenzten
Verkaufs
Afroamerikanern
letzterer
beherrschte
Tri
Te
Gründungs
Gemisch
##fische
ausgegraben
Südostasien
Scheitel
Meta
Boots
Beschreibungen
##ibliothek
Freud
137
##du
verdienen
eingeschlossen
Hochfläche
Albrechts
null
dauerhafte
Industrial
Entschädigung
reichten
##ätten
##mos
Westeuropa
Geliebten
Selbstverwaltung
Quer
Kolben
Förder
##bre
##ado
flüchtete
Priesterseminar
Inkrafttreten
Einordnung
Cincinnati
##if
##feuer
Taschen
Mordes
Fraktionen
##studium
keltischen
Produktions
César
berechnen
out
Vorsteher
Schöpfer
Gregory
1716
Kulturgut
Einheimischen
Dorn
Astronom
##wände
##strom
##oto
##oje
Textes
Betriebswirtschaftslehre
Rath
christlicher
Kickers
1880er
reist
Ny
Übergangs
unterzogen
fertiggestellte
Klassifikation
zweithöchste
##lügel
Wohnungs
Aa
##yu
##ossen
dos
Stadtwerke
Beschwerde
Außenstelle
##ová
film
Widerstandskämpfer
Page
Bio
##osition
auftretenden
Palace
Kies
Keine
Shin
CR
1672
vermittelte
einzurichten
Gebirgs
Detmold
Rex
340
1450
markierte
jünger
1570
Libretto
GA
Außenpolitik
woraus
Vermeidung
Muskel
Kabarett
land
gesteigert
1705
##sst
##ré
##rsdorf
Leistungsfähigkeit
eingefügt
Spirit
##nheim
##lei
vollendete
normal
Woll
1728
##fonds
illegal
Champion
1350
Wissenschafts
Pölten
##methoden
##iga
Etagen
##ava
##BA
##nor
realisierte
Sauerland
##büro
erschwert
Einflüssen
##ögen
entsandte
Volksmusik
##zelle
autonomen
Sandra
Fakultäten
biologische
Schlamm
Claudius
##esi
verschollen
Judith
Hunt
##oo
Steg
Montenegro
##alis
Hühner
Bergmann
##pt
IA
Savoyen
Ausgestaltung
Arbeitern
##cio
Bibliothekar
##ž
##iegen
Triebwerk
##setz
##rup
##kte
regionaler
getrennten
UNO
Abgesehen
Ultra
##bal
Schub
Hi
Haaren
##waren
Transit
Ocean
Nischen
##wang
Preußens
Lebensmitteln
Ka
Homer
Min
##rna
schnellste
Liberal
Federn
Vorbilder
Variationen
Maschinenfabrik
##tha
##rats
verbot
sinkt
Pearl
Nicole
Nebraska
Bonaparte
##versuch
landesweiten
firmierte
Magic
##loge
gegnerischen
biblischen
Wasserkraft
Mehl
Dortmunder
480
weißlich
republikanischen
erfassen
Lebenswerk
Eingabe
Bel
##via
##rief
regiert
Niederschlagung
religiöser
##reisen
##utter
##nisch
Cola
Angeklagten
##runnen
##oth
formulierte
Thematik
##kontrolle
fehlten
dieselben
Versailles
Präsidentschaft
##у
##xen
Tafeln
spätgotische
Flügeln
##ç
kahl
denken
Wangen
Lebenszeit
Deich
geschafft
Experte
Chaussee
Bartholomäus
zugeführt
Tora
Taufstein
##rit
##kus
vereinigte
not
Laurentius
Johannis
##CA
Weinberg
Erfassung
Dialekte
##armee
Akteure
1711
vorgeschrieben
##vá
##instrument
ausländischer
Erz
Dee
##ija
EHC
##fo
Inge
##jährige
initiiert
aufgefasst
70er
1709
Sämtliche
Merkel
Mannschafts
##äule
einher
FSV
zwingend
Spät
Psychotherapie
Taxi
Rüdiger
Pokals
Doris
BI
Überarbeitung
1729
##arzt
zusammengestellt
Stadien
##äusern
litauischen
re
Dingen
##oss
##flügel
ausgegliedert
Straßenrennen
Schöne
ni
Intendant
Heimatverein
##ahlen
Kostüme
SpVgg
Relation
Musicals
Bagdad
Geschütz
##con
Stammplatz
quadratische
Laub
Extra
gewünschte
Trinidad
SBB
Memphis
##einsatz
repräsentative
Stätte
Imperial
leidet
Abbey
eigenständiges
Wanderwege
Else
Anfänge
##variante
##lern
Freiherren
##nta
verwehrt
Sitzungen
Großherzog
Flotten
##rden
aufwändig
Winkler
Henrik
##zentrale
##waffen
hebt
##läufer
##ahr
##aria
Volkswagen
äußerlich
##ap
##uma
##rren
weißem
alleinige
Suco
Aufstiegs
##ungs
erschließen
Hofe
Hain
Banner
##funktionen
##fahrzeug
Toledo
OH
VS
Panorama
Fürstbischof
Session
Mega
Mallorca
neo
aufgezeichnet
Neuerungen
Holger
##hang
Verpflichtungen
Grat
1685
##DA
##gesellschaften
kräftigen
Relegation
Nashville
Mason
fremde
Reed
Depression
j
erstrecken
Amtmann
##bücher
Messing
Tours
Präsidium
dauernden
Initiator
##woche
##werken
münden
erwähnen
##dienste
ruhen
hervorragende
ausgedrückt
dringend
Arztes
##allen
befassen
Rätsel
Lieferung
Leeds
1580
##nski
##elo
Wörtern
Kreta
Herford
##vereinigung
##nien
konventionellen
Volksabstimmung
Schafe
1560
Phillips
Convention
kaufmännische
toten
Sardinien
Landgraf
Hauptschule
Tr
Kenneth
Harvey
1704
##nung
scheiden
gesteht
Morde
Lazarett
Bombe
Fieber
##gl
verwaltete
that
tauchen
hinab
herausgegebenen
Unterhalt
möglicher
eröffnen
Streitkräften
Nah
Brau
##urf
##träge
Teamkollegen
Goethes
Variablen
Nico
Melodien
Lin
Germany
Stockwerke
##ique
##iele
##dem
ausgeprägten
Satire
Verwaltungsgebäude
Cameron
##tafel
##rmen
offizielles
Zufall
Th
Jenseits
Bandbreite
##sto
##partner
1731
##urn
Plasma
Markennamen
##nach
Alberta
##mu
##awa
einheimische
Mae
Beiträgen
Abhandlung
##urnier
Oberlausitz
Vakuum
Auslands
##ná
Lauenburg
Ester
Bankier
Yo
Oberschlesien
Denver
ausgewählten
Wells
Generalstab
##stische
amtliche
##arben
ernst
künftigen
Teleskop
Poly
Tauber
Übungen
übereinander
Sexual
Un
##äder
traditioneller
Viola
Viel
Rinde
protestantische
Intel
Ada
verringern
Binnen
Killer
Foster
##stalt
##dler
##ción
Dachverband
Anfrage
##ppel
##endung
günstige
Wahlkreises
##ewegung
strategisch
gehaltenen
brasilianischer
Himmels
Herrschaften
verschaffen
bediente
Tram
Sach
Osttimor
Braunkohle
131
Tourenwagen
Luftaufnahmen
BE
Ausbildungs
1697
##ð
stärkeren
##tionen
mathematische
Pine
##rken
überein
ergänzte
Becher
zurückgehen
dicke
Tigers
Schaffhausen
Kit
Gerüchte
Pech
Buchenwald
##tive
meiste
Ding
CM
Kid
Hieronymus
Gasthof
1635
richteten
festes
befestigten
Zeugnisse
7000
erzogen
Verb
erscheinenden
##iesen
räumliche
Krug
Kabinetts
##mitte
stattfindende
definierten
Komiker
Basketballspieler
##schuss
Casino
Raumschiff
FH
morgens
Satellit
Profimannschaft
Beschaffung
überregionale
verlagert
Sportart
FV
Böhm
##ühl
vorherige
gewisser
physikalische
Wirkungen
Sakrament
Remis
Jährlich
##ehr
Federal
Auslieferung
##bundes
Owen
Aspekten
##sverfahren
##schluss
Sequenz
##zzo
##ries
fertigen
Martini
Bahnhöfen
verspricht
vorläufig
Nepomuk
Nachschub
Dragon
Calcio
Börsen
Roter
Eli
weitem
Mosaik
Eleonore
bewohnten
Vergessenheit
Kruzifix
Heilbronner
Gläubiger
Jungtiere
Inflation
überholt
Voll
Maximum
##forscher
Wing
Vorhalle
Faschismus
##abe
Titelgewinn
Blockade
1702
##entrum
Römern
Reduzierung
##griff
Gesamt
Festspielen
##mund
Roms
Demonstranten
420
entsprachen
beliebig
Steyr
Oberhaupt
Mach
Bath
norwegischer
Spielstätte
Pa
Basalt
##ändler
Übereinstimmung
indonesischen
Missionare
She
Daily
Adaption
##can
Lutherischen
Kohlen
ökologischen
Teilhaber
##icherung
##essen
Zeremonie
Töchtern
Heu
Ahmad
überregional
gen
aktiviert
Wels
Kleinbahn
Hilde
##onne
verteilte
##eli
sodann
Say
Arte
##piegel
Ungarischen
Ostfront
##erz
##enburg
kreuzt
flohen
Steuermann
Routen
aufgebracht
Sprach
Simone
strenge
Jennifer
Spandau
Neuburg
1726
1707
stürzt
Police
Dornen
##hara
verzögerte
verstärken
ausgeprägte
Skala
Hauptgürtels
Gemeindegrenze
öffentliches
elektrischer
Winters
LS
schieden
Burger
mangelnde
Wesel
Guide
Epochen
sendete
Roboter
Tierarten
Zen
nächstgelegenen
körperlichen
außerordentlich
absolut
Methyl
Einschränkung
##fort
vielfältig
unterschrieben
Biber
umgehen
ku
Zealand
1708
##zahn
real
gefallenen
Urs
Netze
Fahrplan
Anhand
##ph
Stockwerk
Ausprägung
##rsch
##ift
Butter
##ther
##sco
Kraftwerks
Horse
Fortschritte
Familiennamen
##any
zwölften
badischen
Schwere
Shi
Klingen
Gebühren
Adelsstand
Terrasse
Norfolk
Glenn
Mas
Hauts
Gesangs
Nachteile
Gabe
eindeutige
Córdoba
Chassis
##ellung
Darwin
Unabhängig
Rajons
Japanischen
Schlaganfall
ES
Fülle
zuweilen
zeitlichen
RC
Miliz
Chat
Arkaden
Abel
##lder
fordern
Tragflächen
Pur
Petersen
unsicher
Bauwerks
##setzung
##organ
mbH
Unterbau
Rocky
Rhode
Like
Kur
Grundfläche
Früchten
##marke
eingerichteten
Weltcuprennen
Stoß
Alltags
##lätter
##abrik
nennenswerte
angegebenen
Untertitel
Unser
Raben
##hel
ökologische
Olaf
##ester
verwies
beidseitig
Ming
##weit
##nae
##iges
##auten
##tat
Dong
ägyptische
beeinträchtigt
Naumburg
umstrittenen
entziehen
Frequenzen
138
binden
angebliche
Remix
Bulle
TT
Schlepp
Neunkirchen
Commons
höchster
Stadtrechte
##verlauf
Zuflüsse
repräsentativen
braune
Bodens
##ngel
Vorarlberger
Siena
Kapellmeister
Her
Got
Falken
203
Kirchdorf
Centro
202
##hne
fließend
Trail
Kassen
1622
Bildenden
dreier
doppelten
Schlange
Kombi
Gastronomie
Edmonton
Partikel
Künstlernamen
Secretary
Gy
ä
amtlich
Asch
Absolventen
##oß
experimentelle
beeindruckt
WA
Portugals
verankert
erleichtert
NPD
1699
Stellenwert
Fitz
Archäologischen
##veranstaltungen
Schar
Hügelland
Birken
teuer
letztmals
Süddeutschland
Sub
Studiengang
Startplatz
Indianern
enorme
Schwimmer
##teich
erlag
bemerkte
Patient
Officer
Kometen
##kind
weihte
we
Lenin
Hofer
steinerne
ausgestorben
Unterbrechungen
Konsolen
Zement
Wars
Stempel
Bundesverdienstkreuz
ländliche
Salem
Kalium
##hofer
umfangreiches
Rama
Luthers
Buche
Léon
Batman
Anthropologie
verwüstet
TB
Grönland
##able
Jakobs
Durchsetzung
Ausweisung
##wiese
##abel
Stendal
##hmen
##com
dunkelbraun
Georgi
Cash
überstand
Shan
verschwinden
Warburg
Gutenberg
Stress
Eugène
Enterprise
kürzere
Motivation
##usik
Gasse
Filmproduzent
Thorn
Reutlingen
Schwimm
Reisenden
Nieren
Amateure
Abe
Schalen
##eiben
informieren
Konferenzen
Associate
##ê
##wegung
Trinity
Security
Gmina
Dunkel
Wahlkreise
Vorburg
Portugiesen
Generalversammlung
Dampflokomotiven
Artepitheton
##rge
##raten
Ethnisch
BD
Alessandro
Wasserfall
##urkunde
##insatz
Wave
Spalt
Resten
Mendelssohn
Cro
##ösen
##opfer
tötete
ER
##regiment
verhalten
ausgeschrieben
Teppich
Brook
kommentierte
Verschwinden
Mk
verbesserten
il
Schotter
Fußballspielen
##rbeiter
zukünftig
Versicherung
Enkelin
##bek
sogenanntes
entgehen
Auszug
Vienna
Organismen
Tropen
Innovation
Fragment
brandenburgischen
Oro
Gefälle
##kai
Highschool
##trainer
zweitklassigen
charakteristisch
Zeitungs
Turbine
mitwirkte
Small
##szene
Westfront
SWR
Sollte
Fundamente
##nter
Airbus
Adelheid
##wesens
##werkstatt
schmaler
##Ü
veranlasst
##oche
Helga
aufgetreten
ablegte
Zubehör
3500
##ierenden
##ech
Synchronsprecher
Artist
markante
Short
Böse
Antenne
Tales
Steins
verschleppt
Ti
Mieter
Farmer
überleben
Moss
Jahrtausend
Gate
##kum
How
##tic
unerwartet
Befürworter
Altarraum
##rr
beurteilt
Chelsea
ausgemustert
Clay
##wort
Jesse
##chts
Onkels
Ewald
musikalischer
Ram
Montgomery
Alto
##ban
Spurweite
Borg
konsequent
führender
Yorkshire
Sportplatz
##ping
häufigen
Zelt
Konsequenz
Karen
Frist
WWE
Prägung
you
go
erbracht
Wasch
Landwirtschafts
##ES
enormen
Zeitgleich
Make
HR
Fremden
Empfehlungen
Rausch
Fisher
Adelaide
Seminare
Esslingen
##vik
##ome
##lemente
##eilen
Brad
Gottlob
##war
Politikern
##gens
Kan
Volksbank
##chin
anlegen
Kelchblätter
Georgen
GC
##vor
##tio
Shuttle
Boxen
Wissenschaftlicher
Staatsrat
Eigen
Alphabet
denkbar
Notar
##inkel
Parma
Jade
Flaggen
Dal
Ausschreibung
##moor
##gebieten
analysiert
Lebensdauer
Hygiene
Engine
##uni
##ib
##ders
kalten
Autobahnen
##ted
Kasernen
Blind
##uta
Bundespräsidenten
Ach
##vis
##branche
Rupert
ausgerichtete
VT
Souveränität
Schock
##iti
##größen
greifen
vorsah
Rhin
Jahrgang
Harbor
Dementsprechend
Wallfahrtskirche
Angewandte
##ces
radikalen
##treifen
Buck
##mitglied
synonym
##öse
lateinamerikanischer
Solar
Kol
Flüchtlingen
Fein
Dei
Auftrags
##teuer
##planung
kommandierte
Work
Wagens
Saarlandes
Blum
Spruch
Pfarr
Nuntius
Novi
Kirchhof
##ño
überdies
natürlicher
Milwaukee
Ingenieure
Fundort
Anfängen
freiwilligen
Mitglieds
Halbzeit
Eisenerz
Stromversorgung
SH
BT
##ono
nötige
Staatspräsidenten
Seelsorge
204
vertreiben
Lucy
Weisen
Subjekt
Abschnitts
Wetzlar
Viren
Verlages
152
##ello
vorletzten
Westminster
Mängel
Drehmoment
Churchill
##boot
##angebot
geladen
fiktive
wiedergegeben
schlichte
einfaches
##saal
##aire
klinischen
Urheber
Fed
AFC
angesehenen
Neugründung
Ligaspielen
119
##eda
Schwäbischen
Osaka
Medikamente
Cello
Arne
Adligen
##unk
heim
Manifest
Hildegard
Abb
prüfen
entstammen
Wettkämpfen
Hindernis
##ähigkeit
##gar
##asten
Forces
Buslinie
Stadtbefestigung
Haken
##odell
##hältnisse
Spaß
Grünland
Duett
aneinander
##ρ
##aß
genehmigte
Rassismus
Fliegen
Anzeigen
##zza
##eine
Schrein
revolutionären
Förster
Filmpreis
Nationalliga
Annie
Administrator
ausübte
##ș
##iana
Pisa
Hundert
Sweet
Badischen
Anzeichen
##front
verlegen
Plattformen
Aurich
Amadeus
##maß
begeben
Scotland
Fabian
Jazzmusiker
sogleich
gehaltene
Schaffens
Konzils
Kiss
Kane
Clarke
##ů
##hill
Reichsmark
##я
Naturparks
Lands
Geschäfts
Einmal
werdenden
tätige
reichlich
bedarf
Spezial
Auffällig
Mata
Chores
Bruck
schickt
bräunlich
Mira
Fruchtknoten
Araber
Straf
Skiweltmeisterschaften
Schiffbau
Holt
Hendrik
Verlassen
Kriegsgefangene
Großbritanniens
Abfolge
gerichteten
dominieren
Basen
Juri
Geboren
136
Typisch
Grundmauern
Bahnsteige
Mythen
Markenzeichen
Indianapolis
Micro
1703
thüringischen
junior
fünfzig
Sole
Lyriker
Krankenhauses
Einheits
Ausweitung
vornehmen
repräsentieren
aufgestiegen
Unternehmensgruppe
Tambon
Singen
Finn
Anlauf
##ystemen
##ommission
##aterial
Sokrates
Nepal
vollzog
eingereicht
schnellsten
geraden
Kristalle
Einkaufszentrum
Bandmitglieder
##lk
meinen
integrierten
bewirken
Productions
Oberste
##amtes
Kost
Fachzeitschriften
Ata
##ène
jähriger
Vorher
Inspektor
##mir
Lese
João
Fahnen
Aufforderung
##jen
##antrieb
Kirchengemeinden
Jamaika
##lls
sportlich
Klerus
Dill
unterirdische
beachtet
Fahrwerk
Break
Blake
##aka
Py
Gambia
Amalie
bearbeitete
1590
Schaft
Radius
Lokalbahn
ISS
Cornwall
Case
Bestseller
Aufarbeitung
##durchmesser
##avi
feindliche
Eden
entfiel
Winzer
Viscount
Drittligisten
Adria
##kraut
begibt
Hopkins
Gesichts
Amateurliga
beliebter
Zweit
Radiosender
Inventar
Geisel
Amtsinhaber
440
schicken
kreisfreien
niedergebrannt
Stier
##tieren
begonnene
Girls
lutherischer
Westpreußen
Schloß
Lehramt
Glass
Aufschrift
##tner
##reite
##kommando
Round
Orgelbau
Dora
sendet
abgesagt
##red
Älteren
129
beschuldigt
Weichen
1706
überlebten
Vermarktung
Core
##lach
externen
dargestellten
beendeten
Landgerichts
Cie
TG
##oot
##lly
Podest
Bourbon
problematisch
Nadel
60er
stilistisch
Military
Factor
Direktorin
Garmisch
Eisenbahngesellschaft
ED
##wka
##quin
##jar
Leichtathlet
Kliniken
Aero
scharfe
Soll
Fern
##nahmen
##aße
##aue
steigerte
Isa
Cohen
Beckens
Alarm
##trecke
Thor
Support
Sozialisten
PlayStation
dürfe
VC
##denkmal
verarbeitete
Vitamin
äußert
Beschuss
wenden
Hase
##vereine
##ace
Verlierer
Mad
MT
bebaut
Tragödie
Evangelisten
##ritz
geheime
Powell
Pack
Erlebnis
Altars
Halb
215
##itzer
bürgerlich
133
##vers
##gänge
##faktor
Starts
Rosenheim
Bestellung
144
##jer
begünstigt
Kunsthalle
##motoren
Stadions
Schulabschluss
##üller
##ün
Europastraße
niedrigeren
Provinzial
Jun
Amy
Pforzheim
CI
Bevölkerungs
##mas
verraten
Soziales
Slawen
Pauline
Happy
braunen
Zhang
Lago
Gay
Strauch
Dahl
regierenden
Studierende
Friedensvertrag
reg
eignen
Thessaloniki
Bausubstanz
Ameisen
185
##ν
erläutert
Ruhestätte
Nordkorea
Kolonisten
##nit
gestoppt
Vormarsch
Verwandte
Begräbnis
Anwalts
ff
Jose
Forts
##reuth
##chluss
##besitzer
umfangreich
sechsmal
##eb
vierter
Oscarverleihung
Niederschläge
Abnahme
Sojus
jur
beobachtete
Wut
Diakon
verschaffte
leitender
Verschiebung
Substrat
##pol
angetreten
Zwangsarbeit
Wi
Hilfsmittel
Guts
##roduktion
religiös
notiert
Gesandten
gestohlen
Champagne
Brigadegeneral
Weichsel
Raub
Laboratory
##roman
diverser
Missions
Geological
Erliegen
##ej
Wanderer
Still
Schlesischen
##ürme
##yne
##ober
geäußert
dauern
Kurfürstentum
Japanische
Gottheit
##ranche
vereinfacht
Signatur
Rekorde
Fragestellungen
Begrenzung
stimmt
Süßwasser
Beratungs
BM
verbannt
gebräuchliche
denkmalgeschütztes
Schleusen
Engelbert
geltende
Eng
Dog
Curtis
Cloud
reiner
Toskana
Südtiroler
Landebahn
Gartenbau
##zylinder
Yan
Montpellier
##bahnhof
##alz
unterschiedlichsten
Erfurter
Direktion
Aufbauten
##jahren
bewältigen
bauliche
##bezeichnung
markanten
##lor
Sheffield
Queens
Schreib
Rivalen
Halbbruder
##mmission
##kers
gestört
ganzes
Wolga
IR
Gis
##papier
abends
Enzym
Versprechen
Baumaterial
##ingenieur
##enster
##atur
unterquert
Teenager
Milan
Andrei
derjenigen
Schwäche
##örderung
##tätte
verfolgten
ragen
Lungen
Korrespondenz
Hess
205
1654
PD
Konto
Expeditionen
Esch
##ký
Talk
Referendum
Prüf
Meißner
Jacobs
##olt
welt
##NA
##nti
Winde
DA
Ale
Rhetorik
Prä
Holm
beabsichtigte
Wil
Produktionsfirma
reale
Rotation
Pit
Letzter
90er
##rzt
heirateten
gestellten
Honorarprofessor
Spielers
1610
##zügen
##eer
halber
Torschütze
Sarajevo
CL
Bahnhofsgebäude
Belo
beschäftigten
Renate
##iat
##hau
durchgehende
Jemen
PKW
Chester
Bf
Nachbargemeinde
Berechnungen
##ichi
Jungsteinzeit
Exponate
Naturdenkmal
Kun
Democratic
Einerseits
Diskriminierung
Abzweig
landen
Siebenbürgen
Hosen
Carol
Patriarchen
NR
GD
Class
professioneller
afrikanische
1675
##hm
##anischen
Wirbel
Avantgarde
Walt
Kreuzzug
##iler
##chlorid
umgerechnet
Uganda
Arbeiterpartei
##itze
sorgfältig
Staatsangehörigkeit
Spionage
Konstitution
Clans
Abmessungen
##nan
stationierten
SW
Rai
Fußballverband
verursachten
Chorraum
1631
überstanden
aufrechterhalten
Civil
veraltet
Lieben
Gewichts
ausgerichteten
Castel
ausgehen
Prüfungs
Niederländischen
Halbleiter
Eich
##ffer
Senke
durchlaufen
Nichts
Heeresgruppe
##gate
Total
Diamanten
##xi
##ause
Gros
##fu
mobile
bewirtschaftet
1625
##gna
beliebtesten
Freigabe
mexikanische
Wei
Herstellern
##trasse
##nna
nachhaltige
Touren
Sopran
Namensgebung
Benny
späte
feinen
Wochenzeitung
Steinmetz
lose
Tara
Peace
Erstliga
Baureihen
einsetzt
Mind
Magistrat
Ahnen
##objekt
Okzitanien
Körpergröße
Joy
freigesprochen
Staatsminister
Hanse
Begeisterung
männlich
Cousine
Witz
Serra
Schmalspurbahn
verringerte
nordischen
lauten
brachen
Geschäften
Taxon
Archäologe
##bauweise
Richards
Pohl
Eigenständigkeit
1661
vereinigen
Festlegung
Bundesverband
##nse
Behälter
##logisch
##lanung
geltend
Pfad
Gelege
LC
Haftstrafe
1603
aufwendig
Ries
Grundsätze
Besten
Bergfried
134
kümmert
Underground
##tzt
##teilen
Lea
Straßenbau
Köpfe
Guss
##objekte
##ebäude
With
Leslie
Dozenten
##ssi
festzustellen
Standardwerk
Loge
Gloria
Tarn
Lesungen
Brod
##rische
##ming
Zivil
1480
externe
Wohnungsbau
##tärke
##bra
aufgestellten
DT
Bohr
##lbach
##chow
wiegt
Reaktor
Bi
Apfel
##arbeiter
Weges
Qualitäts
Entwicklungs
administrative
Inland
Psychiater
Hardy
Assistenz
korrespondierendes
verbreiten
ständiger
Kletter
Dominanz
##chan
ungeklärt
ukrainische
Organismus
Nordwand
Denk
schwieriger
Trient
Stahlbeton
Nutzungs
Hauptteil
Dar
Wasserturm
Drive
##zan
##felde
Luca
Gibson
##aw
grosse
Dramatiker
Tumor
Hai
Gegenstück
geologische
ben
Seiner
Schwedens
Grabstätte
##ical
##darf
wanderten
Woods
Third
Jährigen
EL
vereinbarten
schwierige
Sektionen
Schlosser
Fasern
semi
Schauspielern
Oppeln
Verwaltungsrat
Sepp
NP
Gutshof
##nst
Rhythm
Herrschafts
##ffel
##ales
Wellington
Leistungs
##oda
Vorliebe
Journalismus
Funden
intensiver
günstig
SI
Haiti
AR
breiteren
Zusammenstellung
Münz
Lebensräume
Eisenzeit
Bruderschaft
##ndo
##llung
indigenen
beeinflussten
Saxophon
Krems
Hausen
Chu
Brühl
Befehle
Bayerns
kommunistische
Gisela
##getriebe
kosten
Dienstes
Bundesgesetz
##srecht
Saga
Lern
Anwender
##sprache
BG
##uh
Gefieder
FU
##lig
operative
Quell
Hufen
herausgebracht
Strahl
Ricardo
Such
Rivers
Mor
Linné
Eid
Ähnliche
fach
IN
Gruft
Cat
wirkende
originalen
ka
Volkswirtschaft
Klinge
armen
Verdienstorden
Photo
Jacobi
##brauch
WS
Riff
Erbfolgekrieg
Endstation
Ausstieg
##lang
durchgeführte
Dramen
1684
Kreislauf
ten
Teilnehmerfeld
Sonnen
Leone
Fühler
Arminia
treiben
fälschlicherweise
Ni
Hauptdarstellerin
Arbeitskräfte
##gene
##erl
räumlich
Ye
Var
Grenadier
bloß
Newport
Mittelschiff
MAN
Kunde
Keil
margin
automatische
Gleichstrom
1698
beiderseits
allgemeiner
Know
235
##iss
vorzubereiten
Mama
nm
beschleunigt
Emigration
370
##meisterschaften
##ugh
##rium
praktiziert
Wechselwirkung
Sigmaringen
Missionar
Landeshauptmann
Kühl
Hecken
Ehen
unzureichend
Verdienst
Standes
Soloalbum
Bezahlung
beseitigen
Kal
Building
##py
geboten
Twin
Fitness
deckt
beschränken
Bryan
##inski
Vic
Umfrage
Zweikampf
Rheins
Arndt
##tiere
Thurn
Cox
moralische
art
Sekretärin
Ostasien
Hesse
1572
##bezirk
alternativ
DEFA
serbische
Tetra
Neubrandenburg
##deutschen
eingebettet
Schweizerische
##wal
umzusetzen
Sulzbach
Pumpen
Kanu
BSC
##zwecken
Koordination
Untere
Townships
NO
##oka
Yacht
Julien
##gern
Schweiß
Forschungsschwerpunkte
##rra
repariert
extremen
erfand
Tendenzen
Landesverband
ET
##sum
##schi
inter
Zweigen
Trompete
Werra
##tochter
##heiten
Unterkiefer
Government
##meer
##eum
präzise
Pal
Lava
Wächter
##orchester
Bennett
1656
##ieb
Triebe
Rings
Privileg
Fließgewässer
he
dichte
Emily
Bundespräsident
1628
##nier
verlangen
Innenausstattung
Elsa
Agency
950
##vel
##rama
schottischer
Reit
Marino
Gesteine
Erlen
##ngo
erwachsenen
Walmdach
Betty
Batterien
##inien
Versuchs
Moderatorin
Kantonen
Abd
##schlag
Schülerin
Pfarreien
Kubikmeter
Herschel
Geschichts
Stoffen
Rost
Neugestaltung
Kahn
Amberg
##ør
syrischen
kombinierte
bedeutendes
aufzugeben
Weite
Kennzeichnung
Damaskus
1870er
still
RNA
Molekül
Latin
Ehrendoktor
Kriterium
Kommunal
Amtsantritt
Youth
212
verdeckt
Vergleichs
Strophen
##universität
##rist
zentrales
tagsüber
rückgängig
##nat
##kowski
##inden
Tötung
Pool
Nora
NE
##AP
##bereiche
stimmen
elektrifiziert
Studienzeit
Dmitri
##ʿ
##risiko
essen
Snow
Emporen
Algen
reden
Galizien
Einblick
##une
##less
SGB
Elektrifizierung
##ymnasium
unterdessen
Verlusten
SN
Partnerin
1693
##nko
##anus
Urin
Sanskrit
Dänen
Arrondissements
##ē
aufgesetzt
Tech
Rochester
Neugliederung
Balkon
1629
##politischen
##etzung
beging
Perl
Effizienz
Dun
Lindau
##text
Starr
##jahre
abweichende
XV
Program
##ativ
aufhalten
Wirkstoff
Tatsachen
Scheune
##nah
##bin
Ortsvorsteher
Nachts
Hz
Bamberger
schätzte
Sparte
Plattenlabel
Koma
Com
##AM
künftige
Melchior
MM
Justice
Bischofssitz
Bergs
gescheiterten
Anger
Soft
Mol
Gaius
Erreger
##ekretär
anderthalb
Konstruktionen
Banks
langsamer
Soest
##älder
##machen
Schirm
Rohstoffe
Eingriff
Crawford
##owitsch
überlieferte
Maritime
Elb
überspannt
warmen
Streicher
Spanische
Rangliste
Mick
Ji
Hebel
##alm
durchsetzte
Verbindungs
Sala
Individuum
##ignal
Ulrike
Hexe
Dieselmotoren
CN
Kunstgewerbeschule
Bevölkerungswachstum
Bergleute
##inheit
##flugzeug
##enge
unregelmäßigen
Kugeln
Gestalten
Fünfte
##portal
Öko
system
##ypen
##ntwicklung
##gründen
Sidney
Lektor
Kata
Justizminister
Flottille
##blätter
Thur
slowenischen
Rast
Kurier
Fakten
Bloch
Bedienung
Arrangeur
275
##reiheit
##programme
##icherheit
dreischiffige
Zentralbank
Lärm
Kleider
Fichten
gebogen
angehoben
President
Dunkelheit
Paarung
Kleiner
Kabinen
Hurrikan
Cluster
##quartier
akzeptieren
Wirtschaftsgebäude
Strich
Plata
Municipal
Machine
Gefäße
Erasmus
Versteck
Körpergewicht
Einsatzes
##eber
##dell
Abwasser
##mast
##ish
##block
Ligue
Kamp
optimale
Verwaltungszentrum
Dre
Nennung
Eugene
##vit
##gebot
Venture
Öffentlichkeitsarbeit
kontrollierten
Zunft
anbietet
Saul
##vas
##güter
transferiert
Abends
##rre
beliefen
Vampir
Regimenter
Hör
Förderverein
Betonung
##ope
##arme
nutzbar
Württembergischen
Ritterkreuz
Militärregierung
##xy
##né
##eno
Schmitz
Akzeptanz
##ude
##bschnitt
Beeren
Alexei
##icher
enttäuscht
Ravensburg
Inszenierungen
##vorgang
##techniken
kontrovers
gewonnene
Sommermonaten
Schwedischen
Fr
##union
sicherten
mitgewirkt
bekanntes
Tausende
Hinrunde
Hertz
stehe
globale
Vertrauens
Spielzeug
trockene
schlichten
Monopol
Komplexität
Horrorfilm
Archäologische
1623
grauen
erwarteten
##betriebe
erlangten
Kampfes
Geldern
##gefahr
starkem
erzeugten
Leinen
Delaware
si
Ritual
Joel
1686
##ović
Zuchthaus
Rezension
Phänomene
Inselgruppe
Devon
Blöcke
##steuer
verschwanden
hergestellte
Theatern
NCAA
Brandenburger
##tums
dokumentieren
Tageszeitungen
Stella
Mikro
psychischen
Trierer
Mills
Gegenständen
Essex
Ina
Begriffen
unabhängiger
Kleist
Flusslauf
strebte
passt
Tracks
Missbrauch
Anweisungen
Also
Weißenburg
TR
Nachnamen
Giacomo
Bela
Abspann
206
##bein
verfallen
populäre
Habitat
Erb
##magazin
tschechisch
Trag
Drum
Auflistung
zusätzlicher
schwanger
ordentliches
Mahl
Eye
##ulen
##chemie
Schwer
##tall
##stik
##regeln
Piemont
LT
##tab
##qi
##halter
Teufels
##nehmer
Motion
His
Henderson
Beobachtungs
1621
##laufbahn
unwahrscheinlich
##own
##kasten
neuesten
Frosch
##gkeit
##baus
formale
bemerkbar
Stils
Reiner
Pérez
Luftstreitkräfte
Dämonen
##ray
einflussreichsten
Täler
Gutachter
##temperatur
oblag
Philharmonie
CBS
##lik
erzählte
Mitgründer
Bereitschaft
1652
##sing
Heimatort
Gotthard
stehend
flieht
Wirt
Sho
López
BF
se
Wiedergabe
Haager
Fle
Enten
Charter
##chsel
Weltweit
Price
Brooks
Dünen
##uga
dienst
Wit
Gesamtweltcup
1664
Klinikum
profitierte
Rossi
Eingriffe
Charta
beliebige
Registern
Gegenspieler
wohingegen
radikal
naturwissenschaftlichen
antwortete
Prior
1667
1526
aufwies
Sechster
Katholizismus
Hydro
Göring
leistet
Wünsche
Starter
##nov
antiker
angestrebt
Theodore
Polizist
ostantarktischen
heiratet
Notfall
Half
González
Gewinne
Events
##oh
##eth
Studiengänge
##cup
gängigen
Inspiration
Erstaufführung
Erhalten
Allo
Wikipedia
Sprecherin
gedrängt
Ziegler
Regelfall
Freedom
Erwärmung
Entführung
##bridge
est
Rohrbach
Qi
Milieu
Gruppensieger
Römische
Oberhaus
Canterbury
Borough
alphabetisch
Merkmalen
Manila
KB
Jakobus
Domain
Asian
Wandmalereien
Persien
Kraftstoff
HI
Freguesia
Entschluss
##precher
##not
##ader
integrieren
Integrations
touristische
Led
Cold
Zahlungen
Epitaph
Aussichtsturm
Anstelle
1529
##keiten
geflohen
Gewerkschafts
Assistentin
141
##rain
verschrottet
jugoslawischen
Children
Brennstoff
Alternativen
##rtig
##haften
##ausschusses
warb
kalt
betrachteten
Warn
Gelehrte
Süddeutschen
Hein
##runn
gefertigte
OM
Freiwilliger
##ə
überprüfen
Vatikanischen
Smart
Wiederholung
Gu
Filmfestival
Ulmer
Rau
Hon
Dor
Beschleunigung
##übertragung
Pioniere
Ireland
Fossil
akzeptierte
Konföderation
Gruppierung
##tour
bevorzugten
Großgemeinde
Einbruch
##aat
feierliche
detaillierte
ausgebildete
Schuhe
Panther
Nantes
Lithium
Gibraltar
##ô
##etti
1679
Impact
Patente
Client
Bergsteiger
wartet
Rookie
Nebengebäude
Kameraden
überwunden
empfiehlt
Tessin
Drehzahl
ober
Wirkungs
Pyramiden
Kapuziner
Eiern
Wester
Tamil
Hartmut
HE
Beth
##immen
formell
Jugendabteilung
Disc
geleiteten
Techniker
Sichtweise
Puppe
142
Child
Buchhändler
irischer
ch
Verbrecher
Kosaken
Brenn
Kaiserreichs
##mmt
##altar
##ketten
separaten
angeordnete
Nordrand
Gütersloh
Gutsbesitzer
Fleet
Feierlichkeiten
1692
fern
Raab
Nass
Milton
Baumann
Überlieferungen
göttlichen
Verknüpfung
Lade
Illustrator
##ange
gelernt
Dani
Anjou
Anderen
Amerikanische
Memoiren
Hunsrück
Harmonie
##egg
dazugehörige
Metropole
Dale
Afroamerikaner
untergliedert
Timor
Taxis
Sheriff
Oberschicht
Hameln
##tanz
##af
ausgedehnt
1536
##ärten
posthum
Streben
Reh
Iso
warm
Sr
Gewehr
Aufklärungs
eingehalten
abgeschlossenen
Orgeln
Fehl
Amphibien
verlagerte
blass
Semi
Leicht
1694
##jas
bedacht
Kartell
Ai
##urz
Kenny
Goldberg
Geruch
linearen
Sey
Jensen
IB
##ito
Sommers
##ridge
##gion
niedrigere
Solist
Etage
Drehbücher
Cuxhaven
##route
Vorhandensein
Supreme
Penis
Flöte
Britische
Ziegelei
Eintragung
Bedarfs
Akte
##herapie
Gutsbezirk
Ego
bedingte
Goslar
##malerei
##alität
verfehlte
gezahlt
Obmann
Erbauer
##udium
##stab
##immer
Ausarbeitung
drückt
Kambodscha
Grundgesetz
Dominikaner
Bäcker
Betätigung
Architekturbüro
1555
##festival
##angen
gerichtete
abgewickelt
Tatra
Judo
##haut
##anden
modern
Ott
GR
Verkäufer
Nicola
Buchstabe
Anstrengungen
##TE
Furcht
##eta
Sobald
Schmied
OP
Nahverkehrs
Ahmed
211
##ssystem
##sig
##mangel
genetische
Lock
##rchiv
vereinen
ausgeglichen
Postamt
Anleitung
verborgen
konkret
durchzogen
Linzer
Freiherrn
Exposition
At
##gewinnung
##breite
Verabschiedung
Thomson
Schütz
Monroe
aufgeführten
Zielgruppe
Luftwaffen
Einfahrt
Landgemeinden
zugehörig
resultierenden
Snooker
Lo
Dialoge
##ägt
überfallen
Moto
222
Veranlassung
Radebeul
Computerspiel
Bereitstellung
##ande
neunte
abgedeckt
Trompeter
Medici
Hindenburg
##sitzer
ungewöhnlichen
gliederte
Unterhaltungs
Rott
Reuter
Kingston
Kasan
vergleichen
konzipierte
ji
Sterben
Ion
##aba
steuern
problemlos
Ori
vermeintlich
gegenwärtigen
erfolglosen
Sensoren
Hierarchie
Heimatmuseum
Coverversion
##busch
Report
NK
Lucia
Landesgrenze
##gras
sukzessive
freischaffender
Dauerausstellung
##stoffe
Luna
Jets
Andenken
##ská
##kten
Zuflucht
Krypta
materiellen
Faser
Beiwagen
##cer
Pot
Groningen
Flügels
entworfene
Recherche
Nash
Chors
Bregenz
Bildnis
195
##shire
sicherzustellen
heimisch
best
Siebenjährigen
Robertson
Medizinische
Karriereende
##inhaber
Rolls
Reinigung
1676
1633
1626
##lles
##berge
Heiz
Funktionär
Bauform
290
gewöhnlichen
Sad
Oberland
experimentellen
erworbenen
Verlage
Ural
Rotten
##önig
Kreisreform
DEL
Ara
1547
weltliche
Bade
##EC
##höfe
Sperre
Hou
geistig
OR
Kronprinz
Hohl
sechzehn
Olympic
Lack
Horizont
##AC
umfassten
modifiziert
Universitätsprofessor
TI
Stu
Lehrbeauftragter
Einstellungen
Duncan
Deswegen
Chuck
##uto
eingerichtete
Schutt
##bögen
##andel
relevanten
gegenseitige
Debatten
##zität
verhält
kämpft
Musée
1890er
##stisch
##flege
Ellis
143
Moers
McLaren
##akademie
Vizemeisterschaft
Havanna
##glocke
Infanterieregiment
Bundesverfassungsgericht
Atari
Grass
entnehmen
Schanze
Pistole
Palma
Fish
##iguren
Schrauben
Schmelz
Schleife
vormaligen
Volkswirtschaftslehre
Symmetrie
Ham
##mei
##kawa
Wohnhäusern
Renner
Regenwald
Isabel
Adressen
##tow
Spezies
Saum
Angelegenheit
##sar
postum
Therese
Präsidentschaftswahlen
Kriegsgefangenen
Erstflug
Stummfilm
Gehör
Eingangsbereich
1695
1668
##ngi
vereinigten
Klee
##usa
##probleme
##dium
##box
Zoologie
Verstärker
Neiße
IL
Historisch
Anfangszeit
##iki
Baba
Ig
##gers
glänzend
Schwankungen
##leute
1681
##US
##ema
wilden
dramatischen
Realgymnasium
Kranz
Kirch
Fußballliga
Friedberg
##maler
##chens
Öffnungen
sozialdemokratischen
Thrash
Tagung
ETH
##gürtel
geschriebene
Tasten
Kot
Erkenntnissen
##pläne
##gestaltung
Dampfer
Porte
Mora
Doping
##spielen
tu
betreffend
Liszt
Blaue
Adi
Wirts
Nietzsche
Hierdurch
abgegebenen
Strafrecht
Nordhausen
Malereien
##rger
sporadisch
betätigt
Minneapolis
Ar
##mp
Zentralen
Wilfried
Uppsala
PL
flüchten
Zauberer
Kla
GPS
Bildende
##eng
Massa
Kegel
Gleisen
Erdoberfläche
großteils
ausgewählte
Würfel
Höhenunterschied
Formationen
Davos
##fluss
abgestellt
Suite
Strassen
jetzige
durchweg
Dubai
Dietmar
freiwillige
Monti
Einkommens
But
vermeintlichen
Wulf
Distrikte
##dre
##direktion
andauernden
Opernhaus
Anlässen
147
Zunge
Oberhof
1687
1682
Überleben
separat
Martina
Bann
eintrat
bspw
Nissan
Mao
##ktor
anschließen
Ves
Verwaltungsgebiet
Strategien
Helmstedt
kulturell
Warte
Mithilfe
Crystal
##sens
##grenzen
riesige
Erneut
vorläufigen
Voss
Malmö
Lombardei
LB
##widerstand
##onia
##handlungen
Grades
versah
geschütztes
Percy
Freiheitsstrafe
Delegierten
Rodríguez
Rate
Fahren
Emmanuel
Ablagerungen
##periode
ermordeten
Straubing
Jos
Diamant
Breslauer
1696
einflussreiche
digital
befürchtete
##oid
##alo
Wasserstand
Tiflis
Obama
Assessor
klären
Testaments
Que
Katastralgemeinde
Collegium
Boom
Auer
##orts
Lama
1665
##ör
##streifen
##lings
Gesamtrang
Burton
Todd
Partenkirchen
vorangetrieben
Ned
M1
1642
instand
Taktik
Katz
Interpretationen
Friedrichshafen
##av
verlorene
Sahara
Parti
Gatten
1666
##the
##medizin
systematischen
Nutzlast
Migration
Mid
Brutto
##ändern
##farbe
KK
##bor
pflegt
ethnische
Tan
Reparaturen
Ley
Bundesgerichtshof
Beerdigung
Vektor
Now
Train
Terrassen
MIT
Jugendarbeit
Freimaurer
##tücke
##rainer
Zigeuner
América
Zeus
Essay
Tun
Massiv
##mb
durchflossen
Pod
Physiologie
Gründungsmitgliedern
Bülow
##regierung
väterlichen
stützen
pa
Wuppertaler
Geburts
DH
beschließen
Zehen
Polar
Interaktion
Vereinigungen
##о
Wolle
VA
Sonntags
Mitspieler
AF
##ennen
Heilung
Circle
Cecil
BL
##šov
meiner
Theaterstücke
Alp
##familien
Straßenverkehr
Sozialistische
Raja
Hannah
Geheimer
Babylon
1624
##qui
##mis
Waadt
Satzes
Arie
##dam
maßgeblichen
Speer
Sicherungs
Kommentare
Gal
Echtzeit
##AR
verstorbene
GL
wirkenden
Ethnie
Come
Chrysler
##feier
ruhig
Wal
Vorderflügel
Vatikan
Stoffwechsel
Reisende
Editor
horizontal
Steppen
Lichts
Dienstzeit
Brasiliens
##zki
weich
Staatsprüfung
nu
inner
Vorstoß
Terroristen
Sortiment
Bergischen
separate
scharfen
Spitz
MD
Gesprächs
aufgehängt
1645
##ł
niedergeschlagen
armenischen
Tischler
1598
Zweitliga
Tief
Etablierung
##LA
##üro
##zia
Seitenschiffe
Mentor
##panzer
Untergruppe
DOS
verbündeten
Ordnungs
Kurzform
Briefwechsel
Kernkraftwerk
Geschichtsschreibung
Canyon
##ň
Schöpfung
Mühlhausen
Rosenthal
Goebbels
##äulen
##rdi
abschließenden
Refrain
Masken
Gotik
##had
renommierte
Wartung
Kredite
Food
##amilie
erkrankt
Teiche
Kirchengeschichte
Cham
Amor
##stern
##lie
Nachbarort
steckt
aufgerufen
Vorherrschaft
Krankenhäuser
Gedenktag
Einzelheiten
Bischofskonferenz
Absetzung
##sfeld
##artner
glatte
Stipendiat
Mittelteil
Marquis
Deportation
Augustinus
gefundene
Fußballs
Deckel
310
1655
gleichem
exakte
cum
Prospekt
Bewegungs
##ttel
Museo
Leitungs
Flanke
Voice
Potter
Pianistin
Frédéric
1644
##terial
##rück
derjenige
Hara
##ax
grenzte
bemerkenswert
Zigaretten
Planungs
Legislaturperioden
##orientierte
statistische
herunter
Para
Malcolm
Lamm
Edo
##ndel
zehnte
Seitenschiff
##dat
versehene
erweist
Lufthansa
Ō
alias
Ministers
Fachschule
sozialistische
Kapitalismus
Schauspielschule
Perlen
Mosambik
Belt
156
##ags
geometrischen
Tur
Tränen
Moleküle
Compagnie
stoßen
Bänder
liegend
##ša
##darstellung
my
Säugetiere
Steffen
Oranien
Musikvideos
Wiens
Ta
Kelten
##äter
##ecker
Wohnraum
Treppenhaus
Erker
##zar
Zuges
Hay
##sorgung
Ordinarius
Herzens
Fischfang
##rechtlich
psychische
geschossen
Finals
Emissions
zweit
ununterbrochen
Steigung
Schriftzug
Restauration
Jaguar
Geschäftsstelle
Berufsausbildung
##lé
Odessa
Mailänder
Kapstadt
Autounfall
##äufer
##ordens
beleuchtet
aufhielt
Rundschau
Plymouth
Operette
1637
1559
##verletzung
##arbe
vorherrschenden
festgesetzt
Tschechischen
Spinnen
Händel
##noten
sen
pazifischen
Pyrenäen
Haven
##ausstellung
Immun
Auswärtsspiel
Soli
Pet
Assembly
##lio
##jährigen
Rothschild
Differenzierung
##nke
##fahr
##aktor
Achim
Roh
Lind
Lei
LI
Sowjet
Heiligtum
Charakters
stellenweise
Schwan
Jer
Glashütte
##lou
Verden
Saalfeld
Keyboarder
##bis
prominente
Mohr
Außenseite
430
##hat
##behandlung
Windsor
Repräsentanten
Gladbach
Alexanders
schützt
koordiniert
Westerwald
Spätantike
Gewand
Bour
##wissenschaften
##streit
##olizei
schwäbischen
Woman
romantischen
Löcher
Kleinasien
##CO
verbuchen
außergewöhnlich
Stabs
Netzes
Möller
GW
Chefs
Zier
Zi
Klassizismus
Heiliger
Geologe
Alonso
##uro
##räfte
dokumentierte
Filmes
Cut
Badmintonmeisterschaft
1612
##tufe
##ines
Porter
Lew
Antikörper
1651
graduierte
einzuführen
Patricia
Gegenwärtig
##sees
##ence
neuseeländischen
Verweis
Staatsgrenze
Aufstandes
Manöver
Mozarts
Kirchgemeinde
Arbeiterbewegung
##dge
Spreng
Corpus
##lier
beworben
Sander
Mina
Kreide
beliebigen
Westturm
Oka
##gat
##lement
##eitig
ausgezeichnete
abgestimmt
abgeschnitten
Rechtsstreit
Grenoble
Arbeitskreis
##scheid
enthüllt
Reptilien
Gens
Codes
##ox
##iven
##cheid
gegnerische
Spezialisten
Kran
Dé
Degen
Christa
##kie
ableiten
verwirklichen
jeher
gestiegen
Oak
Fremd
##ury
##inus
ausgestattete
auftraten
Sund
Entwurfs
Puls
Münch
wertvollen
Eduardo
##oma
##ní
ausbauen
Popmusik
Gospel
Bd
Altäre
Émile
vermachte
Pfleger
Puy
Fremde
zusammenhängende
Lehens
Firmensitz
pflegen
Wohngebiet
Sanitäts
ITF
##nbe
verschmolzen
verpasst
verlängern
Literaturwissenschaft
Flugzeugträger
##qa
##dle
goldener
aufgestellte
TSG
Schöneberg
Schwarzer
Regent
##ě
steinernen
gemischte
angeschlossenen
Mess
Ernährungs
Bertha
##upt
##systemen
planen
bestimmtes
IOC
Gesandtschaft
Diskurs
##rth
##profil
##nähe
umschlossen
Wes
Nische
Dual
Bedeutungen
Ausgehend
wa
Unrecht
Seilbahn
Feldes
Dou
##hrung
verliefen
Trieb
Pfadfinder
##tür
##dischen
mobilen
Königreiches
Höhenzug
Besiedelung
geschildert
Fun
From
Diabetes
1609
namhafte
##isi
##ilo
genießen
Gleichungen
Ge
Donnerstag
##enst
zurückgegeben
lu
Militärakademie
Gong
1636
ermittelten
Xavier
Rheinische
Hinspiel
Antworten
##ßer
ve
##user
marschierte
Regisseure
Hügels
Einzig
1643
##rose
Vierzylinder
Spitzname
LPG
##hor
UTC
Quadratmetern
Kaunas
##äte
Thal
Lugano
Simpson
Nobelpreis
##rechtlichen
geradezu
disqualifiziert
Koe
##ume
##ritt
symbolisieren
befehligte
Städtische
Erprobung
##rag
Wikinger
versteigert
spezieller
europaweit
Zitadelle
Philologe
Dro
Brom
Breit
##IC
drang
auszubauen
PT
Heidi
Ges
256
##rius
##produkt
##mündung
unterrichten
Unterwasser
Silben
Großherzogtums
1653
slawische
Richters
Fürsorge
provisorischen
gold
Pacht
Korrektur
Gunst
##ington
Zugangs
Vale
Moselle
profitieren
gemäss
Juniorenweltmeisterschaften
##wart
##iu
grenzen
Wiktor
Flüchtlings
##bung
eigenständiger
begründen
Titularbistum
Misch
Ahl
##modus
##mbo
Lippen
Jessica
1490
Zählung
Tribus
Rush
Nowgorod
Kriegerdenkmal
Industriellen
1662
1521
##FA
##sal
damaliger
bewaffnete
Reichen
Privatleben
##Ma
Tauch
Revolver
Maxim
##schinen
##ortal
##itis
1663
ausführliche
Konsumenten
Gase
##ziehung
festgelegte
chilenischen
anzubieten
UKW
Geschäftsbereich
Geldstrafe
Esther
Castell
##rmee
Merkur
Kulturzentrum
Sensor
Passion
Gmünd
##lea
Olympique
Festungen
Emigranten
##räder
farbige
Phosphor
Parkanlage
Konsens
Burn
##olf
##logen
hinweisen
Jen
Beinen
Abdul
##messung
Wander
Veranstaltungs
Stellungnahme
##zogen
##bit
gezielte
Nar
Kalt
Deal
##eig
Steig
Minor
Grundherrschaft
##ń
##eiden
gestürzt
Staatssicherheit
Schu
Margaretha
##än
Falkenstein
portugiesischer
ewigen
Landwirte
Hochebene
Dylan
##teams
Mechanismen
Flat
kultur
fühlen
finnischer
Works
WI
Scholz
Mala
##lum
solch
Kantor
Kamin
##lieder
##fälle
perfekt
Kanone
Deutz
Collection
##gis
##ander
Grenz
Fähr
Argumente
##ummer
##bedarf
##asch
gespalten
durchführte
Wirtschaftskrise
Sorbonne
Rahmenbedingungen
Amerikanern
Af
##trukturen
##rede
##prozesse
##mutter
##eimer
SSV
Exchange
DW
410
##fried
anfänglichen
Tälern
##SS
##etzen
strikt
Zero
Fruchtkörper
##uerung
##brück
Talente
Papua
Nationalmannschaften
Berry
Assistenztrainer
##die
Tansania
Kaufhaus
Enrico
1638
sofortige
originale
moralischen
Veteranen
Release
NVA
Medizinstudium
218
buddhistischen
steigende
Zeiss
Rezensionen
Platt
Hauslehrer
Diamond
##schnitt
su
regeln
neugotischen
gewähren
denjenigen
Herrenmannschaft
Calais
Bing
##dingen
variabel
kurzes
geschriebenen
Wann
Optimierung
Herd
EB
##post
##paare
##filter
zwangsläufig
schwarzem
Sammel
Einkaufs
Bari
regen
VB
Mons
Eisenbahnnetz
Chinesischen
Buddha
linear
Traditions
ON
Berufe
##erei
Ökologie
Str
Pai
Ol
Nicolai
##nkt
##hler
MO
Loks
Kriegsbeginn
Domenico
##quer
##lappen
überging
nachzuweisen
jähriges
Tina
Mercury
1528
##wn
fürs
Res
Azur
1535
##pannung
Unterstützt
Tai
Renten
Pollen
Omar
Lieblings
Investor
Ey
Einzelfall
1542
Unterzeichnung
Sieb
Mönchs
Cru
vorgegebenen
UP
Skilanglauf
Pour
Mani
Hyper
Grie
Gegners
##element
modernes
Kreisgebiet
Besatzungsmitglieder
##grube
angefahren
Zusammenfassung
##ip
geflogen
befreundeten
DVB
Schönau
Mittelfranken
Johannesburg
anerkannter
Lead
Common
1556
bekrönt
Staatsgebiet
Mongolen
Björn
Werkstoff
Stadtbild
Ochsen
knappen
Triebwerke
Sh
Plaza
Kre
Gräberfeld
Fass
##motiv
##fjord
geschnitten
Patrozinium
Elena
##amp
Kreuzweg
##gue
sprachliche
lineare
bekleidet
Tango
Astro
1674
##ym
##rise
räumlichen
alleiniger
Springfield
Schulausbildung
Reaktions
##rechnung
##iums
##cci
##bahnen
sicherlich
anonym
AI
1619
##schin
pour
Sponsor
Jungvögel
Fraser
Bu
Bildhauerei
##gos
Wrack
##ämpfen
mar
lieh
Motte
Entstehungszeit
##energie
Wan
##11
Vorspann
Schott
Eheschließung
Avignon
Abhandlungen
pol
Torpedos
Spa
Levi
Gefährdung
##assung
reines
Wirren
Hülle
Frauenfußball
##kleidung
Winston
Migranten
Beyer
##gleis
PO
Karoline
##lätze
##inde
Weingut
Carnegie
Angels
##preise
##duktion
schwankt
Patron
PE
Empfangs
Brunner
Tribut
Albumcharts
1627
##uber
Panamerikanischen
Jordanien
Fried
hu
Vinyl
VG
Sitzplätzen
Magie
Kunstwerk
umstrittene
kristallisiert
Verben
Eagle
##lut
Ärzten
namhaften
namensgebenden
Wanderungen
Sexualität
Schritten
Mangan
Belgier
Baumaßnahmen
ersichtlich
Trocken
Spätere
Lauter
Kawa
Gemeindehaus
rufen
Lebensende
Cle
Aarau
##umme
ul
Ordensgemeinschaft
Fränkischen
##ön
##öfe
rer
psychologische
gleicht
behindert
Study
Können
Kombinationen
Kil
##uda
##gte
Superman
Reggae
Middle
Erosion
Chinesische
Bai
1649
Shop
Manualen
Lynch
Capitol
Ausläufern
##ward
##rka
mancher
fruchtbaren
Store
Schifffahrts
Lu
Diesmal
##rch
##ield
spärlich
Mater
Magnesium
Ele
Duc
Auferstehung
Urteils
Montfort
##ziehen
##bet
anzuschließen
Gespielt
Dinamo
##öffnungen
##elen
Malo
Glücks
Festspiele
##handwerk
nominierte
ermittelte
aufgekauft
Spätmittelalter
Nordamerikas
Bonifatius
##appen
Türk
Legislative
hing
Rouen
Indie
Bezüge
Aldo
##zweig
prominenten
gelöscht
Win
Textilien
Nicolaus
Leng
Laute
##änner
##rchen
1605
Gesetzgeber
##renze
##politische
versammelten
##stes
zurückzog
Vorgeschichte
146
##wehr
##mitglieder
##essel
chemisch
Voigt
Portugiesisch
Mausoleum
Archivar
208
Traditionell
Sc
Kurzgeschichte
##iftung
schufen
Strafen
Neuenburg
Dai
Annette
Abweichung
##eden
Kreuzgang
##ochen
##hügel
Tauben
Lampen
Karate
Homepage
DO
Bundesstaats
##jet
##ippen
Recklinghausen
IAU
Este
Aki
inspirierte
gefährliche
Kinn
Josh
Gerlach
Aufstands
Andrews
##olen
Maud
##einigung
##chiffe
korrekte
erwachsene
Musikproduzent
Davies
gesenkt
Schlagzeilen
Nero
Minerale
Clo
neugotische
Taka
Stolz
Schaumburg
Junkers
Ibrahim
##uan
seitliche
prägten
elliptisch
Straftaten
Croix
##ehe
##dustrie
##aga
hoffte
hochwertige
flussabwärts
erneuerte
Schätzung
Rostocker
##irtschaft
entfällt
böse
Väter
Sergio
##ießen
effektiv
Hofrat
Fahrtrichtung
Benno
Sternberg
Marko
Länderspielen
Prozessoren
Gesprächen
Gefechts
Verfügbarkeit
Room
ISBN
Herne
Gleichwohl
##sprachigen
Quecksilber
##ssel
resultiert
erforschte
Vice
Familiengröße
geographischer
gefährlichen
214
1669
##hältnis
shi
inhaltliche
HSV
Grade
Friends
Folgesaison
Bauhaus
BO
##äufe
Shakespeares
Lagern
1691
weitergegeben
Ras
Läden
Kurpfalz
Kick
Guardian
##cin
Vorsaison
Norwegens
Motorräder
Ostafrika
Mächte
Catharina
zahlte
1552
Patrimonialherrschaften
##ense
##dens
zweijährigen
gesunken
Werbe
Mönchen
Fortan
Feuerstein
##kapazität
erforderte
Gérard
Großeltern
überreicht
Ortsbürgermeister
Harburg
Edge
##elf
zeitlebens
stecken
Sorgen
Ostteil
Ausgleichs
Problems
Naturschutzgebiete
MF
Drake
Devisen
Bislang
versteckte
stabile
mündete
##sso
##rtigen
##ahrten
Klassifizierung
JA
##ře
##korps
##hua
Sonstiges
Fluor
Auckland
##ilen
Zeichnen
Tha
RO
Arbeitsmarkt
470
##ε
##zeitschrift
##ones
besiegten
Asphalt
wiedereröffnet
hervorgerufen
einseitig
ausführen
abwärts
##amin
dritt
Merz
Kaninchen
Kampagnen
Fußballmannschaft
Psycho
Güterwagen
##zahlungen
##side
nebenbei
Nummerierung
verschlechterte
Raster
Maha
Himalaya
fragte
##partie
Stipendien
Marian
DK
Baumwolle
Ballade
##omi
aux
Lucky
Grenzgebiet
Begabung
1658
##versammlung
##ssung
##bos
mexikanischer
ausmachen
Luftschiff
zwingen
handele
emeritierter
Sitzverteilung
Kommunismus
##format
verpflichteten
Unterabteilung
ru
Trost
##plätzen
##dit
Tartu
Nahrungs
Gnade
feine
Honduras
Gian
Bereichs
1671
##tius
##ausgabe
formalen
Well
Ritters
saßen
Predigten
Pen
Koffer
Festungs
Alf
##lee
überregionalen
stützt
Wissenschaftlichen
Secret
Generell
Aston
##reiter
verstreut
eingetreten
Weltkulturerbe
Neuwied
Android
##tiefe
##staltung
##auch
begonnenen
Ratgeber
Colleges
##jekt
unterzeichneten
dirigierte
alternativen
Diagnostik
Polit
Om
Linsen
Gou
##inheiten
##ging
geprägtes
Trümmer
##zes
##ates
Langstrecken
Cam
A4
jeglicher
bevorstehenden
Wasseroberfläche
Mittelgewicht
Lücken
Stations
Rendsburg
Lautsprecher
Kaiserzeit
Innenseite
Auswanderung
1524
##unnel
##datum
##architektur
gefährdeter
beruhte
Hull
Domäne
##law
zusammenarbeitete
bedrohte
FR
Animation
indischer
Staatsarchiv
Speisen
Panik
Operetten
Fachgebiet
Erholung
##xo
##schau
##roda
##chichte
##burger
Tabernakel
##öpfe
##rab
aufwärts
Unterstützungs
Ty
Südstaaten
Himmler
##ós
grünlich
Zaun
Sonn
Franck
Brisbane
Wohnen
Wichtig
Verhandlung
Südrand
##shan
verzweigt
Recherchen
Podium
EF
##gal
vergleichbaren
interessieren
frühes
Simbabwe
Manufaktur
Fernsehens
##messe
britisch
Vernetzung
Sterbe
Has
Behandlungs
1604
##tigen
##hut
bereitet
Vorgehensweise
1616
##ihe
parlamentarischen
evakuiert
Salzgitter
NC
Magna
Lateinschule
##urse
##otor
englischsprachige
einzigartige
Märkten
Kartoffeln
Hügeln
Blog
1657
154
##vision
Überraschung
bi
Zivilisation
Vermehrung
Südfrankreich
Stille
RD
Protagonist
Obhut
Mühe
1534
isolierte
Statuten
Galerien
Deckung
##andes
gehörigen
Südwand
Nové
Monarchen
Zustands
Pfeilern
1585
unternehmen
silberner
besonderem
Reichsstraße
Bourg
1150
##zieren
##gard
derweil
Kürzel
Finnlands
kroatische
dahingehend
LG
Ella
##center
Hochzeits
Bangladesch
##р
##loster
teure
WE
Strahlungs
Rettungs
Praktiken
Kor
Gore
Entscheidungs
Det
##ket
entspringen
Spielminute
Siedlern
Querschiff
Pfand
Generalgouverneur
Ehrenzeichen
belehnt
Sozialdemokratischen
1564
##yk
##taler
##effekt
Rüstungs
Mannschaftskapitän
Ky
Griechenlands
325
##linik
##gin
weitreichende
Wagners
Stell
Galatasaray
Fichte
##olge
##helm
gegenseitigen
Hardt
Augenblick
umgebracht
qualitativ
TE
Speise
Pfingst
Höheren
extreme
bedeutsam
Jahrtausendwende
Investment
Erbin
Bauwesen
##uy
##präsident
klinische
brauchte
Siedlungs
Produziert
Nahverkehr
Katalonien
Zuzug
Erklärungen
Bos
Einwanderung
Schwiegervater
Jahreszeit
Dreh
Dela
##erke
##arkeit
restaurierte
baulichen
Seemeilen
Problematik
Negativ
Hessische
Brügge
##utsch
##uben
neuerer
fungieren
Voraus
Span
byzantinische
Winnipeg
Tübinger
Meso
Finanzierungs
##zentrums
mitgeteilt
Pfeiffer
Musikwissenschaft
Mobilfunk
Metzger
Gänge
Bergisch
139
##sam
vertreibt
berühmtesten
Schreiner
Kri
Grundschulen
Bor
1527
##mut
##ils
unterbrach
angestiegen
Dscha
AW
##käfer
vertretenen
magische
Zisterzienser
KI
Einw
1860er
##holm
##aktionen
treibt
gesicherte
Weder
Kron
Geltung
1677
##hung
Petition
uruguayischen
typischer
beitrug
Familienbesitz
Durchschnitts
305
überwachen
installierte
Sp
Kindergärten
Discovery
##shof
##geräten
wiederholten
Ling
Cicero
Shell
Rittmeister
Regierungschef
Mittlere
Cer
##ù
Überschwemmungen
einigten
Lay
##dio
schwanken
enorm
aufgegangen
Peugeot
Isaak
Hinterachse
Exklave
##sus
##schichten
##esellschaft
oberbayerischen
ergriffen
ei
Unschuld
Teller
Landkreisen
Bara
Ureinwohner
Here
Dio
Balz
##lation
lehnten
kürzeren
Mile
375
##lien
warfen
Rome
Kreuznach
Kollision
Analysis
151
##hou
materielle
ausgerufen
Sel
Rückgabe
Landesmuseum
HIV
Bewusstseins
##rade
##jahres
worin
Personalunion
Hohenlohe
Days
Champ
Card
##sieren
##presse
überdeckt
gefällt
abschließend
Yar
Untersuchungs
Suzuki
Datenschutz
grafische
befragt
S1
540
158
##rta
##debüt
Schwein
Ple
Kühn
Kita
1575
häufigste
beanspruchte
Umgekehrt
Silvester
Mano
Mack
PDS
Jahreszeiten
Hal
##â
zwecks
reifen
Wedel
Bohrung
Autobiografie
##ielen
##bibliothek
##bestand
göttliche
Henkel
##siert
##frau
##drama
Zeitz
Vorstandes
Flying
leere
Erzeugnisse
Endstand
Prost
Pegel
Individual
Bergstraße
vorgelagerten
melden
leisteten
Infektionen
Geläut
Beirut
##oxid
##latten
romantische
interessante
herstellte
162
##sang
##aa
fortzusetzen
Karel
Fernández
##liegende
herausgegebene
Save
RK
Coleman
Überführung
Tugend
Katastrophen
Geschwindigkeits
Blume
Tito
Defensive
##ebe
Watch
Maple
Fronten
Einsicht
momentan
geräumt
Schatzmeister
Peerage
##yon
heben
Thronfolger
Langer
365
##EN
##rieb
vergrößern
klassizistischen
Vu
Lausitz
endemisch
bildende
Uli
Saalkirche
Raums
Ortsmitte
Never
Lenk
Hus
DL
bewies
Unver
Dienstleister
symmetrisch
MI
Birgit
schlafen
Sterling
Maxwell
##ι
##erien
Hood
Ela
168
##lbe
offenbart
aktueller
Gerard
Bauingenieur
geschwächt
con
Seh
Bewerbung
##ides
eingepfarrt
Enns
##verkehrs
unterirdisch
deutschem
Pixel
Mose
Med
##ächer
##tragen
vorkommende
verpflichten
sprachlichen
Sid
Sanders
Reine
Freiheiten
##mögen
##hä
Olpe
Friesen
Guild
Germanen
1523
##gent
aufgestockt
##lka
ausgeweitet
Wurm
Kraftwerke
Horní
##stin
##rät
zahlreich
Zuschlag
Yuan
VD
Schmetterling
DF
Belastungen
anzutreten
Sue
Pieter
Kroaten
Kolleg
##scho
Versand
Hank
Devils
##ämpfe
##zione
##verbund
##fallen
Startelf
Hypo
##nahen
##enheim
albanischen
Verrat
Stadtbibliothek
Seeschlacht
Perspektiven
hierher
Unterwelt
Studentenverbindung
Regensburger
Kartoffel
Che
Außenseiter
##ON
##ï
Befunde
##OR
##yna
##tagen
nachfolgend
Quanten
Methan
Kündigung
Brun
##then
garantiert
fortsetzte
auftretende
Urteile
Katar
##decken
Pradesh
Kür
Brandschutz
##æ
##erfolg
Vorrang
Sang
##ì
zukommen
effektive
Clermont
##wicht
##usse
Teufe
Niederländisch
Lai
Erzieher
Albany
##hos
para
auszugehen
Infolgedessen
Botanischen
auflöste
Ufern
Lar
Feldkirch
Bedürfnis
verbringt
hinreichend
Titus
Lux
Lastwagen
sammelt
Untersuchungshaft
Ritus
Fußboden
1588
1568
##oper
mangelnder
Nebenwirkungen
Klarinette
Holländer
Doktorarbeit
##operation
##ments
##ami
Überwindung
Market
Kräuter
Gräbern
Cao
##mbe
##haupt
konservativ
##stro
##pfad
##ipfel
##ao
unterstellte
kräftige
Gemeindeteil
Blütenstände
Anruf
##konzert
wiederaufgebaut
resultierende
hervorragenden
Piper
Lessing
Gnaden
##uff
##rle
ver
Ter
Mat
Löhne
1659
##rache
gleichgesetzt
gemischten
Abzeichen
geografischen
Verdi
Keyboard
Opus
1608
##bachtal
konventionelle
Identifizierung
Gipfels
Fa
passen
Weihnachts
Peri
Doc
Burns
Aka
##н
Straßenbahnen
Nicaragua
Biennale
##iker
vernichten
mache
lädt
Mia
Langzeit
glatten
MR
VfR
Pak
Netzwerke
Kou
Enge
Bailey
1641
par
Pyrénées
Nutz
Enteignung
Critics
Außenlager
1230
##tige
Verwaltungsbezirk
Tonnengewölbe
Speck
Schlosspark
Puccinia
Kontinuität
Emilia
Derek
Verteidigungs
##phen
Handy
Flaggschiff
Bradley
Berlinale
Calvin
1673
##verzeichnis
touristischen
Sprengstoff
Gruber
148
##ligen
Griechischen
##lb
viert
gebürtige
Weisheit
Verde
Toiletten
Privatisierung
Lilien
##ili
ze
Till
Richardson
Pr
##erer
stürzen
Versammlungen
Chase
BIP
1617
Tschechen
Manuskripte
##steine
rettet
Xbox
Tyler
Staff
Regulierung
Landgrafschaft
Kollege
Bewirtschaftung
##ota
Schalt
Rheine
Met
Ingo
Hörner
anzugreifen
Wegbereiter
Somme
Monde
LE
Italienischen
Hab
Glied
Care
##mit
##mers
drittgrößte
Frühgeschichte
##knochen
dynamischen
Meldung
163
##Pa
##yang
##kauf
##gymnasium
unentschieden
schleswig
bestehender
Forbes
Feldmarschall
##ær
tropische
fixiert
Umstrukturierung
Muschel
Hitparade
##neu
argentinische
Timo
Module
Barn
1597
1565
##wälder
##frequenz
##alde
unendlich
unbe
sämtlicher
pädagogischen
komme
erkannten
Verringerung
UA
Mana
Kontroverse
regte
Poe
Navigation
tschechoslowakischen
napoleonischen
Michaelis
Liberty
221
##weite
abschließende
Tristan
Senators
Implementierung
Bezirken
Ackerland
##bon
rückten
rege
ausgezeichneten
Mass
Gründungsmitglieder
##unktionen
##esch
abgetreten
Mil
Korsika
geeigneter
drittklassigen
dominierende
Raumstation
Dorfbewohner
rettete
Partners
Mainstream
##stift
holländischen
dauerten
Triple
Task
Scham
Parodie
Kyōto
##ndet
fließenden
erhoffte
Zahlungs
Schadens
Literaturpreis
##äste
##reiten
gehobenen
Pendant
Jamie
##eto
unterlegen
Tagungen
Sachsenhausen
drohenden
Spezialisierung
Jana
Camille
##fre
##edizin
Suhl
Genie
Dominik
bezahlte
Zusammenspiel
Pirna
Mc
Aviation
Sioux
Drag
1583
##loh
##legen
überragt
Römerzeit
Medikamenten
Kei
gekürt
Wee
Baustil
Anita
Öfteren
mu
gesteckt
Wach
1543
##unfall
PM
Nordufer
Lj
Kos
Info
Aminosäuren
##treffen
kultureller
Sängers
Konflikts
##stel
Nielsen
Hassan
Gestaltungs
1611
alliierte
Verbrennung
Stiftes
PI
Lublin
Inhalten
Heiner
Barbarossa
schlüpfen
que
Kissingen
Erwerbs
Egg
Bin
kubanischen
illustrierte
gebräuchlichen
Wissenschaftliche
Variation
Unterschriften
Staatsoberhaupt
##zierung
wechselnde
Rotenburg
Mitternacht
Mazedonien
Gangster
##udien
knüpfte
Schwarzburg
Profivertrag
Body
Amerikas
tiefste
früheste
Kunstschule
Kostengründen
Holy
Domingo
Belfast
Pauls
Historismus
Hamburgischen
Ace
##angs
Ähnliches
Freundeskreis
##keits
##gur
LO
Häuptling
Fuji
##älfte
##ière
versorgte
Phi
Kompanien
Eiserne
Cali
##nteil
Nat
Industriegebiet
##met
##gleich
##arn
überzogen
Ü
Sporn
Fanny
auslösen
Tampa
##uge
##bl
weißes
Volkshochschule
Schalter
##IN
osmanische
Vereinbarungen
Religions
NH
Lotte
Hari
befördern
Verbrauch
Unger
Pfosten
Ostufer
Mayr
MDR
Hui
Chirurg
Cai
Authority
Andersen
liest
hiervon
Konsortium
Herausforderungen
##log
verzierte
verkleinert
##öden
Maximal
Franc
##aufnahmen
Säugetieren
Sy
Marius
Hintergründe
216
westdeutschen
elterlichen
Umlaufbahn
Lateinischen
Kehl
Ankündigung
##riften
bäuerlichen
Vergehen
Teresa
Pilze
Philosophischen
Morton
Hefte
Ausdrucks
##eht
residierte
kommentiert
213
anzupassen
Faden
Büste
Aqua
##ča
nordöstlicher
ausgebaute
angemeldet
Schwerpunkten
Fahrern
##praxis
##hum
spitzen
Niederschlesien
Guard
##funde
##emann
##chtung
namensgebende
nachempfunden
Scher
OT
Mineralien
Kollektiv
Süß
Potenzial
Längs
Intro
##nhof
Zwischenfall
Stadtarchiv
##hnt
##adel
kn
Versicherungs
Premierministers
Korrespondent
Herrschers
Amtsgerichts
genießt
einzunehmen
denkt
Schwergewicht
Musikwissenschaftler
##ruf
##irma
##aco
Sediment
Muse
Karnevals
1613
157
Sucht
Grenzübergang
Bestzeit
Beau
##schiffe
##manager
Đ
Wide
Bürgermeisterin
##ree
Vorbildern
Skizzen
Schieß
Rechteck
GO
Dino
Babelsberg
##cat
kHz
Sylvia
Deli
Scala
Instituto
Hymne
##palast
mütterlicherseits
Grabhügel
Fortführung
Bachmann
##joch
##angaben
abgewiesen
HF
##té
www
gesetzten
NBC
Ministerien
Lion
Ganzen
Frankenberg
Franke
Ferro
landes
Stadtverordnetenversammlung
Pankow
Kommunistische
Antarktischen
##jow
##eat
begegnete
außerordentliche
Traun
Kommandos
Alta
zuordnen
wog
Tauern
M2
Jong
Institutes
Güte
Doom
Ce
##ugen
zweijährige
detailliert
Ruderer
Reichskanzler
Memmingen
Maigret
Drängen
Cala
Übung
erging
Ingenieurs
Dänischen
Chapelle
Borsten
Łódź
demontiert
Rice
Christentums
##bergen
diejenige
Schiene
Metalle
Cos
Adventure
verlegten
Rasch
Neuf
Myanmar
Funktions
Bibliotheks
Belohnung
##vy
spontan
elektronischer
einzustellen
Direktoren
Dieb
einiges
Verschmelzung
Töpfer
Oberstufe
Meran
Ausreise
##ützen
parallele
erlaubten
betonen
Oberkommando
##stan
##cen
Yves
ProSieben
Multimedia
Dorothy
##urus
riss
Wied
Klöstern
Blocks
##50
beantragt
Monica
Celtic
Bücherei
Academia
##zon
##inrichtung
Théâtre
Fremdsprachen
Beschränkung
001
schwedisch
Patriarch
Freiin
Dragoner
560
visuelle
rumänischer
Vasallen
Platons
Het
Eröffnungs
##rieg
zusätzliches
liiert
lebendig
Pra
Gedenk
Brutzeit
##lith
##kop
Verdun
Korallen
Katja
DV
Cour
Ballon
Altarbild
##ällen
##nell
##komödie
erschaffen
Kirchheim
Haube
Gla
anhaltenden
Saalbau
Leitungen
Gale
Enzyklopädie
Chess
Auswärtige
vernachlässigt
niedergelassen
Reglement
Nationalmuseum
Hubertus
isländischen
Edel
Blattstiel
erfordern
abgedruckt
Wallfahrt
Segunda
Rollstuhl
Oster
Nottingham
Lé
Häftlingen
Goldmedaillen
1607
gelehrt
Kunstmuseum
##lam
ausgewertet
Konsonanten
##hop
##erne
##sierte
Rights
Gedanke
Dschungel
##inghausen
einmalig
Mechaniker
Jackie
Amazonas
1647
153
siegreichen
reicher
beschränkten
Stiftungs
Rothenburg
Ritterschaft
Ra
Matti
Gilles
207
1614
1562
##rage
kreuzen
jo
drängte
Völkerrecht
Tra
Stückes
Stop
Rheinprovinz
Dienststelle
Battista
##villa
zurückgewiesen
außergewöhnliche
Iserlohn
Überlegenheit
wiederherzustellen
dauerhaften
Fließ
##bschluss
##bekämpfung
hessische
Jahrbuch
Emilie
Alpine
192
##ntal
##ieder
beförderte
abgegangene
Kō
Akustik
##unternehmer
##rop
tragende
besessen
##kurse
##gazin
sämtlichen
fusionierten
erstellten
erloschen
Professors
Halbmarathon
EHF
##ersonal
kommandiert
Mahler
Arrangements
bitten
auszuschließen
Thurgau
ND
Bali
rasche
Leiters
##röße
Rente
Irving
Con
Buchs
freiem
Luftangriffen
Ljubljana
Brunswick
etlichen
True
Guerilla
Frühzeit
Fluch
Ausbeutung
verstecken
Lennon
Gänse
176
##chul
##bandes
kostenlose
Vermessungen
Fahrgast
224
##echte
tödlichen
RF
##varianten
##giebel
Tschu
Stefano
Reflexion
Gerber
Dillingen
##handels
##bia
fertiggestellten
Zirkel
Steck
Heritage
Filmfestspielen
Dag
Bala
217
##yla
zurückgegangen
schweizerische
farbigen
basierende
Mona
Gemeinsamkeiten
Bananen
Abi
209
##umfang
Westphalen
Granada
Daumen
wenigsten
komplexer
Weiterbildungs
Spessart
Sehnsucht
Qu
Martín
##ák
überschreiten
band
Sch
Saug
Gus
umgebende
graue
Unsere
Pfarrstelle
Falk
ausnahmslos
aufgenommene
Welche
Solisten
Ari
stumpf
absolvierten
Step
Financial
Federico
##rans
##odi
##gewölbe
##design
zusehends
Städtebau
Makro
Befehls
##stück
architektonischen
Textilindustrie
Röhre
Mou
Kosmos
Enttäuschung
paarweise
Triumphbogen
Anmerkung
##szeit
##afel
bindet
Pressekonferenz
Kulturgeschichte
Kriegsschiffe
Inka
Erzdiözese
Arsen
##ühne
wahlweise
geometrische
Konstruktions
Grossen
##ünde
##lmann
##leitungen
Direktors
Bingen
##has
litauischer
TM
Naturraum
Ehrentitel
Adelstitel
1515
##к
weilte
verarbeiten
dotiert
abgeliefert
Taube
Mag
Kronprinzen
Kanoniker
Ita
1599
1510
##rgen
##klub
##echsel
##hals
muslimische
DD
##kala
organisatorischen
Stele
Kuratorium
C1
232
1558
##reh
verletzten
ignoriert
Schreibweisen
Schlachtfeld
Husaren
Gesundheitswesen
ÖPNV
leeren
Hoffnungen
201
1548
##sts
subsp
psychologischen
Willie
Schwartz
Fertigungs
Carroll
##ison
po
gekürzt
Rus
Mura
Korpus
Kontrabass
Brunn
460
166
##ransport
##aya
Jagdschloss
Gepäck
##RS
senden
erstem
ablöste
Sowjets
Pendel
Geiseln
Gefechten
Vermittler
##orientierten
##bewegungen
zuerkannt
basierten
##12
##ästen
##uke
##lund
Südufer
Lara
Fähnrich
##ulo
##artikel
steile
multi
kunst
Ster
Schuldner
Offenbar
Netto
##zit
##hörden
gegessen
Vikariat
Landestheater
Eure
1601
##ächen
##wu
##pet
##oge
##aufgaben
warnte
Familienmitglieder
##toffe
##regel
verkürzte
neutralen
Lamellen
Gesamtbevölkerung
Gebeine
##lick
##chung
Neuro
Kompilation
Fürstin
Endung
Accademia
1615
##aris
genügt
Weinstraße
Programmierung
MK
Lehns
167
##RI
##mond
manuell
Pri
Mäzen
Geschehnisse
Forsthaus
##tafeln
angemessen
Proto
Medicine
Kreuzfahrer
Gleichgewichts
Gemeindevertretung
1541
##nummern
Quechua
Pola
Mitteldeutschland
umgesiedelt
gesammelten
beschaffen
Than
Sampler
Print
Nan
Jutta
Hegel
1492
##day
Hochschul
Blanche
Arche
1602
Radfahrer
Fraunhofer
Ausschreitungen
Archive
verglich
süddeutschen
française
doppel
begrüßt
Verkaufszahlen
Lynn
Kana
Jake
##uts
##informationen
angewachsen
Sparten
Meilenstein
Edi
1561
##tempel
##operationen
##iva
vorgegeben
nördlichste
ausgebildeten
Zittau
Weltcups
Saba
Landgut
Kain
Bundesminister
Astra
Access
Meinungen
1563
##nza
##husen
landeten
arabisch
Unna
Handlungs
Ful
Friedland
Alban
##pro
Seefahrer
vertrieb
abgegrenzt
Trip
Terrorismus
Sprachwissenschaft
Regionalen
Ammoniak
##spiele
##eiche
kauften
1460
##nsi
##itzen
##dnung
Pokalwettbewerb
Hersfeld
Formate
##regionen
Zentrumspartei
Westens
Strömungs
Rubin
Loyalität
Katalysator
Fly
##zugehörigkeit
##teine
überquerte
lebens
Sammeln
Politikers
Hinterflügel
##oz
##luft
Tastatur
Laval
Kerzen
Honorar
Frederik
Arabisch
ordentliche
hervorzuheben
geschätzten
dra
Repräsentant
Michele
Juniors
Hecht
Gui
Gill
Biberach
##rest
Süddeutsche
Mie
Karpaten
##uba
körperlich
bekämpft
abzweigt
161
1592
kriegerischen
Serge
Mori
Doo
Bitten
##jn
reichsten
plan
län
Hey
Geologen
wiederkehrende
verpachtet
li
Ingeborg
Direktmandat
Archivs
##arbeitung
südsüdöstlich
gewaltsam
architektonische
Politischen
Fernsehsendung
##ká
gefährden
assoziiert
Leihbasis
Forster
Anleger
beherrschten
Rufe
##ffekt
Tasmanien
Nachweise
Loh
Erden
##sender
##bataillon
permanent
Quintett
Poli
Phantom
Besonderen
1539
##anu
Mariens
Josefs
Furt
Dogen
Angeblich
##division
Kraut
Entstehen
##ull
ma
liess
Taucher
Rotor
Feststoff
Chart
##ř
##eyer
Pfeffer
AIDS
172
##stung
besorgt
Kirchenraum
Generator
Forschungsgemeinschaft
##tzung
##rche
##kirch
vorzugsweise
hannoverschen
Musikpädagoge
Munitions
Glatt
##felden
##etter
##ahnen
walisischen
dramatische
Corporate
Bremsen
##gewebe
senken
ne
intern
behielten
RN
Heutzutage
Führungen
Weißenfels
Ilmenau
Carsten
Besitzes
##kinder
##chsen
##char
anzuwenden
Marvel
Geschäftsjahr
Dinosaurier
Befragung
Vorzeichen
Untergeschoss
Romano
Brahms
##tschen
Unabhängigkeitskrieg
Gerichten
Geleit
##tera
sous
schlesischen
Erd
Barre
B1
Alexis
##ufgaben
##rze
##rri
##oku
##ldung
##hit
##bro
literarisch
Steam
Slogan
Nea
Konfrontation
Indienststellung
Haydn
##sit
##ło
südöstlicher
Verhandlungs
Topf
Skisprung
McCartney
Isolation
##scu
##ery
involviert
einverstanden
auffallend
Waisenhaus
Se
Burke
Bestrafung
Begleit
##fan
locker
Elfenbein
Buchhandlung
1470
##litik
nachgehen
kontinuierliche
Ratsherr
##önen
südwestlicher
gehoben
bearbeiten
aufgehalten
Superintendent
Scheich
Lola
BRD
Amazon
Verkündigung
Telekommunikations
Schönen
Schächte
Pin
Ottos
Hero
Gaston
FL
Commodore
1532
##ues
Warm
Tree
Rundbogen
Bläser
1571
Öffentliche
kreisfreie
bu
Wasserkraftwerk
Karst
Giants
##empel
radikale
Sto
Mitleidenschaft
beruflich
Bru
Bear
Anmerkungen
1553
##tudien
Ya
Rum
Lau
720
gutem
LV
Ens
1595
##raut
beständig
Staudamm
Inhalts
Eheleute
Andre
vorherrschende
Wernigerode
Südamerikas
Sus
Statistiken
Hauptaufgabe
verhängt
interessierten
gemein
drastisch
Träume
Schwächen
Qualitäten
Fay
1646
zeige
Tot
Sons
1569
##ringer
verputzt
Zinsen
Reynolds
Vampire
Sitcom
Selbständigkeit
Blauen
Avi
1420
Schauspielerei
PN
Hiro
Entfernungen
Byzanz
Ahorn
##TI
Sumatra
Spielertrainer
Sambia
Piet
Bohnen
265
1519
##rone
primäre
gelisteten
Ulf
Sim
Schriftzeichen
Raj
Phra
Einklang
Anstoß
1554
##ländischen
##llon
ÖBB
Stick
Ringmauer
Artur
##seitig
##logy
wüst
engagieren
beträchtliche
Raphael
Dub
##ław
##zeuge
Hürden
##pie
##lot
##dert
ur
führe
Säbel
Por
Kro
Ir
Cho
Bauteil
##ith
gestellte
Pana
Lan
Kami
Evakuierung
Todesopfer
Schauspielers
Reichenau
Gamma
Evelyn
##κ
reflektiert
einigte
WG
Sure
1639
##schlacht
##rme
##gia
##clubs
größerem
Sil
Konfessionen
Browser
Anno
Anja
##01
##edi
vermeintliche
Schulleiter
Sande
Manitoba
Litern
Gymnasiallehrer
Gesichtspunkten
Geest
##sor
modifizierte
dynamische
Türkischen
Trompeten
Tol
Städtchen
Flüssigkeiten
##ginn
überbaut
Screen
Nationalteam
##veranstaltung
##usbildung
##isse
Prognose
Pilaster
Os
Farbgebung
##nalyse
pseudo
RP
NI
Lizenzen
Gutshaus
##uit
##iano
Transparenz
Qualifikationsspiel
Brabant
##lius
Ökonom
einziehen
Medina
Bestleistung
nordwestlicher
kraj
gesamt
Eschen
total
Pforte
Feucht
##zio
##verhältnisse
##bezogene
##ieben
ungleich
entließ
Papyrus
Internationales
Darmstädter
DFG
Cornell
Automobilhersteller
Altpreußischen
1589
bewirkte
Passagieren
1606
##otten
lateinischer
Villeneuve
Obrigkeit
##star
##reaktion
Varietäten
Torres
Schauspielausbildung
Heidenheim
Gemeinschafts
##pal
##höhen
rührt
Verwaltungseinheiten
Stolp
Simons
Schell
Geb
Claudio
##mat
##fern
bewegten
Ute
Regenten
Doubs
Baukörper
Bal
##itten
##ahnhof
Zentralasien
Rocks
Electronic
##ij
##chein
##acker
übergeht
zerschlagen
ostsüdöstlich
Harper
Dip
520
##DE
##ção
##sand
##anne
Neptun
Forschern
##oide
##künstler
umliegende
freies
Tou
Kahl
Gans
Feuchtigkeit
Aberdeen
##tts
angeschafft
Waterloo
Napoléon
Nachfolgend
Lampe
Kolonialzeit
Hermes
Elvis
##ration
##gio
Scorerpunkte
Norweger
##oßen
verdeutlicht
relativen
kalifornischen
ausgeht
aufnimmt
Siegmund
Said
Stadtmauern
Some
Sin
Rouge
Hexa
Gleichstellung
Üblicherweise
see
Unternehmung
##tsu
Verwirklichung
Nester
Heid
nordwärts
Sai
Römisch
Lionel
1567
zugänglichen
verdoppelt
genetischen
bewaldete
Swan
Historia
Cerro
##rekord
##gler
##gemeinden
Kunstverein
Kinderbuch
Kepler
##uster
weitgehende
gefertigten
Mittelrhein
Eingreifen
##ulus
Rück
Oise
Instandsetzung
Gruppenspiel
geneigt
fremd
Spott
Nordatlantik
Kulisse
Dominique
Aufbaus
##stärke
##iso
##gelb
##alon
Ärztin
primären
neutral
beabsichtigt
anschließt
TO
Objektiv
Ghost
Fresko
##reiben
zunehmendem
schliesslich
aufsteigen
Michaels
Bertrand
Angeboten
Sally
Nachkomme
Kir
##lah
##anns
anbot
Verzögerung
Polnische
Gleichheit
Economics
Arms
978
245
##fell
##ative
einjährigen
alpinen
Wahn
Stabschef
Solidarität
Mustafa
Kunsthochschule
Como
Sporthalle
Erholungs
Emmerich
kritisierten
bevorzugen
Severin
Ser
Entsprechung
Bone
Aloe
##über
##archiv
qui
Sum
provisorische
ehrenamtliche
Vi
Sekundär
Pharmazie
Linguistik
Kasimir
##lden
##brücken
übergeordneten
Upper
Rechtswissenschaftler
Pitt
640
1566
over
enthoben
Verleih
Kö
Gebhard
##trakt
thematisch
beigelegt
Zuwanderung
Phantasie
164
Zuverlässigkeit
USB
Schal
Cine
##projekte
Davor
##undes
##spiegel
aufwuchs
Stor
Namenszusatz
Miniatur
Mahnmal
##tritt
##tch
##nay
lasse
Marias
Jüngeren
Hunden
Geflügel
Forschungsinstitut
Berchtesgaden
Ars
Zähnen
Zak
Sé
Berühmtheit
##nnt
##jon
Shō
Scholl
Pia
Organisations
Neubaus
Dänemarks
##alk
Klara
Jungs
Erbach
##sund
##rojekt
verlängerten
Lagune
Experimenten
Eschweiler
Detektiv
##gast
bewerten
Stücks
Popular
Melde
Geschützen
Bundestags
1577
##zsch
##kle
Mühlbach
Defense
Choice
255
##mä
Wellenlänge
Ortsgruppe
Magnetfeld
Knut
Glo
Domherr
##nek
##fingen
##aku
Wendel
Kad
Haber
Glasfenster
Bes
##kh
Feuerwehren
##dou
Versen
Sci
Kingdom
Identifikation
Hommage
Dokumentationen
regelmäßiger
bist
berg
Rennes
Bora
##ά
##moos
##liches
##jähriger
Wiederbelebung
WC
Färöer
Fassungen
Dekor
Ansprüchen
##tle
##sung
##kompanie
##ierungen
weicht
herausgab
empor
Trick
Oo
Ono
Greene
Amiga
##nol
##klinik
##atten
Haftung
Gebr
333
##zyn
##rina
Westteil
Vogtland
Synthesizer
SU
Rota
Cal
Australier
##oman
übersetzen
verbreitert
Plate
Oxidation
Oil
Ilm
##20
##stor
##rtige
##eriode
##ear
vermessen
günstiger
Reno
Qa
Buddy
##stock
##inae
tausende
Ukrainer
Perioden
Anselm
engsten
Sporting
Orbit
Klippen
Fluggesellschaften
FE
1596
##vertreter
##unter
##rou
##pat
##armen
dichter
Lunge
Hawk
Eisenberg
1594
Versöhnung
Typische
Remscheid
sm
eigen
delle
Würdigung
Stellvertretender
Enrique
1578
##pach
##abschnitt
gi
fränkische
Spielweise
Konvergenz
Bombenangriff
sitzend
Spann
Privatpersonen
Lina
Gründern
weiterführende
niederen
hunderte
Departements
Atlantis
##rro
##lp
##fla
##cit
eingeräumt
bewertete
ausgebreitet
Videospiel
Senne
Nebenbei
##lberg
pädagogische
beantwortet
Weit
Quellgebiet
Petersburger
Pere
Energieversorgung
EUR
##tai
##stad
##pelle
dachte
Stimm
Natal
zusammengearbeitet
virtuelle
gemeinnützigen
Vel
Topologie
Strada
Lebensstil
Einberufung
##adi
laufend
Neutronen
Arta
##zirk
##hauser
vorstellen
lebenslange
Italienische
Erträge
Clare
##pper
##marken
q
erlernen
erblichen
abgeflacht
Timișoara
##lian
##formel
MfS
Eu
Chemical
##wy
##reiber
##formation
ungültig
can
Muschelkalk
Krankenversicherung
Integral
Heat
Arnim
Anni
##yra
##ppa
angebotenen
##zol
##grafie
Sende
Salzwedel
Oberhoheit
Gleisanlagen
Gali
Freibad
Bertram
Bernburg
301
##bier
fähig
einführte
Geoffrey
Ent
##ören
##äle
##nick
gesandt
Wid
Vorträgen
Koppel
Gebrauchs
Flachs
Boll
Teig
Stör
Bran
##lumen
gäbe
Sotschi
Referendar
Quentin
Nowo
Letzte
gleichsam
auflief
Riss
##pektrum
überqueren
em
ehrt
Schilderung
Rudolstadt
Kostüm
KC
Grafiken
Gegenleistung
##latte
##ista
springt
Nekrolog
Magnet
Bäder
Annahmen
betritt
Marktführer
Konteradmiral
Gelenk
Umgangssprache
Bösen
1586
gefärbte
Tiefgang
Preston
Melk
Lausitzer
##aschinen
vorgetragen
herrschen
anzulegen
Lebensbedingungen
##partien
übergehen
auffällige
Liebes
Falten
Coupe
Bürgerrecht
##ston
trinken
Tennisspieler
Simulation
##begriff
einzigartig
Ränge
Floyd
##RO
##eler
User
Sussex
Marsh
Extraliga
Bindungen
AEG
gliedern
Volkszählungen
Psalm
##AT
##his
einjährige
Vergleiche
Spezialist
Reservat
169
wilde
tieferen
operativen
berühmter
Zwillinge
Rebounds
Novo
Gurt
leitende
Zweigstelle
Southampton
Ranch
Krankenschwester
Fleischer
##sein
##rug
##kat
##deck
ter
stoppen
französisches
Thunder
Rumänen
Niederbayern
Fachliteratur
Dili
Aix
##yas
##knoten
Vai
Stabilisierung
Ferne
Akzent
##behälter
bestätigten
Zivilbevölkerung
Staufer
Segmente
Look
Cyber
##IA
israelischer
ausgearbeitet
Stopp
Connor
182
päpstliche
Picasso
Mul
Kirsch
##lur
arbeitenden
Wertheim
Kenner
Dienstleistungs
Atome
##schine
vertraglich
Vertreterin
Pic
Chevrolet
neutrale
familiären
errungen
Vil
Sem
Hunds
Color
Bieber
Alfonso
##ST
##chie
vermietet
mittlerer
enthaltene
Stromerzeugung
Seelsorger
Amtssitz
A3
1584
##ogel
wandten
iur
dell
Foreign
##dampfer
homo
Stützen
Rezeptor
Psychoanalyse
schlanken
agieren
Singlecharts
Eisenbahnbrücke
##kra
##bremse
span
derzeitige
Schnauze
zuverlässig
Pad
Lebenserwartung
Clyde
##potential
vorliegenden
relevant
beherrschen
aufstellen
1557
erholte
Mekka
Leicester
Generalvikar
Anzeiger
##pumpe
##polis
##orgel
holsteinischen
Zeller
Stadtkreis
McDonald
Biochemie
Sánchez
Navarra
Hua
Fugger
Cornelia
Blend
strukturiert
Sprech
Luka
Esel
Capo
##pokal
kWh
erworbene
Saisonbeginn
Ros
Olympiastadion
Offenbarung
Gerichtsverfahren
Direct
wild
ostwärts
formierte
durchs
Wis
Warnung
Portsmouth
Ehr
praktizieren
bedrohten
Wirtschaftspolitik
Surrey
Ritt
Felle
Anleihen
##arriere
genauere
Katrin
HV
Édouard
Tiefbau
##wicz
##vre
##steig
##illo
importiert
Rekordmeister
Kala
Hauser
Folklore
Denkmalverzeichnis
notierte
erschlagen
Roe
Cargo
langfristige
ewige
Oz
Montan
##grab
##filme
##ering
zerlegt
spezialisierten
erheblicher
View
Howe
Göttern
Gi
Blair
Assists
##top
##sprachige
##flotte
##agazin
vertikal
che
Mist
Immanuel
Bestattung
Arc
177
untersten
unbekannter
symbolische
gebliebenen
euch
derzeitigen
abschließen
Nationalismus
vermischt
USPD
Spannweite
Durham
##ect
liberal
Tiergarten
Schlitten
Lagerstätten
Genau
Bedeutungs
1544
passenden
annimmt
Stones
Sor
Sachsens
Gle
##etta
synchronisiert
schulische
angemessene
Vermessungs
UC
Schornstein
Junction
Wilmersdorf
Frances
Entscheidungsspiel
Dir
##wohnung
##nha
Oktoberrevolution
Duisburger
Apache
##völkerung
##icus
Warum
Seitenaltäre
Menschenrechts
Keim
Joyce
Gewitter
Erinnerungs
zeugt
klassizistische
auszuführen
Sulz
Hussein
Gesteins
Domänen
Cliff
##rfolg
##ckung
parlamentarische
betroffene
Meldungen
Güstrow
Beaumont
##sicherung
##ple
spätgotischen
gegebene
Uri
Danziger
##rach
##nei
##ewski
überflüssig
selbständiger
Shah
Schur
Schnittstellen
Rou
Bitter
Bambus
heimgesucht
Einbindung
##echen
übergegangen
vertikale
Tin
Nachwahl
Landesvorstand
Geh
Eagles
Ae
##chäden
iranische
ganzer
Westafrika
Roadster
##walt
eingebaute
belagert
Virgin
Sonja
Philips
Muscheln
Mika
Einstufung
Vicente
Gir
Argumentation
Aircraft
##training
##kor
unterteilen
Unterteilung
Ortszentrum
Mayo
Landschaftsmaler
Idaho
Elfenbeinküste
Elektrizität
Bootes
Av
##treten
##ndler
##abend
bemalt
bayerischer
Zechen
Liegnitz
Gassen
##zis
##aud
Äste
wirklichen
wertvoll
verwandeln
##bat
ta
gründet
Versailler
U2
Trockenzeit
Tochtergesellschaften
Hochdruck
Display
##problemen
##mee
Verlagerung
Quartal
Kämmerer
##ο
##iser
übt
umbenannte
symbolisch
steigender
durchgehenden
Royce
Pfahl
Neubaustrecke
Matrosen
Gaststätten
##vorschriften
##ogramm
##logische
##gehen
Perm
Pazifischen
Oben
Marbach
Desktop
##kins
türkisch
Verbannung
Thorax
Mansfeld
##mani
vollem
griech
Politikwissenschaftler
Kellner
Grove
Borneo
Banda
##tien
##pit
Circus
50er
##thi
Zugpaare
Sascha
Publishing
Modena
Manns
Klostergebäude
Kemp
Behinderten
Abwanderung
##tore
##firmen
gewählter
Zwischenkriegszeit
Zahnarzt
Reid
Maastricht
Intelligence
Imam
Datenbanken
Aden
beginnende
Yun
Wupper
Pharao
Heraus
##ál
##lit
##historiker
##halte
##gk
Solms
##übungen
Übertragungs
aufgenommenen
Prestige
Käthe
Genuss
Befestigungen
##par
siegten
ehren
aktives
Werften
Königshof
Jeffrey
Internationaler
Autobiographie
Altenberg
Aktivierung
Slu
Leit
vorhergehenden
befürchtet
aufkommenden
abgerundet
Ostens
Klärung
Brent
##zahlung
Til
Schulte
Fei
Ertrag
##rier
##osch
südkoreanischen
car
Sb
Rent
Manual
Gren
stillgelegten
brauchen
Mob
Geplant
##falls
##bst
planmäßig
Vettel
Turnhalle
Staatsstreich
Sint
##örder
##sbe
##enau
##aupt
argentinischer
Zeitspanne
Odo
Neustädter
Flasche
Beisein
Banknoten
1551
##tori
hinweist
gewerblichen
erfahrenen
SVP
Jump
Gunter
Cardiff
##set
##schwindigkeit
##js
gewandelt
Vas
Sportlern
Rover
Roggen
Kill
Gar
Freikorps
##äfer
##netzes
Patrizier
Naka
Höhenburg
Fernmelde
Feiertagen
Botschaften
reisten
bezwang
Zugabe
Seitenaltar
Rebecca
Grob
Bauwerken
##aster
vorm
vorgelagert
voraussichtlich
nordnordöstlich
grundsätzliche
Umschlag
Ringel
Reality
##elin
##eae
Nein
Landschaftsplan
Grundfarbe
Christie
##gaard
##eni
landwirtschaftlicher
Wahlspruch
Vis
Verordnungen
Vaterland
PF
Murr
##ärzte
##lben
humanistische
horizontale
Tama
Stillleben
Malen
MGM
LL
Artikels
##ttbewerb
##sle
##qua
##pop
komplex
RI
elektronisch
Stabes
Hbf
##rmann
##ardt
arbeits
Madeleine
nächst
Willens
Trink
Mühl
Lörrach
Kontinental
KE
223
##tests
##azi
wahrnehmen
vermisst
geschätzte
Westfälische
Waters
Spekulationen
Ganze
Epos
1522
kraft
TFF
Laos
prä
Streckenführung
Kontroll
Bautätigkeit
##verlag
##scht
berühren
Wassermühle
Verteidigungsministerium
Greif
Detlef
Bettina
Auerbach
Akkordeon
##uhren
##anti
Zapfen
Parlamentarier
Kontrakt
Bien
Bauen
Adelsgeschlechts
Aalen
##tock
letzteres
folgendem
Rangier
Betreuer
Beibehaltung
##schung
Schne
1545
journalistische
drangen
ausgetragene
Voß
Spätsommer
Ping
Narren
Mobilität
Decks
Betrug
Sz
Petro
Ahr
##annschaft
beansprucht
Swift
Makedonien
Bona
##sur
##int
but
Vergewaltigung
Oi
Fußballtrainer
Flugabwehr
Bandleader
Arabische
##ingt
optimal
Maxi
Regierungsbezirks
Mon
Athener
##orium
respektive
Mutationen
Gebirgszug
Fahrplanwechsel
Chin
Alfredo
ernsthaft
Schütze
Jeremy
Félix
Dosis
Cave
Borken
1576
##stimmung
sofortigen
Weis
Squadron
Lens
Geburten
##igt
wiederentdeckt
gesichtet
bischöflichen
Stasi
Geraden
##uhl
verwalten
gewöhnliche
einnahm
ai
Zimmern
Trondheim
Rezeptoren
Hindi
Barmen
1531
solide
ovale
distanzierte
Spieltagen
Seltenheit
Querhaus
Hydroxy
Bet
Sprengel
Rundbogenfenster
Matsu
Kante
Herrenhauses
Denkens
Affairs
1538
##rno
versetzte
Ratsherren
Christo
Akademischen
173
##pflanze
violett
regelte
Frankenstein
Bauherr
##ads
erschießt
auto
Nau
Kart
Bol
##requenz
##hes
beweglichen
beklagen
Halbfinal
Gesims
##tri
##tek
##tad
##kom
vorab
ro
rapide
physischen
konzentrierten
Wiederwahlen
Westufer
Pali
Morning
Lehrstuhls
Brixen
zugängliche
Gelbe
Ekliptik
##ßig
##sab
verständlich
niedergelegt
feierlichen
derartigen
beriet
Par
Economic
Computers
versprochen
gerundet
ehrenamtlicher
bewaffnet
Qing
Kriminalität
FI
Dia
CG
Bruins
2021
##uin
Naumann
Jünger
Einzelpersonen
228
##ürger
##stätten
##recken
##hebel
ausgestatteten
Oberbefehl
Niels
Fur
##tie
zurückzu
ungeeignet
genossen
Schultz
Opernsänger
LDP
Kling
Hilfs
Dü
##üll
##umpf
positiver
allenfalls
Wochenenden
Streu
Republican
Rams
Kohlenstoffdioxid
Elise
Diktator
##vent
wuchsen
Rud
Reservoir
Mäuse
Mädchens
Hauptsächlich
Dolní
Bezugs
Ölgemälde
würdigte
anwesenden
Weißensee
Unbe
Sou
Litauens
Frederic
Fra
Concert
untersteht
besiedelte
Self
Muttergottes
Lore
Local
Ira
Dutch
##onds
räumen
gesellschaftlich
dominierenden
class
Janet
Erstveröffentlichung
Dürr
##skaja
##heer
physische
Wirtschaftswissenschaftler
Somalia
Palme
Filmreihe
Falun
Chanson
##stufe
Wintersport
Tong
Minimum
Milizen
Controller
##core
mol
hr
VE
Ship
Penn
Lehrerseminar
Gesellen
Dock
Ani
##ār
##benen
änderten
Spider
Singh
Schilf
Gabel
Florence
Eiskunstlauf
##spezifische
##mia
oval
landesweite
Vertiefung
Offiziell
Mairie
Generalrat
Et
Diebstahl
Arbeitszeit
##ül
##ilanz
Vorabend
Volkskammer
Dijon
##ful
Zutaten
Tempelhof
Krankheits
Brems
BW
##wig
jüdisch
Theresienstadt
Mör
Emir
Bains
interpretierte
Scheinwerfer
Paramount
Doppelkonkurrenz
##ziert
##tart
Gründers
Boten
##mitteln
RA
Neutralität
Gemeinderats
Face
Faber
1582
##jes
tre
Sergeant
Muslim
Intellektuellen
Hau
Cara
##ovo
##elles
grobe
Kraftfahrzeug
Felde
Diagramm
Bombay
##bas
liebe
farblose
Pierce
Modifikationen
Malaria
Aula
Abkommens
##holt
Notation
Aurora
149
##nster
ya
vorausgesetzt
abstrakte
Wismut
Priorität
Electro
##ärbung
matt
eingeschätzt
Stau
Konstrukteur
Verhaltensweisen
Putin
##irektor
##betreiber
us
feuchte
Yard
Pou
Neumünster
Heath
Guadalajara
Canadiens
Bors
Bodo
##saurus
##nker
mittelalterlicher
Pow
Gerüst
Beschaffenheit
##õ
##rechtliche
##rds
südsüdwestlich
bau
Iwanowitsch
Gemeindeverwaltung
territoriale
Südküste
Sounds
Segler
Schnellstraße
Schanzen
Picture
Koro
Familienunternehmen
##tse
erprobt
Witte
Roller
Prima
Joshua
Frühjahrs
Ehrenlegion
##stem
Sza
Navigations
Jost
Change
##rik
verunglückte
nat
Zuhörer
Versicherungen
Vermessung
Schweigen
Partnerschaften
Gunnar
Clifford
178
##TV
beträchtlich
Hawks
Fallen
##HA
Qualifikations
Bul
Bauvorhaben
##ündung
##äts
##hoch
##abkommen
rechtsextremen
korrigiert
exklusiv
Pavia
Konfiguration
Expo
##überwachung
habilitiert
aberkannt
bedingten
Shu
Normalspur
Dramaturg
Doug
Dampfmaschine
183
##isation
Yen
Stadtrats
Emissionen
Bundesstraßen
##nzen
##lı
Nara
Modi
##dow
veräußerte
Unfälle
Suk
Sen
Scho
Plantagen
Dion
##pas
zulässige
fett
automatischen
auftaucht
Tō
Forte
Donner
Bewährung
188
##eschichte
rät
aufzustellen
Trophäe
Nixon
Ehrung
##uis
##tsche
##pert
##furt
Teddy
Osmanische
Meereshöhe
Bischöfen
241
##ël
riefen
Rampe
Ore
Mussolini
##äne
arabischer
Wartungs
Verzehr
Urnen
Soweit
Cove
##oftware
##iar
Sofort
Infrarot
Filial
Dritt
Bun
Books
Artefakte
##pad
einnimmt
##fraktion
##dol
geschichtlichen
chi
Plünderungen
Garonne
Drüsen
##ieß
naturwissenschaftliche
horizontalen
Weniger
Sle
Reb
Filmfestspiele
##ų
##statt
##lop
Schillers
Börde
Baumwoll
##läne
##hur
##gattung
profilierte
gewohnt
ausfallen
Patronen
Nordküste
Mei
Lachen
Gallien
##iffe
verhandelt
erkämpfte
Mittelamerika
Lüdenscheid
Fix
Bot
##ohle
##nest
eu
engagierten
beachtliche
Veranstaltungsort
Rastatt
Geheim
1573
##wie
##ierungs
orts
nachhaltigen
anmelden
Zerstörern
Weilburg
Twitter
Season
Plakat
Fallschirmjäger
Emotionen
Baur
242
##kung
zusammenhängenden
abstrakten
Vorwand
Verkehrsbetriebe
Natura
184
##ís
##mere
umfassendes
Tres
Rollenspiel
Mittelklasse
1587
##υ
##norm
##felsen
viertes
vieles
org
Walser
Regenzeit
Limit
Gü
Europawahl
Bergbaus
##rak
##aufnahme
infolgedessen
gekämpft
Hoff
Exekutive
Coverversionen
1591
##onzept
##flicht
württembergische
geleitete
emotionale
Zeremonien
Vere
Unterschrift
Lesung
Faso
Chromosomen
Betriebes
Aktivist
Ableben
veräußert
umbauen
sinken
arm
Territorial
Kooperationen
Flight
Browns
##lossen
##ktivitäten
gepflanzt
fehl
Klo
##zwecke
##schar
erbringen
Peterson
Hale
Dodge
1546
##orth
##anische
rächen
bemerkenswerte
Somerset
Erfolges
Bahnstrecken
##uchi
##pier
vorweisen
eingefasst
Touch
Ranking
Loi
##legung
##federn
obliegt
Stachel
Spiralgalaxie
Leucht
Erbschaft
Betroffene
##lastung
Vista
SAP
Nektar
Mena
##hälfte
unzählige
nouvelle
Rehabilitation
Papen
Kommende
Bundesebene
Bauphase
193
##termin
##lad
zugespitzt
zahlenmäßig
erhöhter
Rückeroberung
Aya
##lokomotiven
##emeinschaft
##asa
vereinbarte
ga
Wies
Hinrich
Fat
Departamentos
##tf
##gliederung
Zähl
Wildcard
Vortrags
Verbreitungsgebietes
Rückenflosse
Pate
Lingen
Krämer
Jar
Bigband
Ao
Vernichtungslager
Mes
Ajax
AO
##ehl
tanzen
relevante
heutiges
abbrechen
Zielsetzung
Straßennetz
Nürburgring
Marburger
Historikern
##ngebot
##mühl
##läufe
##aer
franz
ROM
HT
Az
##öne
##xa
##rriere
##ower
##oso
feiert
diagnostiziert
bekanntestes
Brennerei
##sm
historique
Vasen
Lex
Bestreben
Ankauf
akustische
Term
Soziologe
Silbe
Indem
Astronauten
##ärke
Eben
zylindrisch
Ostrand
##kranz
vorstand
prägt
Vorsitzendem
UD
Richtungs
Newman
##ssion
magischen
Sau
Mauerreste
Marines
Ib
Franzose
##gentur
leitenden
gleichzeitiger
biblische
alters
Räte
##sätze
##problem
##ndlung
##aufbau
Seidel
Concordia
rück
Rebsorten
Originals
Nachname
Kapazitäten
Dreier
Bestands
Ber
##ovi
##ormat
verheirateten
ke
eintreten
anstehenden
Wanne
TF
Siebter
NY
Lektüre
EK
##lattform
##lab
##iese
überreden
ausgewiesenen
Kerr
Baustelle
1440
##ütten
##ührt
##echer
Tar
Sessions
Nagy
Ground
Gel
Fi
Dil
##sychologie
weiters
Toll
Herrschaftsgebiet
Gardner
Citroën
##CH
##üren
##reif
##liegen
##chichten
Terrain
Orchideen
Müllers
ti
holt
co
Thi
LM
Enz
Auen
##folgen
##ersteller
net
Susanna
Alemannia
gegenwärtige
Suisse
Neuwahlen
Mitter
Junker
Hag
Ganzes
##misch
vermuteten
Teilgebiet
Kanon
Friede
pre
og
Yoga
Wessel
VO
Schmutz
Geschlechtern
Bauabschnitt
innovative
Stech
Residenzstadt
Moderation
Logan
Kurie
Konföderierten
Hofmark
Heidegger
Hasel
Benedict
##tr
cor
auswärtigen
Transporter
Torgau
##üllen
##landes
fangen
Regisseuren
Lein
Eröffnungsfeier
Verstaatlichung
Koh
##weiß
##ior
##gor
Wittelsbacher
Ticket
Oberfranken
Kranke
Inder
Gä
Estadio
Anschläge
##lima
##böden
Unterwerfung
Hacker
Gries
Brat
Automaten
##sgrad
##frist
Wirtshaus
Nordöstlich
Muslimen
Finanzkrise
EI
##GA
##katalog
##aub
Karneval
1581
##hoven
umfangreicher
identische
Pil
Isabelle
Erscheinungen
##card
Elfmeter
Carbon
Bla
Arroyo
##rti
##mol
selbstverständlich
plötzlichen
offenes
Unternehmungen
RWE
Nebenflüsse
Ministerin
Masten
Lieferanten
Gewerkschafter
Duft
Bürgers
##kit
##erklärung
##ehre
##cos
trans
koreanischen
Hampton
Beteiligungen
##sinn
##ften
suspendiert
scheinbare
Maru
Geige
Divisions
Aufschluss
Ateliers
Abk
312
##mine
##krone
reformiert
gängige
Musculus
Mittag
Mau
Lines
Königsberger
Flores
Fabrikanten
Deportivo
Sperr
Sicher
Räumung
Revolte
Lungenentzündung
Harde
##untersuchungen
##sho
##raf
##phon
##ministerium
##egion
übertragenen
verstoßen
Stru
Oppenheim
Erwerbstätige
##ologische
Vincenzo
Rändern
Matrizen
Fortpflanzung
##technischen
Pio
Beethovens
##ädt
Überlebende
nennenswerten
Menhir
Kreisliga
Computern
Beisetzung
##ulin
##finger
wandern
gefoltert
Papierfabrik
Historien
Hingegen
Hardenberg
Bulgaren
Belegschaft
##ruder
Usbekistan
Ura
Trent
Stage
Oakland
##AN
##ří
##untersuchung
ho
Polymer
Lüneburger
Lösch
Burkhard
##tlich
verhinderten
Talern
Mati
Gauß
##lav
verfügbare
norddeutschen
betrafen
Bent
Banden
Antonia
Annaberg
##ean
##cation
Sag
Perg
Chemikalien
Argentiniens
##RE
angebrachte
andauernde
Vladimir
Unions
Noir
Modelljahr
Mains
Hayes
Charme
Ausweich
Apollon
##endungen
gestärkt
Rennsport
Byrd
Aufzeichnung
##čice
##lge
##ext
##ail
eingelagert
Exe
Endes
Credit
Anwohner
##schütz
##gesetze
fängt
begeisterte
Stammvater
Autoroute
##album
jahrzehntelang
großzügig
bolivianischen
blockiert
ana
Verfechter
Flach
Algier
##mechanismus
##idi
##eihe
##assade
erforschen
aufgesucht
Tunis
Taxa
Schlitz
Lili
Grabungs
Apostolischer
##î
##seits
##lösungen
erz
Wilder
Samoa
Machthaber
Geschichtswissenschaft
1430
##д
##verarbeitung
##ehmen
tor
skandinavischen
lettischen
Verzweiflung
Snowboard
Opfers
Marin
Lower
Besteigung
1574
##uel
##iza
##dienstes
beschossen
Wen
Morrison
Expeditions
Binder
Beeinflussung
1220
##probe
##gewinn
##anga
verdächtigt
Reykjavík
Ot
Landesherren
Gedichtband
Bussen
630
##esser
nähere
letzterem
angreifen
Phillip
Michal
Homberg
##ór
##kasse
Zuwachs
Worcester
Lahti
Halbfinals
Bou
1533
##fin
##chnitt
vorzunehmen
mehrfache
Verdienstkreuz
Jahreswechsel
Geschichtsschreiber
Angelika
Alster
##če
##sre
fi
Todestag
Randy
##sprozess
##qu
##over
##lta
veralteten
niederösterreichischen
beschädigten
PG
Floß
226
##stände
##slav
zwittrigen
feucht
arme
Ziegeln
1537
##GE
##get
##fro
##burn
venezianischen
faschistischen
Zutritt
Studienreisen
Streich
Rockmusik
Levy
Komet
Kids
##SI
##ustand
##dh
vertraten
Wörth
Wieland
Webseiten
Staumauer
Extrem
##weig
##gold
Retro
Pla
Komponistin
Edison
Anmeldung
massiver
ausgeführte
Zentralkomitees
Organisten
Organisator
IHK
Hauptportal
Conservation
##abzeichen
zutage
gezüchtet
anhaltende
Vereinzelt
Sequenzen
Schriftstellern
##organe
tv
Titelverteidigung
Parlamentarischen
Nomenklatur
Fußballstadion
Berufsschule
229
##staaten
camp
beigetreten
Themas
Reorganisation
Dul
Asa
##asi
fruchtbare
Universiade
Schönborn
Obi
tri
spielenden
investierte
entfalten
Whitney
Reim
Inspektion
##rp
springen
baulich
Zukunfts
Wel
Beschädigungen
##häuschen
langsamen
Turnverein
Stéphane
Mohammad
Mexikos
Kommunalpolitiker
Heuss
Genossenschafts
Entlastung
Def
##urger
##torf
benennen
Streckennetz
Strasse
Mitten
Lüb
Late
Geräusch
Förderpreis
##nale
##ielt
##gua
##gren
##boote
Oriental
Operator
Kasseler
Geburtstags
Bee
Abkehr
1512
##pos
##nac
##irs
passive
fälschlich
Parc
##lem
##aun
befürwortete
Phosphat
Kabine
##ego
befallen
Tiefebene
Schutzpatron
NW
Kuni
Gebot
sport
aufgedeckt
abstieg
Wildnis
Tannen
Tana
Profifußball
Haifa
Garantie
Cu
Angebots
Addition
##uchten
##isierte
##gre
eingelegt
Stü
Maschinengewehr
Kuwait
Hübner
Fla
Blankenburg
Bever
##kamm
##ebel
ärztliche
revolutionäre
lebender
ernannten
aufgestaut
absichtlich
Tone
Stadtentwicklung
gehörige
Unterdessen
Sten
Sejm
Produktionskosten
Kühlung
Gates
Aha
##ßler
##teuerung
##plattform
##inhalt
persische
erhobenen
Relevanz
Kie
gelbliche
Tribüne
[...]
