[PAD]
[EOS]
[UNK]
[CLS]
[SEP]
[MASK]
der
und
die
in
von
den
des
im
mit
##n
wurde
dem
er
ist
##s
das
Die
als
zu
auf
ein
für
eine
sich
war
an
##en
##e
aus
auch
bis
nach
am
Der
bei
einer
zum
##r
sie
durch
werden
einem
sind
nicht
Im
Das
wird
es
In
zur
einen
über
oder
wurden
##t
um
##er
##a
dass
Er
unter
1
Jahr
wie
vor
vom
seiner
sowie
nur
Nach
noch
hatte
seine
Jahre
zwei
aber
Sie
hat
waren
2
eines
ab
zwischen
##es
Jahren
sein
Am
dieser
##o
Es
gegen
Stadt
Zeit
jedoch
##m
seit
ersten
##y
so
3
etwa
##ung
##i
drei
wieder
de
5
of
Als
seinem
##in
##l
mehr
man
seinen
kann
später
diese
Bei
liegt
4
Von
beim
ihre
Ende
Mit
##d
konnte
ihm
erste
heute
Gemeinde
wo
kam
Teil
Mai
haben
bereits
dann
Januar
August
März
Oktober
ihrer
20
##us
dort
Ein
anderen
ihn
September
6
Juni
Diese
US
während
April
Juli
10
Universität
da
erhielt
können
Dezember
beiden
vier
##te
Seit
15
Kirche
ihr
diesem
November
B
000
Deutschland
gab
dessen
gibt
Saison
Eine
##k
Jahrhundert
Berlin
Platz
8
##on
7
18
Mitglied
##ten
alle
Auch
19
m
zurück
Februar
damit
sehr
Auf
16
zusammen
Für
zunächst
keine
deren
ihren
Ort
befindet
12
Namen
Film
##ch
weitere
allem
14
begann
km
9
30
Sohn
worden
13
2010
bekannt
##den
bzw
17
deutschen
steht
ebenfalls
##de
##g
selbst
2011
anderem
Personen
##z
2008
Familie
nahm
2009
St
spielte
was
hier
dabei
statt
denen
##u
0
neuen
gewann
formula
2007
ohne
2012
a
ins
Während
2014
bezeichnet
neue
2015
fünf
gehörte
2006
11
Jahrhunderts
Band
I
2013
25
New
##h
A
erstmals
##ing
immer
deutscher
schon
Ab
trat
ging
Titel
So
The
Seine
Zu
Art
Meter
sondern
gehört
Menschen
erst
einige
##um
Name
Deutschen
führte
sei
seines
2005
Durch
neben
Sein
II
zweiten
besteht
rund
Da
arbeitete
andere
wegen
hatten
z
2016
dieses
studierte
Friedrich
großen
fand
mehrere
ihrem
s
Gruppe
genannt
wenn
2004
allerdings
sollte
diesen
2000
Geschichte
21
Tod
Anfang
##an
weiter
24
##berg
große
soll
u
C
letzten
2017
Kilometer
erfolgte
1945
Gebiet
wobei
the
Unternehmen
gegründet
tätig
##is
nun
Frau
Johann
22
##le
sechs
Karl
viele
Nachdem
##2
Einwohner
Liste
Bis
musste
Zweiten
Mitte
Form
Gebäude
schließlich
USA
100
blieb
##ischen
##chen
deutsche
neu
folgenden
wechselte
2003
Region
Kinder
An
weiteren
##3
Straße
erreichte
übernahm
Vater
jeweils
2001
Land
23
welche
Haus

##1
2002
Bau
Prozent
##A
lang
Bereich
meist
##4
Norden
verwendet
28
##7
König
erhalten
Dabei
führt
Mannschaft
##ng
dazu
Dies
Neben
Mal
Album
d
##5
verschiedenen
S
gewählt
insgesamt
50
entstand
Dort
Leben
and
##el
aufgrund
Rahmen
Tochter
27
darauf
Amt
stand
26
Dorf
##6
2018
Wien
teil
##ner
##sch
Wilhelm
gilt
##au
folgender
##S
Süden
##ne
Dieser
erschien
Millionen
München
##8
U
Jahres
##f
Um
Aus
Einsatz
Stand
insbesondere
finden
##os
Verein
konnten
ließ
##ie
##schen
1999
errichtet
##al
University
Rolle
##mann
##C
Partei
29
John
Beispiel
Hans
erneut
Heinrich
##x
davon
oft
Unter
##ler
Provinz
also
eingesetzt
fast
Richtung
Weltkrieg
Arbeit
Folge
##9
Frankreich
innerhalb
Staaten
Osten
1990
Außerdem
D
Frauen
eigenen
damals
Peter
Musik
York
V
stark
Beginn
Welt
Westen
Seite
##ungen
starb
ca
Gesellschaft
kommt
1998
##G
Paul
kurz
dies
##gen
heutigen
zog
Schule
Paris
Zur
##lich
Spiel
ehemaligen
zweite
je
##dorf
31
Kreis
##ia
##se
muss
Werk
Entwicklung
Höhe
Landkreis
Regierung
##B
##ische
FC
Sitz
Bevölkerung
habe
zahlreiche
Burg
darunter
##ge
gegenüber
findet
##bach
Team
##isch
##na
folgte
Insel
##c
1994
##re
besonders
sowohl
allen
40
1996
Zum
verschiedene
1997
1992
##ach
Bedeutung
weil
beispielsweise
Krieg
lange
##w
Österreich
Serie
danach
sieben
Sommer
doch
Mutter
##or
Mann
1995
Europa
##st
bestand
1991
##sen
teilweise
##P
##ck
veröffentlicht
##at
##ig
französischen
acht
alten
Spieler
meisten
Gemeinden
##0
stellte
hinaus
zudem
lag
Professor
Schloss
Armee
Zwischen
##sche
gehören
lassen
1993
besuchte
Hamburg
Liga
setzte
gemeinsam
Alter
daher
Karriere
zuvor
geht
zehn
##V
##ra
gelang
Maria
geboren
ihnen
befinden
hin
1989
machte
London
Den
Grund
zeigt
##p
##ter
Tag
##land
Strecke
Hier
schrieb
Arten
Wasser
Ziel
häufig
##ll
kamen
möglich
Über
Franz
Buch
eigene
DDR
##K
##as
Mitglieder
sehen
Reihe
amerikanischen
Danach
kleinen
##sten
einigen
Vertrag
Georg
etwas
aller
gleichen
entstanden
Schweiz
genutzt
gründete
##nen
kein
La
##M
Bruder
##L
Betrieb
M
vielen
National
handelt
erreicht
##ion
Kloster
gut
stehen
zwar
##F
West
deutlich
nachdem
Vereinigten
##ka
Saint
##zeit
veröffentlichte
somit
Ersten
County
v
kleine
beide
Bereits
##et
aufgenommen
Chr
Truppen
1933
Preis
1972
Politiker
Nähe
pro
Deutsche
Euro
Ludwig
Weg
Bahnhof
Stelle
Michael
Kaiser
##ur
##rt
lässt
60
direkt
Studium
Bezeichnung
außerdem
1988
folgende
##haus
Raum
ursprünglich
Spielen
Berliner
##ce
letzte
E
Linie
##burg
mehreren
dafür
##é
##and
hinter
1987
##D
1980
Thomas
San
1970
Erfolg
III
liegen
Werke
##ar
erwähnt
kommen
Erst
Besitz
absolvierte
weniger
schloss
Landes
gewesen
##che
##der
entwickelte
stellt
Präsident
1974
Teile
##rs
Fall
Klasse
##ke
ernannt
##b
Theater
1939
Museum
System
1986
1938
##R
Robert
Wahl
Nachfolger
südlich
##heim
e
ganz
1984
1985
Köln
Ihre
Bahn
Martin
##tz
1975
##ow
##rn
welches
erster
selben
Schweizer
##ien
kehrte
Meister
stammt
Kunst
Zudem
League
Familienname
##ta
Sprache
Einwohnern
dar
anschließend
Spiele
größten
##keit
J
Bad
1944
umfasst
1968
Verbindung
mm
h
la
##nd
Damit
Ausbildung
dritten
Siehe
Olympischen
1978
ihres
1969
Dieses
nördlich
Gründung
Begriff
Carl
bildet
1983
1971
Weitere
1973
verheiratet
gebaut
##it
diente
##O
Vor
Gruppen
Johannes
Sieg
1982
Tage
Beim
##ern
Hilfe
T
heiratete
Frankfurt
200
L
Regel
Ortsteil
1979
amerikanischer
##T
1976
hohen
befand
##ns
See
sogar
Joseph
Italien
Wie
500
1946
1960
ebenso
Zuge
Hälfte
##da
##la
ehemalige
damaligen
wenig
Otto
England
##straße
einmal
Bischof
nahe
Länge
Ernst
spielt
weit
##feld
1950
1981
City
Rang
##ei
##ers
Park
##N
ob
größte
benannt
AG
Ehe
britischen
Leiter
Sachsen
Stil
Man
einzige
besitzt
##iert
Institut
Grenze
entwickelt
Schlacht
1967
1977
##ren
Arbeiten
R
1964
##v
##man
K
bevor
französische
fanden
Abschluss
Zahl
Ihr
Herrschaft
späteren
Literatur
müssen
Firma
Leitung
politischen
##E
General
Leipzig
bisher
Nr
Nord
1965
Rom
Zentrum
Wiener
Produktion
Finale
##ert
Anschließend
Aufgrund
Berg
weiterhin
35
Rennen
1966
heraus
Künstler
verbunden
1961
##ton
beträgt
entfernt
Republik
enthält
Christian
Kanton
##ben
GmbH
frühen
##I
wohl
1963
Division
Später
Lage
Männer
cm
1956
1962
Projekt
80
viel
1952
1940
Roman
Kultur
1949
lediglich
1948
International
Fläche
du
deutsch
Basis
##bar
Dr
brachte
Schüler
eher
Fluss
machen
internationalen
Tour
Version
hohe
##len
1941
erreichen
1958
##ation
ausgezeichnet
Akademie
1943
G
Schiff
1942
Heute
wollte
Bayern
H
Mitarbeiter
Hof
neun
Soldaten
sollten
Zwei
Polen
verlor
##ca
Vorsitzender
Dienst
1959
##ingen
führen
David
70
##igen
km²
##erg
Gegensatz
Verfügung
##U
zahlreichen
Trainer
beteiligt
siehe
Gattung
östlich
Baden
1957
ersetzt
Funktion
Schutz
F
Stadtteil
45
Main
P
William
Seiten
##stein
Zeitpunkt
Richard
hauptsächlich
1947
aktiv
Staffel
Weltmeisterschaft
Markt
Anschluss
Familien
westlich
1934
Alexander
Reich
wenige
Vertreter
alte
hielt
1953
gesamte
##ja
sollen
Runde
90
1955
Boden
1936
Eltern
Max
erzielte
1954
Jugend
belegte
##platz
früher
erfolgreich
einzelnen
keinen
nächsten
1920
bilden
1919
Metern
Jean
Meisterschaft
Anzahl
1918
##lle
Hochschule
##ier
##ierung
politische
Fußball
Einfluss
##tal
dadurch
stieg
##ieren
betrug
darüber
N
Dollar
O
##ger
College
##no
n
Hermann
Bild
Alle
vermutlich
eröffnet
würde
Position
Hauptstadt
folgten
besten
mussten
##nt
bald
knapp
##ste
##em
Bürgermeister
gleichzeitig
leicht
Mark
Dresden
##itz
Anlage
1937
1951
Uhr
##gruppe
1935
Unterstützung
James
Hand
lebte
##ige
##th
Kampf
verläuft
daraufhin
Union
Graf
geführt
##liche
übernommen
Turm
will
sogenannten
amerikanische
wiederum
nie
gestellt
W
di
1930
denn
trägt
China
Papst
lebt
indem
Cup
Anna
##son
Spielzeit
Lied
gehörten
Le
##werk
##hof
George
fiel
Bundesliga
beendete
##ts
zuletzt
##hen
Zusammenhang
überwiegend
##W
River
gefunden
Programm
kaum
öffentlichen
erfolgt
##tion
Kopf
ausschließlich
legte
##cht
bietet
vollständig
heutige
Dazu
ehemaliger
jeder
Gymnasium
Hannover
Motor
verließ
Auftrag
##ß
heißt
Verlag
verloren
##ki
Lehrer
Club
gesamten
Wochen
Einige
for
zwölf
bestehen
##ker
Juden
Schauspieler
zerstört
schwer
1914
##lichen
Recht
Jazz
Japan
mindestens
1928
erwarb
Verwendung
##urg
Direktor
Süd
galt
##schaft
Minuten
##tt
Tätigkeit
wuchs
##ort
32
langen
##hausen
lebten
School
Stück
Tor
1929
Wagen
1932
Josef
##ken
Darüber
Herbst
Orte
1970er
großer
##ma
Friedhof
##j
Zusammenarbeit
genommen
Zeitschrift
hoch
##bahn
wirkte
nimmt
Stiftung
entlang
gemacht
leitete
American
Städte
Ost
Monate
welcher
Tal
Umgebung
al
Ländern
Wald
deshalb
erbaut
1900
Daneben
Autor
##bau
durchgeführt
Gold
300
Doch
Polizei
Walter
Obwohl
Daten
Gelände
Russland
selten
Modell
1960er
SPD
Zeitung
Winter
World
Bank
##il
Insgesamt
Verfahren
gleich
##ey
1980er
Stuttgart
leben
Mannschaften
Thema
regelmäßig
Politik
verkauft
Charles
Grafen
Stunden
IV
folgt
Département
##ngen
Nationalmannschaft
Organisation
relativ
##nden
Wappen
seien
weiterer
Herren
Punkte
##ni
zusätzlich
Artikel
##H
Allerdings
1925
##meister
schnell
verliehen
Wert
Kind
katholischen
erstes
Verwaltung
fest
##ut
Abteilung
##ry
Brücke
Wort
südlichen
Schriftsteller
Vom
Straßen
bildete
weitgehend
zeigen
##ya
Beide
##ed
bekam
Laufe
##ze
Halle
startete
1924
Kapelle
Medien
1910
##kirche
Bezirk
europäischen
dient
Song
1990er
erschienen
Zürich
Rhein
X
36
1927
weltweit
gebracht
Großen
Nacht
spielen
anderer
##ss
Möglichkeit
inzwischen
historischen
##am
groß
größere
Staat
Körper
Deutsch
Kurz
##ve
oben
##art
400
##cher
##io
vertreten
Rock
Anteil
Philosophie
65
Geld
34
##li
alt
Los
frei
##ri
Single
größeren
##ein
entdeckt
Opfer
##X
vorhanden
Grand
beginnt
sogenannte
Dem
Kraft
##ine
Chor
Weise
Regie
Führung
stammen
##heit
nichts
Bürger
sodass
dritte
Nordosten
Schon
Größe
##los
##rat
Frage
verfügt
Open
neuer
Maler
Nur
1931
Siedlung
##ang
hervor
1921
Weltmeisterschaften
Co
Start
Heiligen
1923
eingestellt
Text
Schwester
dagegen
geprägt
##Z
De
et
Des
geworden
gerade
Heimat
##mus
wahrscheinlich
Spanien
SS
Weltkriegs
Typ
1926
van
Themen
wichtige
Albert
##tor
rechts
nördlichen
jeweiligen
Wolfgang
##ende
Angaben
1912
Darstellung
gehen
Rat
westlichen
Herzog
Großbritannien
##bereich
ausgetragen
Rudolf
Mittel
berufen
Vereins
Kirchen
Krieges
italienischen
Südwesten
gingen
Stimmen
englischen
##fen
Louis
1922
Air
eingeführt
darin
jährlich
gegeben
betrieben
früheren
Sport
##á
endete
russischen
Radio
produziert
per
##to
bedeutet
Württemberg
38
außerhalb
##que
##me
Tore
Sammlung
stellen
Studien
Viele
Royal
trotz
gebildet
führten
Hessen
##ik
laut
##ich
Quellen
Verlauf
Punkt
Nordwesten
##be
##dt
Ergebnis
75
##lt
Kategorie
Bewegung
setzt
Westfalen
Tiere
Abschnitt
Award
##llen
##enden
TV
Washington
geben
arbeitet
Schweden
Aufgaben
genannten
sah
Fahrzeuge
österreichischen
Sinne
Königreich
Lebens
macht
Vaters
##recht
to
Südosten
fort
Kosten
gewinnen
wäre
United
her
##ismus
Turnier
mehrfach
ha
enthalten
trug
höchsten
hingegen
Adolf
##nde
verlassen
Bremen
könnte
##ling
Festival
beschrieben
jungen
halten
Teilnehmer
Inseln
1913
Wenn
Bildung
unterstützt
sieht
ähnlich
Ortschaft
weist
Bundesstaat
hätte
höchste
Präsidenten
Noch
Macht
entspricht
Grundlage
Objekte
Fenster
wenigen
42
Zug
aufgelöst
bekannten
Frank
zählt
##ō
solche
37
außer
Frühjahr
##eren
##form
Königs
Vergleich
Druck
gleichnamigen
Ehefrau
Star
33
Musiker
Anton
44
##he
Ungarn
zugleich
l
##men
obwohl
Top
Teilen
##ster
dahin
versuchte
wichtigsten
1911
standen
Gut
internationale
Wegen
Aufnahme
##inger
Laut
Person
Aufgabe
Bücher
Schulen
1000
Bach
##ko
Bonn
Bahnstrecke
Punkten
Zentimeter
Kreuz
##ville
neues
Industrie
##ro
##schule
hergestellt
k
Architekten
t
Folgen
erweitert
Forschung
##pe
1950er
##aus
Silber
lief
##ale
##ee
##mer
versucht
##ium
##ell
Drei
Abitur
allein
Fußballspieler
gegründeten
Natur
Andreas
katholische
##raum
55
##traße
##ls
1905
Energie
##id
Weltkrieges
##see
erhielten
Düsseldorf
Landwirtschaft
Fritz
umbenannt
1907
mittels
nahmen
Ebene
ich
1917
Schiffe
offiziell
Hotel
##agen
Kindern
##innen
Gesetz
britische
elf
Marine
Villa
Island
gelegenen
Sowjetunion
1908
Münster
CDU
Pflanzen
Kontakt
Gründen
weiteres
##ff
geschlossen
verbreitet
Films
gespielt
##ad
erscheint
zeigte
Rückkehr
bestimmt
##wagen
Weiteren
Einführung
PS
Station
Philipp
Standort
bestritt
beschäftigt
i
älteste
weiß
Orgel
Länder
Fuß
Waffen
##ina
eingerichtet
nehmen
Licht
Autoren
Moskau
Leistung
##weg
Interesse
Söhne
##ons
breit
##ann
Brandenburg
dargestellt
WM
bekannte
48
##sse
SC
erklärt
Kritik
##ek
Elisabeth
##ol
Ortes
arbeiten
Sprachen
entsprechend
Erde
linken
verantwortlich
Aufbau
Technik
Rand
##va
zuerst
Nicht
Häuser
oberen
kg
Brand
Teams
Lauf
Augen
64
Prozess
Richter
Jan
tragen
Gegen
Werner
1906
##ft
##und
Sänger
39
##ga
besaß
All
römischen
Medizin
##co
links
kleiner
hinzu
angeboten
zählen
Gott
Luft
Preußen
EU
##system
Flughafen
Stein
##zen
Marie
Studenten
##eim
Holz
vierten
Durchmesser
del
##ley
junge
wodurch
Maschinen
Fahrzeug
##arten
Hamburger
##ys
Veröffentlichung
Z
Unternehmens
##za
##ny
gezeigt
Niederlage
bestimmten
##gebiet
State
43
Records
unterschiedlichen
unmittelbar
##punkt
blieben
Bilder
##ant
Super
jüdischen
##uch
1909
Zusammen
##ot
South
##ha
##ber
Auswahl
##ens
Trotz
North
Hafen
##ist
Mädchen
Reise
beste
CD
Ausgabe
bringen
1904
##ierte
Brüder
##nis
Müller
en
Material
##zentrum
errichtete
Grab
übertragen
östlichen
nieder
Zeichen
Freund
Australien
##ski
kurze
##ard
zunehmend
Architektur
französischer
Kanada
150
Wirkung
verlegt
Erzbischof
Aufstieg
##ssen
##ht
Alfred
Debüt
ebenda
##nn
##all
Nutzung
Meer
nominiert
Ferdinand
##dienst
Hektar
52
früh
Gustav
Regisseur
besitzen
##hn
jetzt
angelegt
Schauspielerin
1915
##orf
Nürnberg
Auflösung
stets
ganze
Verband
##sa
Lieder
Lager
tritt
Revolution
Wettbewerb
Europäischen
Nummer
Formel
Parlament
Spitze
Hockey
##eld
vertrat
belegt
##wald
##rd
Pfalz
Formen
rechten
verfasste
##lage
geschaffen
120
fließt
Liebe
Tradition
Einheit
Hall
##eit
Öffentlichkeit
bezeichnete
Bauern
##rg
Bewohner
gelten
Filme
genau
##ius
Ritter
##des
hält
jede
##sdorf
Deutschlands
Henry
Figuren
Wechsel
##wa
##ba
namens
dienen
Ich
##les
49
Pfarrer
46
Eisenbahn
##ly
mal
Probleme
##tte
Dadurch
##je
bleibt
gehalten
Kommission
Daniel
Internationalen
##reich
eigentlich
Rest
1903
##amt
zweimal
51
SV
Angeles
bestimmte
Alten
verstarb
Wirtschaft
Struktur
##tein
traf
Post
nahezu
Mittelalter
##iger
##ser
erstreckt
Garten
##technik
römisch
##ir
##ln
kleinere
Aber
Boot
##un
zugeordnet
Informationen
##í
Sieger
Ausnahme
Company
Freiburg
1916
47
werde
gewonnen
entweder
##hr
erklärte
daran
Mio
2019
mittlerweile
##gesellschaft
Netz
polnischen
##ay
Feld
geschrieben
erkennen
Parteien
Theologie
modernen
Fernsehen
Prag
##ent
Linien
##isten
Leistungen
preußischen
Rechte
Christoph
entschied
verkaufte
41
##hi
Sicht
Schrift
##är
Plan
unterschiedliche
1902
Fakultät
Situation
Donau
nationalen
begonnen
sur
NS
Abs
Zeiten
Tode
Qualifikation
Konzept
ungefähr
historische
on
Kongress
Gebiete
##anlage
Regiment
Groß
Klaus
Kalifornien
##do
##kreis
benutzt
1848
##ti
1901
Züge
unterhalb
Vier
öffentliche
Besitzer
##gt
seitdem
baute
Hintergrund
##lo
bleiben
House
wesentlich
Pfarrkirche
Standard
Kurt
Theorie
würden
Ufer
gelegene
Music
##weise
jedes
Chemie
vorwiegend
gegründete
Red
spätere
völlig
##bel
Strecken
spielten
Besetzung
Metal
600
Einheiten
Kiel
übrigen
unteren
Große
1899
aufgestellt
Landtag
jedem
erhoben
Neuen
##ug
Laufbahn
Teilnahme
Chicago
Städten
Daher
Ehren
ursprünglichen
Presse
umfasste
##age
Schwerpunkt
##band
Neubau
Minister
Museums
Millimeter
zuständig
Wahlkreis
besondere
Mitgliedern
recht
ausgestattet
ehe
begannen
##ld
Ergebnisse
##her
Video
##end
promoviert
Herstellung
Küste
Bern
Tagen
Internet
Ring
##J
Verhältnis
Bezug
##mt
##ität
##of
##zug
Software
Quelle
besser
Szene
starken
Beziehungen
wir
Ausstellung
teils
japanischen
älteren
El
1898
gemeinsamen
Junioren
Gleichzeitig
Besuch
Status
High
Stellung
##lin
aufgeführt
schied
Je
Zunächst
Lehre
Anwendung
gesehen
Grafschaft
Tonnen
le
angegeben
1890
Heidelberg
Stadion
53
besetzt
spricht
eröffnete
Förderung
Charakter
Dach
##ment
Güter
##unternehmen
Amtszeit
Arbeiter
abgeschlossen
Sankt
verbrachte
gute
zweiter
Essen
kurzen
Flucht
Untersuchungen
Hersteller
Bernhard
Theodor
verschiedener
Society
Elemente
54
Black
späten
##per
Infanterie
Lake
kennen
erhält
Figur
##ham
mündet
##ven
Indien
##zer
##ag
Nordrhein
beziehungsweise
Klein
dortigen
Angriff
Pro
Gegner
einzigen
alles
Stern
Basel
800
##fe
Auto
Ausland
Rot
00
unterscheiden
Heinz
geplant
##ana
##tten
Songs
Show
Flügel
##tag
Chef
Fischer
Gericht
Werken
Erfolge
Klosters
Pierre
Santa
vorher
bislang
Mainz
spanischen
1896
griechischen
1895
##tischen
Entscheidung
##verein
fuhr
grenzt
promovierte
Sender
##go
gar
56
Satz
##piel
Ebenfalls
Original
Aufnahmen
##ms
hätten
Fahrer
schuf
1870
beschreibt
##stadt
Handel
Mexiko
entlassen
Fragen
Universitäten
o
##ring
urkundlich
Rheinland
Daraufhin
erinnert
Schleswig
##we
##ystem
Braunschweig
##hl
##chule
versehen
aufgebaut
##ue
85
Van
1897
Mehrheit
unten
Charts
Don
Blüten
betrachtet
Ruf
südwestlich
Herkunft
##cke
Versuch
Zustand
parallel
Bronze
zählte
##betrieb
##uf
Kern
Bistum
1871
Herz
##ischer
südöstlich
Vereinigung
Fach
Klub
Arrondissement
Großteil
wissenschaftlichen
Komponist
##ae
Erste
Arzt
Alben
Zeitraum
Feuer
Verfassung
Front
Roten
Weibchen
##mittel
Nachfolge
österreichischer
##erung
getrennt
verurteilt
hoher
ältesten
Jakob
Live
Königin
schweren
Bundesrepublik
62
fällt
##res
damalige
wissenschaftliche
g
Einzel
Patienten
einzelne
Einrichtung
gesetzt
angesehen
Zuschauer
derzeit
vorgesehen
250
##port
Krankenhaus
Tages
Mauer
Fällen
Gottes
57
Holstein
nannte
Studio
Breite
##nk
##cken
Wolf
##scher
Idee
Kontrolle
95
Abgeordneter
nordwestlich
##ou
einfach
##ty
geborene
Kunden
ganzen
öffentlich
international
Ordnung
Errichtung
##raße
Gegend
71
befördert
Praxis
##ordnung
Gipfel
130
##ice
Beziehung
gelegentlich
nordöstlich
##atz
Fort
##leiter
wollen
##tes
##pa
##elle
Bund
Umwelt
##ierten
Türkei
Weiß
Militär
Monaten
Kammer
berichtet
58
##im
Kanal
großes
geb
Altar
Gemeindegebiet
##gruppen
Vorgänger
Oberliga
Halbfinale
Brief
Wissenschaften
traten
entsteht
darf
Regionen
Oper
Institute
Schriften
Denkmal
Priester
miteinander
##ica
Zugang
eigenes
Weltcup
zeitweise
##ic
starke
Label
Arts
Alt
Bestandteil
lernte
Association
Flächen
Bay
1850
endgültig
ermöglicht
##nitz
ernannte
1893
##smus
##one
##führer
Transport
nennt
Best
Wahlen
##ks
könne
63
allgemein
Rollen
Halbinsel
entstehen
Dänemark
erreichten
Salzburg
möglicherweise
Strom
1880
gemeinsame
Sendung
Landschaft
Vorbild
Ausbau
handelte
Ordens
existiert
1930er
Dann
##lla
##verkehr
Anlagen
##witz
existieren
Paar
##linie
reicht
Gerhard
Filmen
61
Alpen
Göttingen
##ogen
Wissenschaft
schwedischen
verpflichtet
anfangs
##verfahren
einschließlich
Schluss
klassischen
Stellen
Bord
Besonders
72
##fer
##icht
Neue
##wasser
einst
leitet
Dom
Ulrich
Gouverneur
ergibt
Bayerischen
Selbst
##arbeiten
##eite
Orden
##mi
##wert
engl
Besucher
Les
Verkehr
##brücke
mittleren
Schmidt
Problem
1892
mehrerer
Simon
##pen
vergeben
verbindet
Vereine
verhindern
Auflage
Belgien
Academy
Gewalt
Konzert
Neu
Einwohnerzahl
##ky
##ul
erlangte
Zusätzlich
benachbarten
Pokal
Tom
Bibliothek
Bundes
Repräsentantenhaus
Orchester
Kriegsende
66
Sand
errichten
British
Träger
angenommen
##lichkeit
fertiggestellt
Tempel
löste
sofort
Europameisterschaft
1885
untergebracht
Texte
gekommen
96
##ies
##sel
Ausdruck
59
Kölner
##ý
##reis
hieß
1894
sprach
Mac
Maßnahmen
vorbei
Weiterhin
kleineren
bestätigt
##preis
Y
##cker
##halle
bisherigen
##aum
Untersuchung
Mathematik
Zahlen
schlug
Variante
Mensch
Gebieten
weder
nationale
Eis
Einen
##mar
99
guten
##industrie
Konrad
geriet
englische
1888
Nachbargemeinden
manchmal
Frankfurter
Schließlich
Funktionen
Hauses
Initiative
weisen
Julius
sowjetischen
1889
Ortschaften
##lager
befanden
scheiterte
Generation
68
Tier
Sturm
Flugzeug
##ino
NSDAP
italienische
Farben
Autobahn
stammte
Gefängnis
unabhängig
Zweck
benannte
gemäß
scheint
##thal
ursprüngliche
Gründer
Volkszählung
höher
widmete
zumeist
##ai
##rin
Woche
Volk
produzierte
rot
Partner
inne
##di
VI
zumindest
Architekt
Tanz
Widerstand
Rio
Behandlung
Ursprünglich
Route
Einrichtungen
Eduard
dennoch
##ji
bestehenden
österreichische
Rechts
schwarz
Ton
komplett
##erte
Abend
##ellen
jeden
genannte
politisch
Sicherheit
Kommando
verwendete
Football
1891
Streit
Phase
russische
Morgen
Produkte
einiger
Center
Instituts
Wunsch
##ver
Männchen
schaffte
Brasilien
daraus
getötet
entsprechenden
gestaltet
bot
##uer
sozialen
Publikum
Joachim
140
Group
höheren
Meisterschaften
67
freien
ausgeführt
Afrika
Klavier
Namens
##tische
1860
klar
Adam
Dennoch
Val
Menge
Blut
anders
76
tatsächlich
##by
Grad
eng
do
Orten
überhaupt
Rede
##ahn
Veranstaltungen
klein
##eck
##eg
Historiker
uns
Kamera
##nberg
1874
##auer
Spiegel
98
außen
Lee
No
Israel
Computer
Farbe
oberhalb
Kader
Aktivitäten
britischer
Design
##isierung
Spielklasse
Gas
Eröffnung
Diplom
##kt
Bedingungen
1866
stellvertretender
Wege
Gemälde
##gebäude
##ate
Vielzahl
##ian
##rer
Schwarz
versetzt
Physik
Dauer
notwendig
Party
Street
Und
Science
Fürsten
Pop
King
Online
dt
Angebot
##stelle
Stahl
81
Ebenso
nächste
Rücken
##hren
jüdische
92
offiziellen
Senat
Arthur
Behörden
##nte
Klassen
Verbindungen
##uss
Gewinn
Frieden
Bereichen
zufolge
Karten
Big
Pflege
Viertel
Erich
##verband
treten
ehemals
1875
##geschichte
##buch
##auf
Herausgeber
umgebaut
Dorfes
Gemeinschaft
##ere
offizielle
Ball
Hill
77
##si
##q
bildeten
SA
fünften
##nischen
##ds
Modelle
umgeben
ausgebaut
Rathaus
gelangte
Grenzen
erscheinen
##bare
Klima
1867
##gel
1879
Master
Mühle
##ßen
Dichter
unterlag
Reste
1920er
88
erzählt
Handlung
Verhalten
Management
Führer
desselben
Fest
Entwurf
93
##holz
1887
Anhänger
weshalb
##führung
Herbert
unterscheidet
bestanden
##alen
##fabrik
trifft
##ez
Dörfer
geweiht
##markt
unterstützte
Sinn
##gs
##án
Einer
Vergangenheit
##spiel
Metall
##zahl
Drittel
endet
1872
Play
Kino
Anerkennung
höhere
Reiches
Münchner
##yn
Hause
Künste
Deutscher
1886
organisiert
feierte
##lauf
##ose
Firmen
Distrikt
offen
##wesen
Büro
Suche
Etwa
Lösung
Love
Interessen
Operation
##häuser
Naturschutzgebiet
##ón
Gang
##ide
Smith
##adt
1884
Eigenschaften
Flug
Thüringen
dürfen
Portugal
Blick
Mecklenburg
nämlich
sagte
nutzen
##lagen
verhaftet
##ans
Bass
Monat
heiligen
Wind
Altstadt
##träger
Vorstand
78
##ov
eingegliedert
Denkmalschutz
Personal
Posten
entsprechende
Al
zentralen
Green
82
##gang
all
##ps
##cal
technischen
1868
Abstand
Eisen
Nationalsozialismus
Toten
Magdeburg
1873
zogen
1500
Tunnel
weißen
kaufte
Festung
##eis
basiert
chinesischen
beigesetzt
States
Niedersachsen
schwere
Serien
Edward
bieten
Test
Bob
##ford
Reserve
##igkeit
##chaft
Würzburg
##ule
Mary
125
##theorie
ließen
militärischen
Kassel
74
Keller
##ges
wichtigen
##organisation
Anhalt
brach
69
Was
1882
##bild
beschäftigte
Freien
East
##š
nachgewiesen
1881
My
Bühne
Norwegen
privaten
Andere
##rennen
Stamm
##höhe
deutschsprachigen
solchen
erhöht
##gesetz
wirtschaftlichen
Sängerin
Produkt
Bildhauer
José
Gestaltung
niederländischen
Insbesondere
Pfarrei
##teil
Francisco
hierbei
##mühle
Heer
##om
mittlere
schreibt
Glas
##arbeit
Journalist
lehrte
Staates
sicher
Methode
Jürgen
Reaktion
Übernahme
beschlossen
behandelt
Sir
ermöglichen
liegenden
1878
Aachen
##jahr
Verkauf
verfügte
##ins
Zukunft
##nz
##gi
Neustadt
lokalen
Service
debütierte
Allgemeinen
Pferde
Beispiele
##ini
##film
Kommandeur
folgen
Niederlande
##erk
##ó
Internationale
Herr
##zeichen
Stefan
Jungen
09
##rten
verstärkt
Prinzip
Entfernung
erworben
Straßenbahn
möglichst
110
##est
jener
Long
##zi
Haft
##familie
Gast
Graz
Tat
anhand
beendet
schließt
engagierte
ausgestrahlt
Erwähnung
Verbreitung
bestehende
1883
fungierte
Unterschied
bezieht
Beruf
Hitler
Datum
lautet
Haut
Gefahr
Bühnen
zentrale
Organisationen
700
Bands
bedeutende
Magazin
wirtschaftliche
frühere
Ersatz
97
Wesentlichen
1815
Baum
eigener
Erfahrungen
Wehrmacht
Franzosen
Jagd
aktiven
größer
1876
Rundfunk
fortan
Major
Texas
##irche
1861
91
Nachrichten
04
Siegen
womit
##bo
Krone
73
05
Töchter
breiten
moderne
Doppel
Amerika
abgerissen
Werte
Albrecht
Basketball
Marke
Unternehmer
##turm
84
Franken
Gewicht
Wand
Tübingen
lagen
Übersetzung
Oscar
Brücken
##titel
##nger
86
anlässlich
Auszeichnung
##ín
##tät
Kombination
Höhen
Ben
bekanntesten
Corps
94
kW
Pläne
entgegen
fallen
Nationen
beschloss
##programm
holte
##rk
79
Vogel
##ron
Anti
##politik
Stücke
1869
Prinz
##wo
üblich
War
89
Anspruch
Solo
Gemeinsam
Kurs
1864
##leben
definiert
Mission
Regionalliga
seither
Freiheit
##kraft
Gesang
##fläche
1865
87
Jack
##han
Waren
##iden
Hugo
##mo
Ferner
You
1862
Temperatur
##ī
##liste
Geist
infolge
##ions
Wein
Botschafter
Komponisten
08
Konflikt
Entstehung
##rung
##so
##ild
solcher
gelegt
##anlagen
##tisch
##rand
b
Niederlanden
##ak
1849
Existenz
Boston
Sprecher
Anne
Drehbuch
Bill
Umbau
Abgeordneten
Register
Methoden
Bronzemedaille
##sk
Ukraine
##rie
Studie
Offizier
Engagement
Zoll
##ehen
durfte
ältere
soziale
##rad
##elt
übernehmen
Medaille
angebracht
Plätze
##kel
Fünf
Kandidaten
Europas
Leopold
##ong
##netz
stärker
gewannen
Stimme
83
France
offenen
Assistent
zusätzliche
##erie
Amsterdam
bereit
1877
Wall
verändert
Wohnung
##ara
begrenzt
##rte
Karlsruhe
Wende
##werke
forderte
Mehr
##ore
Unabhängigkeit
Augsburg
militärische
zieht
eigenständige
##baren
ziehen
Ruhestand
Venedig
Konzerte
Hauptrolle
Oberfläche
Erweiterung
##kammer
##lis
##tadt
##blatt
Weltmeister
Brown
Technischen
Ereignisse
begleitet
Aussage
traditionellen
staatlichen
länger
benötigt
Ägypten
Mord
##field
erfolgten
erlaubt
Kabinett
Veränderungen
##forschung
Me
schließen
hören
verboten
White
##nten
Griechenland
Bekannt
vierte
Sekunden
betreibt
Bezirks
##ire
##berger
Bericht
treffen
Objekt
betrieb
Darmstadt
Wer
Herrscher
Milliarden
Damen
Meinung
unterteilt
Eingang
AS
##park
##tis
zweier
Englisch
Expedition
festgelegt
KZ
##ums
##ano
unterschieden
##oren
Platten
##wahl
Funde
eingeweiht
Geschäftsführer
##tand
##ene
errichteten
##musik
##fall
Systems
##nder
beeinflusst
Jena
##ani
erfolgreichen
Leichtathletik
Kantons
Motoren
angeschlossen
Qualität
Rose
##ux
Grün
zugänglich
Hügel
##sh
##kopf
##ac
##ark
Inschrift
gleiche
Code
##ete
y
Abt
evangelischen
besonderen
Fisch
anerkannt
unterschiedlich
##leistung
Europameisterschaften
Real
mehrmals
sonst
Ziele
Eigentümer
Williams
Fraktion
Sebastian
Lübeck
Gebäudes
entwickelten
##tum
##ufen
Bachelor
wichtiger
Tourismus
Berge
##gemeinde
##nge
wichtigste
etc
bringt
1800
Mount
direkte
Exemplare
##ald
Athen
Auftritt
##ller
Umfang
Bereiche
Beschreibung
Unterricht
Fürst
stellten
speziell
eins
Leo
##onen
Hierbei
Löwen
ums
Baureihe
##druck
##urm
1863
##iv
veröffentlichten
aufgegeben
Schneider
Not
Weil
Nationalsozialisten
reiste
##leitung
vorgestellt
##fahrt
Spieltag
Mündung
jährigen
Western
Forst
Archiv
übersetzt
Beiträge
Renaissance
Freunde
##öl
tief
beider
Nikolaus
ergeben
allgemeinen
Earl
##ichen
Kriegs
Premierminister
##del
Möglichkeiten
##gut
##direktor
c
breite
Minute
Malerei
Herzogtum
Dortmund
Somit
Verhandlungen
Bus
Mannheim
##ände
Wild
Antonio
Fernsehserie
Stadtgebiet
##stand
hundert
Helmut
Emil
aktuellen
##bewegung
Samen
Fassung
Feuerwehr
Columbia
Pass
private
##ise
Kreises
Rumänien
Alte
Wissenschaftler
verlängert
##kampf
at
entwickeln
Nun
übergeben
Lokomotiven
ausgebildet
Joe
Free
Trennung
##formen
freie
gelangen
Pariser
Ruhr
Höhepunkt
Blues
Arnold
Verkehrs
gedreht
führenden
langer
darstellt
Erhebung
staatliche
Geburt
##rei
Amts
christlichen
wiederholt
könnten
Brunnen
##produktion
schaffen
Blatt
Rostock
##unden
Ensemble
Jung
letztlich
Innenstadt
Stock
Konkurrenz
Schritt
italienischer
Wärme
Eishockey
Dynastie
Heide
Krankheit
##jo
Sonne
erheblich
geringen
Dissertation
Ansicht
07
Berater
Instrument
Baron
##cha
Geräte
Staats
Öl
maximal
##od
Rücktritt
##ea
##su
Kardinal
Lebensmittel
Ob
Übergang
Verlust
Bundesstraße
##wechsel
##dy
##ock
ergänzt
Ideen
halb
gefangen
Säulen
Line
Anders
erfolgen
Bestand
änderte
Zwar
evangelische
getragen
Madrid
Seinen
##pf
Zimmer
Fehler
Fahrt
Flotte
Heimatstadt
Ali
Promotion
Panzer
geblieben
##are
##horn
Bogen
##logie
Irland
andererseits
voll
sprechen
##ci
setzen
##ab
UN
Projekte
##chte
Besatzung
It
dänischen
verteilt
##ula
technische
Reihen
Verlängerung
Fabrik
diverse
1856
gelegen
##bildung
##haft
Blau
europäische
Ingenieur
beteiligte
##sport
Dieter
1840
Q
machten
##ial
##iel
Virginia
überliefert
Planung
Kilometern
Kirchengemeinde
##lli
Block
Falle
Breslau
gaben
Gestalt
Heeres
Ski
##ble
einfachen
Horst
01
Jacob
reichen
##züge
Hart
p
Anwesen
Bibel
Kupfer
1806
bedeutendsten
ähnliche
##ola
One
##lan
gezählt
EM
eingemeindet
##gung
Jura
Glocken
Juan
Ortsteile
beschädigt
##ure
##ho
Parallel
Oberst
Szenen
beobachtet
Kohle
Lang
##orn
kanadischen
einerseits
Weißen
offenbar
Port
NHL
##lz
Jedoch
Maschine
Bucht
unterstellt
Matthias
Central
bekommen
1859
##latz
Monte
Kinos
Umsetzung
##ain
Prix
nunmehr
Tschechien
Mittelpunkt
Mond
Koch
##chi
Lehrstuhl
##plan
Lizenz
unterstützen
Sandstein
städtischen
stattdessen
türkischen
EP
Bundeswehr
Nationalpark
##namen
##verwaltung
Reformation
umgewandelt
Zeitschriften
eigentliche
größtenteils
Witwe
unternahm
m²
Südafrika
Innerhalb
Deshalb
Rechtsanwalt
Michel
Scott
Partien
##yl
Messe
Wetter
##gasse
vertrieben
Blue
Mailand
##unde
IC
##up
gezogen
##aten
unterschrieb
##els
abgelöst
Nordamerika
Lord
dreimal
Opern
Florida
135
##vertrag
Wiederaufbau
##nes
Verteidigung
Spitzen
##vo
Barbara
eigentlichen
DM
Papier
##barkeit
schwarzen
Kauf
Verwaltungs
Systeme
Jerusalem
fielen
wandte
Schild
erlebte
DVD
Ehemann
nennen
##nahme
Religion
Jahrzehnten
organisierte
Ur
Landgemeinde
##spieler
siegte
Navy
Force
##ère
AC
geschlagen
##baum
##tel
Küsten
##sis
Seitdem
##bert
##ette
rein
Karte
Artillerie
Muster
nutzte
möglichen
##aal
Gottfried
Kollegen
untersucht
Beteiligung
Bergen
entschieden
Ursprung
erforderlich
Gebrauch
maßgeblich
Steuer
täglich
jüngeren
Saisonende
##klasse
geringe
aufgeteilt
Barcelona
Gewerbe
Harry
diesmal
wissenschaftlicher
Nachwuchs
zugelassen
##wand
Ex
Typs
Viertelfinale
##Y
##ausen
Regeln
Plänen
Gemeinderat
Bergbau
##kommen
François
Uni
Fernseh
##tta
Sprint
##sberg
##lehre
gründeten
Runden
hinein
Woiwodschaft
einfache
wirkt
gesprochen
Manager
Grünen
Tür
Christen
Unfall
vorhandenen
Exil
Hinter
Männern
Wissen
Korps
##ührung
##rf
Hit
##cy
Risiko
Albums
Ausstellungen
Rad
Christus
##nau
Gitarre
##rich
##lehrer
vermutet
Bauwerk
Marx
1803
##ringen
##las
##ria
beschrieb
Seen
##nische
tun
Rektor
Carolina
##bt
Rund
##esen
##way
##ok
sorgte
Schnee
Ford
verletzt
##funktion
integriert
Il
wollten
Blätter
Victoria
##museum
1830
Urkunde
1854
Knochen
Landkreises
liegende
Ausstattung
##eten
Parlaments
Wir
Kap
Erstmals
vieler
Rekord
Geschwindigkeit
##ata
##tsch
Bauten
##anstalt
unterrichtete
Sees
Oblast
derselben
Karls
Wirtschafts
Schwierigkeiten
Dan
Kaisers
Abtei
Analyse
unbekannt
Jones
ermittelt
Todes
Horn
128
polnische
1857
Veröffentlichungen
gefördert
ja
entspringt
voneinander
##zo
Weiler
ans
Elbe
1852
1855
Ist
##pel
06
aktive
##hin
kurzer
geleitet
Kapitän
Treffer
reduziert
Hin
##ura
##iten
Aktion
Verdienste
##rechte
Moritz
##daten
##licher
Oder
Schlüssel
hierfür
##sierung
Spuren
##motor
japanische
usw
##ye
##tin
Betriebs
##länge
Ober
fahren
Doktor
roten
##reihe
zusammengefasst
Inneren
Hohen
direkten
##nia
umfangreiche
##lar
Fassade
Iran
Stationen
Reform
##eln
geändert
##lingen
näher
Meyer
1858
spezielle
erfolgreiche
##mel
bauen
Kapital
allgemeine
Potsdam
##zone
Du
Eroberung
verwendeten
Bahnhofs
Felsen
Go
Winkel
Moor
##ät
##schutz
Provinzen
meistens
##chten
##ord
##ats
Leipziger
##über
dienten
Auftritte
ausgewiesen
Signal
Hinzu
Streitkräfte
bedient
Rechtswissenschaften
Zerstörung
Erster
Wagner
errang
Jurist
elektrische
##stellen
Saale
Gletscher
Lange
Onkel
jährige
nochmals
Massachusetts
ad
langsam
eingebaut
##gg
##bank
Innsbruck
bayerischen
##lag
Silbermedaille
zugunsten
Francis
##fest
Road
Begriffsklärung
Up
##nie
##wer
##alten
englisch
Schach
##tan
finanziellen
Haltung
Vize
Jäger
örtlichen
entdeckte
grundsätzlich
##old
Kräfte
##vi
Victor
##biet
verzeichnet
Charlotte
Kindheit
Anlass
Sekretär
##chs
PC
##yer
sichtbar
gefertigt
Fels
Bruch
Masse
##tzen
wählte
##erin
sämtliche
##garten
Kritiker
##ngs
anti
##ah
abhängig
engagiert
na
Ernennung
##förmig
131
Regensburg
Wohn
Samuel
Sun
Anbau
##abteilung
Versionen
erzeugt
datiert
Symbol
##ud
Trier
##tti
##rum
Golf
Fleisch
##ari
Wiesen
Tiefe
Ausbruch
besucht
äußeren
Schwestern
##eben
##anz
gezwungen
Rosen
Luxemburg
##tus
##gau
lehnte
Wo
verlief
Linz
##acht
kleines
##kirchen
Wales
Handels
Königsberg
##off
##lose
Act
Gewässer
Weser
Mengen
Schwanz
3000
Synagoge
Klang
Friedens
Young
1845
ermordet
Bier
durchsetzen
Kapitel
Fusion
Loch
anschließenden
Castle
##änge
##eil
Marburg
Verbreitungsgebiet
Schottland
1813
##ings
Aufmerksamkeit
durchschnittliche
Ohio
sang
Wilhelms
wies
1851
145
möchte
Weber
Bruno
Jesu
Österreichischen
wächst
##kreuz
Beitrag
natürliche
kritisiert
Olympia
positiv
erhaltene
Siedlungen
Flusses
Erscheinung
mögliche
Zellen
menschlichen
Hals
Fund
Einstellung
aktuelle
Südwest
persönlichen
USD
##con
Konstruktion
Ausgaben
##bus
abgelehnt
Jacques
Änderungen
qualifizierte
Mike
Petersburg
erbaute
sicherte
Ö
Hauptort
umgesetzt
Zuvor
Werks
stehenden
erhältlich
##enberg
Wohnhaus
Französischen
Engel
##dach
1847
Versorgung
##aut
Argentinien
Umfeld
Funk
restlichen
##flächen
Geschäfts
Regional
Zusatz
Produzent
Luther
Erfurt
Toren
Treffen
Varianten
Premiere
Katharina
Aussagen
bedeutenden
Infrastruktur
darstellen
Old
FDP
Strukturen
1846
ausgestellt
Henri
Gemarkung
Studiums
##latt
Tabelle
Europäische
Dietrich
Galerie
Schiffs
Privat
##ionen
##gh
##og
Sam
verwenden
Goldmedaille
##ologie
##ł
##weiler
Reichs
Felix
End
erstellt
sechsten
dürfte
##bi
Abkürzung
Ray
Bischofs
geplante
##ney
Li
May
inneren
##losen
##chor
gestorben
##material
Alters
Vorsitzenden
Geschichten
kämpfte
Kaufmann
angeblich
Forschungs
Auseinandersetzungen
1816
##zel
Budapest
Durchbruch
australischen
Hagen
Zentral
gestaltete
läuft
Streifen
Gesetzes
Verleihung
Gleis
##hal
üblichen
Komposition
Befehl
Ross
Heim
Abstieg
##iner
Box
Research
Justiz
##ě
Strand
mittelalterlichen
eingetragen
##pp
1853
Fertigstellung
1818
Mont
englischer
Veranstaltung
##po
Chi
Hang
GT
keiner
Renn
Christi
bekleidete
##assen
Takt
Stoff
aufmerksam
herausgegeben
##kow
römische
Rote
Schnitt
Dienste
##mmer
142
##welt
weiße
Meistertitel
natürlichen
##gewicht
Orts
Österreichs
André
Reisen
Labor
Highway
geplanten
##äuser
##möglichkeiten
Liter
European
##ane
besiedelt
129
präsentiert
Amateur
Becken
03
Warschau
Media
Austausch
Finanz
Jackson
beschränkt
Gen
bezogen
121
beginnen
bewusst
brachten
Handball
##ć
1814
Kathedrale
##richtung
##erten
Maximilian
Betriebe
CA
Chile
Spiels
Schicht
Finnland
zweites
richtete
CO
##ofen
antiken
138
bestehend
Ch
ungarischen
Per
durchaus
Weiter
westliche
Persönlichkeiten
Römer
##kehr
angeordnet
Army
Sound
geeignet
##mm
##llo
##cs
Neckar
Volksschule
Sprung
Flugzeuge
schützen
First
Auseinandersetzung
Positionen
Hollywood
aufgehoben
umstritten
Roth
Dur
##ors
Brigade
festgestellt
Is
längere
ermöglichte
ausgeschlossen
Jahrzehnte
Schacht
Mc
Evangelischen
lebenden
Kopenhagen
innen
welchem
##use
Enkel
Council
Indianer
##lter
Kommunikation
Werft
Tennis
Marc
126
##punkte
verfolgt
berichtete
##sst
Pennsylvania
Islam
##wood
Abstammung
##nummer
Maß
Räume
Mittelmeer
Vorsitzende
Life
Anforderungen
Spielfilm
lokale
Power
##reichen
##prüfung
##räume
leistete
ausgewählt
weibliche
##rm
Folgende
Schäden
##ieg
Davis
##min
##kommission
Oldenburg
##tik
##enz
Gedichte
Zusammenschluss
Mess
Jesus
Gedanken
kündigte
##tar
Stockholm
äußerst
manchen
Schützen
Sektion
berücksichtigt
132
Änderung
##itsch
Ä
123
Künstlern
Urteil
Bit
ferner
südliche
Folgezeit
Regiments
saß
Neuseeland
133
herum
Schauspiel
Böhmen
beauftragt
gekennzeichnet
Johnson
Sitze
Alkohol
Glaubens
Eberhard
##ā
##ela
Himmel
Barock
Stab
##aben
spanische
Stephan
Rohr
Fortsetzung
Botschaft
##ras
Darstellungen
Vorder
daneben
Istanbul
Jim
Beste
Mode
Amerikaner
##inen
getroffen
gefärbt
Weimar
Beton
Glauben
min
##ø
##ec
136
##chef
Ausführung
nördliche
begründete
Salz
Dresdner
##ú
Stellvertreter
Asien
Nachkommen
##aft
gelingt
erfährt
Gesundheits
##ite
Werkstatt
##sha
Definition
Foto
Oxford
Inhaber
diversen
Giovanni
geringer
Dar
auftreten
schlossen
regionalen
Demokratischen
##fa
##prache
beinhaltet
Spielzeiten
02
##ille
Abbau
Kooperation
Manfred
Professur
Briten
reichte
Studios
Mitbegründer
Belagerung
IT
##dan
##hrt
Eric
Parks
angesiedelt
DB
##nnen
jap
##tier
Konferenz
Vorstellung
1820
Arm
Haushalte
Tokio
Effekt
Therapie
##ua
900
Dreißigjährigen
Rumpf
dauerte
Nar
##era
##fahren
setzten
Erklärung
Goethe
Links
hinten
Lehr
Back
Brüssel
ergab
Ostsee
Ihm
Versuche
Ruhe
erhaltenen
sog
Antrag
1843
Ana
##ru
erkennbar
Inter
Gegenwart
entstandenen
##linien
Geschlecht
abgeleitet
sächsischen
Ämter
gearbeitet
klassische
Rosa
Vorteil
1832
Roll
##kultur
Windows
##bs
##igung
hängt
Stunde
##kon
Gerichts
##ommen
Auge
##zellen
##typ
Einsätze
Schülern
Häusern
##ücke
Beamten
##ı
Tabellen
1844
Bremer
Brauerei
Illinois
Eier
Episoden
trugen
##istischen
KG
Or
Adler
##ittel
Sowohl
Mund
Dafür
##jan
1842
Ji
##tation
Chris
##ku
Reiter
Stadtrat
1835
trafen
Haushalts
##mannschaft
Musical
##à
vorgenommen
praktisch
entstandene
Generalmajor
Boote
##aro
Busch
Leute
##ena
komponierte
Saal
##ätze
Mühlen
Roger
##our
Verbesserung
ZDF
Trans
##ä
abschloss
Zweig
Stift
Grundriss
By
##äre
Voll
On
Speicher
Ministerium
Awards
Lehen
br
Kontakte
Verteidiger
rasch
Di
verstorbenen
erweiterte
180
Vol
##aden
Netzwerk
##name
Braun
##krieg
Steine
##gas
dicht
##ska
finanzielle
Pre
Bar
religiösen
God
as
Vorläufer
schwarze
gleicher
entsprach
Ansatz
##viertel
Außer
oftmals
Las
Eva
Klinik
Bald
königlichen
Fe
Zweite
##fahrer
##wirtschaft
Prinzessin
Einsätzen
##ub
Vorschlag
##kunst
verstanden
Jo
vgl
schreiben
abgebaut
Nordwest
freier
Verlags
NGC
Gebiets
Buchstaben
##о
kurzzeitig
Ursache
starben
##kosten
Sieben
Verfolgung
Erz
Marken
Hammer
##sta
##cks
Publikationen
##dor
##ona
verfügen
Anordnung
##ex
##ank
Markus
##ive
##ffen
Element
Bo
Tschechoslowakei
bezüglich
SK
1810
Os
139
Aktien
Prüfung
geschützt
Massen
evangelisch
##uk
Wellen
erhöhte
VII
entscheiden
Blumen
Sto
Französisch
enthielt
Steve
##graben
seinerzeit
Hütte
##ppen
Erbe
127
übte
1837
##mal
Bündnis
Interview
115
##tra
Institutionen
Verordnung
bewegen
gewisse
Stärke
Tournee
Beschluss
Committee
Schlosses
##ruppe
Spielern
##ora
##phase
Jeder
f
Palast
Gebäuden
##lug
Motiv
Na
DS
Junge
##din
Anfangs
##änger
gegliedert
zahlreicher
##unter
##sheim
Miss
Normal
##satz
Hinweis
Out
Gebirge
Zeitungen
1838
Ministerpräsident
Grundstück
Game
Gabriel
Verwaltungssitz
Brust
Günther
Tieren
Inhalt
Tirol
Freundschaft
Geschlechts
suchen
Preußischen
Arbeits
ständig
Toronto
woraufhin
Preise
Kolonie
weite
Distanz
##ührer
geschickt
##cus
##insel
Technologie
##ender
##asse
Durchführung
Mikro
versteht
##eur
##zeiten
##zy
Krebs
Arbeitgeber
Feder
##ator
genaue
##eo
Stan
##team
##felder
zeichnete
##sser
Journalisten
Eigentum
kulturelle
Web
Fans
##gan
Arena
Wesen
##ück
Freiherr
Jugendliche
##ū
besetzten
101
##rien
Express
São
Seminar
##shire
Jury
erzielt
##teile
##ick
350
Kim
Produzenten
Grundschule
Insekten
##tern
##stoff
Tu
##ereich
Genf
Edition
Auffassung
eindeutig
1841
Ya
##stellung
bisherige
vielleicht
114
##lu
erschienenen
##ika
Schatten
141
habilitierte
Fähigkeiten
Sydney
Flagge
California
Marathon
1839
Produktionen
Regierungs
##stätte
letzter
Informations
verlieh
politischer
seltener
##lein
Ten
Mut
Point
Schlagzeuger
124
Journal
##kapelle
Last
Ausschuss
Ed
##ów
##plätze
drehte
darauffolgenden
Nordost
Lokal
Jersey
Universitäts
Zustimmung
beherbergt
Geburtstag
1836
Rajon
Turniers
Philadelphia
##det
1834
Formation
Überreste
Knoten
##ett
Auswirkungen
persönlich
künstlerische
spät
umliegenden
##iche
##hs
anderes
Bedarf
verpasste
Ausbildungs
Schreiben
Angst
##richter
Einzug
Luftwaffe
Hilfs
unterbrochen
Wilson
##zt
Heirat
gering
Marsch
Dass
122
Ala
##trieb
Pseudonym
Schuld
##rate
frühe
Heck
Uraufführung
schwedische
Schwarzen
Psychologie
Besiedlung
musikalische
gesichert
##lten
Ärzte
Langhaus
Diözese
bessere
Gesamt
Regen
##region
Law
verbreitete
Stufen
##ves
angehörte
Graben
Gegenstand
Präfektur
typischen
Freundin
zwanzig
##chutz
Vizepräsident
Bauer
stattfand
jährliche
##win
enge
##ori
Atom
fehlen
ausgesetzt
##geschwindigkeit
stammten
lat
Fell
historisch
Zahn
Helm
Cambridge
Leser
Probe
##eister
Court
Lou
##ew
schlecht
befasste
weg
##echt
##ella
betroffen
Mini
Mars
Bio
1821
regionale
##ile
Schicksal
Gießen
##unterricht
sowjetische
männlichen
erfolglos
SG
Aufstand
Eindruck
##ball
Beck
##ses
Lewis
Endspiel
schottischen
Romane
##val
Reis
alter
##ris
##aren
##quelle
Tatsache
abgebrochen
Hinweise
##shi
Duo
Mathematiker
1200
##och
##uten
##flug
Douglas
##gelände
Piloten
##änder
bedeckt
##nne
Glück
Champions
Bell
Kavallerie
##op
indischen
##ida
bedeutete
cm³
##ndorf
eingestuft
behielt
Profi
Koblenz
Jänner
persönliche
Sicherheits
##halten
We
beteiligten
##kin
##tre
Bridge
Ara
Nassau
Residenz
##üge
Frankreichs
Model
##ting
stieß
no
Kanzel
Helden
teilnehmen
Hot
offene
Games
sozial
Series
Tony
entwarf
Besonderheit
##Q
Orchestra
Dame
##lia
##nan
##tter
Sciences
heißen
dank
Kai
religiöse
##oni
Zulassung
Wiesbaden
Taylor
häufiger
Abwehr
Sports
Kredit
Volksrepublik
Inc
Programme
Erdgeschoss
Entdeckung
erfüllt
Schlesien
Portal
Male
##line
wirken
Ostpreußen
wer
Verantwortung
Elektro
musikalischen
Eigen
Identität
verstehen
befindlichen
Forscher
erneuert
Great
Landgericht
Format
##oten
Schwert
Partie
gefeiert
durchschnittlich
##net
Inn
Carlos
Mr
Erinnerung
To
Südamerika
Peking
Oliver
Beweis
Hard
##por
verfasst
##frei
Dreh
helfen
Ni
Vermögen
erinnern
zweit
##stedt
sichern
##oden
Gera
##ele
geschätzt
Ky
##geschäft
Stattdessen
Betreiber
Straßburg
Fuchs
##ager
160
FA
Keramik
Günter
legt
EC
##mes
Mischung
genug
Merkmale
vielfach
regulären
Zone
Gesundheit
##usch
##maßnahmen
Territorium
ähnlichen
Flugplatz
Erzählung
bezog
##gericht
Londoner
Mans
Kategorien
##hersteller
Milch
Touristen
Ulm
Sonntag
Gäste
Verhältnisse
Roland
sagt
unge
Million
Kalk
begründet
ausgerichtet
künstlerischen
Night
Bart
Stars
##modell
Nebenfluss
jüngere
##bung
##pur
Ki
##nu
Typen
entworfen
is
Mar
##wski
Monats
##turnier
##и
Abenteuer
##partei
leisten
Turin
Bernd
obere
Adels
##fach
Haar
##achsen
1831
Verleger
Raketen
Ortsname
Centre
##nung
Redakteur
Aluminium
vermeiden
Korn
Trio
##olo
Río
##well
1812
Schlag
Komödie
erzielen
Dozent
##laden
Manuel
Jahrhunderte
Konzern
Gy
preußische
wichtig
Mario
realisiert
Armen
##van
##ühle
Rande
üblicherweise
beziehen
Vorbereitung
erlitt
Legende
##uri
Kandidat
Hor
##gemeinschaft
##ecke
angepasst
Cross
Corporation
Hirsch
Gallen
antrat
Weiterentwicklung
Leder
##als
Holland
Restaurant
##sitz
##lung
Kar
144
steigt
Plattform
Mandat
##bro
Thron
##sammlung
Angelegenheiten
##nken
Materialien
achten
##ala
Neo
Bundesstaates
##oli
gelb
belgischen
Erfahrung
##fi
katholischer
##istische
Sea
Unterschiede
##ür
##rus
aufweisen
lieferte
Kleine
Adel
##ations
unterrichtet
##don
Automobil
veranstaltet
##raft
##ira
##ros
##rot
Eishockeyspieler
##fenster
Vorpommern
verlegte
##litz
##reise
müsse
gefährdet
##pieler
Church
Sozial
Pommern
gefolgt
Annahme
Regierungsbezirk
112
Lande
##zahlen
5000
143
Herrn
männliche
##ese
geteilt
##ssa
typische
Patrick
angebaut
Wurzeln
##handel
verblieb
vollständige
suchte
eingezogen
Höhlen
gehörenden
Rats
Grau
Wander
Vorstellungen
Angehörigen
##ode
Draft
##ars
mir
Mineral
unterschiedlicher
Turn
##ost
##ée
fährt
1808
##sin
Nahrung
##ckt
1817
bester
umge
erkennt
Ruder
Bistums
Berichte
Moderne
ersetzte
besiegte
Erd
##sti
ref
Soldat
russischer
Drama
Mannes
Beförderung
##theater
weiblichen
##tzer
Banken
##äure
##tet
elektrischen
Kontext
les
##ase
Sauerstoff
Chance
##ären
##dung
ne
Platte
Völker
Amtes
untere
paar
##uen
Ablauf
Duisburg
restauriert
##säure
Mitarbeitern
##seite
Weimarer
##dar
Wol
Wettbewerbs
Haupt
##nga
alleine
bevorzugt
Niederösterreich
identisch
Fan
Boy
kulturellen
Schiffen
SED
Wood
##ral
Dritten
##ör
gewidmet
qualifizieren
Maße
##sie
SP
1833
##ning
113
hinsichtlich
##cia
traditionelle
##bu
Bochum
Ausrichtung
##ame
##kan
##platten
Alan
begleitete
Verständnis
erfuhr
Mehrere
Zahlreiche
##ole
Festivals
Herzogs
Autorin
##urt
Lyon
##kademie
Norm
Geschäft
Times
rechte
Täter
Opposition
empfing
bezeichneten
verbesserte
erhebt
1828
##nig
Bel
Gründe
##nta
solle
Ter
Town
105
beruht
wachsen
Willi
1825
norwegischen
##schi
fehlt
Schichten
begraben
Wissenschafts
Areal
Instrumente
##а
stationiert
jüngste
ausreichend
##eri
Übertragung
versuchten
Landtags
Allen
Information
stehende
Wahrheit
zählten
erklären
verbliebenen
##liga
anstelle
##orm
Time
Hochzeit
positive
diskutiert
Gran
##eiten
##rolle
Leistungs
verwaltet
Country
verbinden
Kreuzer
##hofen
Marien
führende
Begriffe
Vin
Platzierung
fünfte
Hoffmann
jene
angrenzenden
Beach
##macher
existierte
traditionell
##fähigkeit
Berufs
Pflanze
Werbe
übernahmen
Bezeichnungen
menschliche
nötig
Lac
verhindert
Tel
137
##opf
Demokratie
##tätigkeit
Gewinner
selber
Trotzdem
bestimmen
Irak
Alternative
Golden
Spa
Schlagzeug
##licht
Zuschauern
Han
Sophie
Tim
##rz
Zehn
Benjamin
unver
##geld
ex
Gleich
Rückzug
entsprechen
##ii
1807
Ketten
##fassung
internationaler
Sub
Gebirgs
##rts
verfügbar
Pi
Zusammensetzung
Shin
speziellen
Finanzierung
##gy
Anteile
Garde
Freizeit
##ios
##ast
Gesellschaften
Antike
Bestimmung
##én
Over
Verbands
Carlo
Gattungen
1809
vergleichsweise
Liebes
Hauptmann
griechische
Okres
Kreise
Gesangs
##partner
sank
dokumentiert
118
Eck
Naturschutz
##ult
##oa
Eugen
Umsatz
Championship
##lf
bekannter
##werte
##neu
intensiv
Hauptbahnhof
Untergrund
stammende
##unst
Sturz
Abgeordnete
teilte
be
Angehörige
hl
##bund
##gar
Grafik
##gon
Ja
Kurfürsten
Statue
Einzugsgebiet
Non
Gedicht
Tai
Erforschung
Genehmigung
Sende
KPD
##richt
##tig
##angen
wohnte
nowiki
circa
Regelung
umfassende
Vorsprung
festen
Anwalt
heran
##ous
Schlaf
Grenz
portugiesischen
Winterspielen
bat
fördern
Denn
Fern
Zugehörigkeit
Ul
lautete
einziger
Satelliten
##eno
Schwerin
x
russisch
##ausbildung
##urs
##ă
##yo
1826
erschlossen
Patent
wider
verwandt
Harz
Quadratkilometer
Geschäfte
##winkel
##ght
Verb
##ct
r
##kanal
Lorenz
Nick
Home
Ei
Diskussion
Besitzungen
##hagen
Langen
Verluste
Sechs
HC
älter
mich
Costa
Waffe
Spenden
##figur
Auszeichnungen
##projekt
Zell
Umgang
##zan
innere
Kommandant
DFB
retten
m³
mittel
##wettbewerb
##maschinen
##dia
##pt
Siedler
Summe
Allein
wahr
##isiert
Lok
Ale
1798
Mein
##ahl
Peters
Erkrankung
##tas
qualifizierten
Meeres
dunkel
##tellung
befasst
Lebensraum
Debütalbum
quer
durften
Claude
##ener
bedingt
Chefredakteur
Jugoslawien
Triebwagen
##ico
##oi
Florenz
Zufluss
##entwicklung
Faust
##manns
Telefon
Nation
##fs
Vizemeister
Berufung
Historic
Sta
Atelier
Teilung
Vögel
##ters
Neapel
Michigan
Tru
##iga
Worten
##now
linke
##ott
##town
verbundenen
Su
sahen
Bäume
##grenze
com
Früchte
Jar
hielten
OS
Bekanntheit
Fellow
Dialekt
##ish
##ente
letztes
Zweiter
##truppen
Ludwigs
Geo
Senats
Hierzu
##zustand
vorübergehend
Kompositionen
1829
Südseite
Reihenfolge
Großvater
##tung
##igt
Entlassung
Spur
hinweg
zeigten
übernimmt
maximale
##körper
Kranken
Einkommen
Stufe
erfahren
sucht
hierzu
Tar
unmittelbarer
Do
1822
Day
überführt
Sur
Leon
##ute
1824
1802
Theologe
Ecke
betreut
##jew
Zeichnungen
##ond
##schiff
Hospital
##xi
Statistik
107
Glocke
Pionier
Ruine
##kunde
Gitarrist
Innen
bekannteste
Benedikt
Ban
erfolgreichste
##heimer
Fulda
Sara
Bra
Bauarbeiten
111
Ursprungs
nationalsozialistischen
Inzwischen
Gesamtwertung
##gne
Büchern
Siegfried
Hochschullehrer
erfüllen
ausgerüstet
Höhle
##waltung
##scha
Allgemeine
102
Kämpfe
Drogen
##san
##größe
abgegeben
wären
Benz
Grundlagen
grün
Museen
darum
Gesetze
rote
DA
##ochen
Südost
Gesicht
##eisen
##е
Häufig
vorhandene
##ungs
verzichtete
##tat
##beck
erfasst
Saarbrücken
Sache
##yp
##elli
Little
##zimmer
##tur
Yorker
Pilot
Schriftstellerin
CS
##ppel
Osnabrück
Testament
Landtagswahl
Fälle
108
##att
##ufer
post
Skulpturen
griff
MA
##dae
niederländische
Versicherungs
Pflicht
komplette
Bein
erfolgreichsten
Vers
##loch
Bände
extrem
Singles
##ebene
Alb
à
vorne
Mitteleuropa
Dun
Märchen
Bundesregierung
##uren
einziges
wovon
Training
Dritter
Valley
Vertretern
Protest
Planeten
America
##bogen
##rit
erkannte
Hände
natur
Final
Ereignis
Fahrzeugen
eben
##ö
##inden
##ße
zugeteilt
erschossen
erhebliche
##orte
Verbände
Offiziere
Napoleon
Cover
##esch
Rolf
Originaltitel
Fotos
Aufhebung
Christ
##bruch
fertig
Versammlung
Gulden
##ecken
Verbandes
##lon
##asser
Hamilton
Hut
##zin
Aufenthalt
zusätzlichen
aufeinander
Zoo
Wohnungen
Schul
bestätigte
Mühl
verlaufen
Brian
Pan
Hop
Luis
publizierte
1819
##sson
Pod
Ozean
Gelegenheit
verband
aktuell
Trainings
Mel
##enen
gesellschaftlichen
Hell
##rbeit
eingeladen
Kroatien
Hi
##platte
bekommt
##usen
Gemeinschafts
Propaganda
Gräfin
##hafen
belegen
Quer
siebten
Motorrad
Geschichts
##zeitung
pa
Hl
1811
Bevölkerungsdichte
ru
wirklich
schwach
sammelte
Zentimetern
Giebel
##rechts
Stürmer
Punk
##reiche
Drehbuchautor
gefallen
östliche
Pfund
##grund
##sburg
Down
los
nachfolgenden
Genre
Dank
ansonsten
berühmten
Fast
Oberbürgermeister
Ken
Moore
verkaufen
Anwendungen
##és
Sprach
Interpretation
voraus
##ding
Col
Andrew
geschlossenen
Immobilien
Hoffnung
DJ
Ny
##kes
##waren
##nin
Ry
Farm
Ehepaar
##alter
antreten
Falls
ko
Oster
Diesel
Shi
Erhaltung
##ju
##ary
Lediglich
Hallen
Rob
##dra
Fred
Gras
spanischer
bezeichnen
Kreisstadt
Ros
##amm
worauf
landwirtschaftliche
Erziehung
Bernard
zurückzuführen
##è
Cro
lateinischen
Außenminister
DE
##low
Aufklärung
##itt
Bundestag
verlässt
schwierig
##äume
Sha
samt
##nal
Te
verbessern
Au
##the
##vin
geöffnet
Lebensjahr
IF
Server
vielmehr
versuchen
erreichbar
Forschungen
##hel
Andrea
weiten
Salzburger
Reinhard
denkmalgeschützten
Güterverkehr
Kleinstadt
##chan
Integration
Tafel
prä
Achse
Mitteln
##ister
beobachten
119
Sklaven
##anten
Conrad
##ran
Becker
reich
Flüsse
Finger
##nus
Vorsitz
überraschend
Restaurierung
UEFA
gewissen
entstammte
Bon
Rauch
##pan
Bal
ARD
Konservatorium
Plätzen
Lu
Siege
Zylinder
Wähler
Darin
Eines
Miller
Jede
Slowakei
Landrat
##ziehen
Getreide
Bos
##version
##chse
Oft
##kette
117
##mark
Diesen
##ret
Clubs
104
##äge
##elo
Nu
Innere
IP
Knie
Kal
1805
Zwecke
Nachlass
1827
##endorf
##struktur
Dialog
Porträt
wa
bestattet
or
Sat
Früh
Vorjahr
Friedrichs
Bielefeld
Poly
Re
stillgelegt
Verbot
chinesische
Fer
##lassen
Vertrags
Marmor
##iro
UNESCO
Bulgarien
##itel
Pest
spätestens
Bürgerkrieg
1801
##tu
Premier
Pferd
übergab
##ont
Tätigkeiten
NATO
vorerst
Verfassungs
Kugel
##isches
Lissabon
Jörg
bewohnt
arbeiteten
Gu
##grad
##nda
109
ES
wesentliche
##mont
##ali
Harvard
Bade
##har
besaßen
umfangreichen
Mer
Via
Direkt
Lippe
Gefangenen
##fels
Hochschul
Bett
##ängen
Zugleich
Mir
Kessel
##ès
Ma
AB
Teils
Sky
Derzeit
Titelverteidiger
geschah
besuchen
Char
zwischenzeitlich
Damm
bin
Trocken
Hauptrollen
Alliierten
Schaden
Redaktion
Manchester
gleichnamige
nutzt
134
##ichten
##ack
Schädel
106
##lau
mag
Innenraum
##mitglied
Traum
##ahrt
Dörfern
Frei
Minnesota
AT
##sbach
##ade
Pfarr
Hochwasser
##row
Welle
Blei
Wahlbezirk
Granit
chemische
gelangt
Kult
äußere
Bildern
Ko
erneute
Theaters
Teich
Fiction
national
Sche
Sex
##ş
Phasen
##abe
##serie
Sohnes
1793
Fahr
RS
Creek
##ada
äußerte
geregelt
abgehalten
Komponenten
##nheim
sa
##keiten
Temperaturen
Verbund
Mine
##olitik
Amtsgericht
##ib
befindliche
Business
Good
Far
##pi
Badminton
##nce
##ban
Medaillen
konzentrierte
Palais
Grube
Railway
rückte
##rischen
##tions
Peru
el
Pilger
arabischen
Kunststoff
kritisierte
Sammlungen
auseinander
Oberflächen
Johanna
Problemen
##owski
Landesregierung
Mu
Prince
Straf
##lte
##non
unweit
Willen
Nordseite
##ift
##trag
Nördlich
Fo
Prozesse
##ppe
Sterne
750
##fuß
Che
Dreharbeiten
Volks
Kuba
Manche
Senator
Aussehen
Absatz
Rau
Jugendlichen
Kirch
##enbach
christliche
Entscheidungen
##rau
##auen
Zeche
umfassen
Thor
Dinge
goldenen
Manga
Zentrale
namentlich
##pielen
Comic
Index
1804
##paar
Thailand
Länderspiel
##ois
Pol
Affäre
Gespräch
##rath
großem
##hy
Sanierung
Pastor
Kabel
##wil
##iter
SE
##quellen
Danzig
unklar
##oe
Nachweis
Humboldt
Erzählungen
##luss
##out
kaiserlichen
##hütte
Rap
landwirtschaftlich
Spezial
Hoch
Erdbeben
Vorkommen
##utz
##jährigen
##länder
Spät
Katholiken
Voraussetzung
Leutnant
Lady
rief
##dal
##spor
##dorfer
Förder
##ama
Endrunde
Schienen
unterhält
Sonnen
Georges
bedeutender
##red
##etz
Zucker
##kte
Powiat
##rücke
Dol
Feldzug
fliehen
##tze
schlechten
René
Staatsexamen
Loire
Siegel
Hubraum
##nisch
Frequenz
##artige
##ero
Kommune
##car
Syrien
Erben
aufnehmen
Zuletzt
Apostel
Hunde
He
keinem
Münzen
Generalsekretär
Zurück
1823
Export
mittelalterliche
Vorfeld
Bud
##nach
Koalition
##nik
Dampf
verteidigen
automatisch
BGB
hinterließ
Space
##irtschaft
manche
stammenden
schneller
demnach
finanziert
##offizier
Zi
Win
Gotha
Ausgrabungen
Heilbronn
##tau
##ationen
Abkommen
##ruppen
Personenverkehr
Oskar
Verletzung
Universal
Landesstraße
##dauer
Hotels
Hund
Dra
Baumeister
Ba
##prozess
##nbach
erwies
##ktion
##hilfe
erneuten
##ui
Multi
Sala
Details
Organ
Demo
Est
Nürnberger
Begründung
Stone
##ato
##voll
Lat
Stimm
Umbenennung
Kurfürst
##egen
##α
Georgia
Kriterien
##iff
Rainer
##iw
##iers
me
##wi
103
etablierte
##ahr
berief
##lls
Kirchspiel
DNA
##sko
Kämpfen
##ucht
Gruben
##kus
Konstanz
Marco
Nationalversammlung
Kuppel
##orden
##bad
Gehäuse
Produktions
installiert
Zweitligisten
Darsteller
Be
##verbandes
##ilm
Verletzungen
Mi
Linden
##lands
##ohr
##able
normalen
Alex
Flecken
##pin
reine
stattfinden
Tisch
Brut
trotzdem
Nacional
Eigenschaft
##una
Urkunden
Könige
gerufen
gekauft
Aufstellung
zeit
Festland
Fahrrad
Auslands
##lei
Elizabeth
ausgelegt
Verteilung
##ás
##ess
griechisch
Schreibweise
##vogel
Schau
Her
Profil
endlich
Leib
Aufführung
voran
Niveau
Laden
urkundliche
##wertung
Grande
blau
Vereinigte
##ova
1790
##aba
Weihnachts
Ole
Kette
##runde
Begegnung
Vorlage
Oslo
Forderungen
##ais
Angriffe
Veränderung
Del
##mäßig
Rein
BMW
Vorhaben
Sol
orientierte
##telle
streng
Erzbistum
1600
##fo
hinteren
Hahn
##urf
Hat
Kreuzung
##tri
Eichen
##lation
##inseln
bestellt
Generalleutnant
zugeschrieben
Kommunikations
ä
##ita
schwerer
##top
Lie
Bou
##can
##vereins
medizinischen
benannten
verteidigte
Bester
Begründer
##iere
seitens
Hohe
1940er
Franco
li
Net
Feier
LP
Burgen
Sockel
Gebietsreform
Zerstörer
Priesterweihe
Vereinten
##schaften
Zeugen
Racing
Weinbau
##mos
töten
Abhängigkeit
Wettkampf
##ante
Blo
Sho
Russischen
Königreichs
1700
Riesen
Benutzer
Elementen
Bamberg
Ankunft
Unterscheidung
braun
BBC
Allianz
##ça
Bildungs
kandidierte
Entwicklungs
Nachfrage
versorgt
Höchst
dortige
News
##isen
codice
Haute
Nationale
Let
Erstligisten
Voraussetzungen
Sa
Yu
Por
Hits
##ruck
##systeme
##oy
west
##hon
tot
Heilige
Kon
Dia
Wal
PA
Vi
angegriffen
Ausgangspunkt
Regime
beenden
Verkaufs
##wege
laufen
Vermutlich
##kern
##illa
Beat
Texten
Seele
zeichnet
MS
Wachstum
türkische
NA
vereinigt
deutliche
Anführer
##oma
Hamm
Romans
##minister
vornehmlich
##born
Stipendium
Motive
Binnen
Wittenberg
inklusive
Board
##reform
##nas
##schrift
##schicht
Vordergrund
Ausdehnung
Kriminal
##yi
Gross
Disziplin
Brot
medizinische
Salon
unterzeichnete
literarischen
Con
Wieder
Gefangenschaft
District
Reederei
Hauptsitz
Clemens
Musikern
Gesellschafts
Konsul
Ke
##ches
Gebietes
##zeichnung
Experten
##wen
Südkorea
Ku
##hart
Howard
Tatsächlich
Hochschulen
BA
##einheit
dänische
Wa
Dance
##losigkeit
##sion
Mö
Steiermark
Obergeschoss
##kar
flach
1794
##fisch
##fel
Elektronen
Clark
##ė
Nationalen
Antwort
##dem
##osa
Standards
meldete
Anstellung
##versorgung
##aner
Dokumentation
Versuchs
##vel
Wuppertal
Etappe
Haushalten
Briefe
##hoff
Forderung
Saar
Kleinen
##zu
legen
Schmuck
Fla
Death
Überlieferung
Evangelische
Tele
##ws
Nieder
vorderen
##wn
Davon
Stadtbezirk
Führungs
Dick
Vorrunde
##ila
Hinsicht
übertrug
##lers
##kal
##rische
Erlangen
ta
Ohne
handeln
ersetzen
Abraham
Vorlesungen
Schuss
Talent
##eta
##mit
##eder
bedroht
Ey
##einheiten
##station
Kaffee
Bug
ÖVP
Ontario
##bene
geschlossene
trans
Bro
##enburg
Head
##ance
Handlungs
verkauften
##karten
süd
##ache
##qui
##iedlung
Akt
Antrieb
116
Meta
landwirtschaftlichen
beauftragte
Montreal
Umzug
Ju
Bur
##com
Berger
gebaute
Stifts
Schalt
Modus
Ant
Sicherung
Gala
##mauer
Yo
Chu
##mie
Kraftwerk
längeren
Bauwerke
Public
Khan
aufweist
vergleichbar
##ampf
Volumen
Nachbar
dritter
Zer
Harald
studieren
Athleten
##chel
gehabt
kämpfen
##reuz
Gau
Bruders
Chemnitz
Admiral
Episode
TSV
zusammengeschlossen
##dom
gebildeten
##förmige
junger
Fox
Daraus
##basis
grau
bewegt
##schichte
##ndet
Mono
Wohl
##flügel
##ther
Pur
gerne
##stil
##gehalt
kennt
anzutreffen
fertigte
Kleidung
welchen
##rkt
##chiff
Syndrom
Wird
Soziologie
Nova
AD
technisch
betont
Abbildung
Mid
Kulturdenkmale
##owa
Terror
Bären
Lob
##bra
Handwerker
eingeteilt
##geben
ATP
##mmen
##altung
verkehren
Kennzeichen
Schnell
Anthony
Strategie
Einflüsse
Gewölbe
##err
Junior
spezialisiert
##tlich
##deutschen
Sternen
Elb
Durchschnitt
SPÖ
Erkenntnis
Lern
RA
Farb
Jon
Felder
Verbindungs
tiefer
Dokumente
gemessen
Dessen
Scho
##ekt
Thüringer
Pra
##dl
##eu
Philosoph
op
akademischen
feste
Kolonial
Wahrnehmung
Forum
lesen
Krise
##ping
##folge
##ath
Aspekte
Gelb
Umständen
##iat
betreiben
bedeutendste
Pedro
Dekan
##tem
Kot
grünen
Buenos
Generationen
zeitgleich
##iz
verließen
Wirklichkeit
##tos
Mil
Geheim
Dro
geehrt
Gene
teilnahm
##orchester
Nah
not
##maschine
##menge
Missouri
Wunder
Planungen
bewaffneten
Marcus
Römischen
Atmosphäre
Wehr
##rücken
##nier
Darunter
##rats
Sel
registriert
Leiden
Si
Renovierung
allmählich
dauerhaft
Obst
ni
Marcel
beinahe
##haltung
eingenommen
##alt
Aires
Verbrechen
Moment
mi
Prinzen
verursacht
Bock
Dave
trainierte
guter
betätigte
Studioalbum
Uran
Schön
##tro
zeitgenössischen
Paderborn
##hai
gen
IS
sofern
gesammelt
engen
Foundation
##händler
Ash
##achse
gedacht
besonderer
Karosserie
Frey
Peri
Stephen
##wissenschaften
Technische
Stanley
beschreiben
Erwerb
##strecke
##acher
Periode
Strafe
Flüchtlinge
##meinschaft
Umgeben
Ker
deutschsprachige
##zeug
##wort
sagen
Ak
Alice
Flur
Baus
Solar
Matt
DR
##eien
##hauses
besetzte
Marketing
Kro
Mannschafts
Kur
USS
Fame
CH
##das
französisch
Sperr
##küste
Übergangs
typisch
##rke
Kre
renoviert
##osten
##ften
malte
Duke
##sky
##älle
Metz
##mas
##ind
Südlich
Moll
Ad
kommenden
Julia
plante
##geräte
Münz
Asteroid
##let
##gern
Vereinen
##hard
##ultur
##lied
Freunden
AM
Neuzeit
Schnabel
offensichtlich
vorn
Kompanie
##amen
Rou
Möbel
Sei
Faktoren
Kontroll
Bauch
Wettbewerbe
Schwarze
##eich
Township
lösen
TU
un
Helsinki
Roy
Frucht
Kolonien
##uhr
teilt
erkannt
Nachbarorte
Ganz
Fair
einzeln
Krieger
Befreiung
finnischen
Haltepunkt
Konflikten
##nna
Invasion
Exemplaren
erzeugen
empfangen
Will
publiziert
Sommerspielen
Pin
Lothringen
Größen
Ausrüstung
Geh
ur
sitzt
##oh
Götter
Europameister
Beendigung
##rift
Weiden
Physiker
Glasgow
Louise
##örper
flachen
##fte
seitlich
mo
gemeint
##karriere
##häusern
Akten
##iet
wesentlichen
Bataillon
Iso
Flieger
zugewiesen
nord
gebunden
Vis
##typen
gegangen
Lexikon
##uchen
se
Riga
gehandelt
verzichtet
Cho
##club
Adams
Trasse
Fähigkeit
Europe
Kurzfilm
##mme
transportiert
Erb
Metro
Fur
Départements
Vieh
Mythologie
Kong
Cra
##jährige
1789
Can
1792
##enten
##landschaft
Organisations
##piele
##inder
natürlich
Decken
Achtelfinale
Mei
Rittergut
Null
##olen
Brüdern
SD
##ags
Versorgungs
##aat
Vorname
##ness
Schließung
Ohr
Grüne
##mba
Ausscheiden
450
davor
besseren
HD
##ár
Hu
vergangenen
erlernte
Reichstag
Lokomotive
Verhaltens
##meter
jüngerer
Düsseldorfer
##gabe
Rasse
Dorn
Ron
##artigen
Fürstentum
Digital
umfassenden
orientiert
Colorado
Mauern
Kastell
Woll
Fire
Projekten
Germanistik
wirtschaftlich
##eig
Erwin
aufzunehmen
Schulden
Human
##zon
Oberösterreich
Körpers
Eintritt
Zweifel
zerstörte
po
Kommunalwahl
Gor
Ferrari
Light
Damals
Einladung
##til
Willy
Übersicht
##å
plötzlich
Institution
Staatssekretär
##irchen
Leit
Fußballverein
daß
##ono
##fähig
ansässig
ki
markiert
##sches
entschloss
Angriffs
##blätter
selbständige
Raub
tschechischen
Luzern
Bevölkerungs
##idae
Ressourcen
abzu
Stuttgarter
Eu
Schwimm
Gegenstände
##tage
Westseite
Autos
he
ähnelt
##Ö
innehatte
##verhältnisse
Landschafts
Faktor
Wohnsitz
Kampagne
##verbände
Sonder
Johnny
halben
Herrenhaus
befestigt
Gerät
##hle
##unkt
Verfahrens
polnischer
Bull
Ausländer
Behörde
schoss
Erstausstrahlung
##fle
Küche
Nordsee
Vorstandsmitglied
Gemäß
##hnen
Katzen
Janeiro
Motors
Mitgliedschaft
zentral
Funktions
wasser
hingerichtet
Lü
kirchlichen
Jane
##bal
Gleise
deswegen
Letztere
##ust
hell
##ffe
##eus
##een
stiegen
##tive
##ücken
##pol
##eichen
##ob
##nos
Boots
Belgrad
Website
Sar
Ca
Prototyp
Fra
galten
##kov
richtet
Bomben
phil
Vietnam
##kas
Misch
Militärdienst
Jimmy
Austragung
Senioren
##zelle
Austria
Schulter
beliebt
##fan
Bemühungen
gegeneinander
Mainzer
##ž
geliefert
verschieden
gesperrt
Ir
Gift
Disziplinen
##lock
Å
##cho
Entwicklungen
schnelle
##rio
Tower
##MA
##achte
Water
Lech
Gerichtsbezirk
vermehrt
wahrgenommen
##zucht
Stammes
Sizilien
##not
Einnahmen
Para
##prinzip
Sammel
Lind
Latein
Jordan
Baudenkmäler
Arbeitnehmer
Inhalte
Dio
wechseln
##chung
Bewegungen
##rock
Tatort
CSU
##rode
Kaserne
##usik
verliebt
Litauen
Kindes
Delegation
##jäger
erhöhen
Rassen
Evangelisch
Goldene
##pass
Textil
Hain
verarbeitet
##č
Gordon
##gewächse
Communauté
wissen
Tuch
Ble
Vincent
Cal
Serbien
##ass
Tee
with
Elite
Soul
Gon
##bezeichnung
Ortsteilen
Gründungs
Ballett
Nominierung
##rom
Stämme
Kle
Anlehnung
Uruguay
unabhängige
Ze
##bauten
Aktionen
##rne
Erreichen
##eitung
##bindung
##ammer
feiern
Gregor
geprägten
##wan
##ners
Länderspiele
Comics
Böden
##odi
erwartet
Merkmal
##eise
lu
Special
Nikolai
##hu
Mur
##gie
##ürger
##nstein
Seither
Gärten
##erer
Kies
##via
##zene
uraufgeführt
##aler
Chemiker
Four
fi
##versuch
Zwerg
##enge
Sportler
Segel
unterwegs
Hütten
Unentschieden
Feind
präsentierte
Kenntnisse
##vor
normalerweise
Erzähler
Philippinen
Maschinenbau
Ermordung
UdSSR
Tests
älterer
Händler
Detroit
Nahrungs
Rettungs
Lincoln
gewöhnlich
Infolge
Bin
##tellen
laufenden
Pius
Mon
##gte
##gebiete
Eli
Run
Kapazität
Ausstellungs
##strom
##00
##dien
zurückkehrte
Beute
benachbarte
##lm
jeweilige
##kloster
Abfahrt
Mercedes
Realität
##bteilung
FK
Spar
Zürcher
##uft
##rna
niedrigen
Phänomen
##cz
##ssel
Weiss
bestritten
Korea
##burger
Stimmung
##rbeiter
##organisationen
##anteil
verschoben
Airport
Kulturen
Ris
niemals
eigenständigen
Rie
Borussia
##fort
keinerlei
Siemens
Coburg
Planungs
##debüt
Entwickler
Dark
kritisch
##ders
Standorte
zerstörten
Blu
Fische
Charlie
spendete
##sal
liefert
Hip
Ye
Ansiedlung
##xe
Held
Lese
Obere
Bischöfe
##zar
Bene
##luft
geraten
untereinander
Tageszeitung
Gastgeber
Petrus
Schall
chemischen
sorgen
Nachricht
##hol
wählen
Flora
##muster
##itung
Mega
##hm
Leber
Bru
##oka
fortgesetzt
zurzeit
##arm
Individuen
Hohl
VfL
##nlage
NRW
These
Mayer
Greifswald
##behörde
Vorort
##my
durchquert
barocke
Performance
Queen
Continental
##artig
Paulo
Fußballnationalmannschaft
Parti
Grunde
Belle
befreit
Dokumentarfilm
voller
Pat
Nutzer
Stadtteile
##ão
Meeresspiegel
Dritte
##erl
##erke
qualifiziert
Acker
Beobachter
Rapper
##sbe
gründen
Australian
##rig
Maurice
verbessert
vertritt
##ssi
##chau
städtische
normale
leichter
jährlichen
Kaufmanns
litt
angesichts
Nutz
Rö
Konstantinopel
Roche
##zell
Havel
Wi
ra
nahen
stürzte
einzelner
angekündigt
##eier
Cheftrainer
SF
BM
soweit
##pflanzen
##magazin
Kom
Wisconsin
##deutsche
Wälder
Leer
##ichtung
NBA
##last
Bond
Scher
Schein
Kärnten
Erhöhung
Bande
Archäologie
Rud
Balkan
##ilfe
überall
Laien
Aktiengesellschaft
##gend
herausragende
Anwesenheit
##üsse
Moral
##gin
Neun
Kos
##dis
##awa
Volleyball
##dit
kanadische
Men
Blütezeit
Ci
Strahlen
Ru
Passagiere
Kor
Rechtswissenschaft
Luftfahrt
##hmen
re
Mittlerweile
Hanau
Prager
Ing
Camp
Geschwister
Werbung
##karte
Kant
gu
Auftreten
Christopher
Mari
Händen
##eide
Paulus
Folgejahr
Dam
Verfasser
Haag
En
##olz
Stra
Programms
hölzerne
##hit
Vorteile
konzipiert
1799
##л
Zeichner
Fri
##cio
##legen
ausgesprochen
Wenige
##ram
viermal
Billy
eigenem
Agrar
Diego
Theatre
Partnerschaft
Käfer
betreute
Vertrieb
Sternbild
Staffeln
Staatlichen
##aison
tat
Auguste
##gers
Monarchie
Philologie
Terra
Vir
Schäfer
##farben
Press
Absicht
##hor
eiförmig
finanziell
by
archäologische
Kara
Wirken
Dirigent
floh
##iss
Tre
Türken
##feuer
Militärs
Minen
Kalkstein
häufigsten
Spielbetrieb
Nat
IX
verpflichtete
##iehen
##eda
Spannung
##bre
##arte
Eingemeindung
Weiße
##tru
Rückseite
angestellt
##ote
abermals
##lor
Polizisten
VIII
Mitglieds
Hauptstraße
Erlaubnis
Königlichen
Ostseite
Zar
##bek
##uth
Clo
verwundet
Höfe
Tiefen
ausgeliefert
Ber
##förmigen
größerer
Mare
Nummern
taucht
Mas
Deren
##hafte
VfB
##dern
Java
Philip
##ration
Geistes
stirbt
Québec
##ativ
Unterseite
Acht
Diplomat
Entertainment
Vancouver
zustande
Beine
##ap
Wit
Lig
##xa
##essen
Leichen
1797
Siedlungs
##chtung
##bedingungen
##fahr
Gymnasiums
Florian
Hartmann
Ph
##rr
unabhängigen
benötigte
ausdrücklich
##rag
polnisch
Francesco
##stab
Hein
##uß
vorzeitig
vergrößert
Mittelfeld
entfernten
MW
bar
Pala
lebende
hohem
##schau
aufge
SI
Kenntnis
Audio
Ministerpräsidenten
Rache
Haushalt
Bayer
##ndel
Verwandten
Nationalrat
sechste
Bewohnern
Antriebs
Lea
##rst
Handlungen
Schweine
Mississippi
Gö
Fokus
Ran
angewendet
Offiziers
goldene
##ssung
begab
Abschnitte
##ester
Denis
Bilanz
##nat
Kunstgeschichte
Santiago
##risch
Insolvenz
Ihren
Schaffung
Mo
##mu
inter
Schar
jüdischer
Donald
geschieht
Wiedervereinigung
Soundtrack
Kaiserreich
Car
Moschee
Ata
Protein
##af
Volkes
nationaler
Wür
##pers
Sarah
Hexen
##if
##rbe
beheimatet
Nahe
##dler
##oss
Ve
Bai
Nachbarschaft
MP
etliche
Getriebe
##yu
##tigen
##bol
Hai
Teilchen
##nburg
Abteilungen
Shu
##lang
falls
As
Abstimmung
Nest
überzeugen
##ammlung
##omo
Reichweite
Abriss
annähernd
Bestimmungen
Els
Kra
##medizin
leichten
go
Ltd
katholisch
Sen
Palm
Abgrenzung
##pflege
Werkes
Hen
Fernsehsender
Bebauung
##zei
##nisse
Klage
Projekts
German
##SA
##verhalten
elektronische
Adresse
erbte
Stausee
bestes
Hubert
gotische
##sor
Räumen
##versammlung
Kindergarten
Brenn
produzierten
unbekannten
volle
mon
##glas
##cen
Anstieg
##sy
##regierung
Luise
##sverfahren
Konstantin
Freie
genauer
##figuren
Tur
Leonhard
##hä
eingeschränkt
##du
##uz
##mon
Hubschrauber
BV
Stoß
Angel
Met
Schmiede
Kansas
##ü
Campus
##ili
eigens
Fa
##tieren
##ossen
Cy
Buches
Mau
gänzlich
##verbindung
Jh
##met
360
aufs
Shan
For
Ville
Gottesdienste
##bor
zugrunde
Prä
##nka
Fachwerk
Atlantik
##mpf
Wasserstoff
Mountains
##hlen
Bla
Gotteshaus
verkehrt
Vorfahren
Erkenntnisse
Edmund
Jedes
Bol
##zentren
##graphie
schmalen
bürgerlichen
gehörende
Mis
gelungen
Seil
Wandel
Magnus
Taiwan
Gegenzug
Memorial
mechanische
Walther
##etzen
Konflikte
erschienene
Epoche
meinte
Auflagen
##zzo
Apple
##lach
##chin
wendet
Unmittelbar
della
Rinder
erteilt
Sul
Sim
Wurzel
Pu
Angreifer
Hy
##chu
Var
Instrumental
Afghanistan
##enster
langjährigen
##euer
vereinzelt
Area
Get
Book
##marke
Georgi
1795
leichte
Stettin
wissenschaftlich
Gerichtshof
##etzung
##ré
##gl
Achter
##ef
Aufschwung
Ha
w
Ti
Fu
Erfolgs
stetig
Melbourne
##ères
##eni
Bedrohung
Bois
gestartet
Bayerische
Wertung
Valentin
Kent
Kan
1300
unmöglich
Gottesdienst
Komplex
Mail
Sultan
DC
##pro
Vermittlung
Anklage
ku
Women
##ș
landete
förderte
RE
Lohn
##rni
Mangel
##house
##sto
aufbewahrt
Order
Bodensee
Ferien
##pflicht
##time
ländlichen
Zwangs
Julian
1780
Fischerei
Außen
erwähnte
Vorgehen
Statthalter
Pe
Hildesheim
Gur
Roe
Pflanzenart
##srecht
Klassiker
Stadium
Flut
Ähnlich
wolle
Vogt
Minden
entscheidend
##unt
bewertet
Range
Bundesstaaten
Og
Bär
##eau
Lösungen
Lem
Arbeitsgemeinschaft
Lüneburg
Meist
##ugh
##sia
##nds
fein
Moskauer
erfolgreicher
Kron
##studium
170
##ado
Bekannte
tri
Speyer
##erger
Fotografie
Cruz
Edinburgh
##sz
##eigen
Playoffs
##mers
##bein
Wahrscheinlichkeit
##steuer
##welle
dorthin
Zivil
Wissens
Erfinder
Stirn
##uppe
Kronen
Aufsteiger
notwendigen
behauptet
HMS
##systems
##rang
Global
##lien
untersuchte
##nter
##fin
vo
Stuhl
Cle
##rsdorf
eingesetzten
ansässigen
Bowl
Nebel
Lothar
flache
Fehl
Pole
Adelsgeschlecht
##walde
geschaffenen
Katalog
Wladimir
Biel
Hauptquartier
verstärkte
Gramm
Rin
##ğ
##lot
gewählten
Trauer
Turnieren
Wei
Graham
Ay
##maß
##gast
##nar
land
##kam
##ckel
geklärt
Urs
Br
ergaben
Rugby
Bor
verliert
Melodie
##vis
Pacific
##pu
Goldenen
lutherischen
Rum
##ziel
Bischofsweihe
##oper
##ima
Set
Berechnung
Salt
Pakistan
Mul
Missions
##apelle
##freiheit
verabschiedet
EG
##ech
##pon
##nlagen
##bilder
Italiener
##nei
Rates
Nor
##brunnen
Urban
Liedern
Abu
##öse
Unterfamilie
Tol
sammeln
Gesellschafter
Tief
gebe
bi
Spektrum
Brett
Porto
##gleich
Noten
Fin
Place
Stadtmauer
ethnischen
##rch
Iwan
Dichte
##rund
vermittelt
Etappen
Engels
##trom
##eb
vorzu
seltene
Zentrums
Rück
IN
Wolff
##upt
Kü
veränderte
ungewöhnlich
Relief
Wörter
Holding
Guts
Ems
absolviert
Kohl
best
Ehrenmitglied
identifiziert
Vermögens
##gent
##handlung
gefahren
CE
##esi
Cap
zuständigen
Mani
Kol
Microsoft
sterben
##ity
Tote
##sens
Ser
befahren
Sven
Schi
Kiew
Biologie
Forest
##ox
##achen
##äufer
größter
Zweit
zurückkehren
Ruinen
##verteilung
##ildung
##chsen
##TA
Stau
Porsche
Deck
Bir
Boris
Reichsbahn
##amin
zuge
##stisch
##ruch
Lehm
aufgelistet
Palästina
Breisgau
Weihbischof
unverändert
gest
##aße
##yd
Öffnung
Gil
Mönchengladbach
##therapie
##rahmen
Maine
Magister
Lausanne
dauert
##wall
Mörder
1796
Schatz
Drachen
Level
##ington
kontinuierlich
##eng
Gegenüber
sta
RTL
Stoffe
Anderson
##pper
##armee
Kö
##ragen
kanadischer
Plo
##management
Bäumen
Roma
heiraten
ausländische
Mara
Fle
Tank
Nutzen
Gefecht
##æ
liefern
Phil
Schmid
Indiana
Höchstgeschwindigkeit
Bewertung
##uck
Reifen
übliche
##griff
##aki
##uert
entfernte
Dublin
Hochaltar
Mönche
##tens
my
einfacher
Posen
##ätzen
tiefe
##ix
Theo
##elm
Château
Christine
##ias
Hongkong
##set
örtliche
privat
Inschriften
mehrheitlich
ändern
Darauf
##etten
Liechtenstein
##krise
Steuerung
wonach
##wellen
##verhältnis
##enst
Heinrichs
TH
Neuro
Schwaben
Herrschafts
##läche
gesellschaftliche
Standorten
##dale
##transport
Schiller
##oro
Story
ungarische
umgestaltet
reinen
Publikums
Entsprechend
##osen
schlägt
Künstlers
Bürgerschaft
##iko
Min
DIN
Cat
Bukarest
##bes
nad
Kirchturm
Tabak
Pha
Jer
vergeblich
Stollen
##assung
vorherigen
Lieben
Conference
Budget
Bi
##ilo
HK
Kilogramm
Übersetzer
saniert
Bundesautobahn
literarische
heilige
Emma
##rol
Sendungen
grüne
tiefen
Tennessee
March
Mast
generell
4000
gelbe
Gewebe
Laubblätter
Gui
##org
Dal
Bush
Jahrhunderten
Copa
Gestapo
Wolfs
preußischer
Minderheit
Mais
Achsen
##nti
A1
Kulturdenkmäler
##ingenieur
te
Schiedsrichter
Künstlerin
Dir
obersten
gemeldet
erwerben
derer
##pitze
Synthese
Baby
Sakristei
220
Aktivität
##institut
Stadtzentrum
##ßt
##uni
Rue
fuhren
##freie
gebauten
Politikerin
##arbeiter
##mp
Lade
Untersch
Technology
Ruth
Gründungsmitglied
##staat
Opera
Normandie
Tempo
Verfilmung
Bak
Pfeiler
Nau
Systemen
##llt
Magazine
##ware
##tha
##bücher
BSG
Hou
Fat
regelmäßige
##kos
Olympische
Slalom
##ober
absolute
Schwan
Aufzeichnungen
##stischen
##quote
unterstand
rechtliche
bekamen
Us
Aufträge
mexikanischen
interessiert
Gedächtnis
Bu
3D
Entscheidungs
Meilen
##ösen
##ufe
abgesehen
Kulturgüter
##rea
##hrer
##gerät
##ía
erlaubte
Uwe
##sho
Giuseppe
islamischen
grundlegende
Trip
Abbruch
Sage
Perspektive
##istisch
Za
##nnt
1791
##fische
Nan
##gua
Erhalt
##sco
Ära
Konzerten
But
behaart
Beschäftigung
Robin
##zeitschrift
##stern
##sar
Base
Regelungen
Lübecker
Denkmalliste
Anlässlich
auftrat
Bakterien
interpretiert
SR
Pedal
Dy
Kir
Jes
Gi
mitunter
Begleit
##rop
Videos
##oß
Zeitungs
##rde
abgesetzt
nachge
Sach
Allee
Beispielsweise
##einrichtungen
##abel
Friedhofs
Ablehnung
##tiere
##rates
Antarctic
Bismarck
westlicher
Ari
1750
Larven
Gal
Stralsund
Kanzler
##oba
Maul
Österreicher
Liverpool
1784
brasilianischen
Gerd
dieselbe
Blanc
Lloyd
Ge
Dienstleistungen
Titeln
Sportverein
Kreisen
##halt
Din
##eti
Ri
Bat
abgebildet
Niederlagen
äußersten
Alltags
##saal
##leistungen
genauso
Amerikanischen
Reformen
Hyper
##para
Gitter
Arme
École
Guy
Action
##verbindungen
kostete
individuelle
##its
##analyse
Motto
##verlauf
Oberstleutnant
##produkte
##ces
Anbieter
##bb
entwässert
Mantel
Ermittlungen
##ün
##rri
##ieben
Edel
anschließende
inhaftiert
##rollen
Par
##ül
wichtiges
Til
Mira
Med
##bauer
sitzen
Rick
Naturpark
##tab
##chow
Reb
Staatsanwaltschaft
Erscheinen
neunten
##sat
Ziegel
##gkeit
meint
Professoren
Flach
Airlines
##rou
##king
Pier
##trainer
Ga
##uro
lo
##cat
konservativen
Sä
Krimi
Worte
Ves
historischer
Muskel
Fachhochschule
Bewegungs
Philosophen
Namensgeber
Einheits
##zig
Messer
Gun
Schla
Neuer
Vertretung
Unterhaus
Disney
##wind
##indung
Fassaden
schenkte
falsch
Dou
Ausge
Wel
erheblichen
##nam
ba
betroffenen
Rost
sche
Balken
##echen
##anti
Kolumbien
Denk
##cki
Bevor
Anstalt
Konzentration
ost
Erneuerung
##kor
Zucht
Student
1400
##ι
Mediziner
Theorien
##xt
##block
Tö
Philippe
bo
Sla
Norbert
Ausnahmen
gliedert
Pelz
Ausgangs
schickte
beige
Connecticut
##erz
benutzte
irischen
Weltrekord
Pil
##rp
##herrschaft
Pont
Iowa
Un
##verbot
Religions
##ziert
Kru
##rä
einzu
Spanier
Stade
##este
ü
Hör
Vorschriften
##ici
Habilitation
passiert
Viktor
Erwachsenen
verkörperte
Gewerkschaft
ausländischen
Steinen
Kriege
##rohr
etabliert
Mozart
##ysteme
negativ
Obersten
Marokko
Kongo
Katholischen
Hoe
Chief
##ński
Sainte
##alp
Ol
Folk
##how
Zinn
Cu
Bun
##ν
##echnik
Tha
Tau
Poli
Hel
Kalender
Cla
Gehirn
Leucht
Hinblick
Café
Techniken
Ann
##gio
Sant
Bruce
##ndi
Cottbus
römischer
Buck
##feier
Modern
Axel
Wohnhäuser
##brand
Wasch
wachsenden
Häftlinge
Ras
##front
##getriebe
absolvieren
##äumen
##ändler
zahlen
Department
##gymnasium
fo
berechnet
Türen
Johan
Chal
Agent
kehrt
##ege
niederländischer
Schöne
Homo
Lagen
División
##ahren
Bomber
Verpflichtung
##förderung
##lasse
ho
##zogen
Müll
doppelt
Sus
Gewässern
negative
angeführt
##chie
##aktion
Ursachen
Einsch
schwedischer
Agnes
ro
##laufbahn
Läufer
organisierten
hessischen
erhob
Staub
Koordinaten
Cent
##boden
Gärtner
Maximilians
##dichte
Sad
##nha
Indonesien
Darm
##ax
breiter
Stammspieler
Kamm
Abzug
berühmte
Handeln
##decken
Mrd
etablieren
Unterhaltungs
Inszenierung
Dei
Bekämpfung
##rsch
##eiter
Bauart
Bahnsteig
Montag
Umwandlung
verweist
para
##ried
##bon
Arizona
richtig
##iges
Japaner
Königlich
##pfen
##ehn
Fremd
Blech
##kum
Olympiasieger
##grün
schnellen
Bosnien
Halb
##osi
ti
vorkommen
Ausstrahlung
##tionen
UK
Rade
Nicolas
live
Bang
##isi
Gin
fordert
Morgan
Legislaturperiode
Schiffes
##räger
multi
Landung
##ík
angewiesen
japanischer
Fein
Vera
Sammler
Zink
SO
##die
Listen
##ühren
Mindest
entscheidende
zurückgezogen
Gou
Ange
Operationen
Eintracht
##nehmen
##firma
##cu
##oje
Hur
Lösch
##stück
Konfession
Franklin
Stall
eingewechselt
Social
Luftlinie
##kontrolle
Ebenen
Sierra
drohte
Freitag
Reh
##enze
gerettet
##aw
Nelson
Russen
Bauzeit
Experiment
Pia
Dorfkirche
romanische
Eisenach
vorgeschlagen
Ansichten
##nah
notwendige
Wat
Bürgern
verglichen
Spannungen
starker
Kau
ragt
Wäldern
Gefahren
##ido
Habsburger
##präsident
regelmäßigen
##äu
##eter
Vielfalt
Realschule
##meisterschaft
Modellen
##oo
Kunstakademie
Erdöl
##uh
##nbe
##tiv
Nachkriegszeit
##lus
Früher
##posten
Teilnehmern
warf
##ebe
##mir
Geistlicher
##rod
Fracht
Stä
##zentrale
Fächer
zeitweilig
Popularität
Einweihung
aufnahm
##chts
Laura
##var
##kräfte
Cooper
deutsches
Porträts
Limburg
LA
Kämpfer
##nko
Gesch
Kla
Angabe
##une
Weit
Sem
Pilz
Zusammenbruch
Tin
Rod
vorrangig
Söhnen
##erfolg
##borg
##ić
emigrierte
Landwirtschafts
Referent
Gattin
genutzte
juristischen
##xen
wahren
verbreiteten
Mori
communes
Captain
jenseits
Margaret
Jesuiten
Ami
AR
1785
##korps
ve
Leu
Begegnungen
Motorsport
Cou
zugesprochen
Hauptrunde
##eihe
##ämter
##walt
Pa
Wy
eingeleitet
befreien
Harris
Franchise
gesendet
Kevin
Fernsehserien
At
##sit
##decke
Reparatur
##ätigkeit
glaubt
dominiert
##eli
Möglicherweise
Torhüter
Republikaner
Vulkan
Ernest
verfolgte
trennte
kleinste
Edgar
Sig
uni
Wach
##ç
Departamento
Coast
Hon
enger
Grundstein
Ansehen
##becken
Gedenk
Ansbach
Untersuchungs
Pause
Bauweise
Sou
Ehrenbürger
##ühl
half
Staatsbürgerschaft
##eer
freiwillig
Agentur
##St
Notwendigkeit
Kriegsgefangenschaft
##wein
Unterarten
Passagier
##bacher
Ho
##OS
Westlich
Besch
Tro
Wen
Caspar
Nerven
Ice
Plateau
##tori
##ij
Sprachraum
Elf
Ren
Gol
Ce
Pai
##reifen
##gebirge
überlassen
Boxer
hinzugefügt
##ati
##ï
Repertoire
Pokalsieger
Gemüse
ben
Schwarzwald
##teilen
Talsperre
entscheidenden
Zelle
ziemlich
sub
Stich
Kühl
Kil
Krankheiten
Chronik
##par
ver
Datenbank
Kirchenbau
betonte
Mountain
##gue
Vil
Turbo
Roh
Normen
Municipio
##get
trocken
Gräber
Bri
Nationalspieler
Pension
Lahn
Kandidatur
##ön
rumänischen
##vögel
Pazifik
Af
##char
scharf
Basilika
Putsch
1770
##mut
Umland
Ple
Quartier
##usi
Konkurrenten
##ngel
wertvolle
Benannt
Truppe
Turner
Chen
More
Färbung
##mitte
kommunistischen
Sud
Cole
BD
Kritiken
##more
betraut
##llung
CC
Tausch
##vit
Wiederherstellung
1787
##kat
##sing
##asi
Ree
ar
zeitgenössische
Zier
Gerichtsbarkeit
Worms
##linger
##qualität
##ichter
schriftliche
Om
pe
amtierte
##regiment
##rben
##stische
Zo
##sung
Hil
nachweisen
##quet
##enne
Uhrzeigersinn
Second
Winters
##fahrten
lebens
Quartett
Kin
NE
##artei
gestrichen
zweigt
wörtlich
GP
##tritt
##ets
Südtirol
Schuppen
Bundeskanzler
Ok
Kurze
##ward
##rzt
it
MI
Gitarren
Generals
Pater
Atlanta
Informatik
##zier
##oll
ORF
Stewart
Filter
Antonius
##ο
##legung
vermitteln
##war
Tauch
Putz
festgenommen
Rotterdam
##wirkung
ausschied
Pfarre
Kanonen
stiftete
Lau
belegten
Antwerpen
Überlegungen
Zünd
Stor
juristische
##rtig
Birken
##oid
produzieren
Shanghai
Blind
Pianist
Of
##tück
Vorgang
Freiwilligen
dünn
Bag
##bis
Einbau
##position
ausgedehnte
Denken
##aka
Ansprüche
erobert
bittet
Sächsischen
Stifter
Medium
Bé
tropischen
Logo
##chul
Dynamo
kur
Samstag
Chan
kirchliche
Orient
Countys
##prä
populär
Cook
poly
Syn
Norman
Fro
##dri
Ecken
Sor
Krakau
##aar
##listen
Off
Nachbarn
Frisch
##toff
moderner
##fluss
kommend
##itze
Monument
##nationalmannschaft
Holocaust
FF
##vermögen
Marktplatz
##lie
Apsis
lokal
Ham
Bul
nachweisbar
Himmels
Broadway
Miami
Adrian
konzentriert
Cher
AL
Gouverneurs
Christentum
nutzten
##leit
##temperatur
##scho
gültigen
Come
Protokoll
Fernsehfilm
##wiesen
##ace
##sma
Rep
##ffer
Erik
##anischen
Hills
Solche
##10
##wor
##spielen
His
Neumann
CF
Aufwand
##kasse
eventuell
derartige
rechtlichen
##cum
Fantasy
##ahm
Thal
Andererseits
Selbstmord
App
nordöstlichen
Störungen
Silver
Österreichische
MB
##fu
Türme
Has
##hardt
Zähne
É
Sten
nördlicher
co
Ursula
##ota
Gel
Bundesland
##hung
Versch
##nze
##code
Stände
Politisch
##kis
hohes
Clara
poem
##änden
Alternativ
reiche
Kennedy
Süß
Qa
genügend
##mid
##ader
Tri
##uto
Zen
Lar
##nke
Bas
Amtsbezirk
##artner
unbedingt
Comedy
##ito
Kapellen
BS
Transfer
##rogramm
endgültige
##nstalt
Sitzung
Parameter
Fre
Fang
Pit
Komitee
langjährige
königliche
Aussicht
Mor
##ieb
Dokument
Aga
Erfindung
AP
rechteckige
letztendlich
Stadtverwaltung
Rückspiel
vormals
Wachstums
##linge
betragen
Parlamentswahlen
orthodoxen
Dream
##übertragung
##yan
Railroad
Mun
Bil
Abb
##nacht
Beau
Gelehrten
##szeit
##teuer
##ted
Mala
##undes
Elster
Claus
##uchs
prägte
Schulzeit
Kri
##truppe
##ques
absch
##ausschuss
su
vollkommen
Zeichnung
Ländereien
##wegung
siedelte
schlechte
Franziskaner
warum
Sparkasse
veranlasste
Stru
##lern
Östlich
Geburts
ordnete
überzeugt
Verteidigungs
##maler
Zügen
Dub
##emann
SM
Instrumenten
Southern
Beobachtung
Krim
Berner
Australia
elektronischen
BB
Verhaftung
##sver
zueinander
israelischen
Unterrichts
##appen
##fehler
Magen
Schwerpunkte
Empfänger
Wände
Steiner
Lars
Grant
##niveau
Senior
em
Match
Braut
Bassist
Po
##anbau
##gu
GA
Malers
##waffen
zurückzu
Sauer
unterhielt
Preisträger
##mund
##konzept
Torf
Landesliga
mor
Jens
##ießen
##werken
##rl
Immer
Beschäftigten
Attentat
##oto
##üt
##bury
##fahrzeug
Kirchengebäude
##nehmer
CI
Offenbach
650
Termin
gestiftet
Betreuung
neueren
eröffneten
anerkannte
##oc
##motoren
angelegte
##brief
##ügen
Zugriff
Dekanat
Bayreuth
##olt
##alle
##vat
zumal
Lust
##chter
Spin
Großer
Benennung
derart
##güter
veröffentlichen
verknüpft
PR
südwestlichen
Wahlkampf
##fragen
öffnen
solches
Weine
Semester
Verlegung
Aufgebot
##falls
Are
Pfarrhaus
Mol
Erstbeschreibung
1786
Altenburg
Kings
Platin
klassifiziert
Handwerk
##öhe
##alität
Year
Jay
Jam
Epi
##oz
##ρ
##gänge
Dor
##pto
##ip
Erkrankungen
herab
onlyinclude
Skulptur
Sey
Russell
##unk
greift
##ño
##lossen
Produkten
Network
württembergischen
angegliedert
abgetragen
Bahnen
##rta
Soll
Decke
Bologna
niedriger
schmale
hi
##planung
zunehmenden
Busse
##uta
##his
Pot
##vater
##meisters
formal
Italiens
##post
Germania
Massaker
Hawaii
Vic
Lebensweise
genehmigt
Renault
südöstlichen
Flensburg
##aufnahmen
Stücken
##kau
Schaf
fliegen
Lukas
bemühte
Volkspartei
Dessau
Heimspiele
verschwunden
1788
##bit
Schwer
##iven
##erf
positiven
halbe
Auschwitz
verlangt
Platzierungen
##aa
Rag
##asten
Bearbeitung
Innern
##jagd
name
Fehlen
Slowenien
Estland
BR
Gent
Effekte
##lü
begangen
Take
Elsass
Pie
Mag
Kaiserin
Alaska
##chrift
Heart
informiert
Rüstungs
Allgemein
Kohlen
##dens
Verk
Caesar
##akt
##tia
Bisher
##jn
elektro
Moderator
Abd
##rge
Turniere
##besitzer
Rhythmus
Armut
Symptome
Kanzlei
Anschlag
darstellte
Dai
Sommerspiele
Astronomen
146
verziert
blauen
Rebellen
Mosel
Klöster
##phen
demokratischen
Kiefer
Ausgang
##sgesetz
##münde
Rea
Indian
##quartier
Mönch
##ierungs
##gestaltung
ukrainischen
Walt
##arzt
Börsen
##tch
Meißen
Lei
GS
Bohr
##nth
Reaktionen
##olge
erstellte
Heil
Pseudo
Hessischen
##bedarf
##reihen
Tiroler
Tr
vollzogen
inner
Wiese
ausgelöst
Kurse
konkrete
Rasen
Protagonisten
Regierungszeit
Matrix
Grass
demselben
Puerto
NN
Steuern
Russlands
##has
##dol
##chst
Verdacht
einheitliche
Segment
Heimatland
mithilfe
Hus
Engländer
Spitz
Kentucky
##raf
##eum
schlagen
Stadtbahn
##erm
Landstraße
erhöhten
##ān
##ih
##lat
##tzung
Deutung
Swa
Ernährung
Charaktere
##vers
ISO
Toni
##ndung
spitz
Steinbruch
Canada
##lb
zugehörigen
Lawrence
Bundestagswahl
##tudium
vorbereitet
aufzu
auto
Zimmermann
stellvertretende
Pel
Kirchenschiff
##betriebe
Oe
Audi
Berücksichtigung
viert
Pen
Frederick
schien
Antoine
Cli
Kairo
Heine
umgekehrt
regional
Büros
EN
las
Pri
vollendet
Marseille
Orleans
Sofia
##back
Pei
Lava
Klubs
##ilder
Virus
Verhältnissen
Gef
Wahlperiode
dunkle
##icher
Seelen
Radar
Office
Ré
Weltraum
Rama
##ohn
##mmt
niedrige
Maha
Geschlechter
##inn
Landschaften
##lio
##organ
Laser
##kul
erwähnten
##azi
Datei
240
##sab
übrig
Zypern
Unruhen
extra
##pre
##eth
NFL
Prediger
Logik
##schlag
geschaffene
Stre
Englischen
lateinische
aufzubauen
wahre
trainiert
sorgt
Richtungen
##tho
1783
##cheid
Heu
Chau
##ér
Job
Bestände
herausge
Cre
Singapur
Nam
##lav
Jun
hu
Pla
Maus
Duell
Hauptwerk
Challenger
Inge
2020
##macht
kritische
##ê
verlaufenden
IUCN
##sim
Verg
Wassers
inszenierte
Quell
Lyrik
XI
##ffel
Hoo
erteilte
Kis
ME
##ätte
Referenz
Sal
Kay
Sum
übersetzte
Malta
Kletter
##oberfläche
History
Emanuel
##ahme
abgeschafft
##boot
Schallplatten
Instanz
##rid
##kla
##idi
Abfluss
Cas
##üter
Gehalt
Ori
Neues
##spitze
Note
Geister
Lucas
Prinzipien
Op
Commonwealth
##worth
we
Ereignissen
GE
Ausgleich
Krater
diejenigen
gesungen
##fre
startet
erweiterten
Classic
nordwestlichen
Schröder
Niedergang
Gliederung
verbundene
##chlag
##iß
##aceae
Hydro
EV
##ym
Neffe
Vorträge
Operations
Cala
Beobachtungen
variiert
##air
selbständig
Dagegen
Folgejahren
##jekt
Qualitäts
##erei
zitiert
##höfe
Nim
Lisa
erwiesen
Arzneimittel
schriftlich
Ek
digitale
Venezuela
gebraucht
Rah
Riesenslalom
Fett
Stuck
Mä
##tl
##ome
Schweizerischen
Kohlenstoff
##wissenschaft
Werden
##lösung
Qui
Griff
Laufzeit
Fürth
Ernte
spezialisierte
Auftrags
Teilstück
Substanz
Ott
Ley
Har
Bürgermeisters
Genres
australische
##auten
Persönlichkeit
Nordischen
##ill
Verwaltungsgemeinschaft
Sind
Ortsgemeinde
##hat
Alba
##orum
##grab
Leiche
Ähnlichkeit
sportlichen
silberne
##orschung
vorge
Mé
Landeshauptstadt
##wart
##isieren
hervorging
##bezirk
avancierte
Hr
Gitarristen
herangezogen
##jer
beeinflussen
Casa
Fuße
Spring
Menschenrechte
kinderlos
wiederhergestellt
Caroline
##sol
Prof
##felde
Klagenfurt
##orp
Valle
Konzentrationslager
Ionen
Menschheit
AK
praktische
##rück
##ical
##amb
ch
Rekonstruktion
##volumen
##sicherung
Emeritierung
Dre
Ae
Gemeindeverband
Flugzeugen
##rbeiten
Dutzend
Kaiserslautern
Bergwerk
überquert
leer
geeignete
Schuh
Designer
Alois
##eme
Va
Kommunistischen
Š
angetrieben
Boys
behauptete
besiegt
gefordert
Magdalena
Experimente
##inhaber
##gal
jung
ordentlicher
Masters
Bedingung
WDR
Glen
Bestehen
550
##mat
Lud
Beachtung
Magnet
##nza
Kelch
##ierenden
Mitkonsekratoren
##wig
Xi
Alpes
gedruckt
##arkt
philosophischen
beginnend
##cle
Koe
##hire
massiven
betrachten
Störung
Einnahme
Ast
eroberte
eigen
##ystems
verlieren
##gest
Reichsa
Metropolitan
Erziehungs
zunehmende
ägyptischen
Lands
Haltestelle
basierte
Sattel
##gesellschaften
Seh
##kind
einbezogen
erzielten
Diensten
fach
##direktion
##bibliothek
Rallye
##uti
Total
DH
punkt
Bert
bestimmter
Rhône
IB
Biathlon
##kamp
ihrerseits
Fil
Klu
zurückgekehrt
studiert
Piano
Andy
Oberlauf
Gilbert
Natural
Flo
##hain
versteckt
spezifische
##ged
##rektor
##ceae
Schle
##lik
verfilmt
starten
fern
Wohnungs
Aufsicht
##het
mitten
Bremerhaven
Berk
wor
gotischen
Viel
Markgrafen
Independent
anwesend
##bäude
Piraten
Aufsehen
##head
Fresken
Berges
übersiedelte
gelöst
Rechten
Erzähl
Gefühle
Wachs
Deich
Arti
Maxim
Linke
Ivan
Aff
Flüchtlings
Bö
Oro
Ly
µm
Bre
Lernen
##gor
unterhalten
schöne
Sz
Kinofilm
Gedenkstätte
##text
Paare
Naturwissenschaften
Anschlussstelle
stärksten
##ect
Freistil
Dü
Bewusstsein
Kommunisten
afrikanischen
Heiz
##lä
Most
Mehl
Debatte
Verse
Reaktor
##rungen
IG
Eich
##bergs
Walker
Springer
Titan
Oberseite
##werks
beschränkte
genutzten
##ilung
Brü
Ib
Vorgänge
Schönheit
##zität
staatlich
harte
##bte
Übersetzungen
erwarten
Yan
Untergang
Ida
##räumen
künstliche
endgültigen
Nil
##hus
nachträglich
südlicher
Aussterben
Zeitalter
##tragen
##ands
stattfindet
gesetzlichen
ST
Auftritten
abge
erstreckte
Lai
Großstadt
gewinnt
Demokraten
trennt
Rain
Sin
erregte
Atem
Angebote
##etrieb
gewählte
Aub
gelangten
Befehlshaber
##schluss
Maryland
Traditionen
geschieden
Satteldach
Chat
Blättern
##rade
##lg
Galli
Ess
Bed
Wor
##lk
Griechen
vollständigen
Mittelalters
Son
VD
##vu
Streich
Event
lernen
Kegel
Bindung
Lichtenberg
Nordafrika
übersch
Ar
frühzeitig
Resultat
Europapokal
mitge
Wiederwahl
Hirn
##fri
Part
##alo
Vierer
Evans
##itter
##ative
Musikvideo
entkommen
Revier
Rechnung
Anbindung
Mana
Gedenktafel
##verlust
primär
Stör
Natrium
Wüste
Spannungs
Legion
Eingangs
Diskussionen
berufliche
Ried
1775
##ą
Göttin
Blüte
##sam
##hang
Längen
##ph
Wenzel
Minderheiten
##einsatz
from
##ngt
##physik
Apostolischen
Kasten
leiden
Meisterschafts
Kus
Kat
stimmte
verändern
Einteilung
AV
Nickel
Ada
vorkommt
##τ
Besuchern
inmitten
Kate
Begriffs
##stoffe
Fähr
##olin
antike
halbes
Monta
##loge
##bericht
##haut
Umlauf
Durchschnittseinkommen
##gott
Pal
##zügen
##vas
##egi
##ichte
##gens
Überblick
up
##gia
Innenminister
teilen
abseits
##immt
verkündete
Kreuzes
hörte
Sektor
Pad
Besatzungszone
##onis
gez
Jr
Empire
##tto
##zonen
##lay
Heft
Passau
Rosenberg
Exemplar
einstigen
Untere
Beleg
##aire
Begleitung
##ruf
verstorben
1772
vernichtet
Verwaltungsreform
Titels
benutzen
Girl
Nonnen
Teilweise
selbstständige
##periode
Garnison
Stadtteils
deutet
Scheidung
##bereiche
Schwa
Charlottenburg
##lp
hängen
Track
Erstellung
##mor
Schu
Parker
Sko
Nigeria
##orts
wofür
XII
Homburg
Kantone
Tetra
Fertigung
Tiger
Schwefel
Mohammed
Houston
320
Tagebuch
festgehalten
Alma
erd
bild
Gerechtigkeit
##friedhof
gehe
jemand
stärkere
KS
orange
##afen
Helene
##äus
zufällig
Stuart
Polens
Aufführungen
Bevölkerungszahl
##zow
Turms
##örderung
##spiele
Kei
komplexe
Walk
Dichtung
##ís
##volle
wusste
Utrecht
##schein
Dé
##lächen
##enti
dunklen
durchzuführen
Offensive
Lew
linker
Qu
Rus
Under
Kelly
Thi
##lé
Bundesländern
Erlass
##aya
Medi
##inge
FIFA
Gleichung
ermitteln
hob
##ös
beachten
##ieler
Vetter
Ue
Bestandteile
pri
form
Zyklus
Esch
##tochter
Cond
vorgeworfen
aufgeben
durchgesetzt
Messung
##ique
niemand
Mittels
Gürtel
Avenue
Asa
FI
Lot
##omi
##meinde
neo
Pay
##konferenz
##bin
Kuh
Bahnlinie
##messer
230
Carter
##ction
Fries
##keits
Eisenbahnstrecke
##ement
dreizehn
Grimm
##könig
Planck
##uhl
##achs
anstatt
einzig
Zuordnung
Erholungs
##ime
runden
Pädagogik
##oga
##mitglieder
durchgehend
deportiert
Que
##verg
Mad
Streitigkeiten
Kran
Föderation
Krefeld
Jonathan
dahinter
zehnten
europäischer
Begleiter
Sack
Denkmalpflege
Mach
##gebieten
Dreieck
Pauli
quadratische
Ralph
Feinde
##ò
herrscht
Wahrscheinlich
Ty
Treppen
Wahlgang
türkischer
Verträge
Explosion
BK
ke
Schub
Alles
Ringer
##sla
Ortsnamen
Konzession
brannte
TA
Wu
Glo
##abi
oberste
Vision
Ortskern
anf
Westküste
weichen
silbernen
Tarif
Heilig
##vereine
##dienste
Your
Ryan
Anime
##itten
bio
Wenig
Genua
Wüsten
##xo
montiert
Sah
##hlt
Schwager
Rim
KP
Gerichte
lateinisch
freigegeben
königlich
Ō
direkter
Feste
schen
Engagements
Konkurs
Gefangene
si
Borg
Hofmann
Orientierung
##issen
Wettbewerben
Mali
Emp
##rti
UCI
##panzer
off
##pot
zivile
Sali
##farbe
Sumpf
Lebzeiten
##test
##hne
Cara
Burschenschaft
Spanisch
Klosterkirche
bayerische
Volker
##ücher
richtige
analog
Wirkungs
##sien
archäologischen
Winde
Rü
gewertet
Liu
gerichtet
aufgelegt
Jeff
besuchten
Bod
echte
Juristen
##meyer
nachzu
##sre
Weide
Tell
Dead
Kie
Ehre
##20
Sitzen
##phi
Synonym
270
AE
##klassen
Überwachung
Schulz
Konzepte
FS
Dorothea
gestalten
geführten
Statuen
car
1776
##weite
##liches
gerechnet
Places
ac
Neigung
Französische
romanischen
##schnitt
Kommissar
Nieren
sen
barocken
Reporter
Publizist
1782
##ander
wohnt
Lehrerin
##int
Such
##oben
Semi
##nch
Saisons
##orst
interessante
Se
Sch
Alphabet
##stä
heim
##antrieb
Tra
Hitlers
Double
Barri
Widerspruch
Buchen
Absch
AN
##rren
singen
Wiederaufstieg
wechselten
##rak
##ulu
Umstand
Jas
zeitlich
Low
Verbraucher
Bolivien
Biographie
##nick
Bek
ausgegeben
##kers
##bet
Kalten
Ina
vermuten
Canadian
##gesetzes
Delta
ernähren
Py
##hase
MC
##witsch
Ward
Präsentation
Kath
Aufenthalts
##siedlung
weitergeführt
##nse
einsetzte
Klassenerhalt
##dge
##atur
Besatzungs
##gesch
au
gelben
abgekürzt
Raymond
con
Aut
##bia
Hauptdarsteller
Automobilen
##т
##vol
##raben
##ormen
Ura
Jahrestag
Fahnen
##RA
##arbeitet
Abwesenheit
berichten
unserer
jegliche
Verschiedene
Raupen
Oberbefehlshaber
Notar
verwachsen
offs
kurzfristig
Break
Louisiana
wohnten
Publikation
verwickelt
Restaurants
erlangen
Entwürfe
##mans
lin
Yama
Sti
kommunalen
Geometrie
##rle
Pensionierung
Albanien
##malerei
Lima
Interviews
Boeing
Landshut
##itu
kritischen
Ehr
schräg
##nel
Signale
Ausschusses
Margarete
##tedt
##altar
Linux
##tf
##tals
##bur
rechter
geprägte
##alde
Querschnitt
moderierte
Veranstalter
##eschichte
kn
Stiftungs
Make
empfohlen
CV
nannten
Brems
Anger
##amp
theologischen
Detail
fehlenden
Bienen
##usa
##sg
bewarb
Challenge
##tunnel
##ssch
##bas
Modernisierung
Ner
Rückstand
##rweise
Wohngebäude
Küchen
Songwriter
Hak
Cop
##rden
Spital
verbracht
##pert
seltenen
Acc
sportliche
Res
##sprache
##literatur
fe
Aba
Landau
##haupt
##bachs
Trikot
Kurve
regierte
Stabilität
Schlangen
interne
interessierte
Well
Gleit
Beg
##teich
Spree
1777
Ohren
##tischer
repräsentiert
Werkzeug
Hau
##oge
Hass
Augsburger
Auftakt
##lügel
erlassen
Konsum
##charakter
gewährleisten
getauft
Contest
Kamp
Weltrangliste
untersuchen
Vertrauen
Orange
Börse
Salvador
Development
##dischen
angeklagt
##egg
Sorten
Betriebssystem
gewährt
Ethik
Industrialisierung
##iste
Logistik
Brau
Sporen
Filmmusik
Madonna
Wü
Vertriebs
hart
Sicherungs
Spe
Autors
##streifen
Autonomie
Finanzen
Austin
##ministerium
##bat
Deli
Taka
##vereinigung
angefertigt
##ümer
Wendel
##rede
Ful
Engineering
##sme
Nachteil
##uka
Wester
##eid
Fernando
##stra
Billboard
Santo
##inie
Verzeichnis
##iri
pla
Alabama
TE
Sö
warten
Oberb
trennen
Tun
##mond
Ordnungs
##piegel
Rechtsprechung
##gro
##ava
Morris
Historische
Adolph
wiedergewählt
hand
Dachau
Vorarlberg
Till
Sab
Algerien
VEB
fehlende
Moon
beruflichen
##nien
##aga
höchst
Nichte
vermarktet
theologische
Zentren
##halter
Castro
Freistaat
Cad
Benzin
gestanden
Beratung
Maßnahme
Pere
##stock
Peak
Monster
##rre
##gos
Marshall
Treppe
Regisseurs
unterzeichnet
Gutachten
##chne
unbe
Regierungen
intensive
Stiel
##qa
##sweise
Heimspiel
##abend
enden
Triumph
Hama
erbauten
Ultra
Verarbeitung
Kolo
##ev
liberalen
gelblich
Pö
Gör
Gary
verlaufende
siedelten
Zauber
Autorität
Bundesministerium
Bran
Unterart
Petri
Skandal
steil
Rechner
Private
Europäer
##hrung
IM
##saison
scheiterten
##scht
##kra
deuten
##besch
Sarg
Avi
##erp
Tochtergesellschaft
Kel
Uhren
scheinen
Primär
Fru
##ielt
Kr
Maurer
##imo
##ema
Erinnerungen
Baker
##rmann
Nasen
Bergland
Fi
Empfangsgebäude
##lität
##ej
Whit
##enko
teilgenommen
reguläre
dreißig
##opfer
tausend
gewährleistet
##uche
Pho
Oregon
Gottlieb
Tet
Gä
##lina
Widerstands
Verstärkung
OH
Bird
Hunger
Ausbreitung
Abschied
Dill
##AS
scheinbar
##masse
##kli
dick
Witt
Gelegentlich
kürzer
alljährlich
##rose
glatt
Statt
Rec
Zagreb
Survey
Luxus
Born
fusionierte
Mae
inspiriert
Herstellers
##tic
Brünn
herzustellen
Northern
##logische
Card
202
##ň
##verarbeitung
##twicklung
Stapel
Sri
tu
Vertreibung
Demnach
##ater
fing
Stalin
Sinfonie
Herzöge
##gny
Vie
Kata
Auswertung
##iegen
Tante
Nutzungs
Kop
##kol
ma
Kunsthistoriker
verwirklicht
schlechter
Nahrungsmittel
zuständige
Erschließung
Warm
Lib
Kabinetts
Forstwirtschaft
##sig
ständige
angelegten
##tner
##kur
##funk
##freien
##ao
Stängel
Rückgang
Niederlassung
Liefer
##forscher
Heiden
Barth
##zahn
anfänglich
Privatdozent
##änderung
Gerade
Bors
##weisen
##far
Räumlichkeiten
1760
##eller
##br
##ña
Schaffen
##ales
Weiterbildung
widmet
Ora
##ägt
Erwachsene
verfolgen
schi
Gewerkschaften
Übergabe
##stik
Dau
gefasst
Tob
##ő
Fun
Kriegsdienst
Ian
Gian
Bros
AI
Observatorium
Kō
Mütter
Glockenturm
erweitern
Sieges
Dallas
##bahnhof
Page
wachsende
Lo
mein
Katholische
Bundesrat
##az
Indi
##division
bereitete
Westfälischen
##ellung
Oswald
AF
##uba
vereint
##ehe
flog
Wichtige
Kapitulation
Ank
##ło
massive
Geologie
##uli
##arben
##nom
geeigneten
Fußgänger
Vorschläge
##denz
Zahlungs
Wintersemester
Besondere
Hinrichtung
Dog
##avi
Proben
Neffen
Niederländer
##eger
Obersch
Fachbereich
##plätzen
Vergabe
##eist
SW
Lenz
lobte
RB
Brom
Crew
Ü
##fä
##pie
diplomatischen
bau
Martins
1100
verheiratete
blaue
Laurent
Fü
Nie
Kun
Aufsatz
##hos
Leg
Hun
##logen
falsche
##äd
klare
Cai
Diener
Provinzial
Anker
Side
gezielt
##roman
##ume
##ep
Sing
Elektronik
Cour
Electric
##leute
Millimetern
Gewichts
Thompson
Matthew
Gos
technischer
Tons
Dienstgrad
Kosovo
Knaben
##stes
Folter
##court
Niederrhein
##ühne
online
besonderes
1778
##kraut
Dirk
Lehren
##ierende
charakteristische
Scha
Kristall
Kost
Echo
Bala
##ersch
Nai
##digen
Baudenkmal
##DA
Pietro
##nsk
Schilling
Hunt
Eddie
##rab
Intervention
Aspekt
via
schrittweise
Studies
Cer
gi
Meier
Kreisstraße
Beratungs
Endo
##grafie
Mülheim
erringen
Spanischen
Berkeley
##wy
eingebunden
Installation
einander
behaupten
Administration
##uma
Agenten
##flotte
##ersdorf
Zeilen
Zaren
verla
Sak
kombiniert
Sachs
Kut
##bett
##yt
##ming
Bordeaux
Empfehlung
A3
##iens
beibehalten
Gam
letztere
Cousin
Bänden
Gesteins
Taufe
Nadel
Hes
bemerkt
Exo
##ensch
gesucht
##itis
Seg
Helfer
Control
##elder
gesagt
Malaysia
##anden
Mak
Giro
##jar
aufrecht
Mahl
##cul
Batterie
initiierte
weitestgehend
Brooklyn
Bunker
Hauptgebäude
##yk
Cricket
##ügel
##räte
Miguel
Koh
##frequenz
Steins
westfälischen
Vereinbarung
Ou
Halt
verehrt
Anpassung
olympischen
Osteuropa
Landesmeister
Kommunen
Salm
Got
##örder
##ssion
##rem
Ta
Henne
Gar
par
Vorwerk
##ave
##jk
Campbell
##mol
wohnen
Oberschule
Friede
Sogn
##einrichtung
##nähe
beschäftigen
DG
Poe
Lab
Augusta
betrifft
1763
Umgestaltung
Mandate
Backstein
entscheidet
Filiale
Champ
##lum
zweitgrößte
ehemaliges
digitalen
##ehr
##tr
##tit
##erne
niedersächsischen
sozialistischen
gesundheitlichen
gesch
Journalistin
Container
Lungen
fasste
Wests
##flo
Tsu
MG
Aue
##sso
##ringer
öffentlicher
grob
pan
ausgeliehen
ausgeprägte
Mittleren
Ruhrgebiet
##eins
Freiwillige
Sekundär
Depot
Apo
Torpedo
Wilden
Thriller
stattfindenden
Fotograf
##fonds
Neuordnung
Historischen
benötigten
Ansätze
##spe
abst
Lili
stattgefunden
längste
behandeln
Islands
Mot
einheimischen
##haften
##swert
##stre
Richtlinie
##wissenschaftliche
Transformation
angewandt
Obert
Ideal
bricht
##anger
reformierte
Stadttheater
Hasen
##elemente
gescheitert
Abi
##heil
Veit
##ket
##erst
verdient
##design
Boll
Boe
Slam
Silva
##verordnung
weltweiten
verabschiedete
##wissenschaftlichen
Vorgaben
##iu
treu
verzichten
Wolken
Alp
mitzu
alternative
ap
Nationalparks
Anhöhe
Asyl
##stärke
##ruktur
##rmi
##reisen
Profit
Muslime
##büro
##LA
##hand
##elf
Schie
Cur
1740
##künstler
##aj
ähnlicher
Fonds
absteigen
Käse
Korb
##bos
Labour
Ensembles
##stücke
##mberg
dir
Käufer
2000er
1774
##siert
Schriftstellers
Ger
Augustus
##jon
jenen
Lod
Herzen
Empore
##energie
betriebene
Laub
##nit
##chicht
Stadtgemeinde
##nkt
sonstige
renommierten
Saarland
beseitigt
Cun
Bonner
Belastung
Münchener
zusammenge
Mundart
Cran
Aserbaidschan
##ues
##läge
Sy
Cape
anzunehmen
Sang
##leb
Wochenende
##üche
Fliegen
behalten
Mauerwerk
##führen
##hra
ID
Command
herrschte
Tibet
##ink
Pulver
Oberhausen
##ging
##geb
##dos
Petra
MTV
##hau
alliierten
Rückrunde
##yas
überzeugte
Gab
Hypo
geschehen
Demokratische
Betten
demokratische
befreundet
Erscheinungsbild
##mte
Erwartungen
Diktatur
##schwei
##polis
ibn
##dus
Blas
stellvertretenden
ausgegangen
aufgegriffen
Fau
Täufer
Thai
Karibik
Gro
##teri
##ân
Spitznamen
Warn
verhältnismäßig
thematisiert
Unterbrechung
Mora
Schema
##oxid
Abfall
##lov
##ál
ständigen
Hol
Cleveland
forderten
##ähnliche
##chl
##ahlung
Loh
Grundsatz
##tums
AA
Stroh
Anhängern
##owitsch
##mag
verschwand
HA
angebunden
Mos
Michail
Cham
##xid
Überfall
rötlich
heutiger
##alk
zukünftige
Reit
Gesichts
Zonen
vielfältige
Beta
Sätzen
Pick
Eichstätt
##tle
##grube
überarbeitet
angehören
Umbauten
Baptist
Ani
##baus
Unterlagen
Schreib
Ingolstadt
Biss
##sohn
ausgespielt
Düren
##fahrzeuge
Wag
Miet
Frühling
Diagnose
U20
geführte
anzu
Einigung
Berlins
Zahlung
Kompetenz
Inbetriebnahme
Brach
Kameramann
##ärzte
Este
##stin
##aja
Schreiber
Herm
SL
Care
Beu
Betrag
Manhattan
komponiert
Zelt
##llon
protestantischen
FM
##wä
##damm
Vegetation
Konvent
praktischen
Professorin
Häfen
Herausgabe
##rett
##brett
Taschen
##pä
fungiert
Brothers
##affen
##pal
philosophische
freigelegt
beschriebenen
Field
selbständigen
Still
sowjetischer
Reife
Nazi
gerät
Fleck
norwegische
Mill
vergleichbare
Winterthur
Vorwurf
##historiker
Bestands
##lder
Sint
Else
Clan
##kinder
vorliegen
schafft
Landwirt
##ř
##enk
Lambert
##esellschaft
##alm
erkrankte
Russisch
Poker
Kaufleute
##pha
Namibia
Lin
Lichts
Gemahlin
##isierte
folgendermaßen
listet
##politischen
Barry
Andro
Reinhold
##rtung
##gger
Dimension
Verbandsgemeinde
##spiegel
##pannung
##opp
##bundes
Sue
runde
Gri
1773
Rai
Enden
mu
dia
Lund
Lub
zusammenzu
zivilen
dritt
##î
belgische
Umstände
Ska
##tafel
Inner
##orth
##fallen
ste
Mixed
Angestellten
##offen
Had
Flüssen
Erwerbs
internationales
integrierte
Here
##hes
##ütte
umgangssprachlich
##zähne
verlangte
##ßig
147
Alm
Robinson
Ochsen
Munition
Kanadier
##äne
##ierungen
verdiente
Dat
Alltag
Anwendungs
helle
Ronald
##rdi
##olf
geheiratet
Systematik
##nutzung
systematische
##register
##brunn
Cinema
##ega
##ede
Tir
##hammer
verfügten
hinauf
##meisterschaften
unmittelbaren
Sportarten
Grafiker
##ð
##raten
##amtes
nachts
Gis
kostenlos
widmen
Speise
Botaniker
wechselnden
Einschätzung
Bee
##zweig
##nor
##imi
bauten
##mis
Ull
Revolutions
XVI
Warner
mittig
Schlachten
##stan
##lement
Territorien
Staatsstraße
Anliegen
##ře
kaufen
Kali
Hö
Gros
##Ü
##bestand
erheben
Meisters
List
Kaplan
##quin
Vila
Dekret
grundlegend
gesetzliche
ang
Glücks
Matthäus
Bibliotheken
##ländischen
Organe
Fahrten
Ens
##shof
Hundert
GB
Swiss
##mai
zeichnen
##ohl
ent
Link
Modul
##isa
rechtzeitig
##yst
Ech
##helm
Warschauer
Stu
##ellt
Steck
DF
##gur
##cin
zwang
Lut
drittes
komplexen
heimlich
Konvention
##tür
ungewöhnliche
Ang
##в
entstammt
1781
##tp
##kie
Leicht
Gesamtfläche
Boul
Leinwand
Oberf
##wende
Treibstoff
Burgund
reagiert
Rey
Herman
Weis
##ensis
##ines
Ret
Martha
Festungs
##bataillon
offener
Fragmente
Bezirke
##gleis
berühmt
Tie
Maro
Wayne
Treue
##misch
Quadrat
##arsch
Psycho
Ars
Moos
Comp
##rse
Speer
legten
##nitt
ändert
verwechseln
engeren
Papa
Ship
Myr
Sekunde
umfassend
##ndo
Kontrast
Kommunal
anerkannten
Stile
Streckenabschnitt
##odell
homo
Planet
Hum
##dorff
Taunus
Schubert
Micro
Arno
##orten
Alf
Sportwagen
Humor
##law
Brun
Augustin
##gma
professionelle
unterstützten
##rb
Murray
pi
Sprech
##ündung
##gten
##fic
Republikanischen
Theologen
abwechselnd
##esta
wi
portugiesische
Trust
Luigi
Gers
##cer
Raumschiff
##üs
Kanals
hervorgegangen
elektrisch
Kontinental
Joan
##polizei
##λ
za
Prosa
Jahn
##adi
##teams
##rgen
Jason
Ela
reduzierte
Staatsbürger
Nancy
vergab
Fortschritt
Dim
Marianne
Hub
##rho
Ot
##ence
Nature
Kul
##cop
späterer
Reduktion
Aller
Langs
Folgenden
##hoch
reduzieren
Verwandtschaft
Tommy
Services
Jonas
auftritt
Rhe
##stift
##herstellung
trockenen
Kasachstan
Filmregisseur
verbaut
Säule
Abschaffung
strategische
Work
Richtlinien
Mam
Englische
##uern
##ritten
Einwanderer
Isle
Nils
reformierten
Schä
Commission
##eß
##ents
mächtigen
jüngsten
reisen
Marschall
Vu
Sign
Bürgermeisterei
##pat
Flandern
Ackerbau
Plastik
Fahrgestell
Ethnien
Hanse
Aufteilung
weswegen
ablehnte
Teleskop
Schiefer
Lach
Celle
Hohenzollern
##tige
Blasonierung
##sum
##IS
Bobby
##lam
##frau
Seoul
vierzehn
hilft
Wrestling
Wirbel
Jochen
Grundstücks
Ag
##ront
##komplex
gültige
individuellen
Canal
Brecht
Organist
Großherzogtum
Cut
Bey
Werder
##liegenden
##größen
Lords
##usk
Archipel
Sil
Erdgas
1730
gegenseitig
Hörspiel
sonstigen
Id
##core
##besitz
Messen
Harn
Côte
Leichnam
Ig
Ghana
Bernstein
##recke
Birmingham
Tonträger
2500
Ra
feststellen
militärisch
Reichstags
Linken
Hansestadt
entführt
Trinkwasser
##union
Fahrbahn
##portal
Liedes
##liegende
durchführen
Guido
fehlte
Zerfall
Wis
##verletzung
Jos
##dell
durchgeführten
Alfons
##meer
geringere
bemüht
Way
Geschmack
Flotten
##tanz
##eine
Pis
Kaliningrad
unbekannte
geleistet
##aku
##rth
##kle
solange
Sexual
Latin
Jubiläum
Denkmäler
##verkehrs
Ideologie
Beurteilung
früherer
beliebtes
Gute
##eon
gelassen
Spalte
Trieb
Gütern
##ckung
Google
##elin
##branche
##put
##nsch
abgetrennt
WS
Intelligenz
Hal
Eifel
EA
Ado
Mittelfeldspieler
Ersch
Ao
Sparta
Short
lebenslange
##jen
weitaus
fünfzehn
##uan
Assa
Alberto
amp
Bonus
Joch
Cam
##eh
Vorwürfe
1779
##ress
Innenministerium
Ach
##wie
nacheinander
Rechen
Pr
##ε
Oberen
##tol
Zuerst
Herzogtums
EB
##yle
##owitz
CP
##truktur
Deu
Coach
Teufels
Entschädigung
Aachener
##ube
Wing
senkrecht
seinerseits
Gesamtlänge
##kom
Schumacher
akzeptiert
Tobias
Mitt
Gartens
Ostküste
Arabien
##geh
Dunkel
##sischen
DI
Röntgen
Austragungsort
Sli
Krankheits
Burgenland
Zwickau
##ský
wiederholte
##mani
Zweige
##marsch
Moss
Phoenix
gutes
Territorial
Option
Ältere
##veranstaltungen
Einkaufs
##CA
##dre
##kauf
##inister
Wahlbeteiligung
tatsächliche
denselben
Gummi
Atlas
##bringen
##ied
##tow
Catherine
Beamte
##iesen
einzusetzen
##ngo
Vornamen
##uga
Joint
Extra
Chinas
Pas
Gips
konstruiert
eingebracht
Jungfrau
breites
Sas
Stell
Massiv
Elementar
##erra
Thu
evangelischer
Image
Projektes
Ever
##yc
##rche
##nchen
Subjekt
Jac
##vá
Machtergreifung
##nica
leiten
Flu
orientierten
gedeckt
Differenz
Bella
210
Ram
Nachkriegs
Bahnhöfe
hindurch
Aufklärungs
##inus
##eal
Anzeige
1648
Tan
Boulevard
Potential
Jau
##ood
##icke
##hei
Landschaftsschutzgebiet
##gramm
Lago
##archiv
Schulgebäude
Werkstätten
Italia
Wiederein
Gruppenphase
Ard
Tü
Schumann
Limousine
Handschriften
betrugen
Vokal
Bac
Wars
Seattle
Kaspar
Gan
##fähige
Zensus
kommerziellen
##tzt
Wehrdienst
Teufel
Peer
##professor
##hem
Porno
Sehr
Project
Glanz
Auswärtigen
verbringen
Antarktis
##uc
Plural
Betrieben
Nations
##ritz
pre
Einzelnen
Carol
##kh
pflegte
Venus
PD
Brandt
Mü
Amphoe
##insatz
Portland
##mini
##rick
Trau
Meisterin
##any
Theaterstück
##tö
Situationen
Salomon
Druckerei
##oj
##ène
Lack
verringert
gegenüberliegenden
existierten
Haare
Arte
##had
Player
Nagel
##lles
##fälle
Pays
Kid
##н
Gru
heftigen
##rium
##klub
Helen
##pes
jenem
Vereinsgeschichte
##bell
Mede
Kala
##klinik
misst
Datierung
Nachmittag
##geber
versenkt
durchge
Großmutter
aufgefunden
Kirk
Beweise
Aki
verlängerte
Sed
Dec
##asch
kontrolliert
Watt
Getränke
##sellschaft
Lap
Bari
##wegen
##kirch
Geschehen
sprachen
Mitwirkung
Futter
Ven
Stark
Trend
Schauspielhaus
Pau
schwarzer
liefen
PP
Gray
Bristol
Unterhaltung
Riff
Bann
##star
##fil
##alis
wöchentlich
Stickstoff
Aufge
IA
Sony
HB
Shō
Coch
Breiten
unre
Claudia
Regierungsrat
Löwe
CR
##nst
Sai
Leitungs
##bahnen
##umi
##geschlecht
Lenin
Geschoss
##udi
##jugend
Mano
KV
Georgien
Stützpunkt
Polymer
##eifen
Kam
Jülich
Rangers
Erzherzog
##fischen
##aer
praktizierte
##stone
##ordens
##universität
Märtyrer
Mitarbeit
Mata
Wil
Konzeption
Gertrud
Erzeugung
Ain
##vik
NO
Keine
Bot
##shausen
lernt
##iki
##trecke
entnommen
Viktoria
##tone
Violine
Vegas
Apotheker
##mina
LS
Franc
begrenzte
Download
##tscha
achte
pra
industrielle
Rast
Geschütze
Längs
Autonomen
##fr
Expansion
Schmerz
Hä
Dob
Trophy
Hey
##ält
##vić
XIV
Sanitäts
Prädikat
Community
##ppt
Bron
##50
Trump
Torwart
Traditions
Rica
Geburtsort
##pet
Race
##eden
Fließ
##jahren
erfordert
##ienst
##ello
nahegelegenen
nebeneinander
herbei
Reden
Ralf
Bog
Staatsoper
Jüdische
Hae
Wright
Led
Anden
vereinbart
Henning
Überzeugung
Investitionen
Vas
Justin
##trakt
Masa
Förderer
##ple
Berührung
##äl
148
Baudenkmale
##ntal
überlegen
##lings
##oda
FIS
Abel
##önig
unf
Schieß
Leonard
##lehr
erlauben
##ssystem
Leningrad
optische
Vierter
Ries
##ihe
##dig
bezeugt
Zan
Gat
weltweite
exakt
Falter
überließ
Osts
bu
Fahrgast
Revision
##wälder
Studierenden
Leverkusen
##gge
böhmischen
Göteborg
##moor
konzentrieren
gebildete
Pink
Beamter
##vorkommen
##olle
##ture
Auftraggeber
##sp
männlicher
Suizid
##methoden
##gle
Vorbe
Saba
Markgraf
##ych
Chip
Bram
Armutsgrenze
Alexandria
Wut
Spo
Panama
Kopie
##osition
Gedenken
VW
Differenzen
190
ph
Haupta
steigen
ausgeschieden
angesetzt
##gun
aufstieg
Membran
Rado
##abt
Saga
umgebenden
Konzil
Porzellan
Hardware
Wohlstand
##wick
##rain
Geländes
Hap
Hansa
Finals
Chlor
verzeichnen
Jerry
Eng
CB
Sag
Grundstücke
Gespräche
Saa
Libanon
##uis
seitlichen
Saudi
##niederlage
LG
Beirat
##aufnahme
Bott
Tit
Booten
##sca
##lem
überlebte
Lock
Dennis
Unterstützer
Krö
Görlitz
ze
besagt
tourte
Unbe
Put
Blitz
Umstellung
Cie
260
##ulen
Politische
Endpunkt
tödlich
Quanten
Landeskirche
Campo
##ń
Gra
Substanzen
ordentlichen
Fenstern
Lup
##ibliothek
##eler
argentinischen
Neuguinea
Stabs
Dateien
getestet
##igkeiten
negativen
Strahl
##verbrauch
##ric
Thorn
Harold
Gewerkschafts
Bestätigung
Radsport
##rze
##gre
Gelenk
##ligen
Bergs
##pti
Dep
##rige
##peicher
Generaldirektor
##vier
Erfolgen
Bildschirm
##tell
##lly
##ladung
Garden
Ah
##reife
##lätze
verdrängt
scha
##р
Zwischenzeit
Mons
##zwecken
##num
##mitteln
gelesen
Gefühl
Bataillons
Zins
Len
Rettung
Elefanten
Vermutung
##austausch
drehen
Philipps
Beth
##wes
meine
Großk
##ę
kannte
Say
film
##aupt
##uter
##tron
untergeordnete
Shaw
Materie
##onne
##brück
Fen
##arn
Landwehr
Singer
Ladung
FPÖ
bearbeitet
##ief
##eilung
repräsentative
Theresia
Zeile
Primera
nationalsozialistische
Arbeitsplätze
##vert
##festival
Wang
Laufen
##andi
vordere
Lettland
Hudson
serbischen
Schmal
Mitarbeiterin
Jugendlicher
##ovi
nachfolgende
fa
Jules
And
Forts
##BA
##toren
##sfeld
##modelle
##sus
##heater
Pun
Lehmann
Astronomie
Lit
Gunsten
##oko
Geschäftsführung
##kop
Tagebau
bezahlt
Trop
Weihe
Adi
##phe
##liegen
Apfel
verschlossen
Bend
##sä
BC
##stat
Susanne
dementsprechend
Zeitgenossen
##teilung
jemals
Verfall
folgend
Spreng
##iegel
Schwere
##jahres
Bronzezeit
##pse
Sabine
Konstruktions
mar
Rechtss
Leb
basierend
Sorge
Det
hor
Lüttich
##PA
pfälzischen
Mus
##igur
##itzer
Preußische
erfüllte
Hed
Boss
zerstören
Ermland
übers
Schlei
Klo
##angebot
That
Chancen
entzogen
dei
Pack
##dle
Klinge
Augustiner
sozialer
Ware
Dokumenten
##nio
Pir
##denkmal
Hansen
Einträge
##ST
##ßer
sexuelle
Hunter
Fundament
##reti
Stätten
minder
Ellen
Globe
mathematische
agierte
Villen
Ligen
Dominikaner
Betrachtung
##zzi
##streit
angelehnt
Pfand
Valencia
Steven
##ndes
Ostfriesland
##wal
eingespielt
Erfüllung
Sc
Ostern
Mix
Gert
Coupé
##udium
Barre
Automobile
1720
##kation
SB
Zwölf
Flüge
Fernstraße
##ahmen
##ögen
##ufnahme
zurückge
##oot
##fra
##pokal
ausgehend
##but
bekanntgegeben
angeordneten
Landkreise
Einmündung
##tts
bri
Carbon
##ächte
##isation
professionellen
##etzt
Bundesamt
BI
##edi
Lehn
##sand
dienst
##enstein
gewordenen
##nice
##amilie
##ologische
##nahmen
Summer
##ltung
##inde
Röhren
Mind
Maas
Komitat
Hirten
östlicher
ausgetragenen
Piet
Medal
ausgeübt
Schlösser
detaillierte
organisieren
Wohnort
Grammy
eroberten
Aussprache
##stet
##finale
veranstaltete
umso
WA
Kolleg
ausgeprägt
Vai
Lia
Chur
##pra
##läufer
Vel
Vorjahres
Blattspreite
##gner
Streu
GG
##kurs
1768
##öfen
##ë
Fußballer
##part
6000
##sthe
María
Lebensunterhalt
Helena
Ts
Baseball
Wai
gern
##album
indische
explizit
Präsenz
##wissenschaftler
Patt
##sil
##urch
##sem
geographischen
beinhaltete
##log
ausgehenden
Wasserversorgung
Sopran
Rakete
Oh
Ludwigshafen
Rico
##mere
##bele
Massa
How
Eigentums
Bezirksamt
zugehörige
##hing
modernisiert
Rechnungs
kaiserliche
Lutz
Lamb
Investment
##funktionen
Steinmetz
Franziskus
##kten
angehört
##lüsse
Aktuell
##ugen
##lea
Rippen
ähneln
Obera
##mü
##bögen
##ams
Poll
Gli
##roi
Ziegen
##flugzeug
sinnvoll
Meli
Wolfsburg
dra
Emden
Channel
Klammern
Bli
##gha
##enp
##aci
##öffnung
lehnt
Kiefern
Kamen
##sste
unternommen
Militära
Staatsrat
HS
Lateinamerika
Hofg
Ableitung
##oso
##né
Pet
fördert
Muhammad
Village
Sozialistischen
ABC
##praxis
##ingt
weiterentwickelt
reg
Yi
Palmer
Freiheits
deutlichen
Ebert
##dr
Liberalen
##wesens
Ortsrand
Schutzgebiet
Proteste
Unge
Mehrzahl
Gua
##bl
heimischen
Ut
Tou
Romanen
Materials
amtierenden
Satzung
##uel
##organe
ga
schwache
Reaktions
Dul
##gate
tätigen
sk
betreten
Strahlung
Lor
Tres
Pon
Kni
1765
##leu
Triest
Haller
##versicherung
sichere
Ka
Hasel
##stung
schweizerischen
herz
Reichtum
Krisen
DP
Handwerks
Flüssigkeit
durchgängig
Finanzminister
Japans
Forschungsa
Medical
Lieb
##lut
Lieutenant
Eurovision
steigern
Schmitt
Irr
##sau
Porta
Formulierung
##opi
Boh
ohnehin
Stö
Magdeburger
##atus
Fortuna
Oklahoma
Kurven
Asche
schwierigen
gemeinsames
Erle
##abschnitt
Vermont
Bä
Landtages
##städte
##konstruktion
steilen
heutzutage
gewonnenen
Neuere
Beinamen
##д
Sowjet
Roberto
Hugh
##chon
Schloß
##ziele
Ruhm
Nouvelle
Margarethe
Chin
gefüllt
täglichen
RAF
Fuji
##ś
wirft
mol
benötigen
Buslinien
##rbi
Names
Jahreszahl
Berichterstattung
##rks
##esa
##dent
harten
Vita
Tram
Objekten
Dean
##zie
zugerechnet
geistlichen
Rath
gelebt
Tam
Bretagne
##erde
finanzieller
Häuptling
bel
Seel
Geno
##horst
Präsidentin
DL
Galaxien
Feldern
Toulouse
##US
bemerkenswerte
Doll
Dahl
##ewegung
angezeigt
Süda
Ste
##immen
Flak
wechselt
sichtbare
Huber
##paare
##hum
Quadratkilometern
##oku
industriellen
Mea
##setzen
kosten
Unit
##äusern
##chle
quasi
abgelegt
Lon
konstant
zentraler
Pus
wirkten
Lun
organische
Zeuge
Fuhr
bewahren
Währungs
##rma
Zy
##rste
gerecht
##cro
gelistet
Großf
Kunstwerke
weißer
##ows
gesetzlich
Newton
Import
If
wanderte
Dakota
##gründen
verkehrten
Masuren
Schneide
Anregung
##tod
##sstelle
Sze
Iss
##szene
##spa
##suche
Bundesbahn
vermieden
Kinders
280
##kapazität
Taler
Heraus
hölzernen
Übersee
griechischer
anschloss
Ea
##vertreter
##fung
##ektor
Kompa
Gebrüder
##obi
versorgen
beweisen
Freising
Abe
Neuf
Geistlichen
##bart
##asa
Leuchtturm
Großherzog
##hall
zugeschlagen
gem
flankiert
Resonanz
Geographie
erforscht
Städtischen
Einw
ED
verteilen
Sik
Buddhismus
Baltimore
2n
indes
Platzes
Alta
lutherische
Ludwigsburg
Guten
fortgeführt
bem
Aristoteles
Schah
Luc
##toni
Abständen
##rein
##nommen
rechtlich
gestützt
gebräuchlich
Marktanteil
##rechtlich
##ments
##cti
##sein
Zivilisten
Abgeordnetenhaus
##sees
##arf
weigerte
reagieren
holen
gegenwärtig
vorbehalten
umgehend
niedrig
##nsi
##evi
Steinkohle
##wörter
##gegenstände
singt
eingeordnet
italienisch
Rott
Kongregation
##uelle
Dis
##wat
##istik
Typus
Examen
##mö
tra
##lha
Komm
schmal
Resolution
bulgarischen
Religionen
Montana
Arn
##uit
##andes
Jubiläums
Fossilien
Benutzung
künstlerisch
Schlepp
##rü
Modells
##aufen
##knochen
schildert
gegebenenfalls
RM
Landsberg
Ausläufer
##ändige
Vo
TC
Disco
Bekenntnis
##schar
##reunde
Schönberg
Pana
##pause
1753
echten
##trin
bevorzugte
beruhen
Orgelbauer
Nad
Gay
##cit
ei
Fachzeitschrift
Kälte
Jährige
Tallinn
Tabellenplatz
##zio
Ortslage
Marko
Limes
Ame
##eits
massiv
Rheins
330
Wich
partei
Rundfunks
vollen
With
Skelett
1771
##vorstand
##sow
bewirkt
abf
Labels
Gla
Geiger
Filmproduzent
Alto
##presse
1756
##lier
##ildet
Ökonomie
Grammatik
Auslegung
##yr
rechteckigen
konkreten
verhinderte
ober
Pittsburgh
##rda
##hü
##hop
estnischen
Gabe
##ô
##rieben
Aero
##gerichts
##sleben
beeinflusste
Parade
Belege
Zuf
Trommel
##owo
##elb
wiederholen
##versuche
MO
Derby
Alpha
geweihte
annahm
Cha
Helligkeit
Grey
##reg
##männer
Übertragungs
##bot
##höhle
geschützte
braune
Sohle
Verzicht
Muttersprache
##zes
Kurator
##rekord
Perl
Knight
Thun
Provence
Kongresswahlen
##talbahn
##erre
nu
Vernichtung
Rheinischen
Cow
Betroffenen
begeistert
Ritters
Kurzgeschichten
Ghetto
Filialkirche
Arabischen
Kraftstoff
##zeuge
meta
beschließt
Prüfungs
Grabmal
Adria
TS
Britischen
Arbeitsgruppe
##ebo
zuzuordnen
Altona
##treffer
##einigung
teilzunehmen
kar
Schuljahr
Jacobs
##tour
cha
Kem
Anhieb
Artist
##chens
Söldner
Motiven
##с
##lti
Ent
Á
1715
##pri
##nsa
##ekretär
erstellen
##schäft
Grie
empfahl
Ankara
Hab
Call
##echnung
Sot
Data
##pielt
verursachte
Gul
denkmalgeschützte
Vul
##ndr
Leiterin
##hua
isoliert
erforderlichen
Rundfahrt
Christina
pu
fla
Doping
fühlt
Hü
Warte
beigetragen
##uy
##quer
##cast
lieben
Schritte
Bub
Beren
##iar
##akademie
Prior
Erf
α
verstand
Cassi
##AC
Überprüfung
eingesetzte
Fal
##tufe
##drama
Freude
##ieger
geheime
Berga
Außerhalb
##lig
##itte
zweigeschossige
Rem
Horror
##ielen
indirekt
Kommentar
Handschrift
Vorstadt
Quarz
Farmteam
Et
Gasthaus
Brad
Terminal
längst
##herr
einsetzen
Wurf
Lis
Tals
definierte
Mitherausgeber
Analysen
##räfte
##programme
schönen
Burn
##sische
Lenn
Leidenschaft
Grabungen
##reibung
##eicher
ereignete
##thi
##hut
abgeben
Symbole
Klassische
Fei
175
Lichtjahre
##sl
angest
Associate
spätgotische
fester
einf
ausgedehnten
Sk
genauen
Wallis
Atlantic
##werkstatt
getreten
Radstand
Loc
Bestrebungen
Ausmaß
##lge
##fern
Stier
Schweinfurt
Quadratmeter
1650
Pfarrers
Breit
Waldeck
Sprachgebrauch
Odenwald
Liz
geringeren
Geräten
Drucker
##giebel
erzählen
Kombi
Kammermusik
kommerzielle
berührt
Pep
1769
einberufen
Lö
##amo
auffällig
Treb
Shakespeare
Mona
Mehrfach
Honor
löst
einheitlich
Dela
##yama
##rian
geworfen
Holl
Chap
##zza
##rater
Cali
men
Vorfall
##ritter
eingesch
Scheiben
Gestein
##ulin
umf
Nap
Udo
##allen
Geburtsstadt
Evolution
Beteiligten
Trag
kreis
jetzigen
Währung
Taten
Maßstab
LI
##cre
Sommers
Hauptartikel
Germain
##rakt
tschechische
bildenden
Henriette
stärkste
##reste
Messungen
Landsmann
##odo
dato
Yale
Herzegowina
##usse
##ná
##leiden
##ates
ältester
Prote
Och
Jurastudium
##enc
fer
She
Ai
Linde
une
Kammern
Tochterunternehmen
Podest
Blood
Binde
African
Polar
Draht
##omen
zusammengelegt
##esse
Oz
Gegründet
##nic
hinterlassen
Südostasien
##rechtliche
##lö
##heide
##ción
wandelte
verschollen
Penn
Heavy
Dienstleistungs
verkehrte
Konto
Ringe
Radi
Mariä
##training
Äthiopien
Saug
Paradies
Geschäftsmann
Bemerkenswert
##she
##pfe
##ausgabe
eingeschlossen
##chnik
Selbstverwaltung
##grat
Marian
Jupiter
Sachen
##vet
Synchron
Fußballverband
##vic
##uff
##ieht
orthodoxe
annehmen
Zit
Gern
##vorschriften
##uin
XIII
Ortsteils
Ergebnissen
##zte
##mig
BP
Ion
Hauptt
##biete
##té
##aria
Ecuador
##SS
Paket
j
Rügen
##spekt
##konzert
Than
Grim
##utor
Sigismund
##edo
künftig
Weiher
Richt
Kit
##frage
mono
Feucht
theoretische
entstehenden
Iron
CM
Review
##liederung
##angaben
öffnet
Russische
Jugendstil
Beliebtheit
desto
Notre
Castel
##mangel
##dorn
arabische
Schel
Burganlage
Wille
Gewichtsklasse
akademische
Basler
##Ma
##tunden
##trahl
##roth
Verschluss
Kob
##â
überwinden
vergessen
Plus
Höhenlagen
##dä
Milli
Lena
##run
dänischer
Nenn
Gries
siebte
Säkularisation
##mutter
laufende
##ots
tätige
Eil
DK
Härte
Balla
##ż
Staatstheater
##hre
alleinige
##dnung
ausgesch
Swing
Hochland
Arie
verfiel
Schli
##zung
##zeichnungen
##autor
zukünftigen
Mähren
Baul
Who
##onia
veränderten
erlebt
##nm
##lde
Kritikern
Ill
Bab
Annäherung
##logischen
##kai
eingef
##ilen
Storm
ton
Flaschen
Einzelne
einheitlichen
##agi
Treffern
Ip
verkürzt
Sau
Aufsichtsrat
850
insofern
getrieben
Hue
kommende
arti
Bath
Platt
Cornelius
##pfel
##metall
geschützten
Erweiterungen
CDs
Eger
Buche
Waldgebiet
systematisch
spiegelt
Regimes
1680
##uo
##ängt
##äber
##ndig
slowakischen
Sediment
Leine
erz
Ele
##öt
##gerichte
Hedwig
Eder
vergrößerte
Balt
##llar
Cups
##smo
verle
##uld
##lsch
Fauna
Bie
Besonderheiten
##faktor
messen
Hert
tötet
Petit
Geheimnis
Erfassung
##nts
##kurve
Wolfenbüttel
bea
Vorgängerbau
Rut
Row
Weich
Population
Gerald
##armen
schlicht
##ree
##zentrums
Würde
##zirk
Hua
Furt
##wurf
Vorlagen
Fie
richtigen
Loi
Isa
##ünstler
##ulation
##reuth
Innenhof
##к
##oster
Drag
Beer
Schwäbisch
Manuskript
##politische
##ttung
Terry
##verbund
Bautzen
##versch
##poli
##eute
kla
##konzern
##hö
Sr
##umf
##schiffe
StGB
Angela
Komitees
Kenia
Gr
##schild
##dat
geo
Kommandanten
überschritten
Steigerung
Mog
Harde
Chia
##nhausen
##zent
erlitten
aufgewachsen
Hochzeits
Elberfeld
unterschied
Professional
Kompromiss
höchstens
ansässige
Em
##ří
einstimmig
Klingen
Karlsruher
prinzipiell
durchfließt
Schnecken
Braunkohle
Genfer
##west
konf
dringend
Zuständigkeit
Wuchshöhen
Berichten
##weide
Heller
##assi
Sher
##ske
##oßen
tatsächlichen
osmanischen
Zensur
Speed
##sieg
##eto
illegale
Privilegien
##lätter
geschmückt
Veranstaltungs
NSG
##heri
cor
Wahlrecht
Lieferung
##fit
Rudi
Boxen
Bona
Ausdrucks
Tumor
Monuments
##äder
Sergei
Kaliber
Shop
Lip
##ml
klassischer
Bewerber
Kee
Apollo
##übung
Amo
Hampshire
Eastern
Waldes
Owen
byzantinischen
langem
##lbach
fränkischen
Schrein
##taat
##türme
Köhler
Hafens
Bezirksliga
##če
##fei
variieren
internen
Wea
Austritt
Sevilla
Bitte
Bergmann
Hitze
##ël
##beste
Investoren
quadratischen
Raumfahrt
Verbündeten
Sh
##rsi
##rai
##ewi
zuzu
Lein
Generalstab
##30
##ři
Stütz
nah
Rog
Scu
Durchs
Transit
Schleif
Ano
Stro
fassen
Mati
Fluggesellschaft
Berthold
jur
Scheitern
Kamin
Julie
Hob
Lom
Ergänzung
##objekte
##cas
Himmelfahrt
Gastprofessor
Realisierung
##gerung
##cet
Leuten
1766
Lead
Benediktiner
##ulus
dich
##nummern
Gefäß
Kreuzzug
IK
Beitritt
##kö
##ctor
Diakon
Weltk
befestigte
allesamt
Tarn
Relation
ausgetauscht
Bela
##ith
##day
Freiburger
kultur
Brennstoff
1525
gestalteten
Bark
##vir
##lust
diplomatische
##setzt
##ison
##bie
Int
charakterisiert
Kirsch
Championships
pal
Unglück
Schlucht
durchlief
Geschwader
Comeback
##spi
zusammengestellt
ri
griffen
ökonomische
weiterver
Vorst
Kak
BRT
##beruf
angekommen
Brig
Nic
Cin
##AG
Ž
##unkte
zo
Tendenz
Sé
Erstliga
##eru
Bara
entdeckten
Gue
Enz
Beethoven
##emi
amtlichen
Warren
Nationalstraße
Flammen
Luftwaffen
Lorenzo
Götz
Geschenk
Luke
##zylinder
##rns
Inflation
Aa
##gnan
##gion
nachhaltig
geformt
Marktgemeinde
##ägen
##kreises
Schafe
Mexico
Pris
Gre
präzise
Pic
Reno
Weihnachten
Triathlon
NASA
Divisionen
comp
Privatbesitz
Oberlandesgericht
vi
forschte
Sterbe
Ausführungen
##kins
Het
##usion
##aff
Laf
##ichi
TuS
Mythos
Fly
Egon
1755
##urn
Titelrolle
Kami
##mpel
zurückgeführt
mathematischen
kreuzt
##jähriger
##funde
Thermo
Constantin
##dert
##breite
Ne
Katastrophe
AO
ER
##rh
##ike
zurückzukehren
Eins
gemein
Tänzerin
CN
##dienstes
Ringen
Knapp
ergänzen
Eingliederung
Fußballs
platzieren
Puppen
Hörfunk
##istin
einge
Miles
schätzungsweise
angeregt
##nation
san
ge
Springs
Radrennfahrer
##holm
Now
Ling
Kab
##igi
Raben
Fä
##abbau
Landesver
Samtgemeinde
Mathilde
##äter
verwandte
Großraum
##landes
Sorte
##oris
##emo
betrachtete
##urkunde
##enau
Stummfilm
Gemisch
Two
1758
##fried
lose
Karst
Winterspiele
persönlicher
IR
Entwürfen
höherer
Galaxie
Came
Auvergne
falschen
LM
kaufmännische
Xaver
Verbleib
U1
Königliche
Class
Thur
Dee
Brei
##räu
Ted
Scham
berücksichtigen
MHz
Hort
belief
Greif
1764
##ebäude
hintereinander
basieren
##omb
ö
Wilder
Weite
Skandinavien
##mic
Kaukasus
French
##cla
Stellungen
Lehrers
##wka
##eae
Aussch
Aschaffenburg
##či
##datum
##treffen
sp
NDR
Koran
##krä
Fahrgäste
erarbeitete
beeindruckt
Synonyme
Saturn
Kleve
Hemi
##iertel
Wilhelmshaven
Qualifikations
##ieder
Hauptver
Aig
Tala
Madison
Bia
konfrontiert
Sagen
Opi
Barc
##schl
##onie
unzu
gegossen
eingelassen
außerordentlicher
wirtschaftlicher
monatlich
get
TR
##sender
Wan
Gewerbegebiet
##srat
##fache
##erh
SSR
##rme
vorgelegt
Roosevelt
Malerin
Cé
Cri
trieb
dichte
Spätestens
Wolfram
vollendete
Fron
Durchgang
##tine
##hd
Just
Ins
Betreiben
##ries
Moses
Filialen
cu
plant
Viehzucht
Kongresses
##lub
##gelegt
Kha
Ausfall
##okal
Witten
Sü
Kad
Ermittler
Buchs
Untertanen
Lid
Schalke
##borough
Trade
Rode
überprüft
SU
Brod
##tagen
##endi
##bul
Gläubiger
##wärts
##ual
Verwalter
Torschützenkönig
Gewinnung
##ean
starteten
mechanischen
Proc
Moe
Diet
versprach
Eiszeit
Befestigung
##flicht
rotem
Tut
##hälfte
##ande
Entry
kroatischen
verwiesen
Kart
Interaktion
##aufbau
vorgeschrieben
sexuellen
1767
Gaststätte
Mobile
Core
gewordene
Yoshi
Schräg
##nzi
##kommando
dauerhafte
Wies
semi
hy
##nais
##medaille
Weiters
##pul
Sparkassen
Patient
Battle
##rö
facto
Vorwärts
Armenien
##peri
##behörden
Schö
Corb
##utet
##rage
Merseburg
##tie
Landgerichts
Greg
Gläubigen
##yb
##stufe
##mung
Mitchell
Mauri
##vice
Wissenschaftlern
Platon
##uge
##isse
betreffenden
##gras
Sulz
##ylo
IBM
Abends
##ór
Ums
Sieb
##rik
vollständiger
verwechselt
##kti
##ierter
Montevideo
Branchen
Astronom
##nol
##resse
##imp
##hauptstadt
Photo
Karin
Ged
Filmemacher
##child
Propst
Gemeindebezirk
Kabarett
Lauter
Weißrussland
Sole
##gewölbe
Kno
Schenkung
Neuauflage
Č
Marktes
hervorgehoben
Erm
ange
Osmanischen
Age
Zitat
Abk
Wallace
Scottish
Mitter
Biber
380
##nern
getan
Maya
##vent
##tech
##mandat
existierenden
Fotografien
##rnen
##gis
Sehenswürdigkeiten
theoretischen
Schmerzen
Rabbiner
Kick
##allee
Zustände
Tenor
Elektrotechnik
##reu
braucht
bed
Lyc
Psychiatrie
Stilllegung
##nsis
fünfmal
Ansch
verwandten
Seu
##tea
steuerte
ruft
Neug
Fem
##lka
##bef
spanisch
glauben
Suco
Gleichgewicht
##chä
Kanten
unsere
entf
Harrison
##tü
Distrikte
Jahrhundertwende
ET
##tica
##atten
##tücke
##nai
Vernunft
Hobby
Beli
Bachs
neuere
angrenzende
längsten
Barra
Wig
Politikwissenschaft
Rail
Director
Basse
Az
##nov
einbrachte
Standpunkt
Erlebnisse
bürgerliche
Schell
Saiten
Münze
##zsch
##mbe
##musiker
Zwillings
Nina
Neube
Hanns
konservative
Trakt
##uste
##lfe
medi
Monaco
1762
##bewegungen
heftig
fremden
bewohnte
##illon
aufgebracht
Spandau
Jahrzehnt
Asteroiden
Eber
Schwiegersohn
Jal
Abgas
##AP
##cor
##chein
Ministeriums
##ider
Hügelland
Geheimen
Steinb
Franche
##ieden
Solothurn
Amateure
##rac
##gräber
Wirtschaftswissenschaften
Iv
##ewa
Billi
Anta
##fassade
Einstieg
gestattet
Wanderwege
Ortsbe
Weinberg
Vikar
##fund
Nash
Mehrheits
sat
olympische
##äufe
wirksam
kor
Wicke
Umweltschutz
Artikeln
entfielen
This
Wilhelmine
Gremium
Ee
Harm
ernährt
##fekt
##behandlung
ausführlich
Reliefs
M1
Dicke
Carls
##sman
beherrscht
##trop
Parteitag
begegnet
##regeln
symbolisiert
Sudan
Universidad
Preisen
##ärke
##bee
Stat
Jag
Abgaben
##zuf
politisches
kehrten
Natal
Energien
besichtigt
Mah
Jel
Landesliste
Auskunft
##ija
##heiten
Kirchenprovinz
##setzung
Lan
Hay
Gedenkstein
Bahnsteige
##mouth
fasst
Gefährdung
BE
##oth
##ituation
##dels
##lsb
privater
formuliert
beurteilt
Dag
Abbildungen
##wang
##methode
Rudolph
##glocke
umgestellt
Polo
##lemente
relative
Swe
Pou
Fertigungs
##hallen
Schme
Hybrid
Kirchenv
##rier
##chnitt
lanzettlich
Sis
verletzte
offizieller
herr
TT
Meso
exportiert
Vertrages
Str
Staatsanwalt
##zeitliche
##möglichkeit
Veran
Saul
Elias
Vollm
Boi
##geo
Susan
##führt
Kontinent
Jesse
Ub
Niedersächsischen
Sowjetischen
Inventar
Finn
Anwalts
geltenden
Utah
Menschenrechts
##dd
ergänzte
Verurteilung
Hofb
##gemeinden
β
beerdigt
Puls
MT
realen
korrekte
exakte
##rechnung
us
geringfügig
Filmpreis
Meiningen
Ausschluss
##ntwicklung
Hack
##knoten
ZK
Hubble
##zze
dürften
##usz
##eam
finnische
Remis
kommunale
Wey
Bänder
Beobachtungs
##rasse
Pascha
Isar
##projekte
geographische
gebrochen
fließen
##setz
##rup
##chtet
erg
Räuber
Library
##technologie
Span
Romantik
Reflexion
Huf
Angestellte
##ols
kennengelernt
Deutsches
##rav
Meg
Baa
Anlauf
##sek
vorgesehenen
Unterlauf
Handbuch
##κ
Volksmund
Rebellion
##ieu
##differenz
##40
Tä
Harmonie
##ufnahmen
unregelmäßig
##filme
bezahlen
Vau
Isaac
##tä
baut
Pf
Laa
Analog
##revolution
vors
boten
Norddeutschland
zer
Napoleons
Liebhaber
##brücken
##yra
Mura
Koo
Etwas
Dritt
gewährte
verankert
Brauch
##mast
Zeugnis
Dum
Diana
##ffi
angesprochen
Aich
gedeutet
formulierte
Paaren
Cot
vermerkt
Stadtgrenze
##lho
##esti
unsch
scho
obs
Ses
Delegierter
##leis
##ällt
##tb
Äbtissin
Kleinst
bedienen
vermittelte
fra
anknüpfen
Reliquien
Körperlänge
Tempels
Lagers
Bundesländer
Angola
##jas
##erge
Sächsische
Passage
KA
Iz
##ə
##erischen
##trei
##dsch
verzeichnete
Antennen
Abwasser
##nv
ed
brechen
Movie
Asia
##betreiber
folgendes
Stadtteilen
Pflichten
Landesamt
Beha
Baptiste
##nste
##enl
Wacht
Sakrament
Diesem
entfallen
beherbergte
Uniform
Faul
##müller
überleben
Nebenrolle
Naval
Fehde
Methyl
##yri
geschenkt
Blanken
##ER
##hler
##vollen
##tete
Tunesien
Rechtsp
Calcium
##straßen
Teu
Erbfolgekrieg
fünfzig
Federation
Chrom
##ibi
endeten
wenigstens
realisierte
Marne
##iol
Unt
##rest
überf
Frost
Eisenbahnlinie
##nitten
##aussch
##ntin
##eva
Rich
Reu
Aviv
##srate
vorangegangenen
verfassten
Wappens
Cannes
Alk
gelobt
fahr
##texte
##aun
##arbeitung
interniert
Bibliotheks
##ła
##led
##lab
weiterzu
entsprechender
Schauplatz
Rek
Kolben
Corn
##laus
inhaltlich
Skala
Torre
Kalt
Erlebnis
Bez
##gler
verhalf
ung
Enc
##ami
erklärten
Kamerun
Eisernen
Anz
##palast
Lehrern
##verzeichnis
Lehrtätigkeit
##ange
Gha
##gene
jenes
ehrenamtlichen
Weltausstellung
reichs
Europacup
People
Eingabe
Senders
##Co
##oche
##mil
musikalisch
##ubi
##lmann
verz
Gül
##ngi
Wörterbuch
Wahrzeichen
Sap
Bode
##änglich
##hri
Buffalo
##scheid
Einschränkungen
geborgen
Princeton
Urlaub
fiktiven
befunden
Herkunfts
Colonel
##ünstig
zeitliche
erläutert
Vielmehr
GM
1742
erinnerte
##ichtig
vir
aussch
Techno
Ster
Imperial
Bundesge
##lok
##lian
##hara
unterliegen
sorgten
kalk
eingeb
##leich
##bers
grosse
fühlte
Aren
##aster
verlorenen
Sophia
Impuls
Levi
Geest
HT
Gutes
Domain
##tsche
größeres
Emmy
Dieb
##lai
afrikanische
Preisgeld
Pokals
##yne
unterworfen
Freud
Gelsenkirchen
Did
##torf
mächtige
dr
Five
Belange
zurückgeb
Grundbesitz
Freiberg
Verde
Ox
Gate
##opol
gewechselt
erscheinende
##ees
untersagt
Verehrung
Lus
Jefferson
Grundsätzlich
Charakteristisch
Einkünfte
Arc
Geliebte
##tio
##metrie
Konzerns
Cor
Betrachter
##sle
finanzierte
Vä
Tang
##trans
glaubte
##artikel
feuchte
Oberl
Dscha
Bezirksver
geistigen
Grat
Distrikts
##NA
İ
Erzbischofs
##lj
dazwischen
Lazarett
Grabsteine
ungarisch
Kirchhof
##steine
lä
gezeichnet
Ust
##av
##dro
Ł
müsste
Lehns
##uerung
##jahre
intra
Sna
Nit
Lim
Editor
##mpt
ggf
Vest
Olga
##umfang
##ewe
erobern
bedeutend
Unterhalb
Beschlüsse
Schweiß
##TE
Arnsberg
##ehl
steinerne
israelische
Kerns
##dur
platziert
beitragen
Pacht
Gesprächs
Tok
Infanterieregiment
Erhard
Ansonsten
Angelo
äußerlich
Strauß
Propheten
Agri
##ops
öffnete
sächsische
frz
U18
Académie
##šov
Kameras
##ausschusses
##rtschaft
aktiver
##lieger
Rinde
Hörer
Hofes
langjähriger
##ässt
deutlicher
besch
Freilassung
Asch
##produkt
Vatikan
Ablösung
Herzinfarkt
##ē
beraten
Biografien
immerhin
Wave
Stadta
Erw
organischen
beeinträchtigt
Volt
Pfi
Hanna
Iris
##dea
erlangt
Profis
Vere
GR
Elt
##asen
Butler
##riss
##ttel
Schal
bestellte
Handelskammer
Guatemala
##nfa
bas
Kirchenkreis
##üren
Theologischen
Strauss
Jin
Dig
Hag
##abs
Perg
Colo
Armin
Île
Nou
##kro
kleinerer
Tora
Staubblätter
Pfarrgemeinde
Algorithmus
bundesweit
fügte
Werkzeuge
Athletic
ähnliches
Sozialdemokraten
Präsidentschaftswahl
sogenannter
Eg
##xin
##rka
Werten
##tors
Bosch
##rechtlichen
freu
Meine
HP
##andel
Waffenstillstand
Signatur
beantragte
Gegenteil
Böse
##ES
##öfe
##rha
##käfer
##instrument
##gürtel
##durchmesser
gleichfalls
Oberpfalz
Ligakonkurrenten
##oul
##enbe
Soziale
Medizinischen
##SI
verh
experimentelle
Armstrong
einh
Prüf
##werden
##fl
Panorama
Stiftungen
Prima
Matura
Elo
##ics
slawischen
Zuflüsse
Petro
müssten
Circuit
Bing
hintere
Außenstelle
##less
##dreh
markante
##ope
##hörde
orts
##umpf
##gui
Grabstätte
Chaos
##ordnet
staats
Hesse
Cru
Chors
wert
Basalt
##rät
entfernen
##rone
Haftstrafe
Edwin
##olu
Seminare
Haber
Cari
1759
Sund
Seat
Populationen
##werfer
dichten
Risiken
Hierfür
Nea
Georgen
Daimler
##qua
##že
##big
Bergwerks
##inanz
wozu
begleiten
Gelder
Deb
verp
künstlerischer
irre
Vorstands
RI
Gei
Petr
Adjutant
YouTube
Seven
schmaler
ausgegraben
Vogtei
Roberts
Impulse
Angestellter
##systemen
##real
##ericht
münden
enteignet
Koalitions
Ia
Deep
##moto
vere
Chang
Nase
Lep
Bibliothekar
Bef
##ault
gepflegt
Io
##gli
Turk
Behandlungs
##stu
Münch
Madagaskar
##kongress
Honig
##kund
häufige
##lick
Ofen
##enha
herauszu
tre
Zorn
Stachel
Durchgangs
Blog
Paula
Kwa
Kompetenzen
Englands
beidseitig
Naturdenkmale
##hrten
Kirchenb
##ák
Zul
Tul
Lkw
Hängen
Abst
##iti
überarbeitete
Roß
Future
Collins
##zyklus
##kante
U23
Falken
Angriffen
##pst
krautige
renommierte
Spielstätte
##rale
##arine
Wirksamkeit
Erzgebirge
##ør
##dingen
wehr
Prie
Meri
##kranz
##hügel
##arme
Dell
verblieben
asiatischen
Umkreis
Stille
Mick
Degen
##fleisch
verhalten
Split
überregionale
Zwangsarbeiter
Entdecker
##rieb
Widerstandskämpfer
Einleitung
verurteilte
protestantische
militärischer
Weizen
Plasma
Gymnasien
##then
##ignal
##chläge
Machtübernahme
Butter
##format
entsandte
Wacker
Brands
##swi
##erle
sto
Mob
Departement
verkleidet
gleichermaßen
Spruch
##völker
beliebige
##rim
überlebt
chi
Fitz
##etti
Lieblings
Flanken
einb
Romeo
ägyptische
Verp
##chrom
Seiden
Gram
Fürstbischof
##zeitlichen
Vla
PE
style
Beschaffung
##uppen
Westf
Linda
##öffnungen
Zeitz
##tien
wählten
PT
##endes
Irene
##wiese
geistliche
biologische
Tot
Protestanten
##teg
##sund
##regel
Kraus
##rote
##reiter
Zirkus
Stoll
Aargau
Hurrikan
##mant
##aß
kämpften
##sicherheit
##nthe
Sco
##feldzug
österreichisch
VS
Heidelberger
Gog
Araber
Äußerungen
verst
eingeführte
Taxi
Cyr
geholt
Yacht
Entlang
Ath
##würde
ruht
Monopol
Leis
##imm
Welten
Adalbert
##ogie
##angs
Krupp
Mack
Keith
##Pa
##zän
Lasten
##roda
Peg
Hardcore
Durchschnitts
Tauf
##usf
EL
##jährig
RF
freigelassen
Schad
Pfeifen
Oden
Jorge
Hebe
Dani
Wolle
Sigmund
Compa
Aufsätze
##ographie
##messung
erb
anzus
##nner
Montage
##oca
Wund
Trenn
1757
Überlebenden
sortiert
Stri
##dete
wohlhabenden
sin
Perm
Kriegsf
Honda
Comté
angehörten
Niger
wenngleich
miss
##11
##probleme
##kowski
gerieten
beinhalten
Amy
##vig
Kriegsge
Kenn
##bisch
Gefolge
##rken
##grenzen
Ostf
Brigitte
##rey
durchzusetzen
##äger
sal
Chart
Bureau
sprang
anspruchsvolle
Our
Neuss
Neubauten
Jose
##hte
##bühne
##bou
Asse
##anteile
Stipendiat
Staatsbahn
Sibirien
##spannung
Winds
Mechanik
Baukosten
Hauptfeld
Gebäudekomplex
##joch
##esetz
Soli
Zweier
Schwimmer
Engine
Conn
##ñ
##hold
lud
can
Africa
Hale
##rar
Sponsor
Nichts
##hter
künstlich
Nab
Mathias
überge
Wüstung
Paz
Landesf
Bü
Belo
wach
SMS
Ord
Fran
##ffa
durchschnittlichen
TG
Freiherren
Wasserburg
Töpfer
Some
##ören
##tuch
Heli
##personal
bestätigen
Zement
Koordination
Hochfläche
Herford
##hil
mitwirkte
Steigung
##ngr
##ftig
cons
##ogene
Gehör
##rob
##otte
##andlung
beginnenden
Energy
jedenfalls
aufgezeichnet
Trümmer
Ingenieurs
Habsburg
Indiens
Hie
Fremden
typischerweise
faktisch
Kors
Eintrag
BN
##zens
externe
Ges
##pfad
##rba
Perry
##ista
##hur
geringem
Rapid
kommerziell
Bauteile
Keim
##ʿ
##play
##gem
uner
##ukt
Rafael
Jeanne
Ett
Aal
Synode
##stor
Pfeil
Nol
Angesichts
##etta
##tiert
##räder
gefährlich
Savi
##pitz
##igo
Starter
Scheide
PO
Geheimdienst
##aris
einheimische
Verdi
Orgelbau
Lebensräume
Gräben
##у
Ämtern
unm
Champion
##phon
Elfmeterschießen
Eben
Ditt
statistisch
Volkswirtschaft
Tänzer
Steg
Schirm
##busch
kommunistische
Doctor
##mals
##dez
kunst
Unterkunft
Georgs
##barer
ganzjährig
##AM
sichtbaren
Vale
##hofer
Willem
1745
Hann
Conc
Bruchstein
##gesang
Regio
Marion
Fine
##IC
Aka
##tationen
##eht
eingeführten
##tm
##rc
##bschluss
Vizepräsidenten
Priesterseminar
Diözesan
Weltmeistertitel
##orph
schwanger
aktiviert
Umr
Springen
Jahresende
Flughafens
##erien
heiße
Verbandsliga
Stadtrecht
Behe
Ahmad
##äche
##hia
kleinsten
##wede
reagierte
Teatro
Oberste
Train
Schna
Melan
Larry
##inter
gesteuert
Zerstörungen
Société
##dic
NT
Ursprünge
Prize
Pitt
##rechen
##chner
kompletten
Rings
Liturgie
Fähre
Boro
##lpen
##gei
verzögerte
1752
zwingend
Franziska
1754
##tafeln
identifizieren
gespeist
bearbeitete
Unions
Transkription
Kriegsmarine
##milie
Palma
Geschosse
einmalige
chinesischer
Sec
Neumarkt
Nachfolgerin
Holt
Fichten
Begräbnis
Prototypen
Kernstadt
##qi
Biografie
Absteiger
##sänger
Einhaltung
Aid
Mittelschule
Health
##üd
##rla
##iums
geh
charakteristischen
##hk
##bd
##atoren
##abschluss
Pferden
Gali
Cyclo
Arsenal
ausgef
Th
##gelenk
populären
hellen
geheimen
Einstein
Bars
##ebiet
stabil
Moto
Grill
##pus
Solingen
Sci
Programmen
A2
Mant
Bunt
##gewinnung
Him
Radiosender
Nicholas
Neub
Mandel
Info
Cau
überh
fürs
Nahen
Kaiserlichen
##swerte
Kou
Strömung
Stadts
##rada
##oide
Reichswehr
Missionare
##zieren
##stätten
wann
gültig
Schulbesuch
Gerüchte
Klassifikation
Gegenden
Dün
##prop
##gran
Print
Bestehens
##ngebot
##kha
##darstellung
weithin
Verwaltungsrat
Qualifikationsrunde
##reh
Kä
Johannis
##pau
Gom
Bet
##arlament
Kassen
##nwe
WTA
Lotus
Bj
Pul
Danny
##CO
##bio
##rzen
getrennte
entspr
Norddeutschen
Div
##zins
##ffnung
Rolling
Reichenbach
Pl
Bürgerkrieges
##ulf
pfl
Magazins
Tschi
Shows
Reichsf
Jungtiere
Exponate
Bryan
geordnet
Riet
Haust
##termin
##oor
##bla
Rip
Paläo
ungarischer
geborenen
Deportation
##rsen
rekonstruiert
Schmelz
Reinhardt
Grae
##lanke
Schlu
##lenk
richten
Bergh
##meri
Rockband
Chromosomenzahl
Beleuchtung
##schn
##nver
##leg
Square
Gai
Erhebungen
rück
##lins
##ungsa
##flege
Milchstraße
Hochhaus
##wu
Pictures
Kostüme
Convention
##stri
krank
SN
Regent
Lebewesen
##mehrheit
Sp
Mem
Investitions
Bundestages
Anweisung
1660
Titelgewinn
Sans
Papstes
##stalt
##fell
grundlegenden
Toleranz
Coo
##endung
ausr
Assistant
Pharma
Neuhaus
überwacht
Treu
NL
Jet
Hauptf
Ester
##objekt
nachhaltige
Tischtennis
Jod
Eiche
Bauform
Blum
Bergleute
##haltige
betriebenen
Pari
Ow
##igent
RT
##moos
verdanken
Zwecken
Ingenieure
Fluor
Dri
Marina
##gaben
Wee
Gebet
##gab
hört
Wanderweg
Tiefland
Commander
##ši
##variante
Baumaterial
##sort
Wurm
Beatles
altes
Niederschläge
##seits
Tennisturnier
Resultate
Archäologen
##yth
##punkten
##iell
mäßig
hinge
Hara
Fabriken
##onstruktion
##gleichung
##chern
gra
Webseite
Polnischen
Lilien
Fotografen
geistige
Kog
eigenständig
Ventil
Rhön
##60
##zenen
##gefä
verschiedensten
Empfang
##chemie
Pam
Naturforscher
##uda
##anu
##ällen
##eckung
spezifischen
har
etablierten
Vit
Allan
##rati
##ake
Wied
Räder
Ore
Arkaden
##for
Frist
Ark
weiblich
##yte
##chichte
kre
Six
##uat
##pter
Sandb
1748
feindliche
Gefechts
##röm
Plat
##äg
zeugen
Rivers
Bib
##verträge
##smittel
##rmen
##meier
nebst
ausüben
Ding
##ortal
##hill
Reichsver
Steinbach
##tschi
##enn
hydro
Schulf
Martini
Säge
##ipi
che
##SE
Krems
##logisch
verschont
Predigt
Musikhochschule
Ane
##weit
##rah
restliche
darzustellen
Zir
Markenname
##partie
Ocean
Disposition
##lá
##isk
Übereinstimmung
ländliche
President
Partisanen
Großh
##mente
kümmerte
Horizont
Ehrendoktor
##ved
##gol
enorme
Schü
spe
neuem
##krone
##initiative
trockene
Geste
verwandelt
Vizegouverneur
Regentschaft
Paolo
Hammers
##messe
längs
##skirche
##hip
stu
##örer
##DS
Suk
Alarm
##fig
stößt
Rhythm
León
Kfz
Übungs
Tscha
Ignaz
Gie
bewegte
anscheinend
abgenommen
Herrmann
340
##kritik
stadt
Reservat
Pech
Hong
Gastronomie
herstellen
entsandt
Komi
hab
absolut
##logi
##ktor
##enm
##aub
doppelte
Assistenten
Aktions
res
ju
alb
Opel
##swe
Würzburger
Oberlausitz
Holzk
Dichters
##schulen
##leitungen
eingegangen
abzule
##ude
Som
Homer
##chat
unterirdische
Pes
Maut
Kalium
Gus
##llan
##iana
Zisterzienser
##ize
##bru
##löcher
##dru
erzeugte
beteiligen
Verbänden
Westa
Gle
Hühner
Buc
Bratislava
teilnahmen
roter
Nintendo
Middle
##fli
Tausend
Eröffnungs
sel
Indischen
Aufruf
##stände
English
##rberg
Sätze
Staatliche
Fischen
verweigerte
ukrainisch
Andre
Adaption
##rohre
vorherige
muslimischen
NH
Hypothese
##yg
stattfanden
SH
##aine
##uil
##ield
Wortes
##AR
##vio
##preise
zweijährige
geprüft
Timor
Lemberg
LSG
##yla
zufrieden
weiterge
ag
Untertitel
Nas
##cci
cap
Schwe
Monti
Alexandra
aufgesch
aneinander
Nizza
##bn
##auswahl
Schifffahrts
Hölle
Dschi
##nea
sc
Rechteck
Client
##sart
Libyen
reale
frühesten
##rec
jo
1717
Niederschlag
Kristalle
##80
##ikon
Holle
bedeuten
Wör
Ald
lit
Vögeln
Senke
NW
Kana
Domkapitel
##ovice
erstrecken
Nicola
Lärm
Arbeitskräfte
profitierte
Sek
Reims
Codex
##loss
Schulhaus
Kas
##reiben
##olleg
##ketten
##aufstand
Shell
Bürgerkriegs
##rozess
zirka
riesige
physikalische
Strophe
Lori
##schin
ND
Letzterer
Ausschreibung
Pent
Musikschule
Muse
Case
##ssin
##rra
##lith
##aufgaben
Weltwirtschaftskrise
Süßwasser
Rücksicht
Family
1751
Landesp
##manager
Bodens
OP
Bewerbung
##sur
Champagne
Anatomie
##läu
Rös
Cis
Makro
##ösung
##ungsbe
##uber
schön
Klassik
Großgemeinde
##fft
##dische
ökonomischen
lehrt
Zwi
Grünland
Catal
Krüger
Pers
Baut
##machen
kV
droht
Drucks
##biologie
Serra
Gret
stri
angemessene
##enda
Omnibus
Kraftwerke
Erlös
##iza
cr
beabsichtigte
Isabella
Leih
Friederike
schrieben
Wirt
unmittelbare
id
Wern
##hörden
denken
scharfe
zusammengesetzt
aufgelösten
Ottawa
Kräften
Aug
##Ba
##gründung
##alb
##nü
Oberamt
Vorbereitungen
Rezeption
Queensland
Plauen
Education
Apostolische
Indo
Guard
##staaten
##nc
hä
bisweilen
Roboter
Revue
PL
##aud
englischsprachigen
Jen
##eimer
vertraut
Vork
Palermo
staatlicher
##lände
##lige
Kag
##él
##durch
tut
aggressive
Shim
Ruprecht
Internat
Agn
1550
hingewiesen
BF
##abu
weltliche
Westeuropa
Shar
Raj
##ril
##bindungen
verursachen
Stadtwerke
Gü
##TI
##perre
wirksame
Wes
Geni
Coul
##alz
ann
Pool
##iso
Reichsstadt
Mündungs
ökologische
Schlager
Nevada
Electronic
##urger
text
Bildhauers
ci
bereitgestellt
Scheitel
Australiens
Arma
##papier
jahrelang
Verschiebung
##ét
VR
Padua
Mrs
##beu
wirtschafts
enthaltenen
besetzen
Schra
##hundert
Wangen
Betracht
Algebra
##syn
##gw
globalen
##tröm
Maur
einflussreiche
Beschäftigte
##rger
Ped
Brook
Angli
Achs
fragt
Woods
##yon
wiederkehrende
jüngster
Pli
Oberleutnant
Kür
Fiat
##wurzel
beliebten
Kärntner
Grönland
verleiht
durchgehende
Clinton
##RS
##indi
enttäuscht
Vorderseite
Ace
##plattform
Verschwörung
Förster
##Li
##zew
zurückgeht
schwachen
eG
Bestseller
##tler
##py
südafrikanischen
heller
Stolberg
dunkler
Vorlauf
Civil
bek
Stolpersteine
verbleibenden
genoss
geflohen
Valeri
##zit
schwe
Dora
##eug
eingest
Ziffern
Ungleich
Patri
##fla
einher
Calv
Bae
##umb
##rchiv
Potsdamer
##ς
##uca
Romano
Edo
Pioniere
Brest
Großmeister
Census
Parlamentswahl
##sation
Jakobs
##ückt
##treten
Tak
verteilten
Bl
Tunnels
Leopoldina
Gletschers
Dachreiter
Lé
Gemeindeb
Einb
Dialoge
##ós
##uung
gegenseitige
Stanford
Kollision
Interstate
Diplomaten
##lta
Zwischenzeitlich
VO
##ior
##deckung
globale
Prospekt
1761
##sm
##opti
##kurse
blut
Gale
225
Vierte
##ädt
Verteidigungsminister
Prozessen
Sart
Bui
rheinland
Beschwerden
AHL
Umsch
Schüsse
Pianisten
korrekt
Jude
Direktion
##keller
langes
durchsetzte
Schätzungen
Kanu
Hul
Ameisen
##vorgang
##anda
Grundwasser
Bereitschaft
Besten
Baku
tschechischer
tropische
absoluten
Seitenschiffe
Limited
Fahrwerk
Bäcker
präsent
gesprengt
Temple
Scar
Luftangriffe
##ča
##matt
Prozessor
Bauf
##SC
Neil
Congress
##volk
##eve
Ernährungs
Bahnstation
##ucher
##mbo
##dukt
Rausch
Intensität
##ppi
tägliche
stattfindende
feuchten
##genb
##ezirk
gekrönt
Standardwerk
Pauls
Nathan
##weiß
##boy
strengen
Eink
##useum
##inheit
##fert
Zielen
Wettkämpfe
Posta
Komponente
##tad
dreht
Mey
Gest
Bauernhof
Sonnenb
Bent
Hertha
Ande
##som
Schur
CIA
1710
Schotten
Einmarsch
##deutsch
Yards
Demonstration
##sern
##lacht
päpstlichen
Hochstift
##ako
sandte
keineswegs
Verwaltungseinheit
Geschwindigkeits
rosa
Zá
##cell
Sportf
PK
Gutsbezirk
Ans
optischen
ermöglichten
Vergrößerung
Pisa
Krist
eingefügt
begeisterte
Zusammenfluss
Zeugnisse
Rokoko
verleihen
angewandte
Aufsch
Afrikas
##arch
entschlossen
Wid
Monitor
Domherr
##äfte
##ländische
##icherheit
Tran
Schalen
Neust
##sei
##recken
liberale
geäußert
Arg
indi
Amor
##rsta
##iale
plus
bereiste
Bundesverband
##stad
##igte
##aufenthalt
befahl
Vr
Vent
##ssig
##roni
Parr
##ebs
Perth
Lad
bes
Nacken
Bestellung
##link
##äs
##revier
besiegen
Sut
Enterprise
Casino
Craig
##tzte
##gleise
modern
Kry
##radio
still
mus
LKW
Kunstf
unterliegt
ausübte
Spielfeld
##klo
Penta
Großa
Arbeitsplatz
##ži
##abf
Turbinen
##ridge
psycho
graue
gemeinnützige
##oria
Präsidentschaft
Kub
Erprobung
Briefmarken
bloße
Stei
Protesten
Nordkorea
Mart
Kollektiv
beschlagnahmt
Gouvernement
Knö
##pier
ernst
Kill
Gästen
FFH
##familien
Notfall
##üste
##wände
##ship
##anal
Kale
##rius
Korruption
##weig
Verknüpfung
Saône
Reiz
Pyramide
##trum
##haube
Schwimmen
Interpreten
Optik
Iu
Chand
##älfte
##konzerte
port
Substrat
Pablo
Missionar
Gestaltungs
Bry
Auslieferung
##öste
##kenn
europaweit
##erich
amtliche
Unterk
stimmten
Gedichten
Dieselmotor
##milch
vorkommende
Werra
Manifest
##änderungen
gewa
##profil
##nischer
aufwendige
Tes
Simpson
Nis
Goldm
med
Streik
Castell
mitsamt
arte
Lücke
Kopien
##nma
Swi
##under
##kapital
Tea
Regina
Radweg
Mud
Bögen
##dep
tor
Osmanen
Hank
Cz
##quit
##ndern
Sonntags
Raab
##bern
Rust
##dek
##annschaft
Mohr
Miniatur
HO
verworfen
Kampfhandlungen
DV
Aufstiegsrunde
##tere
Gnaden
Gemeinschaften
##tempel
##lius
Vortrag
##enb
Partikel
zunehmender
Zweitliga
Mom
Essay
Duc
kra
Deh
Bourbon
1741
Heimatverein
Schulb
Kreuzberg
Bewaffnung
##м
##quo
stä
Versetzung
Mes
ausgeh
Pac
Kne
Verbesserungen
1744
##ziehung
##unn
Carmen
##taler
schottische
metall
Wings
Sportart
Montenegro
Gebirges
##üre
identische
Rogers
Nem
Griechisch
Einem
rechnen
##hie
vermutete
Nordirland
Hänge
##assistent
Blasi
Vermarktung
Cel
##ummer
späte
Tong
##ähnlichen
genehmigte
ak
Wed
Sanierungs
lau
feierlich
Mulde
eignet
abgestimmt
Passe
Fünfter
##kasten
cal
Paarung
Geschäftsbereich
##yen
Thei
KO
##nzen
##irk
Weid
ausgenommen
Kli
##anische
zugeführt
Zuflucht
Moldau
suchten
Santos
##rter
##handels
Technologien
Nowo
MD
##noten
zus
rät
heftige
Hochf
Half
Disc
##ollen
##essi
see
Wöl
Päpstlichen
lès
Wismar
inf
Watson
Saw
Pres
Leibniz
Gewand
Bozen
Bangkok
##phan
Sozialismus
##arg
Landhaus
Holzf
Hem
##kriege
##heorie
Scheibe
Pand
Beschleunigung
ausreichende
Trink
Colin
##side
räumliche
Gültigkeit
##usschuss
Rennfahrer
Bedürfnisse
Amp
herkömmlichen
Tull
Simulation
Erzbistums
Würfel
##pit
glücklich
Dirigenten
Aufstiegs
präsentieren
kop
Wä
Begrenzung
##uchtung
Lille
##xel
##rga
##gefahr
Niederung
Kanäle
Ahr
##ition
var
##mächte
existierende
Prime
Malo
Fahrzeugs
großzügige
frisch
Steh
Liberal
Ilse
Ausübung
dünnen
Teheran
Luk
günstig
Patrizier
Bruck
##gehen
##aucht
Pos
Fächern
FR
1250
##tn
Primar
Goe
Flat
Cir
Opfern
##lberg
nordamerikanischen
Vac
jederzeit
Executive
Antisemitismus
##idea
Nationaltrainer
Lektor
erließ
Hei
Granat
##sper
Sollte
Snow
Konstitution
##mmi
##lc
angesch
Rookie
Frö
##lokomotiven
Sup
Lal
Asiaten
##verlag
##sge
##begriff
Sá
Mün
##tun
lieber
Bonaparte
kontrollieren
beleuchtet
Roa
Merk
##burn
optisch
emeritiert
Urheber
Schmalspurbahn
Filmt
Fahne
Abr
Abh
verbleiben
schn
parti
Lanka
Feuers
Earth
##chwe
##ching
Reuter
##tiftung
schwankt
normal
konzipierte
Tokyo
Nicole
Illustrationen
##Te
##täts
##rez
##ign
schuldig
Illustrator
##roduktion
##itig
inc
Industries
Hauptschule
Aquitaine
##trieben
##kot
##hou
Verz
Gemein
Apotheke
Demonstrationen
Source
Kieler
##emb
geplündert
Olo
Gesetzgebung
##rina
rege
gewi
Glaube
Balthasar
##issenschaft
ul
Schott
Redaktions
Luthers
Kann
##kamera
##zid
neugegründeten
dünne
Cand
##tec
eingebettet
Zielgruppe
Zak
verbrannt
Aufständischen
##regelung
stre
Pyramiden
Mittelschiff
EF
##rman
gebürtige
Sternwarte
Hofs
Drum
zulässig
mobile
Pfä
Nominierungen
##pis
##cou
tauchte
nötigen
Gabel
##dio
Vilnius
Verdienst
Haas
Edwards
##ßler
Grazer
bra
Zufalls
##vil
##fus
##dte
Mile
Einzelst
1747
##nsel
historiques
entb
einnehmen
Nebengebäude
Geb
Eb
##uster
finanzieren
Eingriffe
1732
##ism
iranischen
Satire
Pete
Kutsche
Immun
Fünfte
Regimenter
##chaften
Kompositions
Holzb
##zka
Poesie
Parc
Petition
Lane
##assade
Protagonist
Naumburg
Farmer
##ldi
sichergestellt
Kleinbahn
rumänische
illegalen
fu
weitgehende
Tragödie
##ört
verweigert
Spaltung
Oberhof
Kommunalwahlen
gefl
bef
Paraguay
einsch
##störungen
##inghausen
##ergie
aufging
Spencer
Killer
##schuss
##beiträge
akzeptierte
##äler
selbstständig
Kommentare
Jugends
##haber
##gus
Manchmal
Fernmelde
Extrem
Report
##yse
Prozesses
##orti
##gesetze
Schlaganfall
Late
Italienisch
##mb
Merz
Freundes
##problem
##pho
##echte
dichter
Stadtviertel
Schnittstelle
Cockpit
##kompanie
erfunden
Pauline
Gob
Fürstenberg
Dolmen
##lr
Wolfe
Vereinsf
Lef
Ers
Branche
Befürworter
##zil
Todesstrafe
Lul
Lehrbe
Bere
##varianten
##lichkeiten
##büchern
##ativen
Verdun
##ngst
##boote
Drive
##ntw
auszu
Ute
Edi
Detmold
##agentur
gespeichert
Bekanntschaft
Angehöriger
##ommission
ununterbrochen
separate
grundsätzliche
aufger
Moh
Dana
mangels
hinnehmen
Säure
##gna
##eher
480
verbannt
ji
erarbeitet
Unteren
##troph
##mara
##dingungen
##dere
zy
stießen
Qi
PI
Moro
Katar
Jüdischen
420
##stufen
##strukturen
Horne
García
Fr
Alfa
##ác
schlichte
Strömungen
Paro
BL
##rner
Eisenbahngesellschaft
aufgefordert
Agi
##nek
hergestellte
Jud
Flie
Atlético
##fü
Witte
günstigen
Grundst
Beerdigung
##therm
eindeutige
##SR
##mäßige
Treffpunkt
Staatsdienst
Spaniens
Maa
Lah
Trauben
Solist
Jamaika
Gesandtschaft
##zl
##tius
##onat
##lop
##beton
automatische
Stadtzentrums
Selbstbe
MM
Steel
##niert
##falt
Herzogin
Abschnitten
Offizieren
##lyse
##list
##ausstellung
potok
erbauen
TB
##gat
##eiden
wechselnde
gefährliche
Taxon
Chirurgie
Calgary
##woche
Vertrauens
Gepäck
Aro
##enf
Öffentliche
bestraft
Zugangs
Vitamin
Fol
##nehm
prägen
Darwin
1746
profilierte
ausgeschrieben
RC
Ps
Sca
Nut
Kriegsgefangene
##ulo
ausführliche
Zor
Manual
Key
##upp
##plane
##fter
stärken
langfristig
kö
What
Pflanzenarten
Lum
Loks
Adenauer
##rog
zurückziehen
Kraftwerks
Cum
##berge
Wilde
Oberli
Judo
gelagert
Schornstein
Gefäße
Favoriten
Eisb
##12
##genieur
Träume
Setz
Füße
##herren
gedient
dos
##pas
##freund
beanspruchte
Mittelmeerraum
Luftschiff
Epitaph
Edith
Steil
Jenny
indirekte
Molekül
Hauptg
Schulze
Marg
Kleinb
Kleider
Bha
fre
MR
Hera
Weh
Ratten
Jähriger
Geschwistern
##sts
##agn
Pern
Bede
Porte
Eulen
Bundesverfassungsgericht
Balz
##irs
unterlagen
eintr
blass
##izi
Sklaverei
Crow
Cort
##wohn
dokumentierte
bewaldet
##kane
##aux
armen
Hauptp
##veni
schlugen
belehnt
Wiederholung
Lies
Braunschweiger
Ap
##vsk
##eile
Verhandlungs
Strat
Naka
kriegs
Def
##thel
##tart
##osch
Zehnt
Kna
Westdeutschland
Lyriker
Ermittlung
Nä
Häufigkeit
Böck
individuell
Bandmitglieder
Ug
##lotte
sobald
körperliche
kurzem
Sitzplätze
Elm
dasselbe
Wade
Südf
##orgel
##lbe
Pamp
Expeditions
##utze
##sf
Missionen
Absturz
gewachsen
Wick
Three
Konzerts
##vl
Plata
Hexe
1736
verschwindet
Gutsbesitzer
Behr
Hofe
##sfi
##chit
Flottille
Dein
Baz
##wehr
##eba
Starts
##situation
##mou
Lehrauftrag
##gemäß
##atische
Richmond
1620
##icherung
steigenden
radikal
lineare
dauern
bor
Sui
Oberp
Motivation
Alde
##anth
Juri
Igor
amerikanisches
Vorbereitungs
Nano
Krug
##precher
##nteil
Gruppierungen
Netze
Munitions
Buchholz
205
##atik
markierte
Letzteres
Ama
##treppe
##steiner
##chla
Erosion
Curtis
1735
##chem
Rha
Göttinger
##abtei
Überarbeitung
hervorragende
Uk
out
erhoffte
beschriebene
Reed
Koro
Goethes
##phor
##laub
##bauweise
innovative
Hope
Grü
Calder
kari
Schale
Bildende
##flüge
mut
Körperschaft
Grä
Eingriff
fünft
Töne
Gasse
Brit
Aca
##wich
##rant
##lieder
hü
Jur
##arischen
Stammsitz
Schaum
##zenb
##vre
abh
Studiengang
wegge
##igs
mitbe
Neb
Leichtathlet
##tam
##sli
Gew
##inhalt
wohin
binnen
Vare
Symphony
durchlaufen
Sommersemester
##wache
##nac
menschlicher
kon
Winzer
Irish
##umme
bedacht
Verf
Nid
##oral
Universum
Kok
##zing
##eilig
ausgebildete
Amtmann
Alain
##nfeld
##iya
getr
elften
Größere
Balkon
verwehrt
ersch
Landebahn
LC
Falsch
Dmitri
##sr
Niko
DT
Brune
Schiffbau
Blütenstand
##veranstaltung
##dn
theoretisch
Rij
Magic
Birk
##techniken
Studiengänge
Stempel
Memor
Erreger
Befehle
##did
nächstgelegene
Neum
Justizminister
Gail
Add
Abgabe
##nkel
Tourneen
1630
##ütze
##fal
##architektur
Falk
##iler
##zh
Rohstoff
Minsk
##schichten
##anus
Schöpfer
##wohnungen
##dam
##bände
Schütz
Reisez
##zz
Étienne
ineinander
Synchronisation
Phe
Nov
Matth
Keil
Abspaltung
vorliegt
durchs
Originals
Jani
##bäume
Burgruine
##puren
##iment
##ape
reichlich
prob
außerordentlichen
Telekom
Tap
Session
Regierungschef
Oberbayern
##wäldern
##sfe
##pruch
##mode
Haupteingang
##iba
##htet
bedarf
ausf
Entgegen
Concert
Arb
Süds
##computer
Territoriums
Kreta
Familiennamen
##mot
##designer
konkret
Zurzeit
Israels
Historien
künstlichen
Zent
Rundbogen
##ebend
Enzym
1714
Rate
##ides
##rft
transportieren
qua
Tab
Oberschlesien
##schul
##lur
vergibt
Pü
Tann
##uru
##alin
Tausende
Schülerinnen
bildende
Pascal
##holt
Konsequenzen
Trilogie
Mör
##tube
Niederlassungen
Face
Conf
1743
##mand
##anstaltungen
##ament
Raw
Klar
Hora
##wirt
Krasno
##tent
##federn
Lass
Bundesf
##wahlen
##utt
##riff
##nahen
##gewebe
dreigeschossige
Händel
##anne
Brühl
Auss
##ehm
##col
Shuttle
Erinnerungs
##chr
Insta
##arde
sicheren
Krie
Infektion
Winterpause
Lug
Jetzt
##ändische
##enh
stimm
irische
andern
Komödien
Dah
##dium
Schallplatte
Laurentius
Ante
##tek
Volkswagen
Pach
Aden
##än
##aktionen
baden
##ypen
jährig
Snooker
Sib
Pracht
Gebhard
##ery
##ads
Turmes
Hydroxy
Alexandre
vierzig
bewahrt
Ic
Vorgängers
Tors
Spirit
Intel
Cant
##öffentlicht
Ungarns
Tragen
Milieu
##chy
Wasserfläche
Vorstandsvorsitzender
Mittlere
##bing
Propstei
Lak
##katalog
Oka
Oi
Baubeginn
1530
##röße
trau
Lex
Kehl
Dorfs
maximalen
anzusehen
Sequenz
Mat
Geschick
Altertums
Manda
Adelsfamilie
Verantwortlichen
Porti
Harmoni
##erbe
##entr
eintrat
definieren
allgemeiner
##ugel
##ssu
neuro
kürzere
Volksabstimmung
Versuchen
Nachfahren
Kura
festgelegten
benutzten
Cord
##ungss
##cos
fremde
Lao
Slo
Grundsteinlegung
Diskurs
hol
##bri
##antwort
Stoffwechsel
landes
Realismus
FBI
##wak
##ologischen
Progressive
##tzk
Wanderer
##stau
Léon
Gilles
##zahlungen
verschwinden
inspirierte
gemeinsamer
Dobr
gold
bemerkte
Stü
Rolls
Cos
1749
##rufen
Schleuse
Ihnen
Brenner
##krebs
##gelt
Sonn
1713
##linde
namhafte
Alla
Vorliebe
Fab
##verd
öfter
transferiert
##gattung
überb
##bourg
liebt
Aver
##lke
interessant
Justus
Steyr
Stereo
Schock
Proteine
Gartenbau
Anni
##summe
verkehrs
verarbeitete
Wikinger
Rennens
1737
Zim
Mitspieler
Fue
Sava
Rathauses
Grabstein
decken
Volksbank
Metropole
##prozesse
firmierte
Bestes
Arsen
##ús
erk
Plattenvertrag
Masken
##etall
mg
freige
Triebwerke
Privileg
Kastilien
Bürgers
Abteilungsleiter
mark
bekämpfen
Yang
Poppe
Motorräder
Bard
155
##neur
dreischiffige
aufh
##GB
verkörpert
Gim
touristische
Unterkiefer
Chinesen
##lew
##elde
Letztlich
Fir
Christiane
Abweichungen
##bschnitt
Zed
Völkerrecht
Nester
Ministerial
erf
Philologe
Ors
##machung
##lüge
gla
Trail
Lä
Ferro
Duett
Ballon
##essel
Tem
Regisseurin
Aaron
##ianer
##verluste
überla
effektive
Tib
Hetero
##reiheit
weitreichende
Tauber
Kund
Št
Sardinien
Gotthard
##regionen
bezahlte
##tim
Neugründung
Commune
nominierte
Torb
Fren
Aufkommen
##aaten
teilten
langsamer
Langzeit
Banner
1738
Schwangerschaft
Bulle
##še
##wing
##sak
##feren
Krönung
Fernsehproduktionen
##ährung
Waldh
Toyota
Anal
wiesen
begründeten
Wetzlar
Festlegung
Campe
##warte
Morde
Ableger
gema
Geschäftsstelle
##won
##cheibe
Thr
Gesandter
physikalischen
Oriental
Grave
Fam
dor
Schir
Miliz
Geschütz
Gefallenen
##ová
gerichtete
Mia
Brill
##stetten
germanischen
epi
Dachverband
##mengen
verringerte
Lüt
Obers
Gräberfeld
##kre
geschw
##handwerk
Schab
dazugehörigen
Staatspräsident
Dae
Bergisch
Arkansas
weitesten
hinreichend
befragt
Wirtschaftsgebäude
Caval
Bes
vernachlässigt
scheiden
Marienkirche
ICE
Gewinne
Britt
Arch
##urse
Ritual
Parkplatz
Brasil
##kreise
##enta
Höfen
##rieg
Arbeitslosen
##isierungs
zweist
Sma
Kultura
Einwohnerzahlen
lokaler
landesweit
christlich
Rennwagen
##inischen
verschaffte
Osta
Korrespondent
##pil
verkündet
Gesamtk
##dh
Tub
Ert
##sna
Babylon
##runn
##atisch
zweieinhalb
Kast
intensiver
erwarben
Genauigkeit
##elen
ana
Hauptfigur
Guillaume
##ME
##üglich
##nre
arbeits
Regierungsa
Polit
unser
Kubikmeter
Haush
Fai
Anzeigen
Nietzsche
Korrektur
80er
Pine
##icz
##bö
##anns
Unterf
Renten
##bil
grenzen
Wimbledon
Phänomene
Neuburg
Gris
##kontakt
sofortige
betraf
##auto
Wasserscheide
überrascht
Treib
Seelsorge
Seeb
Hoppe
##deri
Olivier
Landgrafen
Geiseln
Felle
Mosaik
##gänger
1540
##mei
verstärkten
##önen
##helfer
non
Wassera
Cod
Besuche
Baumwoll
teilnehmenden
ausgemustert
Nico
Hindernis
##mern
Flughäfen
Deckung
##instrumente
##chal
psychische
geheim
Referendum
Mod
Gänge
Doppelt
Behinderung
##zol
##start
##nä
geschwächt
Deg
Bourgogne
grossen
geologische
dis
Mitgliedstaaten
Bundesverdienstkreuz
##aften
ethnische
Uli
BW
Allgäu
Samo
##wohnung
##tore
##dai
Wohnplatz
Essays
UC
Trem
Spie
Schne
Kreistag
Eintragung
CT
##CC
Vergleichs
Nachts
Lost
##uj
Selen
Mao
Botanik
Venture
Lucius
##qu
vorgesehene
V8
Soccer
Brock
Bedingt
##formel
Verona
Rotten
Rajons
##cis
##ahrzeuge
ten
Zunahme
##bü
Fried
Advisory
Type
Privats
Befehls
##geri
Titularbischof
Schaltung
Ere
1618
##äft
##kä
Gemeindegrenze
##mati
##jin
##braun
##beh
Versteck
Traditionell
Machine
Holze
Guan
beh
Schuster
Nin
Nachs
Johns
Dru
Alam
1670
##tätte
##hein
wählt
welt
Verr
Trim
##zki
##ifi
Guss
##geräten
##aca
verteidigt
restaurierte
Förderverein
##ndl
Kronblätter
Jü
Herstellungs
##jet
Neup
Märkte
AW
Kempten
Eisenerz
##sierte
##partien
##chkeit
ehrenamtlich
Dock
vielfältigen
1690
##rek
sozialistische
sec
Versand
##ando
abwe
Kündigung
##vie
riesigen
näheren
Wasserf
Besatzungsmacht
##GA
trainer
Montréal
Architekturbüro
Anspielung
##irch
Stadtk
Sprengstoff
Regi
Kraut
Hauts
##medien
maß
erforderliche
Verle
Krause
Übersch
KF
India
Glashütte
Fahren
##duktion
persischen
entspringen
dicken
Mee
Clu
Clement
##õ
##chlorid
Wänden
##riedhof
##genen
##erfe
Rückst
Flossen
Mate
Hinterland
Formate
1733
##tsu
grünlich
geschle
fiktive
Stadtrand
Pok
##äte
##böden
Mills
dominierte
Gemeindegebiets
Freimaurer
##sang
byzantinische
Kawa
##sic
sach
fehl
Einkaufszentrum
1724
##ury
##camp
Too
Jö
Body
mel
biologischen
Stea
Klee
Glad
extreme
Maske
##kult
berechtigt
Rechtsform
Ligaspiele
Bele
##tock
##gn
unterirdischen
Zeremonie
Verfolgungs
Staatsge
Apa
##ione
gleichmäßig
Leve
Honorar
Füßen
Fließgewässer
Barba
##sfa
##gefühl
überd
abgest
Osttimor
Lancaster
##parlament
##deck
Prägung
##ntar
datieren
Suite
Bezugs
##cel
##bak
##ston
##zm
##ffekt
Maximal
##pl
##eha
Tei
Lore
Geleit
Buss
bestreiten
Nachteile
Leut
Holmes
folglich
Schwiegervater
Made
##stel
einstellen
Wiederaufnahme
Verme
Tona
Mächte
##rto
##oote
herausragenden
gesamt
Daran
##ionier
Verkehrss
##utsch
##racht
##hac
Unterbringung
Timo
Schutt
Moli
Hafenstadt
Eid
Doms
##nay
Forschungsinstitut
##sitze
orientieren
fressen
Rossi
Oak
Lic
Baches
Advanced
1721
erloschen
Schan
Paste
rec
einzusch
Zieh
Stockwerk
Mue
Lehrbuch
Keu
1701
##risiko
##rans
aufb
Pavillon
Batt
Affen
##rzi
##acker
geschm
Jazzmusiker
Feldmarschall
Einzige
1520
##kka
you
verun
nennenswerte
drängte
anbieten
Aven
regelt
Konföderation
Gangster
Süddeutschland
Gegnern
Burr
schätzte
Administrator
vorsah
Beseitigung
gezielte
Währenddessen
Stellwerk
Bergre
volks
Stichwahl
Nachschub
Ehrendoktorwürde
Auslöser
##roy
##iker
feindlichen
Frauenb
##studien
unterstanden
belgischer
Zusammenhänge
Vollendung
Ingrid
Dimensionen
1718
##vid
rei
prom
il
Week
##trich
##treifen
##bestimmung
##anis
Fragment
Flag
Kubi
CEO
##ländern
Passagen
Officer
##lasti
Streicher
##gerechte
herrschenden
bal
Flash
##ärts
##ssta
##cko
Sos
Redner
Musikproduzent
Mobilfunk
Curt
##sbr
##gul
Ähnlichkeiten
gefundenen
eineinhalb
##egung
ausgezeichnete
Qua
Halbzeit
##bruck
##bei
nächst
Hage
##water
##mlich
strebte
Südlichen
Löcher
Haw
erlosch
Witz
Leid
Kulturdenkmal
Kuhn
Judentum
Heath
##át
##maa
Ökonom
hinunter
Rothen
1725
##wis
verstärken
Volkst
Reichen
McCo
Landesgrenze
##reb
##jat
besiedelten
Haa
1640
##schu
ausdauernde
Sold
übrige
Naturschutzgebiete
##schie
##erende
moralische
Schuhe
##orientierte
Sean
Disk
##steuerung
kontrollierte
Einz
##ì
sechzehn
erleichtern
##ār
left
Zweis
Serben
Lions
Flö
Entführung
8000
##loser
##maus
##apo
belastet
ausbilden
##apa
dominierten
angeblichen
Schrauben
Rota
Bundesa
##firmen
##bilität
##schlagen
##kri
##dul
formale
Räte
##schel
verbliebene
radikale
Horse
##lane
Spalt
Ref
Pré
Fit
Bundesligisten
interdisziplinäre
begegnen
Sid
Rotor
Horrorfilm
##ßte
kommentierte
ank
typisches
steigerte
Pea
mer
Schifffahrt
Pä
Mängel
Gegebenheiten
Chant
Monika
##skr
##erni
##pulver
verpachtet
ert
Auffällig
##yna
entw
av
Television
Talk
Saxophon
Erika
Ausstieg
##äts
Initiativen
Drehbücher
Dornen
Archi
Rupert
Heilung
vorbe
Durchsetzung
Büste
erzählte
Eisenbahnen
Tana
Meteor
Ironman
Fruchtknoten
##DE
##order
Zukunfts
Senatoren
Gewehr
Claire
Aktiv
##journalist
zeitgenössischer
verschleppt
##TV
##önt
##hofs
Behauptung
##tap
##schinen
##beg
Wirts
Frühlings
Abo
##sele
##erein
feine
Preises
Dokumentarfilme
Alli
##anen
schwanken
repariert
Wittgenstein
Schulp
Pädagogischen
Plattenfirma
Heid
Haltestellen
FIA
Burgstall
##zb
##mische
Weltmeisterschafts
Sit
Pädagoge
Luca
Amalie
trennten
einjährige
##chtig
Mamm
Legenden
Ep
##vertretung
##rache
##gk
##geist
rasche
Wend
Muslim
Spre
Spalten
Simpl
Kör
Königsw
Einschl
##disch
Armeekorps
perfekt
Klarinette
##schäfte
Zusammenlegung
Twin
Raumes
Pendel
Generalstabs
##roo
Vorwort
Spielerinnen
Segmente
Erkundung
Verstorbenen
UV
##öß
##kreisen
auss
Handelsp
Fußballmeisterschaft
##RI
##ntes
##merkmale
##erts
Hers
##bf
Lichten
Esco
440
##tich
##stärkste
Pap
Fürstentums
Denkmals
##ürfe
verweisen
Thesen
Quedlinburg
Gere
Bedenken
1723
##rrt
##faktoren
##erisch
dynamische
Waldemar
##sprozess
Rüh
Dampfschiff
länglich
fle
Volksver
Kapellmeister
Chari
##ext
erleben
##üch
##ail
Weltmeisterin
Steing
Prozession
Palazzo
UM
Suc
Betätigung
##enheim
klassisch
fol
Vors
Lys
Kirchenmusik
Dek
Dea
##vern
##pläne
weiblicher
Sozialisten
Kein
Chirurg
##ól
denkbar
UD
Shep
Hess
##rigen
##massen
spa
hochge
Graubünden
inszeniert
aufhielt
Maj
Luftangriff
Kav
##achten
durchweg
Kredite
Genossenschaft
##ätter
##iš
##ahlen
unbesch
längerer
beschafft
behandelte
Rechtsstreit
Finalrunde
##nak
erneuerte
Jak
Bour
##erd
##df
historisches
einstige
Pros
Bedienung
1688
gebeten
Ponte
Mandats
##geschäfte
Alliance
##nell
##agung
Manu
Bassisten
##entu
zweithöchsten
hessische
Profikarriere
##ründung
rek
platzierte
Behälter
Barb
##täten
##seiten
Lesen
##chuppen
Workshops
Hilfsmittel
Ave
##uchung
##ieh
##heits
aufgetreten
Esca
weiterführende
Savo
IL
Facebook
##yar
##wirken
##uder
##stic
##rama
Vad
Parish
Italian
Indie
Griffel
Argumente
gebräuchliche
Tropen
##äten
##ní
##jubiläum
sporadisch
Sitten
Kama
Dynamik
Vert
Murphy
Brügge
##mill
##istung
investiert
Luftk
Kehr
Flori
Falcon
Divisions
##asp
Kasernen
Bildes
##triebe
##cation
Argument
##RT
##würdig
##ká
##ieri
##dow
Koma
Bundesgesetz
Alban
##kollegen
##isierten
Verweis
Mendelssohn
Verl
##nto
##kens
##arb
hochwertige
ae
Katze
Host
##gäste
Zweibrücken
Violin
VA
Mafia
##urr
##nba
##konflikt
##ichkeit
offenbart
gestürzt
Geis
Friedensvertrag
##filter
Wett
Spurweite
Halberstadt
##offe
##groß
Homosexualität
Öko
Unterwasser
Außenministerium
betreffen
beliebte
Pohl
##messen
##lib
##itäts
weltlichen
Ressort
Nell
##lden
fehlender
Tuberkulose
Scan
##lak
##furt
sol
verkürzte
besichtigen
schriftlichen
sam
kau
auffallend
Fuku
Auszug
##etische
Flan
FE
Cae
amtierende
Schaff
Ränge
Lil
Konservativen
##reund
tur
greifen
Faser
Faden
Spielt
Nei
##smaßnahmen
##bst
konstruierte
ideale
Tauben
Playoff
Intensiv
Hymne
##ád
Torn
Schen
abgegrenzt
Soest
Siedlungsgebiet
Nepal
Luci
Kriegen
Gemälden
Freundschaftsspiel
165
1634
##wertige
##ppa
##komm
ausger
Voraus
Rhin
Jä
Auer
##stationen
Kand
Fernsehs
##AD
beides
Voss
Ez
1683
ungesch
Forschungsschwerpunkte
Familiens
##xia
##irat
##halte
##chulen
Tomas
Kapuziner
Höhenzug
Capital
gemalt
beschädigte
Vö
Herausforderung
##von
kap
geologischen
Partido
Dö
##ndte
Unterdrückung
Ridge
Cave
1739
##yli
herunter
Dreiecks
##änen
##itzen
Rohre
Musi
Gefälle
Estr
Colon
Bundess
##waffe
fü
Pfl
Patron
##sach
Ureinwohnern
Plattenlabel
Langstrecken
Caba
##tärke
##tufen
##renz
Stadtkirche
Sichtweise
Blaue
##ähig
abzusch
Skin
##bitz
##aco
passieren
Stärkung
Hauptbe
DD
##xte
##eiz
Schenk
Gans
##zwi
##komödie
##ær
##emeinde
##tags
##hyl
Durchschnittsalter
##route
##board
Gabriele
Universitätsbibliothek
Sperre
Joy
unternehmen
gestiegen
beachtliche
Spann
##tiefe
Adress
##iva
wesentlicher
fortsetzen
Inka
370
verschm
Kras
Haupts
Graphi
Fé
enthüllt
aufgestiegen
auff
Stevens
Ibn
##xy
##rmee
Rae
Flaggen
Constan
##uar
starkes
letzteren
Rams
Oberhalb
Vektor
Trägerschaft
Giorgio
Aph
1678
##hmt
wilde
neutrale
Worts
##krankheiten
##chiffe
anthropo
Wart
Obern
Lucia
Kasch
##reiten
Zus
##hals
##dreieck
reflektiert
Nazis
Hocht
Anhang
Kosmo
Brie
##łk
berei
Rita
Lyn
Krumm
1734
##gek
urteilte
Shel
Verne
Raums
Minerale
Karp
Empfangs
##chtigen
verfügbaren
mündete
Polizist
Fachs
Aktivisten
##roa
##pfeiler
Cors
ec
Novelle
Cars
##bestände
geboten
Plei
Chester
##disziplin
strategischen
schafften
kräftig
journalistische
Goi
##chweiz
##bandes
instand
Seb
Schilderung
Gesamtheit
1727
##schr
ausgerichtete
Tos
Gad
Ausk
##orfen
##marken
gegebenen
Vorher
Stämmen
Magistrat
##ändern
##mper
##hro
##bier
Zeppelin
Gig
Chir
1722
Zivilisation
Mongolei
Mentor
Landesverband
Angle
##mier
##handlungen
Verwechslung
LT
##thek
##ehmen
entstehende
Ferne
##navi
##mission
lieferten
bauliche
vorkommenden
Wächter
Raja
Kirchberg
##fäl
shi
Tessin
Lehens
Kaz
Ruta
Oc
Mina
Knut
Fecht
##nco
Schlie
Schiebe
Partners
Ingo
Blake
Patente
Neus
Kantor
Fühler
Dys
intensiven
funktioniert
Verm
Taur
Luftb
Langhauses
Churchill
##upe
Stiftskirche
Proto
Einbeziehung
Century
##parteien
##erklärung
wiederzu
legendären
Orchesters
Lüb
Landeshauptmann
##grüne
Betrug
##irt
Schwarzenberg
##nem
verk
Heiligtum
##tv
##mad
statistische
brasilianische
Soft
Merc
Klinikum
Bäche
überging
gefragt
Zeitweise
Exze
überaus
bewiesen
Pächter
Gallery
Einkommens
##fon
##beit
##achi
verdankt
beging
Oberd
Klad
Haken
##tot
islamische
berichteten
stau
eink
Steuers
Sportb
Bic
Ac
##aru
vert
hervorgerufen
Wands
Nia
Nebenrollen
##ray
##lee
ausgearbeitet
Vorgesetzten
Starr
Ratsherr
Kitt
Hamb
Aul
##oco
entstammen
Tac
Rif
Kapp
Feststellung
##staffel
##lations
stat
künftige
Verschw
Römische
Moser
Gauliga
Arbeitslosigkeit
empfunden
Vaterland
Luna
Jüngere
Cold
Bergfried
##ario
prüfen
Restauration
Leonardo
Bruderschaft
##90
##örmige
passende
kümmern
Staatss
Einmal
Britisch
##aterial
wiedergegeben
kom
Grace
Gep
Epp
Eden
##ttet
##pic
##ory
realisieren
##sinn
abz
VV
Geschwindigkeiten
Dominik
##oman
##lou
##kolonie
zun
Tagess
Landschaftsmaler
##tse
##lift
statistischen
Veri
Sullivan
Hannes
Columbus
Blütenstände
1712
##uts
##ulis
##ngton
Zentralbank
Landr
Filmkomödie
##jur
Koz
##cka
werfen
aufbauen
Armeen
##ürt
fä
Erbs
Drehmoment
administrative
Uri
Fix
Alpin
##üssen
##alli
australischer
Metropolregion
##ntr
##kleid
Wasserk
Waggon
Partnern
Höhere
Zin
Kriegsschiffe
Katastrophen
##ensi
##aso
Prüfungen
Guinea
1632
##spezifische
dominieren
ai
Vend
Einsp
##ção
##tka
allzu
##ilden
##auss
Ziegelei
Völkern
Rasch
##wicht
##renze
Mauritius
Eri
Chores
##usb
##ait
Vogelarten
Schleusen
Parallelen
Mie
Lagerung
Essener
##ausl
Hassel
Brass
Antoni
##ändischen
##rozesse
gemischt
Orlando
Gamb
##osse
##fries
Mask
Animation
##reien
##mbr
##lens
pr
Pforzheim
##zhou
##wei
##platzierten
##onde
schönsten
Umschlag
Tötung
Madame
Dew
zurückzog
Sensor
Mechanismus
Karel
##alls
gera
gemischte
Magna
##sucht
##oon
Tep
##geschichtliche
Scholl
Kreislauf
Delhi
Rachel
Annexion
Aborigines
nordrhein
human
ele
Luftstreitkräfte
Hero
##kategorie
bulgarische
Dut
##umer
##arische
Colle
##gebung
ordnet
genetische
Siebenbürgen
Ler
Kriegsz
Heiß
Com
Buß
After
##öst
gewürdigt
Zw
Rig
Mittelst
Hyp
Eure
selbstständigen
kennenlernte
Respekt
Lindau
Konzils
Weltcups
Ravensburg
Instandsetzung
##rtige
##alte
##neubau
separat
mani
Buddha
Basen
Amerikanische
##zek
##wappen
##ilf
südamerikanischen
Gerber
Berni
bewaldeten
Unf
Ramb
Kernkraftwerk
Kanadas
##grade
Wohnungsbau
Steppen
Elternhaus
slawische
Sozialwissenschaften
Kramer
enthielten
Weltkulturerbe
Einst
Drehzahl
Cr
Cornwall
##teils
##erb
##afel
Provinzhauptstadt
Lay
Alc
hergestellten
Senegal
Pkw
Orléans
Auswanderung
Abwehrspieler
1719
##entwurf
auffällige
Brö
##kischen
##ischt
abgezogen
Maier
Kolla
Amen
##VA
##richts
##rel
##abkommen
Raimund
Propeller
Newcastle
Landrats
Amazon
##vere
##fk
pH
Mb
Geistliche
Anwender
##atin
Kleins
fliegt
Vall
Lippen
AfD
##rbo
##mbi
Ästhetik
unwi
Phosphor
Kardinals
Cs
1689
mechanisch
lauten
Zap
Stadtp
Reiche
Filmdrama
Briefen
##pelle
mat
klaren
Weing
Walds
##problemen
##mari
einschl
Umst
Körner
Gremien
Evangelisten
Türmen
Sponsoren
Inspektor
gewünschten
einsp
Hughes
##lett
wirkende
ras
moderiert
auszus
NRHP
überlieferten
zugespitzt
sm
erwartete
Oberstufe
Kunstverein
Abzweig
##nage
verfehlte
lösten
Municipal
Komplexität
überwiegende
gemäßigten
Hare
##isung
Wessel
##pflanze
Zwangsarbeit
Insassen
untersuchten
nachweislich
Musikf
Ša
bet
Staatsminister
Mannheimer
Identifikation
Grenadier
Geschi
Clare
Asc
unterb
einflussreichen
Maritime
Guild
##ég
vierst
Cemetery
Barn
Airways
##oran
entdecken
Uns
##dliche
zahlte
gastierte
##bsch
irgendw
Hug
Full
unzählige
Kehle
vermisst
erforderte
begrenzten
Weichen
Freuden
Afroamerikanern
Abschieds
##loh
letzterer
beherrschte
Nes
Mall
Landesmuseum
Dav
knappe
Charl
Beschreibungen
struktur
Gänse
##wachsen
verdienen
Geisel
##omer
hom
geschildert
alliierte
Musiks
Albrechts
##ürme
null
Industrial
Ausstattungs
reichten
Hitparade
Ölb
ausgewählte
Sens
Ode
Geliebten
##nest
ernsthafte
Viert
Pollen
Landb
##js
##ife
flüchtete
Schweizerische
Inkrafttreten
Einordnung
Building
silber
por
Cincinnati
##FA
##wai
##orr
##obo
konventionelle
Sj
Mordes
Fraktionen
##speicher
##ronn
##jewitsch
##chluss
überstanden
keltischen
Una
César
##inga
berechnen
Eschen
##qualifikation
Vorsteher
Klö
Gregory
Bogens
1716
##platzes
##lerin
##itzende
##brigade
intern
Großg
schu
ignoriert
Kulturgut
Glei
Erzieher
Einheimischen
##OR
##kalk
##gru
überspannt
Textes
Support
Rosenheim
Diskriminierung
Betriebswirtschaftslehre
##zugehörigkeit
versorgte
Strauch
Glan
Asta
Anschläge
Abstiegs
##lh
ʿA
christlicher
Nennung
Kickers
Ax
1880er
##üro
##inisterium
##erische
wechsel
reist
Perc
Hindenburg
##heilig
unterzogen
fertiggestellte
##tift
##media
##hülle
##ession
zweithöchste
bewaffnete
Meilenstein
##eschäft
his
Gase
##ungsver
umbenannte
Temp
Melo
##ktiv
Variation
Spl
Beschwerde
##busse
##HA
##treit
##erungs
Lorbeer
##ony
##anf
feuer
auftretenden
Palace
Embryo
##pag
Weichsel
Strassen
Grunds
Erk
1672
##hysik
reden
einzurichten
Stele
Oberhaus
Baustelle
##lom
##inin
Ther
Rex
Klosterg
Höhenunterschied
1450
##éli
##feldern
jünger
Fertig
Bow
1570
Česk
Mang
Libretto
##ransport
##nadel
##lokal
##echer
Korrespondenz
Außenpolitik
woraus
Vermeidung
gesteigert
brauchte
Flugabwehr
##ängerin
##tiven
1705
purpur
Pali
Leistungsfähigkeit
##ocke
##ndlung
##gnet
Leone
geltende
fixiert
Ständer
NP
Halbleiter
Era
1728
illegal
glückliche
Verkäufer
1350
Pölten
##slos
##ská
##präsidenten
durchzogen
Verwaltungsbezirk
Schönh
Devi
Etagen
##urteil
beherrschen
Verste
Karoline
Holm
Grundge
Gesetzen
Erkenn
##kir
angetreten
Sauerland
Rekorde
Bedarfs
##aph
erschwert
Einflüssen
##personen
##anken
Warnung
WE
Volksmusik
Democratic
##kröte
##ards
blockiert
autonomen
Sof
Sandra
Sande
Fakultäten
##cup
##auern
verlagerte
Schlamm
Claudius
##eran
##edt
Sku
Sill
Judith
Anr
##ometer
Uro
##blättern
Persönlichkeits
Standes
Fleet
Astra
##verbänden
##oir
##nski
##hari
Zei
Savoyen
Ausgestaltung
Arbeitern
Unterr
Gurt
##zeile
##fällen
Luz
Triebwerk
##mmern
regionaler
getrennten
UNO
Kleist
Abgesehen
##IN
##sio
##ffs
DEL
Braune
##münster
Mater
Haaren
##mach
syn
Rub
Richtungs
Nischen
Crist
##enga
Preußens
Lebensmitteln
Chev
##ranken
Fitness
schnellste
beg
Queens
Hens
Federn
Bezüge
##ähigkeit
Vorbilder
Vog
Variationen
Ew
Cen
Ago
##rend
zivil
Tara
Maschinenfabrik
##rep
##ahrer
Voice
##abrik
verbot
sinkt
Wad
Pearl
Nebraska
Kompilation
Kho
##éri
##äßig
##nid
##mä
##holen
Ça
schweizerische
landesweiten
Kreide
Ausf
##kant
gegnerischen
biblischen
beitrug
Wasserkraft
Dortmunder
weißlich
republikanischen
erfassen
Lebenswerk
##älter
##sgr
##ktive
##berichte
##ful
##egel
regiert
dotiert
Ostafrika
Niederschlagung
GI
##uki
##nb
##briefe
zust
religiöser
Marquis
Königss
Eo
Anleitung
##tste
##kunft
Nora
Lama
Cola
Angeklagten
tal
Thematik
Ostra
Dreib
##rchen
##abschnitte
fehlten
dieselben
Versailles
Optimierung
##ungsp
Tren
Tafeln
Opa
Nahverkehrs
Landa
Dramatiker
Automobilhersteller
##stro
beis
Saf
Flügeln
##ogramm
ragen
kahl
Lebenszeit
##hner
##entrum
geschafft
durchflossen
ausser
Radebeul
Ostasien
Modi
Experte
Chaussee
Bartholomäus
##yw
abr
Taufstein
##erc
Wilm
Gag
##kont
##edizin
vereinigte
Sepp
Pom
Pfingst
Dialekte
##21
##mechanik
beträchtliche
Stahlbeton
Akteure
1711
##rasen
##brü
Ži
Module
##iec
außergewöhnliche
##uell
schlafen
Zuchthaus
Steffen
Prop
Prit
Mönchs
Güte
##hir
schwierige
eingetreten
ausländischer
##stig
##kraftwerk
##gara
Ver
Shen
Gutshof
EHC
Dall
##eor
kreuzen
Gem
Einbruch
290
initiiert
aufgefasst
Untera
Schre
70er
1709
##verfolgung
Zusammenstellung
Sämtliche
Merkel
Pott
FSV
##enter
##ense
Psychotherapie
McCa
Antikörper
warb
bla
Rüdiger
Doris
Lauri
KB
Decks
1729
Stadien
##ifer
litauischen
Hauptan
Außenseite
##bli
unterge
neunte
Spionage
Kaiserst
Hosen
Emer
Vorrang
Helveti
Dingen
Baur
ausgegliedert
Unver
Straßenrennen
Lebend
##nci
##chtbar
schwieriger
gefe
Vari
Intendant
Erla
Altäre
##gase
##eka
##birge
##boli
wiederer
Emb
Carsten
Altersklasse
SpVgg
Rehabilitation
Musicals
Inspiration
Bagdad
Inland
GW
formierte
Stammplatz
Hörs
Halte
Food
##unternehmer
##uls
##onal
##mma
##ikel
##bba
Pfarreien
Never
Bd
tag
optimale
momentan
gewünschte
befr
Trinidad
SBB
Memphis
##gd
Stätte
Mou
leidet
glatte
Arbeitsp
Abbey
##ém
eigenständiges
Vorw
Rik
Anfänge
Tasten
Nords
Nen
Sitzungen
##urnier
##seu
##ppte
##chritt
ut
bele
aufwändig
Winkler
Wallfahrt
Henrik
##mobil
##mien
##hten
operative
Wre
Nü
Kartell
##aufs
hebt
angel
Lufts
Kurie
##gebenden
Ø
bezw
Lam
Kinn
DN
Ausgleichs
##öpft
##sprogramm
einm
Waadt
Gefieder
##lanung
Schieds
Löt
Ell
Diamond
##erat
Spielzeug
Ket
Devon
##produktionen
##lieb
##gelb
weißem
Gegners
Ahnen
##eia
Ähnliche
erschließen
Stadtf
HE
Befreiungs
##ró
##blo
homosexuelle
Seiner
Gebets
Emporen
##lebens
niedrigere
Toledo
Soc
Schwab
##tzb
##tliche
##sun
Zugf
Kes
##kugel
Mallorca
Erda
##mäßigkeit
##lenb
Neuerungen
Holger
Westp
Lenk
Dör
Bruns
Akte
##ütz
##willige
Yar
Verpflichtungen
Thie
1685
umschlossen
kräftigen
Tribüne
Objektiv
##ů
##werten
##stal
##bische
Nashville
Mason
Marines
Kronprinz
Gemeindes
Dup
Depression
##richtungen
Vikariat
Russ
##inhalte
Rechtsver
Messing
##zyn
##ork
Wann
Tours
Secret
Reichsp
Präsidium
KI
##haftigkeit
stra
dauernden
Initiator
##CE
##mühlen
##chwa
Reut
Farbt
##nee
##gra
kontinuierliche
erwähnen
Vortrags
Pforte
##sprachigen
##ogon
##gebnis
total
ruhen
lebendige
ausgedrückt
Calvin
##sier
##ight
Ment
Enter
Arztes
##hnte
befassen
Rätsel
Leeds
1580
##iew
Schwein
Ostro
##produkten
Wörtern
##ower
konventionellen
Tanzs
Neuenburg
##drom
Aush
1560
##asia
Tach
Phillips
ML
Litt
Auswärtsspiel
##ardi
Schlosser
Entr
Dreis
toten
Wass
Perser
Landgraf
Hohenlohe
##rsa
##läne
gä
Kenneth
Harvey
1704
##clubs
sprachliche
gesteht
Stadtg
Bombe
Awa
##anisch
Fieber
Fee
##owe
##iftung
##ead
verwaltete
that
tauchen
hinab
herausgegebenen
Unterhalt
Thrash
Prognose
##lant
##eze
BG
##uns
##tall
möglicher
eröffnen
Streitkräften
Prem
Corre
Altb
##ular
##erste
auftaucht
art
Talente
Bür
Teamkollegen
Tas
Papp
Bluts
##mili
##gb
##aps
Variablen
Tup
Tamil
##ädagogik
##sgericht
##inspektor
##bedingt
gef
Volkse
Oppeln
Melodien
Landwirte
Katalysator
##ša
##pell
##eib
una
Germany
##ža
##ruder
psychologische
Stockwerke
Realgymnasium
Oran
##diert
##arth
cou
ausgeprägten
Unrecht
Hebel
##sty
##priester
os
abweichende
Verwaltungsgebäude
Priorität
Oppenheim
Cameron
##sland
##brik
offizielles
Zufall
Jenseits
Bandbreite
##ogi
##hessischen
Stella
Friedberg
1731
##nzer
##ils
##dik
##chtige
Saun
Rechtsbe
Komp
Haftung
beruhte
Regulierung
Markennamen
Urteils
Dha
Conse
Alberta
##tera
##riege
##llte
##lech
zersch
Muh
Beiträgen
Abhandlung
Tritt
##mik
##auftragte
plan
abgefa
Vakuum
Inselgruppe
Geldstrafe
Cath
##träge
##rder
##ordern
##inc
Rind
Lauenburg
Datens
Bankier
Denver
Corte
##lope
##eut
ausgewählten
abgestellt
Wells
Netzwerke
##treue
Freiheitsstrafe
##akte
Schlü
Bundesver
##röhre
##czy
Seitenschiff
Donat
##sra
##spar
##own
künftigen
geri
Kemp
##fizierung
Mies
LE
Galizien
Frosch
Übungen
##ît
##sage
##ozial
##erna
übereinander
aufgefa
Distribution
Bergw
##št
##lah
Serge
##was
##umen
##iak
traditioneller
Viola
Strich
##grä
##folgen
Child
##dg
verringern
Versöhnung
Kalli
##eko
##ardt
Sheriff
Cus
##rov
Marino
Kreuzweg
Foster
Fachschule
##pei
##down
Verwa
Jungfern
Heimatort
BO
Anfrage
##maßen
günstige
Wahlkreises
Pav
tau
strategisch
gehaltenen
brasilianischer
Solidarität
Herrschaften
verschaffen
hochs
bediente
Fet
##nius
verbi
ce
Tourenwagen
Mäuse
Morph
Luftaufnahmen
1697
##gawa
Feldkirch
Hülle
Hep
##reicher
stärkeren
durchführte
provisorische
Galla
Falt
##éra
##slav
##lko
überein
Spat
Manuskripte
Jungs
Fed
Becher
##mord
steigende
Cecil
Brat
##kott
zurückgehen
dicke
Tigers
Garb
Fontaine
##ässe
##lob
##lampen
##egion
Walmdach
Urteile
Tech
Schaffhausen
Cana
Ammer
##oke
##lber
##krankheit
vermi
aufst
Manufaktur
Hauptm
##äfe
zi
Koss
Cim
Buchenwald
##oph
##fikation
wirkliche
meiste
Stadtb
Bana
##zien
Isch
Hieronymus
Gasthof
Filmb
Cul
Cob
Aw
1635
richteten
festes
befestigten
7000
##MS
##irkung
##dine
erzogen
Lauren
verschlechterte
erscheinenden
##ppin
##nja
versah
definierten
Wrack
Komiker
Erstaufführung
Basketballspieler
##jekte
##anna
spr
Vig
##kommandeur
Grenzst
FH
Biog
310
##nho
morgens
Satellit
Profimannschaft
Legend
##teilnehmer
##bez
verlagert
osmanische
Minerals
FV
Böhm
##lack
##hé
##enheit
gewisser
Tama
Arbeitskreis
##recher
##ental
Wirkungen
Untert
Refrain
Pett
Jährlich
Arl
Andri
Federal
Blattstiel
##orne
##fähigen
schla
Dreik
Aspekten
##anes
Umkehr
Trom
Pokalwettbewerb
Pfeffer
Aria
##slaw
##ensemble
##chis
##bachtal
fertigen
##gewinn
bewährte
Tis
Sell
Barro
Bahnhöfen
verspricht
Wichtigste
Seri
Motte
Medici
##wsk
vorläufig
Nepomuk
##lend
##cie
zusammenhängende
Mittelm
Marl
Bork
##lid
abgeh
Wanne
Projektion
Kh
Filip
Dragon
Calcio
Alve
##sverb
##loo
##amts
Überd
tage
Taktik
Kennzeichnung
Barne
##ührende
##esd
ven
Zers
Roter
##tschen
##nns
##box
weitem
Wertungs
Eleonore
##pte
##informationen
bewohnten
Prominente
Elli
##hns
##halb
säu
rep
Vergessenheit
Kruzifix
Heilbronner
Reiner
Ticket
Thunder
Patriot
Maxi
##öm
##binde
überholt
Maximum
Bloch
Rol
schlanke
Vorhalle
Unterw
Faschismus
##unktion
hoffte
Erwerbstätige
Blockade
1702
Römern
Reduzierung
Mass
##gegen
Festspielen
##tele
##olg
##ned
##anagement
Roms
Drau
Dent
Demonstranten
##zö
entsprachen
beliebig
Mals
Fli
##yz
##light
architektonische
Piemont
Oberhaupt
##iehung
Transaktion
Pops
Höl
norwegischer
##inski
##gener
kirchen
indonesischen
Hee
Bischofssitz
##ähre
##kine
##betriebs
##anke
Bea
Ranch
Pig
Bout
Bergsteiger
##AT
##lic
##graf
##aktor
lyrische
UNI
Daily
##urus
##organis
Muk
Lutherischen
Chai
##tabelle
##aue
ökologischen
populäre
Zet
Teilhaber
Biz
Đ
Weißenburg
Töchtern
Kade
Ec
Chun
##blut
##ahnhof
##agazin
##sey
##rist
##hier
überregional
Öz
boden
Wels
Kräuter
Hilde
Grön
verteilte
unwahrscheinlich
Sept
##onien
##ierbar
sodann
Ungarischen
Ostfront
##herapie
flohen
Steuermann
Routen
südafrikanische
gliederte
Simone
Schleife
Fossil
Drucke
##rsk
strenge
Stub
Jennifer
Einwe
##äum
##ormation
##dungs
oc
Nikola
Handy
Cá
1726
1707
##ügt
stürzt
Police
##ʻ
##iam
val
Ponti
Literaturwissenschaft
Hauptgürtels
Entzündung
##flanzen
eu
Steinh
Quadr
öffentliches
elektrischer
Zehen
##ugt
##nab
##igten
schieden
Göring
Gé
Burger
Brien
Appe
##unds
##spruch
##ović
mangelnde
Wesel
Sick
Opernhaus
Guide
Epochen
Arche
Ansa
##nae
sendete
bro
Phi
##neg
##erson
arm
abtr
Tierarten
Füll
Fremde
Departements
derzeitige
##lade
nächstgelegenen
körperlichen
gestellte
gal
außerordentlich
Weisung
Einschränkung
Direct
Akro
##lischen
vielfältig
unterschrieben
niedergelassen
Verkehrsverbund
Obmann
Eigenbe
Banat
##wohner
##sgesch
umgehen
Zealand
1708
##η
gefallenen
Unterg
Fahrplan
Ego
Anhand
##ausf
kultiviert
Uh
Sili
Ellis
Ausprägung
##ählt
##sieger
Kont
Funktionär
##otiv
flüchten
abgeschnitten
Weih
Schlicht
Fortschritte
##onnen
zwölften
badischen
Tischler
Reisende
Bech
##chra
##chmi
##act
Ro
Gebühren
Daw
Adelsstand
##einw
##deh
mac
Terrasse
Norfolk
Glenn
##moni
##eiben
Urlaubs
##weltmeisterschaft
##lif
Lagune
Bundesgerichtshof
Nass
Leichtgewicht
Córdoba
Chassis
##Ne
##sri
##skla
##atm
##ystemen
kommissarisch
dek
antwortete
Unabhängig
Japanischen
Erbauer
eingetragene
Tj
Gesamtweltcup
Winne
Jou
Fülle
Aufsichtsrats
Acha
##tran
##höhen
zuweilen
zeitlichen
Shoot
Rur
Flugzeugträger
Flugl
geschriebene
fordern
bedeutsame
Tragflächen
Thom
Petersen
Mous
Hörner
##wör
##olm
unsicher
aufgehängt
Tschu
TI
Hierarchie
Gerste
Bauwerks
##phone
##anzeige
mbH
jetzige
Unterbau
Rocky
Rhode
##werder
##rug
##ansk
eingeschränkte
Like
Langer
##öne
##bling
Pfe
##EG
##traum
##inh
##erungen
Lampe
Haj
Grundfläche
Früchten
Canyon
eingerichteten
Weltcuprennen
##teine
##ehmer
##dampf
##basierte
früheste
angegebenen
Unser
Soziologe
Individual
Fallschirm
##rent
Tus
Olaf
##lme
verwies
Slu
Serienm
Seifen
Ming
Egger
##nschl
Grenzgebiet
##kate
##ckte
Typische
Kontra
Erzeugnisse
Einbe
Dong
Curi
Norda
Hiro
Borough
##obmann
überw
umstrittenen
entziehen
Versammlungs
OM
Frequenzen
##tou
##stie
##bler
binden
angebliche
Spielr
Remix
Fris
##verk
##fleck
roll
eingleisige
abget
Neunkirchen
Commons
höchster
Stadtrechte
Save
Mits
Dragoner
Deal
##tani
Musikp
Mitgründer
Have
##IT
##sze
repräsentativen
Wirtschaftsw
Vene
Helme
Cay
##üstung
Vorarlberger
Siena
Roden
##zip
##tests
##orenen
erforschte
203
##älder
##kr
Sortiment
Kirchdorf
Isabel
Industriegebiet
##itet
##bewe
Mika
Einsicht
##nö
zeugt
kostenlose
Centro
Albin
##üh
##ull
abgeleitete
Verbrennung
Mand
Liv
##lad
##garde
##finger
##feste
##fang
Woj
Schöneberg
##chli
fließend
Konfiguration
Kirchgemeinde
1622
##wit
##wel
##iguren
auszul
Hüls
Hefte
Feldstein
Bildenden
flu
dreier
doppelten
Strömungs
Schlange
Hatte
Edmonton
Sterben
Künstlernamen
Hauptb
##element
Secretary
Rab
Nag
##sätze
##pfer
##gena
##feldt
Stad
Kranz
Gallo
Eugeni
amtlich
Absolventen
##onale
merkt
bü
Stief
Saalfeld
Portugals
Pip
Nebendarsteller
Kort
Bess
##verkauf
erleichtert
behe
NPD
1699
Teilgebiet
Stellenwert
Hui
Err
Archäologischen
##üne
##efer
##altet
Intro
##kü
teuer
letztmals
Hom
##ochschule
vorgetragen
band
Startplatz
Lj
Indianern
##schä
Xin
##ssp
##hene
##erweise
erlag
abgedeckt
Kometen
Gleichs
Cruise
##trasse
##ksa
weihte
frische
Straubing
Parke
Integrations
Hofer
##mse
matt
ausgestorben
Unterbrechungen
Log
Konsolen
##pende
##iefer
konstante
ir
##uden
##pflichtig
##eilen
Salem
Pill
Lotte
Anc
##ändigen
##uchi
##bürger
umfangreiches
gefertigte
Caro
##igne
erle
Querhaus
Batman
Anthropologie
##bende
verwüstet
variable
Xu
##sw
##nsp
##ingh
iranische
col
Orb
Kera
Celtic
##ysch
Spritz
Pfadfinder
Himmler
Ausweisung
spin
rundbogige
endliche
Stendal
Lichtb
Albi
##üllt
dunkelbraun
Tomb
Einzelh
Cash
überstand
Hauss
Dev
##GE
##jus
Wohnbe
Warburg
Gutenberg
Assessor
##tom
##chlich
einzigartige
Xa
Verbrecher
Stress
Kleinasien
Gerichtss
Eugène
Umstrukturierung
Matti
Hardt
##willig
##flugzeuge
##bedingte
minimale
Teiche
Tabu
Goslar
mancher
Reutlingen
Manöver
Cora
freistehende
Reisenden
Gütersloh
Ausb
##sehen
##chron
Salb
Großw
Gesamts
##leiste
schwi
leg
informieren
Konferenzen
##ringe
##bares
kalte
dé
Trinity
Security
##rena
##adel
residierte
Gmina
Buchhändler
Auswärts
##äer
##chichten
Wahlkreise
Vorburg
Portugiesen
Mende
Generalversammlung
Dampflokomotiven
Biotop
Artepitheton
##ôme
##gelder
Ethnisch
Eiss
Alessandro
wh
est
Wasserfall
##gard
Resten
##verb
##pfl
##mg
neutral
Vora
RK
unange
tötete
Ostk
Mich
##gels
##bande
Teppich
Saum
Kunstst
Kontrakt
Aqua
Verschwinden
Thronfolger
Orgeln
Mk
##verfassung
##rube
##hockey
vergoldete
verbesserten
Waller
Ural
Schotter
Sacr
Kalb
Fußballspielen
##sgesellschaft
zukünftig
ungleich
led
Versicherung
Lessing
Kadetten
Enkelin
##grundlage
sogenanntes
entgehen
##stall
##sack
##hyd
bewirkte
Voigt
Vienna
Plans
Organismen
Norder
Koni
pädagogische
Rug
Innovation
##spflicht
##ped
##lische
##dene
brandenburgischen
bewirtschaftete
Schöpfung
##lizenz
##kämpfe
Trig
Techniker
Highschool
Ahle
##atter
zweitklassigen
charakteristisch
aufsteigen
Webs
Turbine
Nee
Königst
FL
Armenier
Ader
##ulieren
##gere
Steinf
Small
Pfahl
Exklave
Delegierten
Dale
##sgrad
##rän
##kämpfen
##ichung
##ept
Westfront
SWR
Aufst
##gali
##enste
Fundamente
Ender
##def
Scorerpunkte
Pull
Airbus
Adelheid
##raketen
Steuerf
Schrecken
Indiz
##proben
##kert
überzogen
veranlasst
abgesch
Sass
Pakt
NI
Kum
Enge
erprobt
Inspektion
Helga
Chamb
Belt
##arisch
ablegte
Zubehör
3500
##formation
Synchronsprecher
Hauptfa
##besuch
Tschech
Plantagen
Nori
Fia
Antenne
##änke
##uale
##terb
##ggi
untergliedert
Tales
Severin
Schächte
Mittela
##unterstützung
##mtes
Sno
Mieter
Emmanuel
Anruf
##eira
Works
Westm
OR
Jor
##mischen
Steuerbe
Jahrtausend
##spektrum
##onzern
jahrelange
erkennbare
##rá
##darm
Saline
##usst
##ebirge
verwa
unerwartet
entworfene
Zusch
Altarraum
##mr
Whe
Chelsea
##ucci
##gou
niederließ
Tränen
Clay
##owsk
##olis
##galerie
Vé
Apache
##eigenen
Visual
Onkels
Mole
Ewald
##alla
musikalischer
gezahlt
festgesetzt
Befunde
##lsh
württembergische
vermischt
Unterh
Schulk
Montgomery
Hochr
registrierte
konsequent
führender
Yorkshire
Stroma
Sportplatz
Selb
Obama
Azi
##pop
##oce
häufigen
Steink
Raf
Konsequenz
Karen
Holzt
DOS
##ällig
##verdi
##parks
gerei
abl
Liegenschaft
##ützen
##gr
WWE
Access
erbracht
Pixel
##tümer
##bremse
enormen
Zeitgleich
Reine
Isolation
HR
Empfehlungen
Bedeutungs
##ève
##ghe
Volle
Reso
Fisher
Besatzungsmitglieder
##xie
##effekt
##besetzung
Parl
Aman
Adelaide
##gad
mos
Krum
Esslingen
##ommt
evakuiert
Rocks
Hegel
Cze
##zist
##irektor
Mum
Gottlob
Geograph
Archive
Amar
Alpine
##platzierte
##gno
Politikern
Nähr
##thon
hel
alp
Popo
Ż
##zwecke
##pos
##gla
##bezirke
fas
fal
anlegen
angemeldet
Stopp
Nicol
Kelchblätter
GC
bekrönt
Oberland
Kang
##г
##öhnlich
##ussch
##pap
##graphische
##apital
Wissenschaftlicher
Pilze
##ämme
herstellte
Parma
Militärp
Jade
Grade
Bildungsa
##rüh
tele
pie
halt
analysiert
Lebensdauer
Landst
Kreuzgang
Hygiene
Gug
Bergk
##üse
symmetrische
kalten
Mena
Glatz
Autobahnen
##show
##nstraße
##mine
Try
Regenwald
Mobili
Dampfer
##kollegium
positioniert
Duran
Bundespräsidenten
##sturm
##ehrt
brenn
Erl
Assoziation
Aku
##shan
##sgebiet
##eiger
VT
Testaments
Souveränität
Seeh
Grundherrschaft
Bear
versch
Trapp
Germani
Geläut
pen
kons
Lebensjahre
Erbschaft
Cicero
Chel
Boni
##ssistent
leistungsfähige
klinische
Nationalmuseum
Jahrgang
Heran
Harbor
Dementsprechend
Abwe
Absolut
##nbi
überquerte
Wallfahrtskirche
Reus
Milo
Chamber
Angewandte
##undi
kristallisiert
Rads
Kup
Eile
radikalen
bur
Ratt
Ausle
##übergang
##genossenschaft
##ffin
Parodie
##kit
##deli
synonym
ari
##70
##nart
##erren
lateinamerikanischer
Sep
Rubin
Implementierung
Gong
Flüchtlingen
sil
kommandierte
Wagens
Saarlandes
Oberm
Favorit
##schli
##oun
##aly
Nuntius
Bauabschnitt
##nkr
##mmel
überdies
natürlicher
Wulf
Servi
Milwaukee
Grove
Fundort
Anfängen
freiwilligen
Spätmittelalter
Rollenspiel
Neuauf
Stromversorgung
Spu
Oli
Lichte
Bone
BT
##sai
##liert
##cli
umfangreicher
nötige
Staatspräsidenten
Nachbarort
Hauptst
Gee
430
204
##teur
##omie
##inis
zweifache
vertreiben
Lucy
Hauptaufgabe
Harburg
Wiki
Weisen
VE
Oberr
Abschnitts
##orsk
##elie
Viren
Verlages
Kunstausstellung
152
##ов
vorletzten
kommuni
Westminster
Swan
Starke
Marty
##tudio
##chk
Quint
Mere
Cell
geladen
ausgebreitet
Ahl
##isto
##dörfer
##bischen
einfaches
Seitena
Mariens
##ühlen
verkü
klinischen
bewertete
Spiela
Schwergewicht
Einzels
AFC
##rtei
dreist
angesehenen
Ligaspielen
Fraktions
##nkte
gelernte
Schwäbischen
Schaffens
Osaka
OF
Medikamente
Cello
Arne
Adligen
##13
##ritt
##mpa
##kapitän
##enzen
##dter
##dscha
Hildegard
Bom
##rtet
fränkische
Wettkämpfen
##kritische
Tags
Anm
##programms
##over
##nato
##mär
##imu
##ezi
Sard
Pud
Hod
Forces
Dit
Carra
Buslinie
##ław
##rland
##bilanz
Stadtbefestigung
Literaturpreis
##ünden
##nberger
Wirtschaftsf
Spaß
Jae
##strich
abgek
##öch
##erdi
qui
Rassismus
Dw
Both
##ologe
farbige
##ours
elektromagnetische
Laterne
Kati
##ügelt
##trie
gelbliche
Gaul
##krati
revolutionären
Angels
##sphäre
##sive
##beha
geschossen
Nationalliga
Kunstwerk
Jub
Epis
Annie
##nfe
Überführung
vereinfachte
Ud
Polyp
Dip
##koll
##dde
verg
Landesbe
Sweet
Marci
Badischen
Anzeichen
##ON
##kali
verlegen
Qing
Plattformen
Gmünd
Aurich
Amadeus
begeben
Zuges
Scotland
Osi
Nutzlast
Katz
Fabian
##rae
##quel
##epi
zehnte
Vertiefung
Jaguar
##tei
sogleich
lie
heimische
gehaltene
Store
Michaels
Marche
Kane
Drin
Clarke
##wanz
gegnerische
Wäsche
Reichsmark
Kalif
##я
##tierte
##rieren
##krieges
##ania
berufs
Vorderflügel
Naturparks
Fic
werdenden
bundes
Plu
Kulturp
Eisenh
Anda
##llos
##kämpfer
##hla
##geschwader
verbl
sens
Vasen
Sunn
Bergwerke
##feder
th
beförderte
Waisen
Mok
##toffe
schickt
bräunlich
Schilf
Desert
Croc
##triebwagen
##nki
Üb
Vat
Skiweltmeisterschaften
Regens
Ned
Hendrik
Gens
Berber
##komplexe
##gangen
Verlassen
Rover
Hervor
Großbritanniens
Abfolge
##pool
##ound
##hemi
##denb
gerichteten
Schwach
eventuelle
aufwändige
Nieders
Geboren
Befragung
##iffen
##größte
reif
Typisch
Rome
Grundmauern
Enns
Boom
Ausges
##eitig
Positiv
Oph
Mythen
Markenzeichen
Lett
Indianapolis
Charakters
##schne
##mler
##alg
wei
Städtische
1703
##hauser
thüringischen
junior
Wals
Trent
Seilbahn
Krankenhauses
Ausweitung
##sec
vornehmen
verbreitert
repräsentieren
einl
Unternehmensgruppe
Tambon
Singen
Rufe
Kommandos
##ätige
##ächer
##stechnik
##status
Sokrates
Philo
Emir
Dot
##äden
##amer
##alog
vollzog
materielle
eingereicht
Bauen
##öcke
##ologi
schnellsten
geraden
Villar
##wür
##provinz
##nh
##bud
romantische
meinen
integrierten
bewirken
Weinberge
Productions
##itäten
##hör
Gehr
Fachzeitschriften
Duch
##quen
jähriger
ara
Zweigstelle
Zugs
Hauptl
illustrierte
Valen
Piste
Neutr
João
Genau
Aufforderung
##tracht
##mmung
##enin
fachliche
erwachsene
Verteidigungsministerium
Kirchengemeinden
Färöer
##ourt
##dha
sportlich
Klerus
##ophy
##llis
Überraschung
beachtet
Mens
abger
Lücken
##vy
Gambia
Bundesminister
##ipe
1590
##lbar
apo
Wils
Schaft
Radius
Lokalbahn
ISS
Aufarbeitung
##ngl
##flur
##aug
mai
WC
Verrat
Schließ
Orientierungs
Highland
##pfung
##nomen
##mmissar
##bran
##angriff
milde
entfiel
angepasste
Viscount
Morav
Drittligisten
Almo
##strecken
##seitig
##lda
Überf
begibt
Zeichens
Schuls
Hopkins
Amateurliga
beliebter
Knau
Hün
Barm
Amtsinhaber
zöger
stützen
schicken
scheinbare
kreisfreien
Flavi
##üll
##dli
niedergebrannt
Novo
begonnene
Masch
Girls
##σ
schm
platt
lutherischer
Westpreußen
TN
Lehramt
Glass
Gladbach
Aufschrift
##NE
##lch
##chenk
muslimische
kan
isolierte
Round
Mehrzweck
##ttl
##rank
##brook
sendet
abgesagt
Richters
Cool
##trommel
##rach
##höchste
Älteren
Revolutionäre
Bole
##anc
beschuldigt
1706
##strä
##kod
##gegner
überlebten
Hörspiele
Gemeine
##statt
##ians
externen
dargestellten
beendeten
Phantom
Mosambik
Goll
Ghi
Genossenschafts
Fors
Aktivist
##zha
##beteiligung
Einfach
##geschoss
Stations
Jugenda
##key
Carr
##ymnasium
##oti
##ndert
vol
problematisch
Wiktor
Einzig
60er
##lsen
##anien
stilistisch
Military
Factor
Direktorin
##wassers
gesunken
Stahlb
Sob
Sme
Koll
Garmisch
Erh
Brou
##ysi
##wirbel
##leri
##felsen
Schwarzer
Noc
Kliniken
treue
Maud
Blan
##tatt
##gewässer
wiederaufgebaut
päpstliche
Sympathie
Kreisk
Investor
Cohen
Bh
Beckens
##netzes
verwi
ber
Zustands
Zb
Vizekönig
PlayStation
Kaufhaus
##prung
##berechtigt
dürfe
bez
VC
##pparat
##dou
##dest
##auk
Roo
Falkenstein
##ír
äußert
Schor
Betr
Beschuss
##sas
Cata
##fraktion
wenden
aktualisiert
Uhl
Kreisgebiet
Hase
Fass
Verlierer
Mür
LL
Habe
Betriebsa
##uchten
##dk
##chsel
bebaut
Sza
Stin
Korne
Bloom
Alme
##ämpfer
minütige
Willens
Urnen
Powell
Jab
From
Altars
##balken
Überwachungs
Väter
Kv
EUR
##DI
##gert
perfekte
demo
Gesundheitswesen
Erg
215
##omm
bürgerlich
Obersta
Markierung
Fernb
Eisenbahnnetz
##dynamik
Zaun
Vogels
Nec
##äute
##zba
Skr
Menhir
Inz
Hering
##kolleg
##felden
begünstigt
Tori
Tape
Kunsthalle
Gori
Frans
##ärkte
##änner
Stadions
Schulabschluss
##bels
Welts
Familienmitglieder
stabile
Europastraße
Dorfbewohner
Cate
Astro
niedrigeren
Ausflugs
Abl
system
kast
Teufe
Soi
Kinderbuch
##völkerung
##hom
verraten
grenzte
betriebs
Soziales
Slawen
Reif
Happy
Feiertag
vermehrte
braunen
Zhang
Vec
Staatsarchiv
Goldst
Diss
##hab
vork
schul
Tek
TO
Sporn
Konstrukteur
Hohens
Ansi
steile
regierenden
ol
Studierende
Ll
eignen
Thessaloniki
Emi
Bergf
Bausubstanz
Steig
185
##führers
Todesopfer
Ruhestätte
Plate
Kolonisten
Irm
gestoppt
Vormarsch
Virgin
Verwandte
Pale
Osth
##thaler
##mühl
##iver
ff
Trac
Mist
##AA
##ear
##delt
umfangreich
sechsmal
flo
Snowboard
Netto
##stahl
##mts
##kad
##ausch
vierter
tro
Postst
Oscarverleihung
Esta
Abnahme
##fens
##cover
göttliche
Vet
Sterns
Sojus
Selig
Alts
##nym
beobachtete
Unterstützungs
Symphonie
Lae
##escu
prominente
leitender
##ument
##nahe
##mith
##sprachige
religiös
notiert
Ordensgemeinschaft
Kahl
Gesandten
##ässer
##vektor
##rfe
##esk
unerwünschte
gestohlen
gemauerte
Wassersp
UA
Synagogen
Sva
Metzger
Darbietung
Brigadegeneral
##EC
##twe
##gä
ther
Laboratory
##slo
##shima
Ç
dü
diverser
Geological
Erliegen
Angeli
##RE
kas
Zach
Schlesischen
Firm
##NT
##ärtner
##sos
##enat
inhaltliche
Kurfürstentum
Japanische
Gottheit
##ttbewerb
vereinfacht
Fragestellungen
##onti
##gewerbe
stimmt
handwerkliche
fortschreitende
Säu
Pyr
Fälschung
##taube
##ntrum
##heck
stilisierte
fremd
denkmalgeschütztes
Westerwald
WI
OK
Jaw
Engelbert
##dustrie
##digt
umr
Kaa
Frie
Cloud
##eing
verd
reiner
gesellschafts
Wet
Vy
Vl
Toskana
Südtiroler
Kiss
auslösen
Spitzenkandidat
Oppositions
Konte
##xle
##sop
##arit
star
Zem
Montpellier
Aktive
##uerte
##nsen
##ersb
unterschiedlichsten
Westliche
Ved
Staatssicherheit
Plank
Kriegsein
Erfurter
Belegschaft
##ь
##hov
##generator
ausgestattete
Ziels
Paran
Aufbauten
##sorge
##förder
##eric
##db
pol
bewältigen
Term
##ünde
##überwachung
Überl
markanten
Bades
##stran
##schloss
##epo
flüssige
Sheffield
Langf
Interpret
##behälter
fro
Sm
Profifußball
##rochen
##kb
umk
nachr
Volkss
Salze
Rivalen
Hauptz
Halbbruder
Dual
##melde
gestört
ganzes
exp
Wolga
Baup
##abzeichen
versprochen
abends
Wiederauf
Rapp
Ghe
Computers
Clin
##filmen
Versprechen
Simmer
Katalonien
##ifte
##denken
unterquert
Teenager
Mitten
Milan
Eni
Andrei
##hb
derjenigen
Schwäche
Repe
Reichskanzler
Ine
Entlastung
warme
verfolgten
unvers
flexible
Unterwe
Umsteige
Industriellen
1654
tausende
Läufe
Expeditionen
##ssy
##rine
englischsprachige
ausgerufen
Vorgehensweise
Postm
Nowa
Meißner
Meinungs
Macha
Berufe
Husaren
##kampagne
##cott
zurückf
Wyn
Vollb
Theaterschauspieler
Generalgouverneur
Gelds
Erreich
##öp
##ätzung
##nni
##dau
Rui
Reiseb
Kunstsammlung
Bonne
##kia
Rhetorik
##wk
##gold
verfassungs
Wassermühle
Prog
Produktionsfirma
Pret
Pran
Dry
DO
##räg
##noi
##metrische
Schreiner
Rotation
Letzter
90er
heirateten
gestellten
Rückzugs
Honorarprofessor
##kste
##gerecht
wiss
vorübergehende
komplizierte
drittgrößte
dekoriert
Spielers
Oliven
Hofrat
1610
##ymp
##spro
##gehäuse
halber
Torschütze
Sarajevo
Odo
Jó
CL
Beicht
Bahnhofsgebäude
##ätten
##unternehmens
##tungs
##svors
aussehen
Unschuld
Tool
##chreiber
beschäftigten
begegnete
Renate
Kriminalität
Holzsch
Gastro
Bellin
##reiches
##ission
##gruben
##dü
##bk
eingehen
Weingut
Supers
Staatsf
Jemen
Gerard
überdachte
entk
PKW
Friesen
Bf
Altarbild
##dni
umwelt
Nachbargemeinde
Hilt
Berechnungen
##ufs
##lma
##beratung
Zwiebel
Jungsteinzeit
##örmig
##klin
##ikt
Stahls
Staatsgebiet
Rotb
Naturdenkmal
##TS
##mul
Transa
Einerseits
Bies
Agr
##bergen
landen
Kupplung
Gebrauchs
Bid
##unft
##andschaft
Schlossg
Patriarchen
NR
GD
##äng
professioneller
1675
##mperatur
##glio
überz
gerichtliche
erstmalige
bedeutsam
Slav
Melde
Hebr
Avantgarde
##ßel
##lüt
korrigiert
Relegation
Pue
Cart
##ßl
##wegs
Vietnamkrieg
Geschehnisse
##laf
umgerechnet
entsch
beantwortet
Uganda
Nobelpreis
Bris
Arbeiterpartei
sorgfältig
Staatsangehörigkeit
Clans
Abmessungen
Abf
##ärb
##gü
##epp
stationierten
Trave
Stadtarchiv
Ghost
Bauphase
##sir
verursachten
Kartoffel
Chorraum
1631
Ölf
aufrechterhalten
VG
Kantate
##ögel
##ilt
##glia
veraltet
Stimmenanteil
Gir
Beng
##pio
Év
ausgerichteten
Lant
Hoheits
##regen
besessen
ausgehen
Zertifikat
Straßenbahnlinie
Niederländischen
Fussball
##höfen
##bten
##abst
dramatische
Schrö
Schlä
Roi
##sde
##geschichtlichen
Trophäe
Minder
Heeresgruppe
Filmk
Pieter
Diamanten
##ergebnisse
Ši
gea
Zwie
McG
Eth
##wet
bewirtschaftet
abgegangene
Stocke
Hochebene
1625
##onu
##nens
##einsch
nachempfunden
beliebtesten
Manc
Machthaber
Freigabe
Charakteristik
##ipa
mexikanische
Herstellern
##sicher
##leiten
therapeutische
Touren
Sitzungs
Schür
Namensgebung
Mittelb
Lautsprecher
Benny
Aufstände
##hav
vorbereitete
mite
feinen
Zut
Wochenzeitung
Stut
Monk
##will
Peace
Ilm
Baureihen
##räsident
kompa
einsetzt
Poz
Okzitanien
Körpergröße
##onische
freigesprochen
Begeisterung
Alis
##symbol
##kalender
##ersatz
##ektiv
wiederver
männlich
Cron
Cousine
##runnen
Demon
##zuk
##alismus
nordischen
böse
brachen
Vorp
Geschäften
##ött
Staff
Smi
Matsu
Erze
Cris
Bauherr
Archäologe
##enes
Richards
Ero
Eigenständigkeit
1661
##utschen
##ungsk
vereinigen
Vermessungs
Promi
Innenseite
Anh
##sda
##plas
##osit
techn
stil
Fl
erh
Nav
Karol
Fut
Exa
##uvi
##ilige
geltend
Topo
Pfad
Palme
Gewähr
Gelege
Eheschließung
Bundesk
##64
##eas
##becher
deine
anhaltende
Filmschauspieler
Ded
Bürgerrecht
Bahr
A4
1603
##pringen
##palt
aufwendig
attraktive
Grundsätze
Dächer
##itr
##egr
kümmert
Underground
Friedhöfe
Ausgangss
##RO
##chrei
Westafrika
Kuma
Eup
##mak
Straßenbau
Köpfe
##zirke
##uš
##kanäle
lei
Sixt
Leslie
Hog
Dozenten
Aza
Arbeitst
##nbau
##inos
##hme
festzustellen
Tanne
Loge
Jugendf
Gloria
unges
Windmühle
Lesungen
Capri
##ifa
ek
Seba
Roch
Deutz
1480
##irtschafts
Tansania
Oberkommando
##sorten
##smann
##arti
Sera
Pik
Kunstm
Evangelium
Bilds
Aufbaus
radioaktive
aufgestellten
VB
Mutters
Defekt
wiegt
Rheine
Offenbarung
##chatz
##anche
herausf
Weges
Stam
Rangier
Howe
Herne
Baha
##befehl
menschen
Vergewaltigung
Trost
Reini
Nadi
Gaz
##treter
##svertrag
##stellt
Yen
Staatsw
Sop
Psychiater
Hardy
##orie
##mé
##entia
##chemische
korrespondierendes
Zä
Mühe
Krü
Kinderf
Evakuierung
##orste
verbreiten
ständiger
Wohlfahrts
Tribut
TM
Meth
Glieder
Dominanz
##dé
ungeklärt
ukrainische
Zugb
Schwi
Organismus
Nordwand
Laun
Koffer
Biał
##nstr
##kommissar
##bai
vermietet
rötliche
Trient
Hauptteil
##zess
##hochschule
regen
Wasserturm
Ramm
##ital
anh
Schutzb
Jungvögel
Gibson
Bauhaus
##alerie
Übers
riss
Herd
Fari
Überla
hochrangige
Tschern
Silbers
Imp
Gilde
Gegenstück
Datenschutz
versetzte
are
Schwedens
Rundb
Kühn
Krankenpflege
Bah
##läufe
Schläge
Pt
Mili
##psi
##logy
##egt
wanderten
sar
flacher
Third
Mino
Jährigen
Eintritts
##ppl
vereinbarten
pres
fil
bewusste
Sektionen
Misstrauen
Fasern
Anno
##vorstellungen
Schauspielern
##orschungs
Fachk
##gierung
##elmann
Viva
Screen
Org
Grundt
##MP
##arin
verfl
umstrittene
bedrohte
Phra
##illi
gekr
fran
class
Zusammenfassung
Wellington
Schulte
Haydn
##EA
Tog
Nachfolgend
Journalismus
Jong
Funden
##singen
##rise
##hot
absp
Haiti
Bore
##skon
breiteren
Rä
Fink
##ōs
##röhren
Ziffer
Mahler
Eisenzeit
##loi
##ego
indigenen
beeinflussten
Problems
Hausen
Bayerns
##metr
steuer
Tria
Skil
Luck
KW
Gisela
Dominic
Armb
##wandel
##hers
festh
Dienstes
Auen
##ylinder
Sands
##cherung
Wanderung
Südp
Nuss
##eißen
va
seitliche
Send
Oth
Kleinp
Haube
FU
##chtigt
Hufen
Dina
##enbr
##abl
herausgebracht
abgeschlossene
Ricardo
Reichss
Ausweich
##unfall
##ologisch
##amten
verse
ok
Linné
Electro
##ður
##trägern
##sdorfer
prim
Spektral
Gruft
Barl
Assis
Arp
zusammensetzt
originalen
neugotische
ka
Handl
##schwanz
ewige
Verhör
Verdienstorden
Jacobi
Check
Agu
Stadtbild
Endstation
##II
##lader
durchgeführte
angela
Ono
Hinrich
Dramen
1684
wandern
vereinzelte
angewachsen
Facha
##itglied
##chige
Teilnehmerfeld
Kuf
Arminia
##mächtig
##chauspieler
treiben
fälschlicherweise
abstieg
Wintersport
Jana
Hauptdarstellerin
Cac
##klima
##here
unbest
räumlich
Schwä
Sanct
Querf
##phasen
##nfor
bloß
Newport
Nero
Mest
MAN
Kunde
##nhof
praktizieren
ausg
Wörth
Gleichstrom
Fronts
Fara
Experimental
1698
##yro
##säule
##reinigung
##ký
beiderseits
Wölfe
Radikal
Lux
235
##eat
##affe
vorzubereiten
Monter
Mama
##trau
##runden
##rior
##nschaft
##hyt
nm
beschleunigt
Emigration
##zf
##rogramme
Pře
Neid
Diebstahl
##zugs
Umf
Nationalf
##rell
##gly
##aktivitäten
Schütt
##oste
##istischer
##blöcke
unterdrückt
praktiziert
Wechselwirkung
Sigmaringen
Hecken
Ehen
##strahl
unzureichend
unbea
kollektive
Wiederer
Soloalbum
Pyro
Conne
Chl
Bezahlung
##zyten
##mber
gesenkt
beseitigen
##sj
##museums
##heizung
Kolumne
##nungen
##brauch
##anto
##angebote
deckt
beschränken
Sozialp
GF
##ürige
##hotel
vorgeb
stilistische
Umfrage
Odysse
Kreisver
##mone
Zweikampf
Beni
Arndt
überdeckt
harmonische
Thurn
Puccinia
Nier
Kellner
Cox
##stell
Sekretärin
Kondensator
1572
##squ
außerordentliche
alternativ
Schuldner
Rockmusik
Promo
Levin
Katharinen
DEFA
Abge
##rap
##kto
zugute
serbische
gefällt
Neubrandenburg
FO
##ungst
angestrebte
Wettin
Vorb
##rtal
umzusetzen
dreifache
Sulzbach
Pumpen
Landesvorstand
BSC
##tain
##pig
##oxi
##ntern
fürchte
Inf
##tative
Townships
Staudamm
Optim
Dür
##24
##üchen
##verh
humanitäre
ausgeb
Julien
Foll
##ließ
zuges
ortho
Wassert
Heiner
Charter
##pati
##dichter
unde
extremen
erfand
aufzus
Tendenzen
Cem
##RC
##track
##irma
kä
Zweigen
Trompete
Nationalteam
Mansfeld
KD
Grundk
Ander
Alti
##vn
Gesetzgeber
Eigentlich
Breu
##thema
Government
Gio
Fjord
Sett
Seeha
##üchern
##ugs
##haar
modernere
##bänder
erledigt
Kriegst
Farr
Brink
Bennett
Augenblick
1656
##lär
##kopie
Triebe
Stol
Stadtkreis
Niederw
##verf
##cac
schnellere
objektive
Emily
Bundespräsident
1628
Ó
verlangen
Innenausstattung
Gór
Elsa
Agency
950
##äuft
##nnes
schottischer
Monarch
Gier
Gesteine
##zierte
##elas
genauere
erwachsenen
Wirtschaftsk
Gebirgsk
Emilia
Betty
Batterien
##skom
##sarbeiten
##prechen
Schaumburg
Moderatorin
Kantonen
Ino
##vollst
##nich
effektiv
bedr
Sechszylinder
Schülerin
Mausoleum
Leopard
Herschel
Eh
##ungsm
Vá
Stoffen
Neugestaltung
Musikinstrumente
Fis
##osta
##frist
Tian
Kita
Kahn
Iber
Amberg
##swa
##lohn
##ilit
##erma
syrischen
kombinierte
bedeutendes
aufzugeben
Princip
Herre
Damaskus
Broad
1870er
##inist
##lben
##cto
geometrische
RNA
Jugendt
Bieber
##kammern
str
siegreich
Sternberg
Rhy
Kriterium
Amtsantritt
##zd
##einbar
kontra
bewilligt
abzweigt
Youth
Conce
Arns
212
##nnte
##itan
##ansi
verdeckt
inh
befreite
Strophen
Kooperations
Beb
Amin
##kreuze
##ayer
##abwehr
zentrales
tagsüber
rückgängig
gewöhnliche
##lassi
##erla
##auses
vorange
Enteignung
Bens
##tingen
verschr
stimmen
elektrifiziert
Studienzeit
Finc
##querung
##cot
Algen
Achtz
##utter
##terial
##lare
Rak
Einblick
##requenz
SGB
Inst
Handelsh
Elektrifizierung
Amazonas
##äule
##rahl
##gliederung
wog
unterdessen
Verlusten
Ramse
Partnerin
Häm
1693
##töne
##odie
##lex
##ckn
Urin
Sanskrit
Naturh
Dänen
Diktator
Arrondissements
##usschusses
##tzsch
resi
aufgesetzt
Rochester
Prod
Neugliederung
Mab
Lösungs
Legierung
Dari
1629
##zusch
##unda
##immer
##gai
Schläger
Effizienz
Diagramm
Bambus
##ù
vereinte
Stadtbau
Rei
Drake
Bolt
##labor
wind
Flügels
XV
Program
Buff
aufhalten
Wirkstoff
Wesentliche
Toy
Tatsachen
Scheune
Altmark
##übungen
##türen
Zittau
Trainers
Ortsvorsteher
MV
Hz
Greifen
Bamberger
strukturierte
hinzuge
fungieren
abstrakte
Sparte
Quin
ProSieben
Hintergründe
Borch
##sekretär
Umgangs
Spi
Rid
Navigations
Mobilität
Melchior
Marin
Krypto
Justice
##technische
##phy
##ocken
zäh
wald
real
gescheiterten
Türk
Hofka
Fachb
##rliche
##eiche
##arp
Él
fragte
Gaius
Colli
Bahngesellschaft
##ürftige
Ú
anderthalb
Pino
Konstruktionen
Hacke
Drey
Banks
Ortsbürgermeister
Ivo
Harp
Finanzierungs
Dich
##CH
##reaktion
unbel
Steina
Skif
Dh
##ology
##gela
##erti
##beginn
hunderte
Tort
Superintendent
Rohstoffe
Nektar
Crawford
Adjektiv
##verz
überlieferte
Tass
Display
##verse
##ergs
zusammenarbeitete
verunglückte
vertikale
Ske
Koi
##ungsge
##ants
warmen
Spanische
Rangliste
Endung
Camb
Individuum
Hän
Holza
##omp
##ervi
Ulrike
Jüt
Dieselmotoren
##nasi
fett
Otten
Lur
Kunstgewerbeschule
Crim
Bevölkerungswachstum
Arbeitse
##ος
##fro
##absch
unregelmäßigen
nackte
ged
abgesp
Kugeln
Gestalten
Ferri
Belg
##ählung
##ausbr
##anni
überm
anbot
Syra
NC
Begabung
##tände
##komitee
##empf
##agr
kr
Stadtm
Sidney
Blank
##themen
##iedel
Webb
Gleichstellung
Fy
slowenischen
Kurier
Gefähr
Fakten
Arrangeur
Amtsgerichts
275
Liege
Krankenschwester
Knecht
##rbene
##probe
##itzt
[...]
